#version: 0.2
l a
b i
e r
i n
a r
a n
l e
d e
m a
la r
ı n
y a
y o
bi r</w>
d a</w>
l i
d a
i n</w>
m e
d i
k a
u n
e n
l er
v e</w>
d e</w>
o l
e k
t i
o t
ı n</w>
s a
b a
q u
ü n
o n
qu ot
quot ;</w>
& quot;</w>
t a
t e
l ı
la r</w>
r a
m i
d u
yo r
o s
b u</w>
i l
h a
k i</w>
d ı
a p
t ı
i s
e t
os ;</w>
ap os;</w>
& apos;</w>
le r</w>
e n</w>
o r
i ç
g e
y a</w>
g ö
ar a
ğ i
l e</w>
g i
s e
de n</w>
ç o
m ı
yo r</w>
m a</w>
s i
ya p
d i</w>
ş e
e r</w>
d ü
bi li
n e
la n
da n</w>
r e
c a
k u
l a</w>
ın da</w>
lar ı</w>
c e
i z</w>
v a
iç in</w>
B u</w>
o la
y ı
y ü
in i</w>
i m
u n</w>
yor u
c e</w>
s ı
s an
k ı
bi r
i m</w>
ço k</w>
b u
ın ı</w>
z a
un u</w>
i y
h a</w>
g er
ler i</w>
ol du
s in
i z
ş ı
t ü
k e
V e</w>
l i</w>
l ı</w>
k i
ç a
gö r
ba ş
ğ ı
da ha</w>
b e
ma k</w>
m u
y e
d ı</w>
h i
ö y
g ü
ö n
s ı</w>
m an
v er
s t
me k</w>
k ar
in e</w>
l u
oldu ğ
ç ı
r u
bi l
y e</w>
k t
a l
lar ın</w>
b i</w>
ş a
in de</w>
de ği
f a
i r
s i</w>
k ü
a k</w>
i ş
b ü
i k
s on
t u
o lar
s ın
z e
ol ma
l ü
a y
dü ş
yoru m</w>
va r</w>
di ğ
m ü
bili r
in san
gi bi</w>
o ğ
şe y</w>
olar ak</w>
k on
ol u
n a
y an
d er
r o
ç ek
ti r
ı z</w>
ka da
b un
d u</w>
k en
şe y
b en
. .</w>
n e</w>
h e
un u
i r</w>
ş ek
. ..</w>
m e</w>
yoru z</w>
ün ü
da ki</w>
mi z
an ı
ğ ı</w>
c u
o y
is te
m i</w>
ça lı
ın a</w>
ola n</w>
in in</w>
mi z</w>
t e</w>
le n
r ı
te n</w>
y er
ca k</w>
ku l
an la
di r</w>
bü yü
ş tı
ç e
r a</w>
kada r</w>
ö r
ü r
t a</w>
c a</w>
o p
ar ı
ler in</w>
h er</w>
mı z</w>
kon u
il e</w>
öy le
bi le
v e
z ı</w>
s or
ar k
ş i
y ı</w>
k ü</w>
kul lan
ma n</w>
v ar
lar a</w>
ü z
ün kü</w>
a t
o n</w>
e di
yü z
sin iz</w>
r en
iy i</w>
m ı</w>
si z
lı k</w>
bi z
y en
dı r</w>
d ün
bili r</w>
deği l</w>
ğ i</w>
ge li
t ek
e l
sı l</w>
a s
ğ er</w>
h ar
d oğ
yap ı
ra da</w>
ma ya</w>
de ce</w>
k lar
c ı
ın ın</w>
li k</w>
ö ne
dı m</w>
ger çek
ın dan</w>
t er
s a</w>
i k</w>
olduğ unu</w>
li k
a ma</w>
u y
ta n</w>
c i
e k</w>
a n</w>
di m</w>
ge ç
ler ini</w>
yor lar</w>
g en
b unu</w>
t ı</w>
y i</w>
t i</w>
düş ün
di ği
p ar
ş tir
son ra</w>
de ki</w>
ger ek
ı z
unu z</w>
büyü k</w>
A ma</w>
ha ya
ka t</w>
ce k</w>
na sıl</w>
im di</w>
c i</w>
bu l
c ı</w>
s e</w>
un da</w>
za man</w>
o k
z ı
l ında</w>
za man
ö l
e de
şek il
B ir</w>
ge l
ö ğ
baş la
et ti
sa dece</w>
m er
an a</w>
y ara
st er
se l</w>
k en</w>
f ark
e v
ç ü
et me
y ar
k a</w>
üz er
fa z
t op
de n
mı ş</w>
r i
ö z
or ta
öy le</w>
sa ğ
ş me
yap tı
il g
ç ünkü</w>
ha k
ş ma
ler e</w>
ya n</w>
gö ster
ğ ını</w>
i h
a k
mi ş</w>
a çı
n ı</w>
s u
k o
A l
yap a
yı l
s en
şekil de</w>
y la</w>
sa hi
B un
lar ı
in den</w>
is ti
yor s
mı z
ka l
gü n</w>
p ro
o j
yo l
B u
i le
la n</w>
c ek
ce ği
lar ını</w>
ço cu
ü l
t ara
ş u</w>
s öyle
ya şa
in iz</w>
il i</w>
ti k</w>
du ru
is i</w>
b o
öne m
hak k
ya k
an i</w>
s ür
k an
ka y
dü ğ
i ki</w>
yo n
faz la</w>
0 0</w>
de ğ
K a
sa n</w>
l ə
ön ce</w>
in iz
s ında</w>
f i
i yor</w>
gerçek ten</w>
G ü
k ö
me n</w>
ü re
ik a</w>
yı l</w>
ay nı</w>
u mu
d ön
h er
yen i</w>
ğı m</w>
yor du</w>
bilir siniz</w>
g i</w>
Y ani</w>
l ma
tü r
i li
B a
ge le
t ar
la ma
gö re
yors unuz</w>
me ye</w>
ol oj
öğ ren
ş ı</w>
mi l
k tı
m da</w>
mi ş
tü m</w>
k ları</w>
Ş imdi</w>
g u
dün ya
ben im</w>
k ç
a lı
ş tu
t an
s ını</w>
e s
du m</w>
u z
k or
i miz
gör ü
hakk ında</w>
m ə
ı r
tara f
Gü lü
İ n
m o
olduğ u</w>
di k
di k</w>
b en</w>
ra f
du y
b er
kü çü
ken di
lar dan</w>
g ün
ğ ini</w>
z or
il k</w>
m in</w>
r u</w>
A n
düş ünü
Al kı
n in</w>
y et
bun un</w>
tü n</w>
şme ler</w>
gi t
ler de</w>
fark lı</w>
yo n</w>
la şı
ta s
lar da</w>
l u</w>
u m
in san</w>
ğ u</w>
ğı mız</w>
ve ya</w>
F a
se v
as lında</w>
insan lar</w>
bilir iz</w>
dı k</w>
g a
tek n
ilg ili</w>
ba ğ
s ini</w>
iç inde</w>
ti m</w>
e t</w>
di r
b oy
d o
Gülü şmeler</w>
H a
ya ş
S a
ka ç</w>
diğ er</w>
O n
ih ti
u r
küçü k</w>
ka d
deği ş
r ü
ku r
a da
d ə</w>
kullan ı
s on</w>
ken di</w>
ler den</w>
s iste
ka p
yo k</w>
bi z</w>
sahi p</w>
sa l</w>
baş ka</w>
is e</w>
ın ız</w>
bir i</w>
lik le</w>
ha l
de ne
d ə
kt e</w>
bil gi
s u</w>
e l</w>
ze l</w>
h an
bu rada</w>
l ü</w>
le y
e ğer</w>
ki ş
o k</w>
diğ i</w>
b ana</w>
me t
si z</w>
k ara
t anı
on u</w>
un a</w>
ta ma
s ta
ştı r
T a
şey ler</w>
e der
doğ ru</w>
h is
mı zı</w>
lar la</w>
önem li</w>
i ş</w>
kç a</w>
biz im</w>
te k</w>
Fa kat</w>
B ir
k im
ra z</w>
h ü
lı k
ler ine</w>
bi le</w>
sin e</w>
se k</w>
şek kü
yü k
u m</w>
dı ğı</w>
B en
siz e</w>
ş lar</w>
gö z
s er
y dı</w>
s in</w>
y le</w>
ğ in</w>
p o
ze l
tekn oloj
T e
san ız</w>
sın a</w>
N e
kar şı
diği m</w>
İ ş
la ya
be l
E ğer</w>
yap ma
di ye</w>
bü tün</w>
a lan
v r
a d
insan ların</w>
li m</w>
ge tir
sın ız</w>
iy e</w>
v i
top lu
ve t</w>
ti r</w>
t ü</w>
e ği
B en</w>
lar ının</w>
le ş
he p
ihti ya
bile ce
har ek
tı r
ol du</w>
değ il
be y
par ça
lı ğ
n er
ek i</w>
al t
le n</w>
et mek</w>
ler inin</w>
hi ç</w>
te me
ara k</w>
mü z
A s
ma k
du ğ
an da</w>
öyle ce</w>
B unu</w>
h ka
tı k</w>
i miz</w>
sı z</w>
u za
bi raz</w>
d in
D a
ba h
o ku
b ı
çalı ş
le t
u ç
lan dı
o r</w>
dön ü
me si</w>
un un</w>
yüz den</w>
la ma</w>
A mer
kt a</w>
ger i</w>
ç i
ha sta
ler le</w>
gör ün
ın ız
sin de</w>
lar ına</w>
S on
g ı
lı yor</w>
a l</w>
olu ştu
y ön
ba kı
çı kar
çalı şı
ola ca
man ın</w>
le ştir
şey i</w>
a z</w>
Ç ünkü</w>
ö lü
bul un
ger çe
r ler</w>
ta m</w>
Ka hka
a la
var dı</w>
ün ü</w>
s üre
m ın</w>
ka t
du r</w>
ş u
fi ki
li ği</w>
zaman da</w>
miz i</w>
lı ğı</w>
iy le</w>
ka n</w>
taraf ından</w>
a ğ
ver i
im i</w>
r i</w>
c an
e y
yı z</w>
haya t
hi ka
se ç
lı m</w>
n ın</w>
üzer inde</w>
me y
ül ke
yor dum</w>
me k
ma sı</w>
D ün
v en
a z
de y
dı ğını</w>
k lar</w>
on un</w>
ba zı</w>
t ə
A f
ya ca
h ız
İş te</w>
ne den</w>
er i</w>
0 00</w>
r e</w>
in an
isti yorum</w>
et ki
diği miz</w>
on ları</w>
un ca</w>
gi r
b öyle</w>
ü ç</w>
de va
ha t
klar ını</w>
b ek
ın daki</w>
1 9
li y
in anı
f ar
yan ın</w>
a t</w>
Ç ok</w>
dı ğ
orta ya</w>
li r
yap mak</w>
b a</w>
v ə</w>
i t
ç öz
m p
ünü z</w>
ya r</w>
ş imdi</w>
sa l
şa n</w>
ü m</w>
biz e</w>
m u</w>
ra r</w>
bi n
sa yı
ü m
iy e
b öl
oldu kça</w>
dı ş
le me
g ra
an ın</w>
fa kat</w>
deği ştir
k et
ı şı
ceği m</w>
ya z
ü s
olu r
gör e</w>
k oy
la ş
gör düğ
iz e</w>
in deki</w>
on o
y er</w>
f or
ha y
2 0
ol mak</w>
çe v
en er
ben i</w>
P eki</w>
G e
le m
bu ra
ben z
i p</w>
yan i</w>
sın ın</w>
diğ ini</w>
y u
ok ta
her ke
di ler</w>
ti re
gerçe k</w>
lar dı</w>
ba k
z en
iç er
bir kaç</w>
ü st
ra n</w>
li kte</w>
yen i
hü c
en di
As lında</w>
i c
han gi</w>
du k</w>
ola cak</w>
ar kada
ün de</w>
n okta
lu k</w>
ka z
s o
boy unca</w>
u t
ler inde</w>
rı m</w>
te le
bı ra
Alkı ş</w>
ü n</w>
a şa
g an
e den</w>
uz un</w>
y se</w>
tü r</w>
Alkı şlar</w>
Bu rada</w>
ö zel
yak laşı
la ştı
r an
gü ven
Bun un</w>
bilgi sa
on lar</w>
H e
1 0</w>
ə r
sin in</w>
lar ında</w>
ne den
dü m</w>
se be
ş ir
umu z</w>
e ş
H er</w>
ku ru
ör ne
çalı ştı
o lan
ler imiz
li ğ
edi l
gü zel</w>
A y
p ek</w>
deva m</w>
iniz i</w>
ın ı
sen iz</w>
d ü</w>
çalı şma
be lir
Te şekkü
k tan</w>
mı ş
v i</w>
f ot
ma yı</w>
gü ç
kt ı</w>
m in
h iç
a ç
ener j
ya zı
ha lar</w>
me n
bun lar</w>
ba si
g ru
ler inden</w>
bir çok</w>
sa k</w>
a ma
ya l</w>
olu yor</w>
olma sı</w>
mu ş</w>
pro b
ola bilir</w>
y arı
Da ha</w>
çe şi
sağ la
in ci</w>
ğ a</w>
ya l
mi k</w>
kar şı</w>
ara ştır
An cak</w>
c ü</w>
ki ta
ken d
ar ı</w>
s öy
dün ya</w>
b an
yüz de</w>
gi di
s ek
E vet</w>
B ü
v an
sa y
r ı</w>
bun a</w>
ay rı
bir bir
du r
yara t
dene y
A r
ro l</w>
h o
el de</w>
son ra
ek ono
ço ğ
f il
d ola
ar t
bel ki</w>
tek rar</w>
i ta
o da
len dir
sa va
ktı r</w>
ma m</w>
tama men</w>
dı lar</w>
d ör
an a
unu z
l o
b er</w>
ara sında</w>
Kahka halar</w>
B iz</w>
mu t
konu ş
kay na
de di</w>
me z
le ye
pro j
konu s
il gi
ti ş
f ik
p ay
dönü ş
in ç</w>
h ə
ün e</w>
mu h
dün yanın</w>
yer ine</w>
v u
b ar
me yi</w>
er ke
ş a</w>
İn san
ç iz
der e
kö tü</w>
dı ğımız</w>
ha f
kü l
e le
bir likte</w>
p a
lma z</w>
c u</w>
z or</w>
bili yor</w>
geç ir
dı r
n i
mil yon</w>
bile cek</w>
baş arı
k ı</w>
i l</w>
et k
uy gu
on ların</w>
sın dan</w>
yara tı
u s
ta h
yı m</w>
kiş i</w>
a kı
geli yor</w>
d de
on a</w>
p er
f e
far k</w>
iz in</w>
hika ye
fot oğ
r ika</w>
olu r</w>
klar ı
arı m</w>
K u
ş öyle</w>
tu t
po li
kon t
üzer ine</w>
s os
bi t
ar tık</w>
i ler
ünü n</w>
hüc re
ha zı
yo l</w>
yük sek</w>
l mış</w>
gerek en</w>
m de</w>
böl ge
o ra
mız da</w>
ma l
kad ın
har ika</w>
etti ği
iş te</w>
s ə
y di</w>
bil me
lan ı
değ er
d in</w>
et ti</w>
G er
Af rika</w>
o rada</w>
ler ce</w>
y öne
bile ceği
sor u
B öylece</w>
Dün ya</w>
kı s
gö n
da ki
f ır
si te
iş e</w>
İ l
ili ş
2 0</w>
sı ra
kara r</w>
hiç bir</w>
gele n</w>
bili yoruz</w>
bil mek</w>
yan ı
siste m
p e
mo de
la mak</w>
ba s
le t</w>
eder im</w>
D e
şe hi
s te
k ola
duru m
M a
ke ş
ha tır
harek et</w>
5 0</w>
v a</w>
re si
sı yla</w>
var dır</w>
lar ından</w>
s yon
dı ğı
on lara</w>
mız ın</w>
er ek</w>
s ü
bu lu
z i
harek et
da vr
açı k
ço ğu</w>
i la
basi t</w>
ku ra
p ara
lu ğ
ke li
bu gün</w>
biz i</w>
a y</w>
z i</w>
ta şı
ğ iniz</w>
ka lı
ca ğım</w>
o g
haya l</w>
siz in</w>
an cak</w>
r is
geli ş
b et
tas ar
en in</w>
N e</w>
Amer ika</w>
etti m</w>
m ar
konus unda</w>
Sa dece</w>
bağ lan
yeni den</w>
ca ğı
ne t</w>
f er
or gan
lə r</w>
in ce</w>
mız a</w>
le me</w>
geli ştir
son unda</w>
keş f
i ci</w>
yaklaşı k</w>
ya t
sı z
sos yal</w>
p r
gör ünü
his s
açı k</w>
ye t</w>
ha le</w>
s ın</w>
bil mi
a za
yar dım</w>
yar dı
son u
lə r
ti k
v ü
in c
ya y
ele kt
p i
Son ra</w>
u ğ
bilir im</w>
ba ka
un la</w>
şey leri</w>
y en</w>
çı k
m lar</w>
in e
edi yor</w>
mı ştı
ba ğı
s t</w>
pro gra
konu şma
iz i</w>
gel di</w>
lar ca</w>
kaz an
Bun lar</w>
dı ğım</w>
H in
yo kt
gerek ti
le m</w>
l in
B ili
sın daki</w>
mi k
də n</w>
yer de</w>
ge ze
anla t
Ba ş
ın da
te şekkü
s un</w>
her hangi</w>
de v
şir ket
re s
olma yan</w>
ki şi
he men</w>
ma lı
anla m
u l
D i
yor lardı</w>
se l
tele f
e ğ
dör t</w>
da l
yü rü
tan e</w>
c ü
t o
miş ti</w>
ma l</w>
de mek</w>
k ol
ölü m
ilg inç</w>
çocu k</w>
çev re
li yor</w>
b öylece</w>
ka bu
he m</w>
f iz
a ile
te r</w>
B el
Ş u</w>
insan ları</w>
Amer i
z en</w>
mış tı</w>
ver e
ma z
le mek</w>
par a</w>
yı r</w>
dü r
bil gi</w>
Teşekkü rler</w>
ka tı
dü zen
f a</w>
se s
M ar
yal n
sa t
et raf
c er
inanı lmaz</w>
ön ce
ya tı
mü m
or an
n i</w>
lü k</w>
Ben im</w>
kor u
teme l</w>
t u</w>
hız lı</w>
ha la</w>
İ s
g ar
zor unda</w>
kı r
ma şı
is ini</w>
ba ktı
ede yse</w>
son uç
mer ke
da ir</w>
fiki r</w>
a tı
yo k
ner e
i d
un da
l dı</w>
un dan</w>
si ya
a şı
iste diğim</w>
bi i</w>
. 000</w>
n ü
me ye
la t
ara ya</w>
öğ r
ya şı
gi de
umu z
dünya da</w>
ce va
bah s
Ta mam</w>
diğ iniz</w>
ş an
yan lı
fotoğ raf
ş unu</w>
çi f
m ları</w>
3 0</w>
sor u</w>
S ize</w>
ə n</w>
ını zı</w>
lü ğ
in ter
çocu k
oluştu r
faz la
ınız da</w>
y ine</w>
p lan
alt ında</w>
me z</w>
kü n</w>
şi k</w>
ley en</w>
ta kı
st an
ne ler</w>
k er
& #
vü cu
hat ta</w>
ö zel</w>
k e</w>
hazı r
bili m
&# 9
ü çü
B iz
ti m
sin den</w>
p at
is ter
arkada ş
se di
me nin</w>
i leri</w>
yet er
ihtiya cı
s öz
K en
ta k
le k
kad ın</w>
bun ları</w>
h u
di s
me sa
başla dı</w>
şey in</w>
fiki r
mü z</w>
g e</w>
dı rı
te ş
e ş</w>
a yı
O r
Bu ra
ti f</w>
ba ba
insan lara</w>
bili m</w>
A ra
r ol
tar ih
r ken</w>
im in</w>
duru m</w>
te h
yü k</w>
güç lü</w>
enerj i</w>
sor un
sen e</w>
müm kün</w>
de dim</w>
M e
ev r
çı kı
r ə
ç ar
ç i</w>
teknoloj i</w>
s un
n o
oy na
D oğ
te m
g ə
a sıl</w>
Ben ce</w>
di ye
düş ü
oy un
la k</w>
siz i</w>
ben ce</w>
G ör
yol u</w>
s en</w>
me se
bi ç
ç ö
ra ğ
mi yor</w>
Ne den</w>
yak ın</w>
sın ı
m dan</w>
söyle ye
m cı</w>
ler iyle</w>
Y a
e şi
im de</w>
ün den</w>
yı p</w>
vi de
kont rol</w>
etme ye</w>
y ın</w>
in şa</w>
ek li</w>
ti ği
k la</w>
ile n</w>
k il
ya cak</w>
u ru
davr anı
kar ı
i fa
im e</w>
ada m</w>
elekt r
an ne
geze gen
dü rü
i t</w>
c ə
20 0
n et
hay van
ca k
ar a</w>
te da
miz de</w>
ke z</w>
dik leri</w>
he sa
G ün
ner edeyse</w>
kabu l</w>
ü ç
mil yar</w>
bir şey</w>
örne k</w>
sa h
in ce
İl k</w>
olduğ una</w>
miz e</w>
gön der
ları mız</w>
kar maşı
b ə
a lan</w>
ü z</w>
herke s</w>
ar tı
çeşi t
proj e
i di</w>
e li
T E
ne s
kü re
Ç o
yıl da</w>
değil dir</w>
Bu gün</w>
ta ki</w>
is inde</w>
teme len</w>
b e</w>
ka la
bil in
E n</w>
mü ş
ç a</w>
kı z
do lar</w>
lu ğu</w>
kay b
b ö
k ek
bilgisa yar
tas arı
sahi p
doğ ru
kullan a
duru mda</w>
özel likle</w>
ba zı
yer e</w>
bun dan</w>
B i
yaşa m</w>
lan ma
en i</w>
si k
s ar
d an
v ru
ev ren
landı r
uğ ra
u lu
te ma
sor un</w>
b l
i ç</w>
s unuz</w>
hep si</w>
zor unda
gen ç</w>
me sini</w>
c in
sın ır
şı r
ze y
be ş</w>
h â
yap maya</w>
q ə
iç ine</w>
bu la
boy ut
Ne w</w>
m ını</w>
He p
li dir</w>
he ye
parça sı</w>
a ya
su z</w>
gördüğ ünüz</w>
ber a
li z
ler imiz</w>
ha va
ü müz
se y
es ki</w>
bu r
başla dım</w>
İ k
n a</w>
ile tiş
i yorum</w>
yors un</w>
benz er</w>
doğ al</w>
i p
ba kar
sin likle</w>
duy gu
ta r</w>
lığ ın</w>
ci ler</w>
sa ye
im le</w>
mu z
düşün düğ
u la
ma dan</w>
bilgisa yar</w>
öl çü
dü k</w>
bili yorum</w>
ya sa
görün tü
al ın
yor duk</w>
kullan arak</w>
k â
iş le
ler di</w>
H ar
u r</w>
bun ların</w>
iş i</w>
ma z</w>
ö z</w>
yanlı ş</w>
u k</w>
o kul
ke m
man ız</w>
ka r</w>
ta ş
1 5</w>
ka v
me den</w>
gerek iyor</w>
mey en</w>
bilir ler</w>
ark en</w>
dis tan</w>
i de
R o
si yon
kor k
du ğu</w>
san at
etti k</w>
toplu m
söy lü
haya tı
h i</w>
kı sa</w>
göster iyor</w>
e y</w>
1 00</w>
kola y</w>
göster e
h iz
cağı z</w>
olma dığını</w>
lan mış</w>
ara ba
Ay nı</w>
ara sındaki</w>
ka lı</w>
g or
değiş ik
çalı şan</w>
k op
düşünü n</w>
Y or
si l</w>
ot o
değil di</w>
Hin distan</w>
ö r</w>
yor sanız</w>
yokt u</w>
a ğı
Y ap
iniz de</w>
il miş</w>
r ek
k im</w>
e si</w>
şe ye</w>
üzer e</w>
Ço cu
n or
k in</w>
Ger çek
ok ra
u ça
t ra
et i</w>
de r</w>
ara ç
tanı m
K on
dü k
ber i</w>
Kahka ha</w>
yol oj
te p
sonra ki</w>
rağ men</w>
kor ku
alı p</w>
tu tu
ma ları</w>
m cı
li n</w>
g un</w>
u s</w>
ğ e</w>
sür e</w>
yap ar
insan ın</w>
bile cek
T üm</w>
yap an</w>
ya z</w>
y im</w>
landı rı
diğ inde</w>
m la</w>
ci d
haf ta</w>
lan a
ihtiyacı mız</w>
gi der
diğ er
ceği z</w>
ta ki
do kt
bilece ği</w>
On lar</w>
geli r</w>
ü müz</w>
ol mu
la yan</w>
bile n</w>
mı yor</w>
imiz in</w>
dere ce
yet en
er kek
gü r
n ə
me t</w>
üre ti
ye ti
ke t</w>
sa at</w>
Bel ki</w>
Ay rı
p a</w>
me liy
al tı</w>
de st
l ə</w>
k anı
görü yorsunuz</w>
ca n</w>
Ç in</w>
düşünü yorum</w>
t on</w>
geç en</w>
mil yon
ma mız</w>
li ğin</w>
S e
B ana</w>
tı cı</w>
ne dir</w>
n ek
me v
kç e</w>
gö tür
dola yı</w>
ik inci</w>
düşün ce
olu p</w>
i dir</w>
şa şır
me l</w>
göre bilirsiniz</w>
TE D</w>
ışı k</w>
şehi r
miz in</w>
bili yorsunuz</w>
S on</w>
s uy
fik r
a ş
h r
gele cek</w>
en gel
t ör
yaptı ğı</w>
b ot
lma sı</w>
çif t
mü ş</w>
ma yaca
ş ü
bir isi</w>
muh temelen</w>
d ok
teşekkü r</w>
tar tı
sa m</w>
g in</w>
eği tim</w>
bilece ğini</w>
sür ü</w>
ya va
top la
tah min</w>
haya t</w>
Ayrı ca</w>
A vru
iy di</w>
c ə</w>
sev iye
ğ ın</w>
bo z
gör ür
ger ek</w>
ız ca</w>
düşün düm</w>
y ə
veri ci</w>
ba zen</w>
z a</w>
ol sun</w>
ol sa</w>
de m
ğ ine</w>
B il
la s
di l
ze y</w>
bi re
Bun a</w>
sağ laya
baş ına</w>
bak ın</w>
merke z
T an
üçü n</w>
te şe
kap a
Y a</w>
yapı yor</w>
oluştu ru
li yet
e le</w>
sağ lık</w>
dest ek
ci ha
ara sı</w>
Bü tün</w>
lerimiz i</w>
ce ği</w>
bağ lı</w>
bey in</w>
b ı</w>
kt er
bin lerce</w>
S an
k lı</w>
g ın</w>
a h
prob lem
ekono mik</w>
ara da</w>
ar ka
ğ ınız</w>
san ı
is el</w>
k r
dünya yı</w>
mi yorum</w>
har ca
fiz ik
etme n
siste mi</w>
kt ar
hü kü
gü c
yıl dı
sa at
bera ber</w>
yo ğ
be s
G en
yardı mcı</w>
ot e
kon u</w>
düşün e
d iniz</w>
mü h
lık la</w>
büyü k
E l
ma sını</w>
z ih
ş im
li z</w>
ço x</w>
kı sı
d ö
N A</w>
yaptı ğımız</w>
me miz</w>
i yoruz</w>
ok yan
ver site
le bilir</w>
ları yla</w>
ilgi len
sür ü
ol u</w>
kend ini</w>
is inin</w>
gör mek</w>
çeşi t</w>
Ö r
mə k</w>
M u
ın ca</w>
yü z</w>
çı ktı
çar p
lık lı</w>
ce ğini</w>
a m
ka fa
gö z</w>
ar et</w>
F ran
y u</w>
küre sel</w>
ka ç
hika ye</w>
le şme
um u</w>
lan an</w>
gru p</w>
git ti
ceva p</w>
bilece ğiniz</w>
v iz
met re</w>
ke sinlikle</w>
görü yoruz</w>
dış ında</w>
G o
uy u
tek i</w>
s ü</w>
he p</w>
h en
se s</w>
iniz e</w>
d olar
bet te</w>
kim se</w>
d on
man ı
ünü z
Yor k</w>
şi dde
ki r
d ar
ün i
kı z</w>
karmaşı k</w>
İnsan lar</w>
sür ekli</w>
ha va</w>
ge len
li der
et me</w>
bey n
olduğ umuz</w>
nü f
lar dır</w>
araştır ma
tı m</w>
e din</w>
n un</w>
mode l
çalış ma</w>
yaşa yan</w>
is t
i yordu</w>
i de</w>
Biz im</w>
y iye
he de
gü ç</w>
ti ka
da ğı
ra hat
o m
kül tür
A B
ver i</w>
len di
k in
al gı
st ra
k la
gerekti ğini</w>
4 0</w>
ö te
te s
hi l</w>
Bü yük</w>
k ə
as la</w>
anlam ına</w>
a dı</w>
aza l
lı yorum</w>
hal ine</w>
duy u
ma d
değiş tire
Gerçek ten</w>
taki p</w>
dı şı</w>
bağlan tı
konu da</w>
im li</w>
erke k</w>
üst ü</w>
yapı lan</w>
ti c
bileceği miz</w>
dı kları</w>
neden le</w>
ley ici</w>
a c
kav ra
gi bi
ç e</w>
se r</w>
me kan
ma tema
i ti
ekono mi
me leri</w>
im kan
ha ber
dünya daki</w>
Teşekkü r</w>
zı m</w>
yı lında</w>
yaptı m</w>
de ğer</w>
6 0</w>
sı r
i ler</w>
gidi p</w>
Avru pa</w>
yaptı k</w>
mü kem
mu z</w>
sı dır</w>
ler im</w>
al mak</w>
g en</w>
dü r</w>
sen in</w>
mi y
e vet</w>
a v
teşe m</w>
y ken</w>
T ek
ra f</w>
edi yorum</w>
ğ ında</w>
ka h
başarı lı</w>
bağı m
ş ma</w>
v v
tü re
ma h
i za
olma dan</w>
me li
gir iş
f re
ya da</w>
va n</w>
si la
ifa de</w>
er ken</w>
sa s</w>
orta k</w>
lığ a</w>
la maya</w>
B e
çıkar ı
y in</w>
dığ ında</w>
M o
yol cu
yaln ızca</w>
mak ine
ölü m</w>
müh endi
ver mek</w>
ta bii</w>
s yon</w>
ot ur
dere ce</w>
ra tu
bi n</w>
var sa</w>
olur du</w>
içer isinde</w>
bulun an</w>
sava ş
ke si
bir inin</w>
lan gı
Ha yır</w>
sor um
ha m</w>
can lı</w>
saye sinde</w>
bi yoloj
çocu klar</w>
st a</w>
ar d
ler dir</w>
bo ratu
bir ini</w>
ra k</w>
iniz in</w>
p an
mu sunuz</w>
me m</w>
görü ş
cek siniz</w>
D NA</w>
çev ir
yara k</w>
i ka
cu t</w>
fik ri</w>
Ge ç
ğ ına</w>
r et
li lik</w>
ku tu
kita p
gi z
ları m</w>
s öz</w>
me d
do ku
a it</w>
kar b
K ar
t or
inc isi</w>
M üz
su ç
le şik</w>
b ölüm
Ör ne
sı kı
P e
fa y
S i
zaman lar</w>
v ir
mek tir</w>
dem okra
ca ğını</w>
akı l
ya ka
hâ l
eğ len
uy gun</w>
sa tı
mal ze
ayrı ca</w>
lı r</w>
la bilir</w>
gen el
bıra k
, 000</w>
si ye
f es
bi yo
AB D</w>
1 2</w>
ör nek
let ler</w>
kı rı
g in
fa k</w>
bi na
K endi
E n
Di ğer</w>
yıl dır</w>
se m</w>
bakı ş</w>
ver di</w>
liğ e</w>
ke s
hi r
malı yız</w>
te or
di yor</w>
8 0</w>
s p
miş tim</w>
klar ında</w>
lə ri</w>
i yorlar</w>
ç ap
ti ği</w>
s unu
iletiş im</w>
ge ce</w>
ş ə
ş ar
İn gi
ro bot
ş i</w>
ver en</w>
de vr
daki ka</w>
çı ktı</w>
duğ umuz</w>
göz ü
gen iş</w>
düşü k</w>
yer leştir
har ita
dönüş tür
di z
o f
ara ba</w>
s oy
iliş ki
duğ um</w>
d öne
D ev
il di</w>
hayat ta</w>
dü st
ola y
la dı</w>
konu şu
a ta
no kta</w>
lı dır</w>
ları mızı</w>
ben ze
1 0
z ar
y dım</w>
p et
mı yla</w>
mut lu</w>
ın tı
karşı laştı
in le</w>
J o
sa ydı</w>
me di</w>
yaş ında</w>
ya ğ
r lar</w>
par ça</w>
hep imiz</w>
gele cek
cı lar</w>
mo le
P ro
ö dü
yı sıyla</w>
so ka
k leri</w>
de fa</w>
İ ki</w>
ede r</w>
e m
ver dim</w>
olaca ğını</w>
lı yoruz</w>
lı kları</w>
j ita
gru p
ye tiş
mi ktar
ihtiya ç</w>
d olu</w>
ür ün
y du</w>
oda k
laş mak</w>
başla dık</w>
ün cü</w>
teda vi</w>
nere de</w>
mükem mel</w>
kura l
g ünü
Ö n
muh teşem</w>
fizik sel</w>
bo ş
f i</w>
deney im
cid di</w>
söyle di</w>
d önem
anla tı
ka mer
mut lu
gerçek leş
ca de
çöz üm
sa v
anla ya
ş tu</w>
ta l
olu şan</w>
Y eni</w>
n um
ha t</w>
göre v
d ınız</w>
z er
sebe bi</w>
hesa p
h e</w>
geli şme
bura ya</w>
ınız a</w>
çı kan</w>
yay ın
li si</w>
gerek ir</w>
dokt or
baş langı
çoğ un
pr ote
li ği
lı yız</w>
kap ı
iç in
herke sin</w>
al dım</w>
Ameri kan</w>
olma lı</w>
ce v
teh li
tas arım</w>
n ə</w>
b ri
za ten</w>
kendi mi</w>
baş ar
ot uru
miş tir</w>
lık lar</w>
konu ştu
ettiği m</w>
şey lerin</w>
yer ek</w>
yaptı ğım</w>
konu şa
Müz ik</w>
Ar tık</w>
uy du</w>
prob lem</w>
olma dığı</w>
nor mal</w>
me ler</w>
e tik</w>
öğren ci
öl dür
ma ğ
e min</w>
d ana</w>
ar et
D en
1 ;</w>
&#9 1;</w>
çocu ğ
olduğ um</w>
mev cut</w>
la şma
etti ği</w>
dığ ınız</w>
de p
da hil</w>
araştır ma</w>
Bir leşik</w>
Örne ğin</w>
şey lerden</w>
jita l</w>
dünya ya</w>
bel li</w>
resi m
ha p
ge tire
ak ti
t re
la zım</w>
i ki
gerek li</w>
eği ti
etki leş
1 1</w>
mü cade
lı ğı
klar ına</w>
hen üz</w>
göster mek</w>
anla mak</w>
siste m</w>
san at</w>
p en
li m
gün eş</w>
kar ar
di y
H erke
3 ;</w>
&#9 3;</w>
kıs mı</w>
kadın lar</w>
his se
gü cü</w>
lı ğını</w>
aşa ğı
sını f
geli p</w>
bek len
baş ka
p ot
ka yı
sebe p</w>
se si</w>
or man
baka lım</w>
u laşı
is ine</w>
i ca
aşa ğı</w>
a ile</w>
ü ş
uza k
t in</w>
mer ak</w>
klar ının</w>
kar de
his sedi
gör düm</w>
c o
kiş isel</w>
fay da
ye mek</w>
mey dana</w>
iz le
ora ya</w>
kim i</w>
geç miş
I n
ok si
ma tik</w>
lik ler</w>
j e
en düst
dü z
bire y
K or
şı m</w>
z iy
mıştı r</w>
lan dı</w>
kt i</w>
gi ri
Go og
yıl lık</w>
p az
la boratu
gi y
a yak
Me se
z ara
yap tı</w>
tü ke
mıştı m</w>
ettiği miz</w>
al dı</w>
S anı
P a
A da
t lar</w>
söyle mek</w>
S o
C A</w>
n ö
den iz</w>
V ə</w>
resi m</w>
ola ğ
dik lerini</w>
öğ re
poli tika
kim ya
k ların</w>
is tan</w>
der in</w>
be yaz</w>
ül ke</w>
olma ya</w>
edi yoruz</w>
dik kat
inter net
hal de</w>
ı sı
ma liyet
li ğini</w>
biç imde</w>
s ünüz</w>
et tir
at ta</w>
al ma
ğ inde</w>
u z</w>
u fak</w>
sava ş</w>
sanı rım</w>
mik ro
mek te
e v</w>
daki ka
sebe p
müz ik</w>
ta l</w>
iy ile
du lar</w>
bah se
az ından</w>
ver iyor</w>
tü m
iste r</w>
bu z
b or
y um</w>
p os
man tı
kar ı</w>
g raf
Goog le</w>
uz man
u cu
tehli ke
ola y</w>
gör me
bıra kı
bi tir
çalı şa
ko m
ya t</w>
m os
kan ser
er iş
m ini</w>
e din
ya yı
unuz u</w>
i f
be be
ı l
ö de
çı kara
yan ında</w>
sayı da</w>
git tim</w>
doğ a
bü t
ta bi</w>
oy un</w>
la yı
in a</w>
bakar sanız</w>
s oğ
progra m
lı lar</w>
R e
s ti
p kı</w>
mı yorum</w>
ku t
ko şu
gelen ek
bir leştir
7 0</w>
neden i</w>
ka mp
bul mak</w>
uy u</w>
kiş inin</w>
kendi si</w>
iş in</w>
eşi t
yapı yoruz</w>
olur sa</w>
lar ak</w>
kar an
şek l
su z
olduğ umuz
mühendi s
derece de</w>
bah sedi
ştı rı
yüz ünden</w>
si yle</w>
i s</w>
görünü yor</w>
Ba zı</w>
ak lı
kola y
ha ber</w>
d ın
ba l
a dım</w>
Mar s</w>
H er
oldu klarını</w>
ki li
kay de
imiz i</w>
e ti
bilir di</w>
H atta</w>
Gün ey</w>
yeter li</w>
yer el</w>
r ar
olaca ktır</w>
iste dim</w>
bul unu
ü c
çı ka
mil yar
bun unla</w>
N asıl</w>
sa ba
inter net</w>
bura daki</w>
anla ta
yön te
uygu lama
ta dır</w>
mi mar
k le
insan larla</w>
ay n
çocuk ların</w>
yer lerde</w>
uç u
sı k
ol ma</w>
la ştır
kur tu
9 0</w>
toplu m</w>
ti p
te st</w>
te c
si dir</w>
kı ya
kend ine</w>
i den</w>
g u</w>
an siye
ti p</w>
ta t
S or
du var
Ku zey</w>
üs t</w>
ç ı</w>
w e
ver ir
in a
di jital</w>
C h
ya kı
res mi</w>
ha stan
gen el</w>
davranı ş
d os
me sine</w>
ge r</w>
ci l</w>
bazı ları</w>
ayı r
P ar
2 5</w>
öz gür
t r
san ki</w>
len miş</w>
ha yır</w>
Ç oğ
teme l
milyon larca</w>
men iz</w>
hi kâ
göster en</w>
ge çe
g an</w>
açı sından</w>
Sanı rım</w>
Mese la</w>
şehi r</w>
yak ın
k ın</w>
M ü
ş e</w>
ça ğ
yaln ız</w>
mız dan</w>
L e
v ur
gü zel
e f
zaman larda</w>
ma vi</w>
fark lı
cev ap
Bir kaç</w>
uza k</w>
umu r
ka ğı
sonu ç</w>
seç en
oku l</w>
lik leri</w>
D o
Baş ka</w>
tama m
ot or
ler deki</w>
ka lan</w>
f el
etti ler</w>
yeti ştir
telef on
prob le
mek ten</w>
be cer
S ı
On un</w>
teşekkü rler</w>
orta lama</w>
lığ ına</w>
lu kla</w>
ka çı
an lar</w>
a kt
a cı</w>
T i
B ak
yöne ti
y n
mese la</w>
fil m</w>
S iz
Ken di</w>
ye me
s lar
ma lı</w>
lanı yor</w>
kö tü
hatır la
ark a</w>
vide o</w>
ol a</w>
kita p</w>
kal ma
di l</w>
cek ler</w>
ı ş
çalışı yor</w>
sağla yan</w>
ka la</w>
f en</w>
tu r
o s</w>
ne ye</w>
la k
gidi yor</w>
etk ili</w>
d ın</w>
meliy iz</w>
ları mızın</w>
lar daki</w>
ge z
g a</w>
tan esi</w>
ka li
aşı rı</w>
üzer inden</w>
ter ci
sı k</w>
sat ın</w>
i re
ay ı</w>
at ı</w>
ön cek
yu karı</w>
m un</w>
konuş ma</w>
iş ler</w>
f on
Y ak
ğ ınızda</w>
ilg i</w>
geç er
fır sa
yan sı
ila ç
fotoğ raf</w>
bil diğimiz</w>
ba lık</w>
On u</w>
y ə</w>
ra d
le ne
g il
K o
D ola
B öyle</w>
B o
me s
la cak</w>
isti yoruz</w>
şaşır tıcı</w>
ça tı
yok sa</w>
u l</w>
proj e</w>
alı ş
çe k</w>
sila h
sahi bi</w>
m ında</w>
düşünü r
der n</w>
0 .000</w>
mesa j
is tə
inanı yorum</w>
göstere ceğim</w>
deği lim</w>
ağ aç
alan ı</w>
şi l</w>
şe hr
yar ar
ol muş</w>
liy di</w>
de k</w>
anla şı
anla mda</w>
K an
yara ta
sorum lu
olu ş
oloj i</w>
olağ an
nokta da</w>
ek si
Tan rı</w>
yıldı z
ye di</w>
yapa ca
ta y
da yan
şe f
t le
oloj ik</w>
lı ca</w>
kur tar
kont rol
is t</w>
il ham</w>
g o</w>
elektr ik</w>
dik kat</w>
bu dur</w>
bilim sel</w>
yük sel
olduğ undan</w>
lendi ri
gen ç
f er</w>
du ra
şi yor</w>
İk inci</w>
ön er
çeşit li</w>
ula şa
say fa
pot ansiye
yor sa</w>
un ç</w>
su l
k u</w>
iy et
gün lük</w>
E v
t en
ra st
r os
olma sını</w>
endi şe
bo t</w>
a ça
çe vr
tı ğı</w>
ola sı
cı k</w>
yapa biliriz</w>
gen iş
ü s</w>
ze te
yatı rım</w>
paz ar
lü k
ad lı</w>
ınız ın</w>
lı yorlar</w>
başla ya
K e
İ ç
ye şil</w>
yarat mak</w>
oldu m</w>
gü lü
gerçek te</w>
İn ter
ğı z</w>
çı l
me miş</w>
im ler</w>
Dola yısıyla</w>
örne ğin</w>
çalış mak</w>
yap ı</w>
olduğ unda</w>
iç indeki</w>
ihtiya cı</w>
a li
Ta bii</w>
yaş ında
ru h
kal p</w>
genel likle</w>
bil g
be t</w>
M an
yo lu
unu t
f ir
Z a
N i
p or
on dan</w>
karde ş
ic in</w>
ede cek</w>
ra ka
miy iz</w>
S u
P o
K ı
Ö ğ
za r</w>
mu r</w>
f inan
ara ç</w>
a dı
ya yıl
olan lar</w>
ka l</w>
ila ç</w>
e ve</w>
değiş im</w>
T op
ğı mızda</w>
ma sa
m den</w>
da yanı
bilmi yorum</w>
Dün ya
zaman ı</w>
sev iyorum</w>
mi t
ho ş
evr im
et e</w>
V ide
öl ç
yapı l
pay laşı
n de</w>
lerimiz in</w>
lan ma</w>
haf ta
gi den</w>
cek tir</w>
anla ma
z ek
manı zı</w>
ler imi</w>
lama sı</w>
heye can
gerçek leştir
da ğ
H iç</w>
ark ı</w>
L a
yaş an
u c
nere ye</w>
ma dde
bun lardan</w>
açı dan</w>
öğr etmen
t raf
sağ lıyor</w>
kır mızı</w>
gör ül
el bette</w>
bili yorlar</w>
N a
söy len
kil o
in g</w>
edil miş</w>
d anı
basi t
üzer indeki</w>
yokt ur</w>
sa k
mez siniz</w>
dış arı
On ları</w>
üst ünde</w>
Ö y
yıl ın</w>
ren k
la şa
kendi lerini</w>
hiz met
alı yor</w>
N er
yüz lerce</w>
ya x
tür lü</w>
tar i
o b
mak tan</w>
la dık</w>
konuş mak</w>
ö n</w>
çıkı yor</w>
ya ta
ta v
mü l
kork unç</w>
s il
mi yoruz</w>
fer an
edi len</w>
O rada</w>
önem lisi</w>
öncek i</w>
Ü ni
uza y</w>
tiği miz</w>
sağ lıklı</w>
oldu kları</w>
met re
lar ınız</w>
ki r</w>
imiz e</w>
geli r
bo l</w>
bilir sin</w>
anla ma</w>
an ı</w>
a cı
M il
yapı lmış</w>
mü t
i ma
hâl â</w>
hay van</w>
bir ine</w>
bilgi yi</w>
yava ş</w>
ti ğini</w>
ta ti
p er</w>
ma sına</w>
i ği</w>
ho ş</w>
gün de</w>
a de
İ yi</w>
üç üncü</w>
yü zey
ra z
me li</w>
k ra
gelenek sel</w>
bul dum</w>
bir den</w>
la dım</w>
kendi mizi</w>
ihti mal
alt ına</w>
şü p
tu m</w>
top lan
tem sil</w>
te miz
t li</w>
ker e</w>
hüc re</w>
hede f
duğ unu</w>
ya lı</w>
tas yon
t arı
on ik</w>
m lı</w>
gördüğ ümüz</w>
e ye</w>
düğ ü</w>
duru mu</w>
d ro
al t</w>
za m</w>
yoğ un
y ir
me kte</w>
ma ka
d unuz</w>
b lo
yan a</w>
sa ğ</w>
ma kta</w>
kay be
insan ı</w>
gar ip</w>
Ben i</w>
5 00</w>
pro fes
m ının</w>
gen etik</w>
eğlen ce
dev let</w>
ad ında</w>
D üş
C e
İnsan ların</w>
y sa</w>
te st
siz lik</w>
klar dan</w>
iliş k
güven li</w>
düşün meye</w>
ba ş</w>
M er
Bun dan</w>
ə r</w>
ç ə
v en</w>
tama m</w>
ciha z
baş lıyor</w>
an ne</w>
2 00</w>
yıl lar</w>
yo ne
tür ü</w>
teh di
n ör
ma lar</w>
ama ç
alı r
yön tem
ya ban
te si</w>
te pe
m ına</w>
la m</w>
k lık</w>
git mek</w>
yapı yorlar</w>
liğ ine</w>
g ın
teş v
r üz
ku la
klar la</w>
ik lim</w>
heye can</w>
fil m
dı klarını</w>
birbir ine</w>
Pe kala</w>
Or ta
Af ri
şey den</w>
ver in</w>
t mek</w>
iş bir
baş a</w>
anla maya</w>
Bir çok</w>
ı s
çöz üm</w>
çalışı yoruz</w>
u ç</w>
sıra sında</w>
m sal</w>
li ş
gör dük</w>
ağı r
yeter ince</w>
yap arken</w>
y o</w>
m ü</w>
kal dır
etk isi</w>
ca ğı</w>
be ve
Bura sı</w>
yap arak</w>
te j
takı m</w>
pa ha
göz lem
bil diği</w>
Jo h
ə l
t ları</w>
slar arası</w>
p op
olu m
kö p
ger iye</w>
g ı</w>
dok un
G ö
öğren e
ön ünde</w>
tele viz
tec rü
t fen</w>
si m
poli tik</w>
olu şu
olma sına</w>
ol saydı</w>
kullan mak</w>
ka sı</w>
im leri</w>
gel diğini</w>
etraf ında</w>
de s
belir li</w>
ə m</w>
şar kı
ver ir</w>
söylü yor</w>
mı yoruz</w>
kuru lu
ik na</w>
ce p</w>
B an
mekte dir</w>
ha ta
diği mi</w>
a r</w>
J ap
çocu kları
çarp ı
konu su</w>
getir mek</w>
bit ki
Herke s</w>
ç u
yaratı cı</w>
va tan
organ iza
edi yorlar</w>
a le
Vide o</w>
K ö
öl çek
ça l
yük se
y n</w>
kadın ların</w>
ha s
dal ga
süre c
sür dürü
n ak</w>
lüğ ü</w>
le meye</w>
hazı r</w>
Sa va
Bi raz</w>
olağan üstü</w>
hasta lık</w>
gerek tir
di yorum</w>
Ba zı
çalışı yorum</w>
yap ma</w>
toplu lu
taş ın
o m</w>
ne yse</w>
mode l</w>
kendi me</w>
ga zete
etme k
C o
tı pkı</w>
müz de</w>
ler iniz</w>
gör sel</w>
deği şik</w>
at mos
me s</w>
ihtiya c
hakk ındaki</w>
den iz
başla t
stra tej
oy n
li ler</w>
düşün ce</w>
de mektir</w>
ad ına</w>
De mek</w>
B ey
sahi biz</w>
organ iz
mu r
ler inizi</w>
im den</w>
hi ş</w>
f en
bey nin</w>
zen gin</w>
yaş lı</w>
lar sa</w>
hə r</w>
for man
boyut lu</w>
az zam</w>
mad de</w>
ken in</w>
in g
gö k
L on
19 9
1 8</w>
şir ket</w>
ş ları</w>
yer inde</w>
ver dik</w>
or ta</w>
lı ydı</w>
ley se</w>
değiştir mek</w>
ca ktır</w>
z e</w>
st e</w>
ri s</w>
o o
ka lan
j en</w>
eği tim
dış arı</w>
c k</w>
ba t</w>
yapma yı</w>
sor uyu</w>
sa ç
r ik</w>
il ə</w>
görür sünüz</w>
c ok</w>
ay rı</w>
tüke ti
t ro
on unla</w>
laş ma</w>
kan ser</w>
d oldu
ala kalı</w>
H ay
Üni versite
zara r</w>
yava ş
tı r</w>
tanı ştı
mo dern</w>
dı ra
ba kter
akıl lı</w>
Ger çek</w>
telef on</w>
t le</w>
sonra sında</w>
kara kter
ihtiya ç
gen elde</w>
eder ek</w>
c k
anla yı
ad ını</w>
C ar
ç iç
sı ydı</w>
syon u</w>
sor unu</w>
sek iz</w>
mu ha
li f</w>
k re
ik isi</w>
der in
t ma</w>
ro bot</w>
ma y
koy u
klar ından</w>
keli me</w>
anla mı</w>
S iz</w>
R a
zor lu
tı p</w>
tü ğ
tek rar
sonu cu</w>
se ya
ma hal
katı l
in də</w>
diği mde</w>
der s</w>
b arı
ak tif</w>
ak l
E s
yaptı kları</w>
sı rada</w>
saba h</w>
on larla</w>
m ba
le di</w>
ku vv
ka tı</w>
ica t</w>
boz u
On a</w>
K im
B atı</w>
A m
su r
o z
min im</w>
la y
gil ter
Y üz
L i
şim di
ü ye
çalış maya</w>
p las
olduğ umu</w>
oku la</w>
me lerini</w>
man ı</w>
len en</w>
kay nak</w>
c h
İngi liz
önce den</w>
vu ru
vatan da
san a</w>
lar ındaki</w>
lar i</w>
gerek ir
Y aşa
Dün yanın</w>
ma q</w>
kişi ler</w>
haya l
diğ inizde</w>
des tek</w>
arkada şım</w>
Gör düğ
şey lere</w>
Öy leyse</w>
okyan us
ma dı</w>
luğ un</w>
li ste
han e
ha sta</w>
dü zel
bo ş</w>
se fer
hücre leri</w>
da hi</w>
bul duk</w>
ara cı
ar i</w>
ak şa
H iç
Ba zen</w>
Ş e
ülke de</w>
ç uk</w>
u laştı
sin deki</w>
per forman
ga yet</w>
et mə
davr an
E r
ğ inizi</w>
seç im</w>
me m
lan d</w>
in dir
c is
a ca
M ic
A k
şan s
st r
pet rol</w>
mücade le</w>
me ş
karan lık</w>
etme yi</w>
bilir sek</w>
ard ından</w>
an ti
U lu
har i
giriş im
di ren
yaratı cı
lik ten</w>
li r</w>
in ə</w>
hareket e</w>
giz li</w>
ştu r</w>
ucu z</w>
süre ç
sin ir</w>
sağla mak</w>
ce ğiniz</w>
üni versite
ün deki</w>
z il
vir üs
tasar ru
p iş
m li</w>
gerek iyordu</w>
fark ına</w>
du yar
biyoloj ik</w>
bil ər
ba y
ada m
D eği
öğren dim</w>
va z
terci h</w>
si te</w>
qə də
oluştu ra
ma da</w>
ko d
Bura daki</w>
şey dir</w>
yoğ un</w>
sav un
n ot
miktar da</w>
lü yor</w>
koşu l
k öy
bi sik
al dık</w>
a ç</w>
ı r</w>
tü p
taraf ta</w>
se m
q i
nüf us
id di
i ğ
yatı rı
top ra
san al</w>
mek le</w>
bir er</w>
anlat mak</w>
On lara</w>
ə n
çocu kları</w>
sa p
mu azzam</w>
lı kta</w>
iste diğimiz</w>
c h</w>
b öyle
b ol
a ğ</w>
Y ine</w>
Sa ğ
K üçü
İn gilter
yan ı</w>
iste me
i ci
bi t</w>
baş ında</w>
N or
G a
ö v
Ü ç</w>
hep imizin</w>
hayat ın</w>
et miş</w>
ülke ler</w>
çek ici</w>
sı cak</w>
op er
bağlan tı</w>
za yı
se y</w>
ma larını</w>
er i
edi ci</w>
bu çuk</w>
akti vi
1 4</w>
un daki</w>
tep ki</w>
müş ter
ler indeki</w>
kara k</w>
ha v
fa kir</w>
c üm
umu t</w>
e beve
de diler</w>
benz eri</w>
alı r</w>
Geç en</w>
Bun ların</w>
z ir
yiye cek</w>
teknoloj inin</w>
sonu c
ne fe
mə n</w>
karb on</w>
hikâ ye
ge ce
ey im</w>
erkek ler</w>
ça ba
Ö yle</w>
yar gı
yaptı ğı
yapa r</w>
ver ilen</w>
tı b
teşv ik</w>
so ra
med ya</w>
ma yın</w>
da r</w>
ben imle</w>
Y e
ş ın</w>
İn san</w>
ver il
uy la</w>
le dik</w>
edil di</w>
bil me</w>
T ek</w>
yer i</w>
mu ş
liy iz</w>
haya tı</w>
ha f</w>
dey di</w>
bileceği mizi</w>
alan da</w>
Y ıl
Ta m</w>
sah ne
s ol
qədə r</w>
or i
is ə</w>
f et
ar z
a teş
ışı ğı</w>
yu karı
sı ra</w>
san iye
po r</w>
mə n
mız daki</w>
me me</w>
kö şe
k m</w>
k lu</w>
gün ü</w>
biz ler</w>
baş ara
ay ar
I V</w>
Bili r
1 8
çalıştı ğım</w>
z eki</w>
sayı sı</w>
on lardan</w>
mole kü
mi siniz</w>
mesa j</w>
ko mp
gerekti ği</w>
düğ ünü</w>
di yoruz</w>
bıra ktı
bu ydu</w>
al maya</w>
Son ra
sen e
olduğumuz u</w>
miz den</w>
len in</w>
gu ru
ga z
d ini</w>
anı z
yoru m
tehlike li</w>
soru lar</w>
sor dum</w>
ol manın</w>
ke şi
hız la</w>
göre ceksiniz</w>
e ya
dü ler</w>
da vet</w>
ana h
O ra
B ilgi
yük sek
unuz da</w>
r .</w>
mey iz</w>
iş leri</w>
edi p</w>
de mi
bir şeyler</w>
çap ında</w>
ti ka</w>
ter ör
ta le
siste mi
müt hiş</w>
lı lık</w>
ları mı</w>
kap sa
etti ğini</w>
ek ler</w>
du n</w>
din a
Hep imiz</w>
İngilter e</w>
r o</w>
olma z</w>
o l</w>
mi l</w>
mak la</w>
kaz anı
k li
hükü met
güven lik</w>
cin sel</w>
bey in
baba m</w>
ad landırı
U z
1 6</w>
Ş im
çalıştı m</w>
y i
u su</w>
sen i</w>
san iye</w>
p ren
le cek</w>
kita b
düşün mek</w>
de tay
bil mesi</w>
N o
An ne
öğr etme
yan lar</w>
siya h</w>
ma s
iy er
isti yor</w>
Y er
üm de</w>
yapma mız</w>
me ti</w>
iş aret
ha fi
dığı mda</w>
O l
üst üne</w>
öğren mek</w>
özel lik
yarı sı</w>
r y</w>
oran ı</w>
kullanı lan</w>
fazla sı</w>
1 .
ön ümüz
yı kı
vücu d
tartı şma
siz inle</w>
sin ir
ren in</w>
kan ı</w>
k ın
dü z</w>
H IV</w>
El bette</w>
A t
İnter net</w>
ür ün</w>
Çoğ u</w>
zih in
yapa bilirsiniz</w>
se z
ol un</w>
laboratu var
ko ca
kal dırı
kah ra
du kları</w>
aya k</w>
a q</w>
Mu h
B er
Af gan
zih n
z inc
yan dan</w>
ra l</w>
pop ü
mak tadır</w>
li liği</w>
gön ül
eğlence li</w>
dı ş</w>
dü zey
ce sar
bura sı</w>
ar e</w>
Tek n
Ş öyle</w>
ti ler</w>
tara k</w>
r sa</w>
on e</w>
e z
dığı mızda</w>
doğ u
değer lendir
bahse de
T ı
şey di</w>
üre te
üm ü</w>
ü r</w>
ör ün
zorunda yız</w>
zen gin
yı r
teda v
sal dırı
me r</w>
i mi
hal inde</w>
gə r</w>
fre t</w>
fiki rler</w>
ceği miz</w>
Ha di</w>
yaş ındaki</w>
yapı yorum</w>
ti l
olma yı</w>
olan ı</w>
lığ ında</w>
lık tan</w>
leş miş</w>
ler ken</w>
kayna ğı</w>
ka bl
gider ek</w>
gelecek te</w>
g ünün</w>
d ra</w>
c ının</w>
Bu r
yok sul
u yan
suy u</w>
s unu</w>
ris k
ke sin</w>
kar a</w>
k lin
ili r</w>
hasta lığı</w>
gör ə</w>
etti k
Ch ris</w>
B ize</w>
2 4</w>
ün lü</w>
yo la</w>
y ru
re t</w>
orta sında</w>
olma yaca
o u
nokta ya</w>
is tek
ha m
fır sat
for ni
duygu sal</w>
da va
S te
A vu
çı kar</w>
v arı
se ver
pi yasa
merke zi</w>
i lerin</w>
gele ce
et ki</w>
es ini</w>
be den
a meli
şüp he
çiz gi
çalış an
Ön ce
ya bilir</w>
v er</w>
uz un
t mak</w>
proble mi</w>
mekan iz
m on
m daki</w>
kt u
ha q
h ri</w>
değil ler</w>
Son unda</w>
ü k
çöz ü
sıra dan</w>
mese le
iş lem
görün en</w>
ga lak
dene y</w>
bura da
bi raz
benz er
Son uç</w>
ş ını</w>
önem lidir</w>
sı cak
rahat sız</w>
m otor
li yoruz</w>
ku m</w>
iste ye
g ü</w>
bağ la
ağı r</w>
ayak ka
Küçü k</w>
1 3</w>
şek li</w>
tasarı mcı
tak li
sağlaya cak</w>
nü kle
ma yan</w>
lama yı</w>
kop ya
iste yen</w>
ir e</w>
il a</w>
gör meye</w>
bilecek leri</w>
benz iyor</w>
as yon
Ta bi</w>
On ların</w>
Kon u
Doğ u</w>
ül kenin</w>
nes ne
ne fret</w>
me ta
ler se</w>
len me</w>
kuvv et
görün tü</w>
e ği</w>
bel ə</w>
ay dın
S A</w>
öğren c
ya za
y ü</w>
ulu slararası</w>
olduğ unuz</w>
n da</w>
lu m</w>
leş me</w>
kayna k
iliş ki</w>
g un
düş ür
bile ceğim</w>
ar lar</w>
ama cı</w>
J u
A p
ği m</w>
tu va
ti f
si p
sek tör
paha lı</w>
orta dan</w>
num ara
ne vi</w>
mız la</w>
kıs mını</w>
kanı t
ka m
k ri
insan a</w>
en ler</w>
en e</w>
deği liz</w>
bir ik
H an
Da vi
ştu ru
ğ inin</w>
ülke lerde</w>
ç li</w>
tar z</w>
ka te
baş lar</w>
ba ca
an lı
ah la
Bun unla</w>
ğı mda</w>
çoğun lukla</w>
yor sak</w>
tekn ik</w>
ta ban
mak ine</w>
lu ğa</w>
laştı rı
insan lardan</w>
ifa de
as k
tı ğımız</w>
siz lere</w>
mı yorlar</w>
lı p</w>
iş let
iy et</w>
hep sini</w>
diğ ine</w>
bile ş
ayn ı
Al man
Afgan istan</w>
yaptı ğını</w>
so l</w>
ser gi
o g</w>
ley in</w>
kor un
klar da</w>
keli me
hi r</w>
eder siniz</w>
ci var
bil diğiniz</w>
bebe k</w>
V er
Bilir siniz</w>
İngiliz ce</w>
ğ er
çocuğ un</w>
yone l</w>
türe l</w>
q ı
or e</w>
mes lek
kuru m
ki den</w>
kamer a
ka s
i a</w>
hiz met</w>
git ti</w>
ca q</w>
bili yordum</w>
ba n</w>
ş uydu</w>
ş mak</w>
üs te
zaman ı
si yon</w>
sağla dı</w>
lığ ının</w>
kapa site
geçer li</w>
diği mizi</w>
deği şme
art tı
a ğı</w>
şirket ler</w>
zinc ir
yen in</w>
yaşı yor</w>
ne yin</w>
cı sı</w>
Gördüğ ünüz</w>
Bir incisi</w>
yapa bilir</w>
söyle diği</w>
sonuç lar</w>
sev diğim</w>
p la
hatır lıyorum</w>
geliş miş</w>
gel diğinde</w>
fa bri
evren in</w>
değer li</w>
cin si
ba şı
a vu
üc ret
ölçü de</w>
u mda</w>
sp ek
oy u</w>
konuştu ğ
iş aret</w>
he y
gerekir se</w>
ede bilirsiniz</w>
den ge
Ameri kalı
İn anı
öl ü</w>
yay gın</w>
ta p
siya si</w>
p sik
hayvan lar</w>
fark ında
ek i
başla dılar</w>
ba lığı</w>
Bun ları</w>
ş art
tu haf</w>
soğ uk</w>
odak lan
ni te
m ından</w>
lık ların</w>
kat kı
ede bilir</w>
bilin en</w>
ada mın</w>
S izin</w>
ön üne</w>
yeni lik
süre ç</w>
ro n</w>
mü n</w>
k ok
her şey</w>
haya ta</w>
gün lerde</w>
gözü kü
bu z</w>
bağım sız</w>
ba x
ara cı</w>
ü yor</w>
çevr e</w>
yapa cak</w>
siyon u</w>
o da</w>
kon feran
bur da</w>
T he</w>
Joh n</w>
Ada m</w>
çö ze
tu ğ
sor gu
parça cı
lığı yla</w>
kar ışı
in da</w>
im ini</w>
etme si</w>
en f
e cek</w>
di za
akı l</w>
Ba ba
B re
ş arkı</w>
İ z
çiz gi</w>
ça ğı
yıl dan</w>
yeten ek
yer den</w>
u tan
u laş
teknoloj iyi</w>
te miz</w>
oğ raf
men izi</w>
maz sınız</w>
kısı t
kullanı yor</w>
ku yru
ki t</w>
fırsa t</w>
də y
de li</w>
dan s</w>
bi l</w>
I D
Har ika</w>
Davi d</w>
As ya</w>
öl çe
Ü ç
yapı la
u t</w>
q ar
os u</w>
ola bilirsiniz</w>
ner eden</w>
mantı klı</w>
ma ktır</w>
laya cak</w>
koru mak</w>
ir ler</w>
göster di</w>
doğru dan</w>
cek leri</w>
cak sınız</w>
bulun duğu</w>
bah çe
b oğ
atmos fer
R i
Jap on
Dev letler</w>
ız a</w>
çif t</w>
yarı m</w>
yapa y</w>
ver diği</w>
ter na
t ran
pay laşmak</w>
p si
o y</w>
kö pek</w>
kimya sal</w>
iş le</w>
iyile ştir
gi ze
dığ ınızda</w>
düşünü yor</w>
be bek
ama cı
U za
R us
Lon dra</w>
çi ler</w>
yapı ldı</w>
yaptı lar</w>
ver imli</w>
ola bileceğini</w>
mü da
mole kül
m le</w>
leş tire
kö k</w>
koru ma</w>
ka ya
in şa
fi yat
e s</w>
e g
der s
ci lerin</w>
Te le
Öğ ren
yapı lma
yap mış</w>
y umur
san dal
olma yacak</w>
ol l
lı yordu</w>
lü tfen</w>
büyü me</w>
F ark
örne ği</w>
yor muş</w>
y dık</w>
re k</w>
ra l
par ma
oy unu</w>
ister im</w>
ha ta</w>
gelişme kte</w>
duru yor</w>
bil diğim</w>
alan ında</w>
a let
ər ə
ziy aret</w>
we b</w>
mahal le
ma li</w>
lan ması</w>
hi s</w>
f e</w>
3 00</w>
şim diye</w>
ödü l
zaman lı</w>
tes pi
ris k</w>
p u
lər in</w>
ku ş
imkan sız</w>
ge mi
fazla sını</w>
ede biliriz</w>
bek le
akşa m</w>
uza y
sız lık</w>
sa yı</w>
oluştur mak</w>
mu sun</w>
me dik</w>
ken ar
gör me</w>
gitti kçe</w>
ev i</w>
etti kleri</w>
büyük lüğ
ben im
ada mı</w>
T u
S en</w>
K al
şı k</w>
t o</w>
s ə</w>
in dən</w>
ili yor</w>
i bar
hayat ını</w>
de diğimiz</w>
da ydı</w>
bak mak</w>
ba karak</w>
Hiç bir</w>
Bak ın</w>
şidde t</w>
ş er
yağ mur</w>
va h
unuz dur</w>
ta j
süre ci</w>
sü per</w>
ses leri</w>
p eş
olma ları</w>
ni ha
mp an
miz deki</w>
ma ter
leye cek</w>
kullanı yoruz</w>
kullan ır
ko ya
gı da</w>
gör dük
ga r</w>
en te
baş lar
bakı p</w>
açı kça</w>
K ap
ğ inden</w>
yaşı yoruz</w>
ya sa</w>
u ma</w>
o d
nokta sı</w>
li s</w>
li s
kapa lı</w>
dığı mızı</w>
ca klar</w>
bö yük</w>
bul maya</w>
başarı sız</w>
a i
Ta ma
öğren me</w>
çı x
w it
unuz un</w>
ti z
su r</w>
son u</w>
ri p</w>
po z
p il
matema tik</w>
liğ inde</w>
kiş iye</w>
iniz den</w>
gi re
ge l</w>
dığ ına</w>
dönü p</w>
cı ların</w>
bo ok</w>
bar ın
ba l</w>
anla mıyla</w>
Ameri kalı</w>
19 8
yü ze
yer ler</w>
ya kala
veri leri</w>
tehdi t</w>
si k</w>
olma ktan</w>
nükle er</w>
mi yorlar</w>
la h</w>
katı lı
her şeyi</w>
gide r</w>
gel diği</w>
fark ında</w>
də r
diği mizde</w>
din le
dey il</w>
cer ra
bahs etmek</w>
E y
ə s
ör ü</w>
vi l</w>
sü per
sorun ları</w>
saye de</w>
me dim</w>
la manın</w>
imiz de</w>
il ke
gor it
ebeve yn
de lik</w>
as ker
anne m</w>
al n
O k
Bilgi sa
yı lı</w>
ver site</w>
tıb bi</w>
ru z</w>
oldu k</w>
nefe s</w>
liğ inden</w>
l muş</w>
kül türel</w>
ihtiyac ınız</w>
geze gen</w>
g ünkü</w>
etki len
eti ket
di zi</w>
dep re
Or ta</w>
J a
Ha yat
Ara ştır
ş maya</w>
çalıştı ğımız</w>
zaman a</w>
re dde
r on
par ti
p ra
olar aq</w>
meliy im</w>
m inin</w>
eşi t</w>
dolar lık</w>
di kal</w>
d ünüz</w>
ca m</w>
c en
D ar
C har
çocu ğu</w>
yüz yılda</w>
yön lendir
yer lere</w>
yaşa mak</w>
t ın</w>
t ler</w>
sını f</w>
ser ma
ser be
q a
olma lı
ne cə</w>
le ti</w>
kendi lerine</w>
kali te
hu ku
görü yorum</w>
görü yor</w>
git tiği
da va</w>
bu lama
bit ki</w>
V a
M erke
Fa ce
şekl inde</w>
ür et
Üniversite si</w>
yol unu</w>
tü sü</w>
tü ken
ra m</w>
mode li</w>
lerimiz e</w>
l mak</w>
kal dı</w>
kad ar
ha r</w>
fa kt
bil dir
H u
D er
2 000</w>
şek il</w>
ın ca
çıkı p</w>
çıkar mak</w>
tı lar</w>
suy un</w>
sanat çı
mo ti
lə n
lendi re
laşı k</w>
la yarak</w>
kap at
j an
is ke
di g
al kı
Hep si</w>
ı sın
İs ra
İngi liz</w>
üre tim</w>
ünüz de</w>
öte sinde</w>
ça sı</w>
ça bu
yaca ğım</w>
tı yor</w>
sı f
sin iz
pen cer
pe y</w>
par lak</w>
olma dı</w>
le y</w>
lar ınızı</w>
is tati
göre v</w>
getir iyor</w>
ey lem
e sas</w>
dığı mı</w>
di yorlar</w>
de diği</w>
Gülü ş</w>
G öz
u laşmak</w>
la yıp</w>
kol on
iç inden</w>
i g
han e</w>
f os
e -
dik ka
di ş
dev re
ben den</w>
C a
A ID
ə l</w>
yüz ü</w>
vücu t</w>
var sayı
ta bl
sonuç ları</w>
olur sak</w>
mı şlar</w>
m .</w>
liğ inin</w>
lana bilir</w>
karşı sında</w>
hastan e
gün eş
gün e</w>
d y</w>
al gorit
S öyle
Gün eş</w>
şehr in</w>
öl dürü
yen ile
va l
ter s</w>
tarih i</w>
si f
plas tik</w>
mi sin</w>
lanı r</w>
kamp an
hal k</w>
dı ktan</w>
düşünü yoruz</w>
duğ unuz</w>
ce za
c o</w>
O y
Face book</w>
ğ ınızı</w>
ğ en
yer ini</w>
ulu sal</w>
tu ta
toplum un</w>
karb on
işbir liği</w>
iti bar
isti yorlar</w>
ge ç</w>
g isi</w>
es er
bin a</w>
baş arı</w>
Ö z
ze v
yazı lı
tespi t</w>
sa bit</w>
kıya s
kur tara
ko mik</w>
kim senin</w>
e sa
dön gü
c üs
böl ge</w>
önümüz deki</w>
t ren
sı v
si t
r sınız</w>
p lat
li ce</w>
ler ek</w>
le z
lan da</w>
herke se</w>
hap is
cı ları</w>
anla m</w>
S en
ör gü
parça ları</w>
olma sının</w>
ma sının</w>
lə ş
karşı lık</w>
ka fa</w>
iy im</w>
ir ken</w>
ihtiyacı m</w>
geç ti</w>
gerçe ği</w>
da m
bas kı</w>
Uz un</w>
T as
N A
Düş ün
D u
Bre zil
Bili yorsunuz</w>
AID S</w>
ə cə
ç er
uy um</w>
re ka
os iste
ne yi</w>
miş ler</w>
mer ha
ları mıza</w>
lan ır
kı yı
k lara</w>
is im
gür ül
gü l
dü re
de dir</w>
ci leri</w>
be l</w>
B ri
ştu m</w>
ö p
yönte m</w>
tik sel</w>
telef onu</w>
ser v
organiza syon
mi r</w>
me ktu
kork u</w>
ka za
ihtimal le</w>
hücre ler</w>
he m
elektr ik
bir inde</w>
W al
D r.</w>
şi fre
ğ ının</w>
çoğ unu</w>
çocuk lara</w>
takli t</w>
t arım</w>
sa lar</w>
olma z
meye cek</w>
le şiyor</w>
kı sa
ka hka
fabri ka
Y aln
W e
V e
F or
zel likle</w>
zar ar
yolu yla</w>
te s</w>
t on
ren k</w>
olmu ştu</w>
ku ş</w>
kt eri</w>
i ma</w>
h ti
ge le</w>
for m
endüst r
ceva bı</w>
can lı
at o
a larak</w>
Yak laşık</w>
Dev let
şu dur</w>
İk incisi</w>
yüz yıl</w>
yazı k</w>
sor du</w>
ot u
or anda</w>
olma mız</w>
olduğ unuzu</w>
kullan dığımız</w>
iy i
iste dik</w>
in ti
hir li</w>
gele ceği</w>
fon k
etme nin</w>
e minim</w>
düşün dük</w>
bili yordu</w>
ba lin
ak sine</w>
R u
ç an
Ç alı
yaban cı</w>
tr il
seya hat</w>
le şe
kağı t</w>
isti yorsanız</w>
hisse de
ev de</w>
değiş imi</w>
ci lik</w>
bıra ka
ad landır
K üre
yol lar</w>
yax şı</w>
tür den</w>
ter k</w>
tan e
sin yal
me sinin</w>
ley ip</w>
le yerek</w>
ları mın</w>
k sınız</w>
ister seniz</w>
iste diğiniz</w>
gü r</w>
duğ unda</w>
dur dur
diğ eri</w>
cı lık</w>
bulunu yor</w>
T er
S izi</w>
P h
M ən</w>
H as
E ği
Doğ ru</w>
Bazı ları</w>
1 7</w>
yak ından</w>
vir üs</w>
sistem leri</w>
poli s</w>
pay laştı
orta da</w>
ola bilecek</w>
ma r</w>
ma dım</w>
leme z</w>
konuş ur
kim in</w>
gö ğ
gö ç
getir di</w>
e pey</w>
e dir</w>
dəy iş
dik ten</w>
bas kı
a f
y örün
vaz geç
tic ari</w>
tasarru f</w>
sonra sı</w>
s ör
progra mı</w>
mıştı k</w>
ma t
kil o</w>
ki l</w>
kendi sini</w>
kad ının</w>
is in
hasta lı
du kça</w>
der siniz</w>
da yken</w>
anla dım</w>
S c
R ic
K ız
D ör
Bun lardan</w>
Ş unu</w>
ğı mızı</w>
ğ ın
ö f
y dü</w>
ula şma
oluştu ran</w>
og raf
li yorlar</w>
lar in</w>
kullan an</w>
kita bı</w>
kanser i</w>
gi m</w>
eli mizde</w>
dolar a</w>
bura dan</w>
bilir dim</w>
bilgi ye</w>
b anın</w>
at i</w>
al terna
S an</w>
A ğ
öğre ti
toplum sal</w>
tecrü be
te cek</w>
ste in</w>
p ey
o t</w>
m dır</w>
leme n
is inden</w>
hi dro
ha l</w>
görü ş</w>
graf ik</w>
eder ken</w>
dokt or</w>
dev let
deney im</w>
da yız</w>
Son uç
yazı lım</w>
se p
sağ lar</w>
kend inizi</w>
istati s
ist en
evr im</w>
ek osiste
e li</w>
bilir dik</w>
araç lar</w>
ade t</w>
sek s</w>
p eki</w>
le s</w>
layı cı</w>
hikaye yi</w>
he ç</w>
et mək</w>
doku z</w>
den en</w>
c ın</w>
aşağı ya</w>
a te
ya ş</w>
ver diler</w>
v ə
söylü yorum</w>
sebe bi
mutlu luk</w>
mi yle</w>
la dığı</w>
l du</w>
kö k
kur mak</w>
konu yu</w>
iste di</w>
ik ler</w>
gü cü
geç miş</w>
fikir leri</w>
evren sel</w>
da yalı</w>
ben de</w>
K im</w>
I rak</w>
Alman ya</w>
zi ya
yen ler</w>
ya tı</w>
ya sal</w>
si ye</w>
seç im
ne sil</w>
matema ti
iş ini</w>
gel miş</w>
de k
bun lara</w>
ağ aç</w>
ahla ki</w>
Y ar
M c
Gü zel</w>
şey le</w>
ür ünü</w>
ün ki</w>
x ə
uy um
toplan tı
te z
se fer</w>
ru m</w>
mese le</w>
m un
li yle</w>
güc ünü</w>
ceği mizi</w>
biz imle</w>
ber bat</w>
baktı ğınızda</w>
Tek rar</w>
S ür
Japon ya</w>
öğren ci</w>
çevre sel</w>
zaman dan</w>
yapa bil
y um
u dur</w>
ste r</w>
poz is
ola bil
ol say
ları dır</w>
korku tu
kendi leri</w>
ken t
k os
iç i</w>
hiss ettir
edi liyor</w>
eder iz</w>
düşün mü
biz den</w>
ar tan</w>
ala lım</w>
Ulu sal</w>
F ar
şa hi
ı m</w>
Ö zellikle</w>
ver meye</w>
tan ın</w>
t ta</w>
sürdürü lebilir</w>
su za</w>
se f</w>
rek la
okyan us</w>
li f
leme yi</w>
ko ku
kim se
karşı laştır
gö l
du ran</w>
dey işle</w>
ban ka
açık laya
Bü yü
Am ma</w>
7 5</w>
zihin sel</w>
yar ı</w>
neden iyle</w>
m larını</w>
kı l
kendi mize</w>
is imli</w>
i ğin</w>
gü ven</w>
görünü r</w>
finan sal</w>
düşün me
di ri
bo mba
bey ni</w>
başlangı ç</w>
baktı ğımızda</w>
Ka li
çer çe
zaman dır</w>
tah min
si ydi</w>
sey ir
r dı</w>
n an
müş tü</w>
lı yım</w>
konu ya</w>
ka mu</w>
j er
isti fa
il mesi</w>
bilgi leri</w>
0 ,000</w>
üni versite</w>
ya lım</w>
ver me
va x
tut ku
te y
sun a
stan dar
ser t</w>
ra hat</w>
ola sı</w>
mu ştu</w>
lo bal</w>
li san
kr iz
konuş maya</w>
kar ika
getir en</w>
gerçek lik</w>
ek ip
da kı</w>
Ge or
G ünü
E li
D an
Brezil ya</w>
ə vv
ümüz de</w>
yürü yü
ti tre
si met
para yı</w>
par t
man lar</w>
li yorum</w>
li p</w>
kayde t
kamer a</w>
ka de
iy an
hâ le</w>
gə l
gö türe
fotoğraf ı</w>
elektr onik</w>
edi le
de l
ba tı
ayrı l
a str
T wit
Ok yan
B ar
4 00</w>
üç te</w>
üs lü
sila h</w>
sağ lama
pay laşa
ne k</w>
mal de</w>
len iyor</w>
kul u</w>
j in
in o
hissedi yorum</w>
hede f</w>
gö st
duğ umuz
di li</w>
değ eri</w>
dey ken</w>
de v</w>
ar sanız</w>
P ek</w>
K ita
H o
H en
D edi
ö mü
Çocu k</w>
yıl larda</w>
uyu şturu
umu t
süre de</w>
sonuc unda</w>
rə m</w>
par mak</w>
muz un</w>
mak ina
luğ unu</w>
len mesi</w>
l ine</w>
hikaye ler</w>
for d</w>
e də
dır lar</w>
bölüm ü</w>
biç im
bili mi</w>
a van
U m
S ek
M on
Ha yatı
Biz ler</w>
ın a
çö p
zaman la</w>
yapa cağım</w>
taraf ında</w>
tar z
süre ce</w>
si t</w>
olduğ unun</w>
mar uz</w>
kü r
kiş iyi</w>
ke ç
işle v
hız lıca</w>
hükü met</w>
hak ları</w>
gra fi
e mi
diye lim</w>
di p
deva sa</w>
bozu k
birbir lerine</w>
be ş
bakı ma</w>
arka sında</w>
alan lar</w>
ada mları</w>
O ku
Ne yse</w>
Önce likle</w>
y sanız</w>
veri ler</w>
tı ğım</w>
sor unun</w>
oo d</w>
olaca ktı</w>
ku şa
ktı m</w>
ka ça
k ün
içer en</w>
istə yir
iste diği</w>
hareket i</w>
ekono mi</w>
e də</w>
di yi</w>
c ik
ğ ından</w>
çalışı rken</w>
yolcu luk</w>
yetiş kin
tro p
siz ce</w>
serbe st</w>
q a</w>
milyar larca</w>
mi dir</w>
lu yor</w>
kü tle
ile bilir</w>
i yorsunuz</w>
git tik</w>
fa kir
etk in
dik lerinde</w>
de dik</w>
d olu
cek ti</w>
M eksi
vere cek</w>
uy ar
tiği m</w>
siste min</w>
si vil</w>
sa f
s por</w>
s arı
pos ta</w>
mış lardı</w>
mi yordu</w>
kları mız</w>
ke l
hikaye si</w>
gibi ydi</w>
geç ire
g re</w>
fikr ini</w>
edi lebilir</w>
düz gün</w>
dir ek
dey iz</w>
den iyor</w>
da m</w>
cek lerini</w>
bir e</w>
be ğen
başla mak</w>
a let</w>
H al
A çı
A h</w>
2 .
ş una</w>
ğı mı</w>
çöz mek</w>
zayı f</w>
yap manın</w>
s lar</w>
r sanız</w>
le k</w>
lar ken</w>
kullanı l
insan lık</w>
ha li</w>
günü müzde</w>
git me
dış ına</w>
der ken</w>
bul ma
bu yu
bir inci</w>
bel ge
ayakka bı
Twit ter</w>
S er
M üslü
Bili m</w>
0 -
öl dü</w>
çoğ unuz</w>
yöne lik</w>
yöne l
yaptı klarını</w>
taraf ı</w>
su ç</w>
organ ik</w>
len di</w>
geç iyor</w>
etme miz</w>
doğ a</w>
değiştir di</w>
değişik lik</w>
davranı ş</w>
baş tan</w>
anlam lı</w>
Y en
W il
Ke sinlikle</w>
Kali forni
şirket i</w>
çalıştı ğını</w>
z an
yaşında yken</w>
yapa cağız</w>
ve ç</w>
unuz a</w>
t os
söy ler
s olu
olmu ştur</w>
olma sıdır</w>
kal kı
geli yordu</w>
fe la
doğ um</w>
diğ inizi</w>
diğ in</w>
dir ler</w>
bilmi yoruz</w>
basit çe</w>
ask eri</w>
artı ş</w>
arkada şı
an tum</w>
alı yoruz</w>
Ta h
T ar
A ile
ülke lerin</w>
yörün ge
yaşa mın</w>
yaptı ğınız</w>
tran s
sık lıkla</w>
söz cü
say gı</w>
sal on
pet rol
pat en
m ark
kı zı
ker e
iç eri</w>
iy im
hal ka</w>
gördüğ üm</w>
gen in</w>
ev in</w>
dü n</w>
cu su</w>
bulun a
bul du</w>
birbir inden</w>
as h
a mp
V i
S os
P er
ünüz ü</w>
zor dur</w>
tut mak</w>
tik leri</w>
sə n</w>
su ya</w>
rə n
ma yacak</w>
kullan ma
k ör
es t</w>
ek r
düşün me</w>
dikkat li</w>
d o</w>
Sağ lık</w>
Ken ya</w>
yüz yılın</w>
ya ğı</w>
tı ğını</w>
tu tar
televiz yon
t tı</w>
sı r</w>
stra l
sif ik</w>
rı l
re st
mu t</w>
mik ros
liy im</w>
li mi</w>
koca man</w>
h ur
dola şı
den ilen</w>
cağı mızı</w>
başla yan</w>
Ni jer
Gülü ş
F il
şə kil
öy kü
Ü l
yıl lardır</w>
yol da</w>
uza kta</w>
televiz yon</w>
süre dir</w>
popü ler</w>
ler imin</w>
kom şu
kilo metre</w>
kar ışık</w>
hafi f</w>
e mek
düşüne bilirsiniz</w>
dene ye
baş ta</w>
bahs et
aracı lığıyla</w>
ara ma</w>
ar dı</w>
alan ları</w>
Ol dukça</w>
Muh temelen</w>
ş lı</w>
çek mek</w>
çalıştı k</w>
yə t
yıldı z</w>
yaşa ya
yapı p</w>
uz an
sahip tir</w>
s üz
mesa fe
me de</w>
kı v
ka bili
iniz le</w>
ihtiyaç ları</w>
hu r</w>
gör dü</w>
etraf ı
baş lıyoruz</w>
ba tı</w>
Se s</w>
Al qı
şekil lendir
ş iş
çıl gın</w>
çek en</w>
uygu lama</w>
un ları</w>
sorum lu</w>
son suz</w>
sebep le</w>
ro man
r ot
on ay
olan ak</w>
olaca ğı</w>
mücade le
mez ler</w>
lma sını</w>
lerimiz den</w>
ları mdan</w>
ka ya</w>
is iyle</w>
g ay
fil mi</w>
ek sik
ede n
dör dün
di kçe</w>
baktı m</w>
ana liz</w>
B ro
Ş u
ınız dan</w>
öne m</w>
çalışı r</w>
yapı lması</w>
toplu luk</w>
to h
tele s
ta sı</w>
s lay
rast gele</w>
oğ l
ora dan</w>
mi ra
lık lara</w>
kullan maya</w>
k isi</w>
ing ton</w>
hi p
h ı
fark ı</w>
b ara
anlata cağım</w>
al mış</w>
aktivi te
Um arım</w>
P at
M at
Küre sel</w>
Has ta
Gö re
4 5</w>
çiz g
çatı şma
ziya de</w>
ya sı</w>
ver im
sü z</w>
söyleye bilirim</w>
son una</w>
son suza</w>
p ak
olum lu</w>
kayna kları</w>
isti s
inan ç
in ç
dönem de</w>
dey im</w>
danı ş
büt ün
bilme miz</w>
başlaya lım</w>
anla şma
ama ç</w>
alt ın</w>
a lama
a h</w>
K ana
yaz dım</w>
vücu du
va kit</w>
uça k</w>
ter sine</w>
tek er
stan d
ob je
o lar</w>
miz le</w>
mey dan</w>
lin də</w>
ler idir</w>
kura l</w>
kol tu
ki ler</w>
kaz ana
karşı laşı
iş lem</w>
hayvan ların</w>
gel dim</w>
es kiden</w>
duy dum</w>
ca ğımız</w>
bahs ettiğim</w>
Y un
Y u
Ka dın
E in
Deği l</w>
1 .</w>
söyle yen</w>
oluşu yor</w>
ola yı</w>
mül te
mu yor</w>
ma s</w>
kısı m</w>
kolay ca</w>
is mi</w>
i d</w>
geçir dim</w>
geç iş</w>
e leştir
di oksi
değiş ti</w>
d ra
T ə
Kaliforni ya</w>
Avu stral
şey lerle</w>
şe mpan
Şim di
İsra il</w>
yön de</w>
yol la</w>
yan ına</w>
vah şi</w>
u sta
plat for
ol un
oda da</w>
mik tar</w>
le dim</w>
his si</w>
el le</w>
e ler</w>
bir leş
anah tar</w>
an iden</w>
alt ındaki</w>
alan a</w>
akt arı
a m</w>
Ve ya</w>
S ev
P en
P an
Mer ha
Her hangi</w>
öne mi</w>
ver me</w>
teknoloj ik</w>
st anın</w>
s arı</w>
r ız</w>
mimar i</w>
la dılar</w>
kül tür</w>
konuşma yı</w>
ki tle
ka lıyor</w>
k er</w>
ha mi
f ər
ca sı</w>
barı ş</w>
al ma</w>
M ut
M i
E le
Ar kada
ön e</w>
çalışma sı</w>
yapma sı</w>
tə rə
topla m</w>
sı kı</w>
sorun lar</w>
si r
seviye de</w>
sahip ler</w>
pr oto
po zi
pay laşma
olaca ğız</w>
mi ydi</w>
malı sınız</w>
ma yız</w>
lama lar</w>
kri tik</w>
karşı ya</w>
ik en</w>
has sas</w>
gel ince</w>
enf ek
dö v
di lər</w>
biraz cık</w>
bera ber
as yon</w>
a ya</w>
Y ük
He y</w>
Gör ü
Fark lı</w>
Ein stein</w>
ş im</w>
üste sinden</w>
çeşit li
yöne tim</w>
yetiş kin</w>
yaz ar
yaca ğız</w>
v or
top rak</w>
sınır lı</w>
sıf ır</w>
so h
s ünü</w>
robot lar</w>
pa zar</w>
p le</w>
oto matik</w>
organ ize</w>
olur sanız</w>
olu yorlar</w>
m ot
ları mızda</w>
ko lek
kate gor
k lığı</w>
iste miyorum</w>
is im</w>
iler le
etkileş im</w>
etki leyici</w>
ek ran
dünya sında</w>
diza yn</w>
değişik liği</w>
demokra si</w>
ber t</w>
bahsede ceğim</w>
arkada ş</w>
araç ları</w>
ak lı</w>
a cil</w>
V en
Ha la</w>
Ey lü
Bir i</w>
B os
özel liği</w>
yu var
ye tik</w>
yapı lıyor</w>
tu r</w>
teknoloj i
tari h</w>
t ör</w>
sür en</w>
söyle dim</w>
sev gi</w>
rüz gar</w>
oto bü
oran ında</w>
oluşturu yor</w>
mi s</w>
mi miz</w>
meş gu
me c
lı klarını</w>
luğ unda</w>
kay dı</w>
hiss ettim</w>
ha k</w>
görü len</w>
erkek lerin</w>
ek leri</w>
də ki</w>
düşündüğ üm</w>
civar ında</w>
boy u</w>
bil mə
ba ma</w>
b ölü
ada mlar</w>
G i
Dün yada</w>
yaşa dığı</w>
um arım</w>
ti s
söyle diler</w>
ses siz</w>
sal dır
s et
oldu lar</w>
ma t</w>
m lara</w>
lı q</w>
ley ici
kar e</w>
ha c
gözükü yor</w>
fa lan</w>
etti ğiniz</w>
dürü st</w>
duru ma</w>
du ya
don anı
bir lik
ba sı
at ın</w>
Y ara
Ner edeyse</w>
Ş ir
çalışma lar</w>
yer leş
ya ya</w>
ver iyi</w>
st re
siz ler</w>
si vr
se sini</w>
potansiye l</w>
oturu p</w>
me kti</w>
m or
kayı t</w>
kay bet
is tasyon
hiss etme
h or
gar a</w>
eğiti mi</w>
et li</w>
ede lim</w>
de ler</w>
de gi
cüs ü</w>
bin i</w>
be sin</w>
ba z
ar d</w>
aklı ma</w>
Ti mes</w>
Si ya
S ta
M ə
Es ki</w>
Dar w
Üç üncü</w>
Çocu klar</w>
vere ceğim</w>
u şa
te l
sə bə
sür dür
son a</w>
ra dikal</w>
ola bilirdi</w>
oksi jen</w>
nüf us</w>
li yet</w>
la t</w>
kullana biliriz</w>
kişi lerin</w>
keşi f</w>
kan al
ibar et</w>
ha n</w>
gönül lü</w>
g h
endişe len
cü l</w>
c il
beklen ti
am ma</w>
a s</w>
Top lu
S ey
Hin di
çek il
yor .</w>
yet inde</w>
ye cek</w>
yaratı yor</w>
ya zı</w>
tır man
tama mıyla</w>
ta vu
sıkı cı</w>
pozis yon
or du
mən im</w>
mo bil</w>
maka le
lar sınız</w>
ka ste
ka da</w>
iz m</w>
inan ın</w>
hakk ı</w>
gen işle
geliş me</w>
fikr im</w>
der ler</w>
dal ga</w>
bilece ğine</w>
baş ı</w>
b un</w>
ay ında</w>
O la
L ü
L os</w>
B öyle
A şa
İ tal
ür etmek</w>
öğren dik</w>
öz gür</w>
z er</w>
umuz un</w>
t leri</w>
t iniz</w>
sanat çı</w>
rı yor</w>
ora daki</w>
olma sa</w>
mi yim</w>
m se
lerimiz de</w>
lar ız</w>
kar ınca
kal mış</w>
k inin</w>
har cı
ha sı</w>
gü dü
göre biliriz</w>
geliştir mek</w>
gele bilir</w>
galak si
fark ettim</w>
dışarı da</w>
düşünü yordum</w>
duy gu</w>
bu günkü</w>
ba kteri</w>
art tır
Sos yal</w>
I T</w>
He men</w>
F ili
öz gü</w>
çalışı yorlar</w>
yaşa dığımız</w>
ver diğimiz</w>
uğra şı
tril yon</w>
siz den</w>
renk li</w>
raka m</w>
p lar</w>
p lan</w>
me l
m ların</w>
la dığımız</w>
kur tarı
kar iyer
ka yıp</w>
göz den</w>
gök yüz
fiz ik</w>
et er
düşündüğ ümüz</w>
benze yen</w>
bakar sak</w>
açı sı</w>
ay lık</w>
T V</w>
H ü
H ig
E kon
3 5</w>
yü r
yer leri</w>
y ur
uy arı
tale p</w>
s lı</w>
oldu g
mı mız</w>
mu c
lik li</w>
kullanı mı</w>
kullanı la
koy mak</w>
iz leye
im kan</w>
har d</w>
gibi dir</w>
gel dik</w>
fel se
es te
dola yısıyla</w>
di le
baş kan
alış ver
T o
San ki</w>
In ter
şehir de</w>
şe hri</w>
ş tan</w>
Ş i
İş in</w>
İnanı lmaz</w>
ço ktan</w>
ça t
Ç ev
zek a</w>
zaman ında</w>
yakı t</w>
taraf tan</w>
sıra dışı</w>
suz luk</w>
sah ne</w>
ra cak</w>
r sak</w>
par k</w>
nes il
me diği</w>
lan dığı</w>
la tı
ku sur
ga z</w>
etki le
endi şe</w>
en leri</w>
e mp
diğer leri</w>
değiştir en</w>
der i</w>
bo ya
baş qa</w>
ba sa
a lar</w>
Y ok
Tama men</w>
Sonuç ta</w>
S al
R os
NA SA</w>
Kim se</w>
Kana da</w>
Ge le
Eylü l</w>
Ara p</w>
20 .</w>
19 6
1 ,
çek e
zaman ın</w>
y iz</w>
un ku</w>
söyle diğim</w>
sandal ye
re fa
rad yo</w>
pr os
mühendis lik</w>
mey in</w>
ma dığı</w>
m dı</w>
lider lik</w>
kullanı yorlar</w>
ko l</w>
ke y</w>
görünü ş
f an
der son</w>
dakika da</w>
bilecek lerini</w>
a şı</w>
a da</w>
W ash
S ü
S u</w>
Kendi si</w>
D ış
ə la
çerçe ve
çalış arak</w>
yı lı
yön e</w>
yanı l
tı lı</w>
sen ar
sağ lığı</w>
s una</w>
oyn u
oku ya
muz u</w>
man ları</w>
kö ken
kal bi
iş im</w>
imkan ı</w>
ha ki
göster ir</w>
gö v
guru r</w>
dör t
diğer ine</w>
ciha z</w>
bölge de</w>
böl ün
a ktar
M ik
K ut
Ba h
1 50</w>
şek er</w>
İ ş</w>
çek ir
yol ları</w>
yapa lım</w>
va syon</w>
ti mi</w>
ter e
temel de</w>
sı t
stand art
sor mak</w>
sistem ini</w>
san ay
piş ir
oğ lu</w>
ol o
ma ma</w>
kı la
ka in
jin al</w>
j ener
iy el</w>
insan i</w>
in di</w>
iddi a</w>
far ke
edil mesi</w>
dön düm</w>
da dır</w>
can landır
bakı yor</w>
b ın</w>
artı yor</w>
an ında</w>
alt yapı
ada p
a sı</w>
S iste
İ ran</w>
w ood</w>
top lu</w>
ter ap
tat lı</w>
standar t</w>
saat te</w>
oyun cu
ma ktı</w>
m ara
kullan dığı</w>
kları m</w>
ke sin
kayı t
katkı da</w>
k tadır</w>
hikaye sini</w>
hazır da</w>
hava da</w>
haq da</w>
el inde</w>
bir i
bilg inin</w>
bil ər</w>
ba sın
ate ş</w>
al dığı</w>
B izi</w>
ə y
şef fa
Ön ce</w>
yeni lik</w>
tip ik</w>
su l</w>
pay laş
ol manız</w>
maz lar</w>
ma cer
m öv
lı ş</w>
li se
ları ma</w>
kü tüp
kaçı r
iyile ş
istifa də</w>
ir iz</w>
h ır
gezegen in</w>
g o
durum un</w>
di şi</w>
da ire
da ima</w>
cüm le
cinsi yet</w>
ce l
c isi</w>
birbir leriyle</w>
bir araya</w>
ayn en</w>
anı m
alı şı
ala cak</w>
P i
M IT</w>
Geor ge</w>
G S
Ekon o
E k
Dünya daki</w>
Do kt
A le
şi f
şan s</w>
yeme ği</w>
y unu
tanıştı m</w>
ta cak</w>
ta bi
st ra</w>
se çe
sa dü
progra m</w>
or man</w>
olma ması</w>
miş lerdi</w>
maliyet i</w>
lama z</w>
ko z
k ter</w>
har f
gör sel
grup lar</w>
gru bu</w>
fır t
eya let
edi yordu</w>
eder ler</w>
doğ anın</w>
di si</w>
di re
ba t
ağ ac
ay da</w>
ar eti</w>
a liyet
Wash ington</w>
Sa h
Meksi ka</w>
M S</w>
Gü ven
B eş</w>
Avustral ya</w>
şı klık</w>
İs pan
İl g
ümüz ü</w>
yara tan</w>
va de
ti ğinde</w>
ti kçe</w>
se çi
ra por
p iyan
olu şma
okul da</w>
no t</w>
mü yor</w>
mp i
mi kt
ma mış</w>
ma mızı</w>
li yordu</w>
ler ime</w>
leme nin</w>
kı zı</w>
kre di</w>
iy isini</w>
gözü k
göster eyim</w>
g ini</w>
di ya
den k
de ste
de h
bilər siniz</w>
b ölüm</w>
aya kta</w>
ay r
ale sef</w>
S tan
Har var
Ce va
A na
1 5
şehi rler</w>
ısı r</w>
ın tı</w>
İl ki</w>
ünü r
örnek ler</w>
Ü zer
yaklaşı m</w>
uyuşturu cu</w>
uy du
tü d
teknoloj isi</w>
suç lu
siya hi</w>
sistem inin</w>
s ok
profes yonel</w>
mi m</w>
lik e</w>
kö mü
keli meler</w>
kaç ını
kahka halar</w>
kadın lara</w>
iy idir</w>
ik iye</w>
görü şme
göre vi</w>
geç mek</w>
gel mek</w>
fa vor
ev len
durum unda</w>
değiş im
d ını</w>
d ından</w>
bö cek</w>
bisik let</w>
birey sel</w>
bir idir</w>
bilgisayar lar</w>
aşa ma
Pa ul</w>
P S</w>
Fran sa</w>
Doğ ru
D in
B it
şan sı</w>
ı sı</w>
öğren ciler</w>
çalışma yı</w>
çabu k</w>
veri yorlar</w>
umur sa
tə n</w>
teknoloj iler</w>
sa bah
ra daki</w>
num ara</w>
mü ze
lana cak</w>
l y</w>
klin ik</w>
k inden</w>
g s</w>
fayda lı</w>
en iz</w>
dı ran</w>
dönüştür ü
duru p</w>
da lar</w>
ce sur</w>
birbir imize</w>
bilmi yordum</w>
bilmi yor</w>
bil dik</w>
bağım lı
ba r</w>
al da
Y ou
Sor un</w>
M ısır</w>
Ku ru
Ka dın</w>
200 8</w>
2 1</w>
2 1.</w>
19 7
öğretme n</w>
vatanda ş
un cu</w>
traf ik</w>
teknoloj ileri</w>
ta baka
t ün
sı fır
sor unu
sem bol
sağla m</w>
say fa</w>
olan ları</w>
ola biliriz</w>
o f</w>
n iyet
merkez inde</w>
meli siniz</w>
mekan ik</w>
mak in
ler imden</w>
kı ta
kut sal</w>
kullan dık</w>
ke y
kal mak</w>
kal dım</w>
j i</w>
herke si</w>
hayatı mın</w>
hayat larını</w>
görür üz</w>
gele s</w>
edi yorsunuz</w>
düzey de</w>
devr im</w>
ci ğer</w>
c oğraf
bir iydi</w>
bahsedi yorum</w>
ba ktı</w>
avan taj
Sonra sında</w>
Nijer ya</w>
H ika
Günü müzde</w>
G eri</w>
F i
E traf
De m
A çık
şi ir
öde me</w>
yol unda</w>
tama mı</w>
soru ları</w>
sistem ler</w>
seçen ek</w>
se ydi</w>
s ler</w>
mas raf
man ıza</w>
lma z
li e</w>
laş mış</w>
lan lar</w>
köp ek
kula ğa</w>
kt eki</w>
ka bul
k ler</w>
isti yordum</w>
iler leme</w>
ik leri</w>
hatır lat
hareket leri</w>
düşün dük
dönüş türe
doğ u</w>
dok unu
dina mik</w>
büt çe
boş lu
bazı larını</w>
azal t
aya ğa</w>
Ric hard</w>
K ara
Harvar d</w>
At lan
Anne m</w>
An geles</w>
A maz
ə t
ınız la</w>
ürün leri</w>
ö le
ya lan</w>
ta li
s ül
orta mda</w>
me sinden</w>
matema tiksel</w>
lər ə</w>
le te</w>
ları mızdan</w>
kişi den</w>
kap ita
im za
iler iye</w>
hi p</w>
hari ta</w>
güven ilir</w>
göst ər
gir di</w>
fırsa tı</w>
eği lim
ek mek</w>
düş en</w>
düzen li</w>
durum larda</w>
dağı tı
bırak mak</w>
bil diğini</w>
ak in</w>
Tan rım</w>
Sey ir
Bura ya</w>
Bili yorum</w>
An derson</w>
ç ta</w>
â l
y ip</w>
v ara
uza ktan</w>
tü k
t un</w>
sı ç
meye ceğim</w>
la syon
kural ları</w>
kara kter</w>
iş lerini</w>
i yordum</w>
ge si</w>
fakt ör
evr en</w>
etme sini</w>
dığ ınızı</w>
ceği mi</w>
ce ğin</w>
büyü yen</w>
bir iyle</w>
bilir lik</w>
bağlantı lı</w>
ba k</w>
açık lama
a d</w>
Ph one</w>
Ne w
M ak
He m</w>
Hay di</w>
G u
Bu l
Bil l</w>
Ap ple</w>
An ne</w>
6 00</w>
ödü l</w>
ç ünki</w>
ver siyon
ti miz</w>
tasarı mı</w>
tartı şma</w>
siste me</w>
saniye de</w>
of is
n ik</w>
mah ke
m be</w>
lanı p</w>
landı ra
ku antum</w>
korkutu cu</w>
kları yla</w>
he kay
giri p</w>
eg zer
dı klarında</w>
degi l</w>
de diğim</w>
bin de</w>
bin anın</w>
belir ti
aş k</w>
astr ono
a sı
K ol
C O
B .
1 000</w>
çık mış</w>
çoğ umuz</w>
çe liş
Ö ne
yapı lar</w>
ya vru
tərə f
söy ler</w>
sonuç ta</w>
si f</w>
p ark
ola maz</w>
ne y</w>
n y</w>
mi r
makine si</w>
le mi</w>
la yın</w>
kö le
konuşa cağım</w>
ke mik
kar t
k ken</w>
iç ik</w>
ilg isi</w>
id are</w>
hep sinin</w>
hep iniz</w>
göre biliyorsunuz</w>
geçir mek</w>
gerçek leşme
geliş en</w>
fa aliyet
etme z</w>
etki leyen</w>
etki leri</w>
etk in</w>
engel li</w>
el bi
dığ ından</w>
dünya sı</w>
cu k</w>
birbir iyle</w>
ba kan</w>
an ima
Tekn oloji</w>
S ur
Merha ba</w>
9 9</w>
İnsan ları</w>
öte sine</w>
ölçek te</w>
çalışma ları</w>
yet eri</w>
yapa bilirim</w>
umu şa
tas yon</w>
taraf a</w>
sahi bi
s ten</w>
resim ler</w>
re h
problem leri</w>
os uz</w>
olmu yor</w>
ola bileceği</w>
oku ma</w>
og lar</w>
mı yordu</w>
mi t</w>
maka le</w>
ma dığını</w>
kural lar</w>
kah ve</w>
gör en</w>
fen o
etraf ta</w>
es na
düşünür seniz</w>
doldu r
d â
bağı ş
baka cak</w>
arı yla</w>
al ın</w>
al tı
V ü
Har ek
Ba y</w>
üre ten</w>
ör üm
ço x
âl â</w>
yönte mi</w>
yer in</w>
yara r</w>
yak ında</w>
to z
t re</w>
p ür
olur sunuz</w>
ob j
me den
lar ınızın</w>
kişi lik</w>
karbon dioksi
i f</w>
gel diler</w>
f on</w>
dü şe
di ven
demokra si
cağı mı</w>
bili yorduk</w>
bilgi ler</w>
belir t
bak maya</w>
alan larda</w>
TE D
P or
O h</w>
K ur
En sti
E l</w>
Dem okra
D ik
Al lah</w>
2 7</w>
ğı r</w>
yapma lıyız</w>
yak laştı
veri yoruz</w>
um dan</w>
sürü k
süreç te</w>
se t</w>
sa a
o tiz
nor malde</w>
n den</w>
mı m</w>
malze me</w>
ma sız</w>
l dığı</w>
kabili yet
ile t
gör müş</w>
f ut
döne m</w>
bu l</w>
ağ rı
Yük sek</w>
Tı pkı</w>
T ho
K ü
şa h
ğ inizde</w>
üre tim
ö m
çözüm ler</w>
çağ rı
çalıştı ğı</w>
yors unuzdur</w>
ye l
yapa bilmek</w>
yap manız</w>
ya zar</w>
u st
tecrü be</w>
söz ü</w>
soğ u
sefer inde</w>
r dım</w>
qi qə
pozi tif</w>
oluşu r</w>
ol f</w>
mikt arı</w>
metre lik</w>
laya bilir</w>
l ına</w>
kısa ca</w>
kları mızı</w>
ke mik</w>
kalı cı</w>
isti h
iste dikleri</w>
hika yenin</w>
gör dünüz</w>
fos il</w>
eş siz</w>
eği t
deği şe
de m</w>
c ını</w>
aç tı</w>
an lık</w>
al dılar</w>
T ür
O bama</w>
M art
Konu şma
K ır
I s
H ol
Dör t</w>
Darw in</w>
A dı</w>
20 10</w>
1 9</w>
şə k
ştır mak</w>
özel likleri</w>
zorunda sınız</w>
z sınız</w>
yaş ına</w>
teknoloj iye</w>
si mü
olu yordu</w>
müz deki</w>
laya biliriz</w>
komp lek
kend inize</w>
k taki</w>
iy ə</w>
hak lı</w>
ha len</w>
diğ inden</w>
dikka te</w>
demokra tik</w>
ce ğine</w>
büyü kan
bilin çli</w>
bili yor
bi yol
b ə</w>
ap tal
alış kan
a g
a bilir</w>
V ir
P ak
Merke zi</w>
H ə
C E
şan sı
çev ri
çarpı cı</w>
Ö lü
zor lu</w>
yol dan</w>
yer inden</w>
viz yon
uça n</w>
sür dü</w>
sistem ine</w>
miş tik</w>
me tal</w>
m ba</w>
lər ini</w>
lik lerini</w>
kıya fet
ku lak</w>
kendi sine</w>
kal ma</w>
ilg inç
h uz
gülü şmeler</w>
ede ceğim</w>
dönüş üm</w>
du var</w>
dok u</w>
bileceği z</w>
b o</w>
alterna tif</w>
al dığımız</w>
ak ra
Sava şı</w>
San at</w>
S ana</w>
Gör ün
G an
Char les</w>
Baba m</w>
B al
şe t</w>
üreti l
öğren diğim</w>
çık mak</w>
çoğun luğu</w>
yaşa mı</w>
yapma m</w>
yap ın</w>
vide o
tü k</w>
si m</w>
pren si
p lak</w>
mı ydı</w>
müş tüm</w>
müda hale</w>
mot or</w>
mayaca ğım</w>
may mun
malze me
lü kte</w>
lan mak</w>
kon ser
ko p</w>
kla sik</w>
kendi sinin</w>
isti yorsunuz</w>
im kâ
ic inde</w>
he ve
gra m</w>
gider ken</w>
gi de</w>
geçmiş te</w>
düğ ünde</w>
dön dü</w>
dip lo
değişik likler</w>
değil se</w>
ci ğer
bun da</w>
bili min</w>
baş kanı</w>
ba lı
ba ba</w>
ay na
alın an</w>
ala bilir</w>
aca ba</w>
P r
L o
Ja mes</w>
E vr
ştu r
şirket lerin</w>
öp orta
çift çi
çeşit lilik</w>
yenilik çi</w>
tür leri</w>
tür de</w>
tu tan</w>
sız ın</w>
sp or
sonra dan</w>
pen gu
orta m</w>
on da</w>
olduğ udur</w>
man lık</w>
lma sına</w>
ler in
l dığında</w>
kö r</w>
kr izi</w>
ken ara</w>
kar ma
kan un
kadın ları</w>
k içik</w>
insan lığın</w>
ik isini</w>
h ek
gün den</w>
gerçekleş tire
ger ide</w>
gelecek teki</w>
endüst ris
dı q</w>
dı kça</w>
duğ unuzda</w>
dey dim</w>
ca ğınız</w>
bilme leri</w>
bileceği mi</w>
bilece ğinizi</w>
bi ti
bes len
arkadaş larım</w>
ar tır
ar sınız</w>
anlatı yor</w>
alı yorlar</w>
al dığım</w>
K iş
Böyle likle</w>
Ar dından</w>
ı l</w>
öz et
ö türü</w>
çıkar dı</w>
çöz ünür
çocuk ken</w>
yı cı</w>
vi s</w>
v ol
sın ız
s unun</w>
p re
ma den
lər də</w>
la şan</w>
kayna klı</w>
ka s</w>
iste diğini</w>
ir siniz</w>
i Phone</w>
hayatı mı</w>
hayat ının</w>
ha di</w>
geliş tire
evrim sel</w>
e de</w>
de fa
d inin</w>
c enin</w>
bitki ler</w>
bakı m</w>
aça n</w>
ayrı ca
anız da</w>
a lı</w>
Yak ın</w>
R I
G re
G ar
E t
B ay
A man</w>
6 5</w>
şempan ze
ücret siz</w>
öyle sine</w>
ör tü
önem se
çalış tı</w>
yaz dı</w>
y wood</w>
uçu ş</w>
toplu mu
test i</w>
sını r</w>
sivr isin
siniz dir</w>
san tra
pak et
otor i
okul u</w>
n dan</w>
mə yə</w>
m ine</w>
ler inizin</w>
lama ları</w>
kırı l
konu m
kontrol ü</w>
ka mu
itibar en</w>
hücre si</w>
hti ya
hiç biri</w>
hav uz
ha sa
görün mez</w>
giri yor</w>
fikir lerin</w>
eş ya
edi r
düşünü yorsunuz</w>
düşüne lim</w>
dönüş tü</w>
di yim</w>
deği şiyor</w>
daki ler</w>
da h
büyü leyici</w>
buyu k</w>
a tık</w>
Ste ve</w>
Ken d
K ız</w>
G PS</w>
F ot
B as
əvv əl</w>
şirket leri</w>
İs veç</w>
İlg inç</w>
ür ü
ömü r
çalış manın</w>
zir ve
zev k</w>
z o
yarı şma
u cu</w>
tə h
tik ten</w>
te sadü
te ca
tan rı
t ə</w>
sıv ı</w>
si g
ses ler</w>
sah te</w>
reka bet</w>
prote in
proj enin</w>
mez un</w>
m ə</w>
lık çı
ları mla</w>
landır ma</w>
la f
kı lan</w>
ku tu</w>
hesa p</w>
haber ler</w>
göster diğim</w>
f ə
f o
en gel</w>
dördün cü</w>
di yordu</w>
der im</w>
birey ler</w>
açı ğa</w>
Rus ya</w>
P ek
M al
L at
Gen ç</w>
Ge ze
G it
Fran sız</w>
Al tı</w>
Afri kalı</w>
200 9</w>
2 2</w>
şimdi ki</w>
üst ün
önce si</w>
yüz ü
yap ra
um un</w>
tür ler</w>
te tik
ri miz</w>
proje si</w>
olur lar</w>
oll ywood</w>
na z
na dir</w>
n enin</w>
mə nə</w>
meslek taş
ma sından</w>
lə n</w>
lığ ından</w>
landı ğını</w>
kurulu ş
kullanı lıyor</w>
iş çi
i ciler</w>
gün ey
görün e
etme den</w>
düşünü rü
düzel t
duğ umda</w>
doldu ru
di le</w>
deney imi</w>
bilir seniz</w>
bilir diniz</w>
an s</w>
Par is</w>
N ic
Mic ha
Ha w
Fran cis
Ele kt
B M</w>
Şir ket
ıntı lı</w>
İnter net
özgür lük</w>
ön görü
çoğ unun</w>
yumur ta
tra v
ti yat
tav siye</w>
tasar lanmış</w>
tan ın
sev gi
r ik
r en</w>
p ir
olma m</w>
olay lar</w>
ol unca</w>
o -
nokta lar</w>
mu ştur</w>
man tar
ma ların</w>
kır sal</w>
konu şan</w>
kimya sal
kan ın</w>
ilgi lidir</w>
hayatı m</w>
hafta da</w>
gel me
der iz</w>
cı ydı</w>
bir inden</w>
ba ğ</w>
ara z
U y
Kendi mi</w>
Hig gs</w>
3 .
ümüz ün</w>
önce sine</w>
ölüm cül</w>
çocu ğa</w>
z u
y umuşa
vax t</w>
uç ur
ter si</w>
tak dir</w>
ta b
si s</w>
prote st
parça sını</w>
parça lar</w>
otu ran</w>
mə k
molekü ler</w>
mater yal
m ler</w>
lı yorsunuz</w>
ku zey
keşi f
iy isi</w>
internet te</w>
güc üne</w>
gördüğ ü</w>
g la
fazla sıyla</w>
düşün en</w>
doğru su</w>
di ş</w>
de miş</w>
can a
ca zi
bitir mek</w>
bir liği</w>
araba lar</w>
amacı yla</w>
ada let</w>
a dil</w>
Tho mas</w>
M ən
J on
H ak
Bir isi</w>
A y</w>
ə ni</w>
ğ unu</w>
önce likle</w>
çıl g
çu bu
ça k</w>
ç ə</w>
zayı f
z ə
yapar lar</w>
toplu ma</w>
teş his</w>
sınır ları</w>
sa f</w>
resi mde</w>
per spek
p ek
on larca</w>
olaca klar</w>
okyan u
müm kün
muz da</w>
mez den</w>
lan maya</w>
kor tek
klar dır</w>
keli menin</w>
il le</w>
hi c</w>
güç lendir
gitti ğini</w>
git meye</w>
gerekti ğine</w>
gerek ti</w>
e yi</w>
dö kü
duy ma
doktor a</w>
diy imiz</w>
den in</w>
da mar
ca dde
bölge lerde</w>
bul duğumuz</w>
bu güne</w>
biyoloj i</w>
as ını</w>
Uza y</w>
T ur
S ol
Ora ya</w>
M as
L akin</w>
Kö tü</w>
CO 2</w>
Bir inci</w>
A .
şekl ini</w>
Ş a
ürün ler</w>
çalışı yordum</w>
ç öl
yı la</w>
yu z</w>
yaşa ma</w>
v iç
toplu mda</w>
tes lim</w>
taşı yan</w>
tar zı</w>
sor duk</w>
sonu ca</w>
saç ma</w>
sa ha
s tüd
q i</w>
poli tika</w>
parça lara</w>
mı sınız</w>
mu ştum</w>
man yetik</w>
man da</w>
lu ktan</w>
lma mış</w>
lik lerin</w>
ku lü
kere sinde</w>
kal dıra
kabl osuz</w>
iy eti</w>
ilaç lar</w>
hikâ ye</w>
gön dere
gen o
geli yorlar</w>
far e</w>
f or</w>
eğlen ce</w>
edi a</w>
düş tü</w>
d un
ca kları</w>
c inin</w>
be dava</w>
akt ör
V ay</w>
Kor e</w>
Ha va
Francis co</w>
Eği tim</w>
De va
C on
Bil diğiniz</w>
B ə
2 3</w>
19 80</w>
1 7
ça ğı</w>
ça ba</w>
ç en
yür ür
yardı mı</w>
yarar lı</w>
y uz
vi re
uç uru
umu yorum</w>
teda vi
ta t</w>
sin ler</w>
savaş ın</w>
ro mo
r öporta
po mp
olma lıyız</w>
ola bilirler</w>
o ran</w>
mo da</w>
met in</w>
kor uyu
kanı t</w>
kad arıyla</w>
k iye</w>
ir seniz</w>
hiz meti</w>
hal kın</w>
ha z
ha stanın</w>
göre bileceğiniz</w>
gör dü
giri ş</w>
gerçekleş en</w>
gel mişti</w>
enerj iyi</w>
direk t</w>
da lı</w>
da k</w>
cı lara</w>
co m</w>
bir ileri</w>
baba sı</w>
anlat maya</w>
anah tar
ala k
Sa ğ</w>
K ral
Hü kü
F iz
C um
A sıl</w>
10 .000</w>
şekil lerde</w>
ği miz</w>
çevre sinde</w>
yöne tim
yarı yor</w>
yapma ları</w>
ver en
suç lu</w>
st i</w>
or gan</w>
kullanı labilir</w>
kullan mayı</w>
ki ra
keşf etmek</w>
ken dim</w>
ke ti
isti yorsak</w>
ilişki ler</w>
iletiş ime</w>
il de</w>
i e</w>
hesap lama</w>
he i
gə tir
ga l</w>
et in</w>
e p
düşün erek</w>
değiş en</w>
dene me</w>
dağı lı
cerra h
baba mın</w>
ara yı
a b
O kul
19 90</w>
. ...</w>
üz ər
öy rən
ön cü
ça maşı
ç ir
zor un
z u</w>
ya s
vade de</w>
u f
sıç ra
söyle meye</w>
soru ya</w>
sin e
sava şı</w>
sav unu
olma lıdır</w>
niha yetinde</w>
mı dır</w>
mi yordum</w>
mcı lar</w>
li der</w>
l or
kültür ü</w>
kur duk</w>
kullan ma</w>
karar lar</w>
kap atı
ka saba
k is
hü k
hei mer</w>
geç tiğimiz</w>
geç ici</w>
geliş im</w>
fonk siyon
etmek ten</w>
et miyor</w>
eksi k</w>
ef san
di zi
de f
da ydım</w>
cü k</w>
ci lere</w>
bil sey
b y</w>
ara zi</w>
alın tı</w>
Yap a
Yaln ızca</w>
Y ol
We b</w>
U n
G ra
Baş kan</w>
Afri kalı
5 .000</w>
ş ok</w>
ınız daki</w>
İs lam</w>
çöz ül
çe vire
Ö dü
zarar lı</w>
yara dı
ya ğ</w>
y ən</w>
ver erek</w>
uz man</w>
tı kları</w>
toplu luğu</w>
top ar
te dar
tar la
ta j</w>
sürü yor</w>
söyle meliyim</w>
st rü
soy ut</w>
sey re
san ın</w>
sal ını
sal gın</w>
saat lik</w>
r ön
pren sip
performan s</w>
oy unun</w>
on g</w>
oku dum</w>
o met
ne çə</w>
me lerine</w>
m leri</w>
lı sınız</w>
lin da</w>
kız ın</w>
küçü l
küre sel
kur ban
konuşur ken</w>
kendi miz</w>
kazan mak</w>
iş ten</w>
iliş kin</w>
hatır laya
gezegen de</w>
gez in
etme liyiz</w>
dönü ş</w>
der g
bul duğum</w>
bo ya</w>
bir imiz</w>
bil əcə
bağı şıklık</w>
ba m
ara zi
ara p</w>
S in
Micha el</w>
J os
Bir leşmiş</w>
A ma
200 7</w>
şi ir</w>
İn di</w>
öğren meye</w>
öldür ül
Ö l
yol larını</w>
ye mek
yazı lmış</w>
yapı lacak</w>
ya yı</w>
ver eyim</w>
unu m</w>
tarih inde</w>
tanı dık</w>
sır t
ser i</w>
sahip ti</w>
rüz gar
par anın</w>
oluşturu r</w>
na sil</w>
müz is
mü yle</w>
lüğ e</w>
lik lə</w>
leştir me</w>
lar ın
lan ın</w>
karşı lıklı</w>
karmaşı k
içer iyor</w>
hasta ların</w>
h re</w>
günü m</w>
görü lüyor</w>
gör mü
gör mezden</w>
etti re
eki bi
eder sek</w>
e lemen
di .</w>
dan s
da ş
da yım</w>
açık lama</w>
ayı rı
ara banın</w>
Vü cu
V ar
S tre
S eni</w>
Lü tfen</w>
J ac
Görü yorsunuz</w>
C hi
Bura dan</w>
Al z
Şim diye</w>
ında ydı</w>
üs tün</w>
ün ce</w>
ziy aret
yo x
yapı sı</w>
yapar ız</w>
yapa mayaca
v anın</w>
un d</w>
tek lif</w>
ta şı</w>
serma ye</w>
s unda</w>
ri t
qiqə tən</w>
oğl unun</w>
olma kla</w>
n iye</w>
mer can
malı yım</w>
ma larına</w>
lendir me</w>
lar sanız</w>
lama sını</w>
kız lar</w>
kıs mında</w>
keşf ettik</w>
ke mi
kat ına</w>
karı ştırı
iz lemek</w>
ince le
ili ği</w>
ili r
iler leme
i ti</w>
hayvan ları</w>
hasta lıkları</w>
gelece ğin</w>
f rek
etme z
etki ler</w>
du sun
di gi
der di</w>
ce p
ca klarını</w>
c iydi</w>
büyü düm</w>
bölge sinde</w>
bulun du</w>
bil inç</w>
bil dim</w>
bek leme
bay lar</w>
ba yağı</w>
açık lamak</w>
ap tal</w>
an d</w>
an caq</w>
a x
a si
Yüz de</w>
ı za
İnsan lara</w>
ülke deki</w>
çı lar</w>
çö p</w>
çek ti</w>
çalışı yordu</w>
zaman ki</w>
yo x</w>
yarat tı</w>
yanı t</w>
w n</w>
veri yorum</w>
uğra ştı
uz er
tü y
tic aret</w>
sor us
or da</w>
olu yoruz</w>
ol e</w>
o x
mem n
kırı k
inanı yoruz</w>
im dir</w>
h en</w>
eşit siz
evren de</w>
etme ye
enerj isi</w>
en lerde</w>
ede ceğiz</w>
döne lim</w>
duy mak</w>
din lemek</w>
di sip
da ğ</w>
büyüklüğ ünde</w>
bil meniz</w>
başarı sız
ağ ın</w>
ara sından</w>
a ları</w>
Yaşa m</w>
Pak istan</w>
Müslü man</w>
La boratu
Er kek
Bilgisa yar</w>
Bilgisa yar
Be yaz</w>
B in
Açı k</w>
Amaz on</w>
Al man</w>
19 60</w>
Öğ r
yer yüz
yaşa dığım</w>
var mış</w>
uz anı
tasarru f
sal g
p ları</w>
mo bil
mi za
meşgu l</w>
mesaj ı</w>
ma dık</w>
lər lə</w>
lik on</w>
li siniz</w>
li mit
leye bilir</w>
l o</w>
kü r</w>
kr iz</w>
kita bı
kazan dı</w>
ka ba
ir sek</w>
ir di</w>
i ğe</w>
hidro jen</w>
harita sı</w>
gittiği mde</w>
gidi yoruz</w>
fikr in</w>
fi l</w>
etk isini</w>
eri şe
el ə</w>
dük kan
do muz</w>
diğ ince</w>
dey se</w>
buz ul
boz ul
bir lik</w>
benim se
bek leyen</w>
arka sındaki</w>
anı m</w>
ana li
an ları</w>
an dan</w>
Za man</w>
T om</w>
M in
L u
Ha va</w>
Fili st
D uru
C en
Bir bir
Ben de</w>
B r
Alz heimer</w>
şahi t</w>
ş o
İ ste
ülke ye</w>
Ç in
yu va
yeten eği</w>
yapar sınız</w>
ver gi</w>
ulaşı m</w>
ser a</w>
se mp
sa kin
prote in</w>
ot er
min ik</w>
mi mi</w>
mark et
malze meler</w>
le şi
ları mızla</w>
lan ama
kullanı cı</w>
kazan dır
kan at
ka f
k ta
i lere</w>
heye canlı</w>
har iç</w>
h ərə
fər q
el ini</w>
ek ip</w>
e leri</w>
dış ındaki</w>
duyu yorum</w>
doğ an</w>
di lim
değil dim</w>
de li
cesar et</w>
c in</w>
bir kaç
bir isinin</w>
bakı yoruz</w>
at mak</w>
art tı</w>
anlat tı</w>
ana liz
aile si</w>
On dan</w>
L in
Kı sa
Bos ton</w>
Bel ə
A l</w>
A R
3 2</w>
ş ına</w>
üz ü
öz ü</w>
çıkarı yor</w>
yıl larca</w>
yapar sanız</w>
y iy
to p</w>
tan esini</w>
ta ş</w>
t he</w>
sı ğın
sorumlu luk</w>
s .</w>
ris ki</w>
re j
ra s
proje ler</w>
problem ler</w>
nüfus unun</w>
nüfus un</w>
nö ron</w>
ne bilir</w>
n er</w>
mü te
mer can</w>
mem nun</w>
luğ una</w>
li miz</w>
ler iz</w>
lan mıştı</w>
l maya</w>
l l</w>
kız ların</w>
kt ə
kaçı rı
kay da</w>
ka vu
ka bile
iş lerin</w>
imiz le</w>
hikaye leri</w>
hay ret</w>
hava ya</w>
hasta lar</w>
güzel lik</w>
güc ünün</w>
gü b
göster diği</w>
görüntü ler</w>
getir ir</w>
geliştir me</w>
gelece ğe</w>
g lobal</w>
g h</w>
g anda</w>
et ro
elektrik li</w>
duy duğumuz</w>
der inden</w>
bir -
bi tire
bi k</w>
başka larının</w>
ar ız</w>
O n</w>
Ge liş
şekil leri</w>
öte si</w>
ö mer
çiç ek</w>
çar e
yeter siz</w>
yarat tığı</w>
yaca ğını</w>
vücu t
uc unda</w>
toplu mu</w>
teker lek
tat min</w>
sür pr
st ə
soka k</w>
sin yal</w>
say gı
sah neye</w>
s tir
ru h</w>
rol ü</w>
or ke
o be
nes ne</w>
mə h
müz iği</w>
man a</w>
lı ydım</w>
lene bilir</w>
lar lar</w>
la mış</w>
la dığım</w>
l ini</w>
kullanı lma
konu lar</w>
kaçını lmaz</w>
iş it
iç e</w>
isti k</w>
iste diler</w>
hükü meti</w>
hâl ine</w>
hay ran
has sa
h ız</w>
göre ceğiz</w>
göre biliyoruz</w>
gö ç</w>
düşü yor</w>
deney ler</w>
de g
ca ktı</w>
beyn inin</w>
ba z</w>
ay la</w>
arkadaş ları</w>
anti biyo
Pro j
Po li
Devlet leri</w>
Ceva p</w>
Ba sit</w>
Amerikalı lar</w>
ölü yor</w>
ö len</w>
çö kü
yə t</w>
yiye cek
yaşa mış</w>
yapı sını</w>
yaptı r
ya ğı
ya lar</w>
veri p</w>
sa ire</w>
s ön
ra t
proble min</w>
piyasa ya</w>
oğ lu
oyun ları</w>
olum suz</w>
olu ruz</w>
oku mak</w>
na k
man zara
mak ta
lü r</w>
ları ydı</w>
la zı
l dığını</w>
kıyas la</w>
kt ü</w>
koy dum</w>
kon sep
kitap ları</w>
kitap lar</w>
kaç ın
karşılaştı rı
kam yon
k ine</w>
ila cı</w>
hasta lığın</w>
getir diği</w>
gerçekleş ti</w>
ger cek
ga y</w>
g rip</w>
fela ket
f eri</w>
etme kte</w>
elekt ri
dolar dan</w>
diye biliriz</w>
detay lı</w>
cə k</w>
bölge si</w>
bulu p</w>
başla dığı</w>
bas ın</w>
ba yı
ba yan</w>
açı p</w>
Ma h
Joh n
J e
Ha yat</w>
De di</w>
D on
An t
An caq</w>
1 6
şidde tli</w>
üreti mi</w>
çözüm ü</w>
çö k
çeşit liliği</w>
yaşı yorlar</w>
yaşa m
yayı m
yapı yorsunuz</w>
vide oyu</w>
uyum lu</w>
un e</w>
tutu k
ta mir</w>
t in
söylü yorlar</w>
söyleye ceğim</w>
sin də</w>
si gara</w>
se b
sa b
rad ya
psik olojik</w>
p yeni</w>
oper asyon
oda daki</w>
o gra
mə t
müz e</w>
mu ri
ma sıdır</w>
m deki</w>
ley iciler</w>
lendir en</w>
istəyir əm</w>
ister siniz</w>
iste diğimi</w>
internet e</w>
il l</w>
ihti mali</w>
hücre lerin</w>
hayatı mda</w>
har can
haf ıza
görüntü sü</w>
gize mli</w>
gerçek leşiyor</w>
g al
fazla dan</w>
evr imi</w>
enerj inin</w>
endüstr iyel</w>
ede bileceğiniz</w>
du a</w>
diz ili
değiştir meye</w>
den ir</w>
den bire</w>
de mişti</w>
cı mız</w>
ca lis
bula bilirsiniz</w>
bu r</w>
açık çası</w>
aç mak</w>
an ların</w>
an ki</w>
akti v
ada let
You Tu
T ü
Pa sifik</w>
Mar y</w>
F l
D an</w>
Bir liği</w>
Ba ğı
A. B.
ş ap
çıkarı p</w>
çöz meye</w>
çek ildi</w>
zor luk</w>
yüz e</w>
yeten eğ
ya tan</w>
ti yle</w>
tep ki
tari f</w>
su da</w>
stüd yo
ster o
senar yo
sen sör
san mıyorum</w>
sahne de</w>
sa kla
rek lam</w>
oran ları</w>
on al</w>
olaca ğına</w>
oku yu
nokta sına</w>
nokta ları</w>
muh temel</w>
mayaca ğını</w>
laşı yor</w>
las yon</w>
landır mak</w>
kat kı</w>
karı ştır
iz de</w>
insan la</w>
insan dan</w>
his sə
göz le</w>
gen om
ettik lerini</w>
etraf ındaki</w>
es eri</w>
eriş im</w>
edi lemez</w>
dur dura
değiştir iyor</w>
d or
cinsi yet
c ömer
burada yım</w>
bilme m</w>
beklen medik</w>
bar iz</w>
ba lıkları</w>
ara ştırı
ar e
ameli yat</w>
amaç lı</w>
ade ta</w>
Yap tığımız</w>
S enin</w>
P ark
Hep imizin</w>
Han gi</w>
Ge lecek</w>
F re
B ra
B la
ön de</w>
öf ke
çek ip</w>
Ço x</w>
yol un</w>
yapıl dığını</w>
yapa cağını</w>
unu tu
tüm ü</w>
ta bilir</w>
t ri
siz ə</w>
sen te
oyun cak</w>
oyna mak</w>
miz dir</w>
me sidir</w>
matemati kç
ley ic
lerimiz le</w>
lama mız</w>
kullan dım</w>
koy un</w>
kap ı</w>
k romo
hi ta
güc ün</w>
gele ceğini</w>
farklı lık</w>
ev ine</w>
et miş
edi lir</w>
düş tüğ
dünya dan</w>
dön mek</w>
duyar lı</w>
de ta
de ki
ciha zı</w>
bıra ktı</w>
bulun duğumuz</w>
bo tik</w>
başar dık</w>
bal on
ba lıkçı
araştırma lar</w>
ameli yat
alışver iş</w>
alan lara</w>
Z e
YouTu be</w>
Ya hu
Ku l
Bili yor</w>
4 0
ə t</w>
ü yle</w>
çıka cak</w>
Öne mli</w>
Ö nü
yaratıcı lık</w>
yanı t
vur gu
ver diğim</w>
va ka
tüm ör
toh um
tav siye
sin da</w>
si hirli</w>
ses siz
s ları</w>
ra bilir</w>
pra tik</w>
p e</w>
on line</w>
na sı
mi li
men i</w>
me siyle</w>
me diğini</w>
mar ka
ktı k</w>
kt u</w>
kitab ın</w>
k ini</w>
insan sız</w>
inan ç</w>
hr in</w>
hasta lıklar</w>
haq q
gide cek</w>
geç er</w>
gel miyor</w>
fotoğraf lar</w>
f et</w>
ek leye
e dən</w>
di yal
değiş ken
der si</w>
depre syon
dene yi</w>
cesar et
cek tim</w>
ca ğına</w>
böyle likle</w>
bölge ye</w>
birik tir
bili ş
bilgisayar ın</w>
be den</w>
alan ına</w>
Yap ı
Kadın lar</w>
Hen üz</w>
H ede
E minim</w>
Dünya yı</w>
D H</w>
C an
Bey in</w>
ülke leri</w>
çılg ınca</w>
yü zey</w>
yayı lan</w>
yan ındaki</w>
yaca ksınız</w>
tü el</w>
siz lerle</w>
se ler</w>
s is
rek ke
proje yi</w>
p i</w>
olma sından</w>
numara lı</w>
mil li</w>
mey ve</w>
merkez ine</w>
m inde</w>
leştir mek</w>
koy duk</w>
ko d</w>
ki de</w>
kar ınca</w>
ka ti
k ının</w>
k çı
ilke l</w>
ik ola
i şı
ha li
gün ey</w>
gülü mse
göv de
göster ilen</w>
görünü yordu</w>
görü r</w>
gh t</w>
gezegen deki</w>
gerçek çi</w>
ger i
en lerin</w>
edi rəm</w>
ede meye
dönü yor</w>
dön dür
dâ hil</w>
den k</w>
d s</w>
ca li
bo lik</w>
bilin ç
bil dikleri</w>
arkada şı</w>
ara maya</w>
alı m</w>
Y eşi
So l</w>
S ara
Ro ma</w>
Pe ter</w>
O li
K ül
Ha tır
Gülüş ler</w>
Geç tiğimiz</w>
E ner
Bri tan
Bir likte</w>
An la
19 5
şeffa f
şe bek
ş ta</w>
Ş ey</w>
Ş an
İk lim</w>
ü f
çocu klar
çek imi</w>
yüz ünü</w>
yok sul</w>
ye pyeni</w>
ya p</w>
y dılar</w>
ver siyonu</w>
ver miş</w>
ve saire</w>
tor un
tik ler</w>
teh like</w>
taşı yor</w>
serma ye
sava şı
resim leri</w>
rad yo
pi yasa</w>
pi ra
olmaz dı</w>
okyanus un</w>
o kur
nə z
nüf usu</w>
mız dır</w>
mü rekke
mez di</w>
mağ aza
maz dı</w>
mantı k
ma sıyla</w>
luğ unun</w>
lik op
leştir ilmiş</w>
lendir il
le si</w>
landı ran</w>
la mba
la dığını</w>
l da
kıs men</w>
köp rü
kuvvet li</w>
kili t</w>
ka sı
im deki</w>
hizmet leri</w>
hey kel
hak kı
gün ler</w>
görüntü leri</w>
getir dik</w>
gel mez</w>
g re
fut bol</w>
ey ni</w>
emp ati</w>
e sin
düşünü rken</w>
düşün dü</w>
düğ üm</w>
değiştire bilir</w>
devr im
c unku</w>
biz im
bes lenme</w>
belir gin</w>
başla dığımda</w>
bağı r
baktı k</w>
b ını</w>
anı zı</w>
alır sınız</w>
alan ın</w>
ala bilirsiniz</w>
al mayı</w>
Yeşi l</w>
Or gan
O cak</w>
L an
K at
Gen elde</w>
E d
D ü
C ali
Bur da</w>
A z</w>
19 70</w>
. com</w>
çıktı m</w>
çı plak</w>
çir kin</w>
çek iyor</w>
z .</w>
yaptığı mı</w>
ya li</w>
var dım</w>
utan ç</w>
teor i</w>
te min</w>
tasarı mcı</w>
tan ı</w>
sı tma</w>
suy la</w>
sp on
s unuzdur</w>
s op
s le</w>
ri ca</w>
resi f
r isti
p ler</w>
on y</w>
mi yet</w>
me mizi</w>
ma dığımız</w>
ma da
lər dən</w>
lu kta</w>
lider ler</w>
lan arak</w>
kt an
kim ya</w>
keli meyi</w>
kardeş im</w>
kahra man
k ə</w>
iş ine</w>
içer ik</w>
is mini</w>
is idir</w>
i lan</w>
huku k</w>
güç lü
gürül tü
gü ver
göz e</w>
gi t</w>
genç ler</w>
ey lem</w>
etki liyor</w>
ekono minin</w>
ek le
düşünü r</w>
dön er
dö k
doktor lar</w>
değiştire cek</w>
değer leri</w>
dey il
den iza
cı lığı</w>
cek sin</w>
ce si</w>
boş luk</w>
bil inc
bil geli
be le
bağım lı</w>
bahsedi yoruz</w>
b ro
b on
ayır t</w>
anne si</w>
a jan
a cak</w>
Tekn oloj
T anı
Kı sa</w>
J ef
Gerçek te</w>
Ensti tüsü</w>
200 5</w>
20 11</w>
, 5</w>
şef kat
ülke den</w>
öz gün</w>
örgü t
çek im
çe m
çan ta
ze min</w>
yumuşa k</w>
yor lar
yor ken</w>
yo z
yaşa dım</w>
yavaş ça</w>
ya bilirsiniz</w>
va syon
v s.</w>
u yanı
re feran
ra ki
pos ta
p al
olmalı sınız</w>
oda ya</w>
o li
n deki</w>
model leri</w>
model ler</w>
mer diven
me meli
makine ler</w>
mad di</w>
lik lere</w>
le diği</w>
kullanı şlı</w>
ku ru</w>
kları mı</w>
kapita liz
iniz deki</w>
il də</w>
hatırla yın</w>
hapis hane
girişim ci</w>
gen e
fikr ine</w>
etmen iz</w>
er o
ente gre</w>
də n
düşünü l
dön en</w>
doğ du</w>
di gər</w>
dep ola
bıra kır
bili yorlardı</w>
araştır maya</w>
alt ından</w>
al ması</w>
Ulu slararası</w>
Ri o</w>
Pro b
Ma vi</w>
Ma tema
Geç miş
Doğ al</w>
Ara ba
Alqı şlar</w>
şimdi den</w>
ısın ma</w>
öm r
çocu klarını</w>
ço klu</w>
yol larla</w>
yer dir</w>
yarat maya</w>
yapa bileceğimiz</w>
ver ildi</w>
va k
tra j
sık ıntı
sev er</w>
ser vis</w>
sayı sını</w>
san ti
sa yıl
s ün
ra t</w>
q ları</w>
proje ye</w>
p s</w>
p ap
ne ydi</w>
mı yordum</w>
mut fa
muc iz
meş hur</w>
mer ak
may mun</w>
man ız
man z
li se</w>
laş maya</w>
lan a</w>
lama dan</w>
kötü sü</w>
kol u</w>
kent sel</w>
kaybe de
kapsa mlı</w>
kala balık</w>
kade mik</w>
j ek
işlet me</w>
iyi ce</w>
iy er</w>
iy dim</w>
it y</w>
inan mak</w>
ilişk ili</w>
ik sel</w>
hə qiqətən</w>
haya li</w>
gir dim</w>
geç ip</w>
gerektir en</w>
fi s</w>
ev li
endüst ri</w>
en sti
ek ran</w>
dışarı ya</w>
düşünce si</w>
dayanı klı</w>
cı dır</w>
blo g</w>
başı ma</w>
baktı ğımda</w>
bakter iler</w>
ağ z
ayı ra
aktivi te</w>
akra ba
aile ler</w>
Sür ekli</w>
Siz lere</w>
O ğ
Lat in</w>
L E
K ör
G ül
Den ey
Cum hur
Cali forni
C ol
şüp he</w>
ün cüsü</w>
öğretmen ler</w>
öğrenc isi</w>
Ü ste
yı ka
yürü ye
yürü t
yor dur</w>
ye tecek</w>
yaz mak</w>
yaratı r</w>
yapma z
yapar sak</w>
y ön</w>
var lığını</w>
uzun luğunda</w>
ul du
u fa
tı lmış</w>
terci h
teor isi</w>
tara f</w>
t ti</w>
t s</w>
si y
si mi</w>
sal gın
pa sif</w>
ori jinal</w>
oluş um
o h</w>
n için</w>
mi çi</w>
ma ğa</w>
ma mıza</w>
m lardan</w>
m larda</w>
lı rsa</w>
la s</w>
kötü ye</w>
kurtar mak</w>
kullanı yorum</w>
ku v
ku l</w>
konuşma lar</w>
komplek s</w>
katı lma
karika tür
ka fe
ka demi
iş ç
istek li</w>
il diği</w>
hiss et
hat tan</w>
hak im</w>
göz leri</w>
f ə</w>
esa sen</w>
en strü
elekt ro
eksi yon</w>
edi yordum</w>
dı .</w>
dos t
din o
di yen</w>
değiştire biliriz</w>
dakika lık</w>
d on</w>
bilgisayar a</w>
be c
bağ lıdır</w>
aşağı da</w>
alt yapı</w>
ad ındaki</w>
a min</w>
Y an
Sava ş</w>
S p
P et
No bel</w>
M R</w>
L is
J en
J an
H ollywood</w>
E ti
Den iz</w>
Dedi m</w>
D erek</w>
B G</w>
19 .</w>
ə traf
şi şe
ş ının</w>
ş manın</w>
İş e</w>
ölüm ü</w>
ze ka
yı cı
yoksul luk</w>
yay gın
yapı mcı
yapı labilir</w>
yap ının</w>
v arken</w>
tü müyle</w>
tut tu
tekrar dan</w>
te dir</w>
tarih te</w>
ta ba
sunu yor</w>
sun mak</w>
sek ilde</w>
s ara
ren gi</w>
pe mbe</w>
ora sı</w>
ola biliyor</w>
mı yız</w>
mı yorsunuz</w>
mi yet
mesa fe</w>
let mek</w>
ler seniz</w>
le den</w>
laya bilirsiniz</w>
kur maya</w>
ku şlar</w>
ku zey</w>
keşf ettim</w>
kendi liğinden</w>
ke di</w>
kayb ı</w>
ka ten</w>
iş lə
iyim ser
insan larda</w>
i ce</w>
hərə kə
hüc renin</w>
ha beri</w>
güven de</w>
göğ üs</w>
gönül lü
gerektir ir</w>
gel mesi</w>
fırt ına
fotoğraf ları</w>
finan se</w>
fa za
evrim leş
ev lilik</w>
ev inde</w>
es nek</w>
ede bilmek</w>
e- posta</w>
düşünür sek</w>
dünya sına</w>
dönüş üm
dön er</w>
değer ler</w>
dene dim</w>
de ş
de mo
dayanı yor</w>
bırakı p</w>
bu laşı
birbir lerini</w>
ber g</w>
bakı yorum</w>
b ra
aza r</w>
ar da</w>
aptal ca</w>
an lıyorum</w>
alı cı</w>
alan ının</w>
aile m</w>
T or
RI S
Q u
P hi
On unla</w>
O x
Mar t</w>
K os
H ız
Ge len
E ş
D el
Bak an
200 4</w>
0 .
ış ın
ında dır</w>
ı sır
üye si</w>
üret ken</w>
ülke yi</w>
öğrenci lerin</w>
ö te</w>
çe lik</w>
yön den</w>
yir mi</w>
yaz ma</w>
yapma dan</w>
uy ku
tır manı
top u</w>
taşı mak</w>
sınız dır</w>
sürdürü le
sor um</w>
seviye si</w>
sayı ları</w>
res yon</w>
re ak
pi s</w>
olan ların</w>
olabil diğince</w>
na dir
mı sın</w>
mu m</w>
merke z</w>
mağ ara</w>
maliyet li</w>
ləş dir
ler siniz</w>
kömü r</w>
ku cak
konuş manın</w>
konu yla</w>
karı m</w>
iç güdü
iti raf</w>
isti yordu</w>
is el
internet in</w>
ile ti
ide al</w>
hip ote
her şeyin</w>
hava lı</w>
hami le</w>
hal kı</w>
gir mek</w>
geliştir dik</w>
g ili</w>
for ma
düzen leme
duy duğum</w>
doğa da</w>
diye bilirsiniz</w>
din leye
deva mlı</w>
destek leyen</w>
dağ ını
da ş</w>
bö cek
bul gu
bul dular</w>
bor ç
bina lar</w>
bil di</w>
aşı k</w>
aşa ma</w>
ağaç lar</w>
açı yor</w>
ay gı
Yok sa</w>
Tas arım</w>
T ay
Sc ot
P ara
N an
Mü ze
Mo dern</w>
Ju li
He p</w>
Ha yal</w>
Ha iti</w>
H risti
CE O</w>
Araştır ma</w>
2 8</w>
şu rada</w>
şehir lerde</w>
ışı ğın</w>
ği yle</w>
öğrenci leri</w>
öğre te
çıkı ş</w>
çıkara n</w>
çocu klarının</w>
çek ilmiş</w>
Üste lik</w>
Ç if
zor du</w>
yüze ye</w>
yüz leş
yer li</w>
yaşa maya</w>
yapma sını</w>
ve l</w>
uza ğa</w>
tı rı
tı k
tüketi ci</w>
teles kop
t ının</w>
t ol
sev imli</w>
se yi</w>
ris ke</w>
qar şı
p ri
olma sın</w>
ola yın</w>
mi yorsunuz</w>
mektu p</w>
mağ ara
mara q
ma yla</w>
m m</w>
lu m
liz e</w>
li ste</w>
l mıştı</w>
l ma</w>
kâ r</w>
kuru msal</w>
koyu yor</w>
ko or
kap an
kalı rsa</w>
iş liyor</w>
iş leme</w>
inşa at</w>
ile cek</w>
hı zı</w>
hay li</w>
gı da
gürül tü</w>
göç men</w>
götür dü</w>
görün ce</w>
göre me
gördüğ ümde</w>
getir dim</w>
gerçek leşe
gen ler</w>
geli yoruz</w>
gaz ete</w>
g et
frek an
ek lerin</w>
eder al</w>
düşünmü yorum</w>
düşü ş
di rek</w>
bulunu r</w>
bulu t
bit tiğini</w>
bilin meyen</w>
bili yorsun</w>
belir siz</w>
baş ından</w>
al dığını</w>
adap te</w>
S es
Mart in</w>
Man hattan</w>
Inter net</w>
Gen el
G ir
2 9</w>
şəkil də</w>
şef kat</w>
şarkı sı</w>
ı mız</w>
ğ un</w>
üreti len</w>
öğr etti</w>
öl kə
çocu klarla</w>
çevre ye</w>
yaza n</w>
yapı mı</w>
sıcak lık</w>
seç imler</w>
sey r
s h</w>
re y
q ey
olaca ğım</w>
ok un
ne lerin</w>
n iyet</w>
n is
mı şı
mik ro</w>
mah ku
m di</w>
li ber
ler inize</w>
lanma mış</w>
kıv rı
kuru mlar</w>
kullanı m</w>
kolay lıkla</w>
keli mesini</w>
ke l</w>
kal ın
isti yor
is pat
in dan</w>
i ra
hastan eye</w>
hastan e</w>
gör müş
ger e
gen leri</w>
ge omet
g ri</w>
etme m</w>
es nek
er ler</w>
ek stra</w>
duvar a</w>
du s</w>
di yorsunuz</w>
di p</w>
di key</w>
di gim</w>
deney imi
dayan arak</w>
biz lere</w>
bire y</w>
bil sin</w>
bi ne</w>
baş larına</w>
bakı yorsunuz</w>
b le</w>
aş kın</w>
anlata yım</w>
an ket
Y əni</w>
W or
Sor u</w>
Se ç
S ha
Hay van
Ha stan
C as
Bo b</w>
9 5</w>
19 50</w>
şi re
öğ le</w>
çə k
çıktı ğı</w>
çıkara k</w>
çıkar t
yumur ta</w>
yarı sını</w>
yarat ma</w>
va deli</w>
v ek
uygu lamaya</w>
uy gar
umuz u</w>
ul tra
tu s</w>
ter i</w>
ter cü
tedav isi</w>
tasarımcı lar</w>
tarih sel</w>
tabl o</w>
t ınız</w>
t or</w>
t ini</w>
sı ğ
sürec in</w>
sonuç larını</w>
sin ce</w>
seviye ye</w>
sanat ı</w>
s üne</w>
s ola</w>
reka bet
ra por</w>
potansiye li</w>
p ı
op ar
on ur
oldug unu</w>
o muri
nö ro
mə ktə
mı sır</w>
müz ün</w>
molekü l</w>
mi s
mes le
man tar</w>
ma mı</w>
ma liyet</w>
lı ların</w>
lendiri yor</w>
laş tı</w>
lan mayı</w>
laboratu var</w>
kö pe
kuyru klu</w>
kullan dı</w>
ku zen
kal kın
iş areti</w>
ist ler</w>
in gi
i ğini</w>
he diye</w>
götür ü
gide lim</w>
geçmiş e</w>
genel inde</w>
ge mi</w>
ge cek
g os
etmen izi</w>
el ine</w>
ek olojik</w>
dırı yor</w>
düşünü yorlar</w>
dü kçe</w>
dönü k</w>
duğumuz da</w>
diy seniz</w>
devlet in</w>
ce ğinizi</w>
biliş sel</w>
ay ın</w>
an ato
W hi
W ar
Te m
So ka
No el</w>
Ku la
Kar şı
Kal p</w>
Ka fa
K ra
Fot oğraf
Doğ a</w>
D ur
D iye
Californi a</w>
C am
Bi yo
2 5
Ə gər</w>
İç inde</w>
özgür lüğ
çiz im</w>
zı r
yukarı da</w>
ye ş
yağ mur
yaz maya</w>
yarat tık</w>
yaca ğı</w>
uzman ı</w>
tərəf indən</w>
tə r
tüm ör</w>
ti on</w>
tere san</w>
tama mını</w>
tak dir
sə nə
siz leri</w>
sin ə</w>
silah lı</w>
sa g
s üs
res mini</w>
rahat sız
psi kol
oyun cu</w>
op tik</w>
olu ştu</w>
olma lıydı</w>
olay ları</w>
oku maya</w>
neden ini</w>
ne ti
mü dür
mu yorum</w>
me di
ma q
m arka</w>
lisan s</w>
le diğimiz</w>
kı ş</w>
koy du</w>
ko va
kes kin</w>
ke k</w>
kavra mı</w>
kat man
kar t</w>
iş çi</w>
iz leyen</w>
hü ku
hekay ə
geliş imi</w>
gece leri</w>
g olf</w>
də cə</w>
dığ ın</w>
dönem inde</w>
do g
diğer lerinin</w>
değiş imin</w>
devr e</w>
deh şet</w>
d oy
d ol
cak sın</w>
c ar
bölge lerinde</w>
boyut u</w>
boyut ta</w>
bildir im</w>
benze diğini</w>
ben lik</w>
be la
başla dığım</w>
at om</w>
anne min</w>
a stero
Za man
Va disi</w>
Tah min</w>
S ır
S öz
R es
Pro fes
K eş
B I</w>
Açık çası</w>
10 ,000</w>
şe hre</w>
ğ ü</w>
öyle yse</w>
ço k
çek im</w>
Önü müzdeki</w>
yıl ına</w>
yukarı ya</w>
yi f</w>
yenile nebilir</w>
yaş ta</w>
yata k</w>
yapı yı</w>
y ınca</w>
vücu dun</w>
vü z</w>
veri lere</w>
var lığı</w>
va sı
uğ ul
tuva let
tutu yor</w>
tes is
tartı şı
söyleye yim</w>
soh bet</w>
site si</w>
sebep ten</w>
satı ş</w>
ro p
res me</w>
ra biliriz</w>
proto tip
oyun lar</w>
olma dığına</w>
olan lara</w>
ne ga
mə ş
mə r
muş sunuzdur</w>
merha met</w>
man tık</w>
ma mak</w>
lu p</w>
lma yı</w>
len ler</w>
landı ğında</w>
lama da</w>
kıs mına</w>
kı zım</w>
koy ul
karşı laşa
kar arı</w>
kal k
kal dık</w>
kad ına</w>
ka zı
içer iği</w>
iler ide</w>
hesa ba</w>
ha le
h ı</w>
güven liği</w>
getir meye</w>
fi yat</w>
eği li
e c
də fə</w>
dönü şe
dön düğ
du yan</w>
dola y
denk lem
den ge</w>
d ge</w>
cı m</w>
cid den</w>
bitki lerin</w>
az ar
arz u
ard o</w>
araba yı</w>
ara mak</w>
a lar
Yaln ız</w>
W iki
Sonra ki</w>
Mil letler</w>
K i</w>
Gelen ek
GS Y
F iki
E ver
E sa
Ba ğ
As la</w>
A ca
2 50</w>
19 4
10 0.000</w>
şans lı</w>
ş tı</w>
özel lik</w>
örnek leri</w>
önem siz</w>
çalışan ları</w>
Ül ke
Çev re
Ç ı
ze hirli</w>
yürü tü
yolcu luğa</w>
yeten ek</w>
yardı ma</w>
yan ından</w>
verir seniz</w>
ver dikleri</w>
va si
ulu s
tra fi
süre since</w>
st ur
sor maya</w>
sever im</w>
ses lerini</w>
reh ber
re ç
q oy
progra mları</w>
pat lama</w>
oğ lum</w>
orta k
olo gi
olan a</w>
mə ni</w>
mut lak</w>
moti ve</w>
men ize</w>
me mize</w>
lı ğımız</w>
lin g</w>
li yi</w>
leşme ye</w>
lez z
le mesi</w>
le l</w>
las tik</w>
küçü cük</w>
koyu p</w>
konuştu m</w>
konus undaki</w>
kları mızın</w>
karbondioksi t</w>
kal ın</w>
kal p
kabul len
k na
in iş</w>
ilişki leri</w>
i yorlardı</w>
he likop
haya ti</w>
haqq ında</w>
gü t
gö mü
guru r
gidi yorlar</w>
geliş im
fotoğraf ını</w>
fot ograf
fik re</w>
esna sında</w>
el leri</w>
düşün memiz</w>
bü r</w>
bisik let
başla yıp</w>
ban t</w>
balin a</w>
aynı sını</w>
anla tan</w>
alın dı</w>
akı m</w>
a ta</w>
a bar
Yer el</w>
U ganda</w>
Te mel</w>
Tar ih
S mit
Ro bert</w>
Pro je
Kır mızı</w>
Hika ye
Herke sin</w>
Es kiden</w>
D ı
D üz
C or
C ha
3 3</w>
200 6</w>
şehir lerin</w>
şa şı
şa bl
üst e</w>
özgür lüğü</w>
çıktı ğını</w>
çağı rı
çatı şma</w>
zi ran</w>
yıldız ların</w>
yöneti mi</w>
yi tir
yar ın</w>
yapma ktan</w>
ya b
ver mesi</w>
uza ya</w>
ti ci</w>
st ler</w>
seviye sinde</w>
se sin</w>
ra k
per son
p as
oluştur duk</w>
olası lıkla</w>
olaca q</w>
ne si</w>
mesele si</w>
me sinde</w>
ma dılar</w>
kütüp hane
kurtar ma</w>
kur bağ
koru maya</w>
ko ca</w>
kayb etti</w>
kal mıyor</w>
ir im</w>
ik isinin</w>
i lerini</w>
heve s
hep imizi</w>
haf ıza</w>
güç leri</w>
göstere cek</w>
gru bun</w>
gerek ecek</w>
gecek on
fi t</w>
ey di</w>
etme n</w>
engel ler</w>
en t</w>
ekr anda</w>
eder seniz</w>
düş man
dur mak</w>
dikkat ini</w>
değiş ir</w>
değ in
devr imi</w>
da ire</w>
büyü yor</w>
bur n
bun larla</w>
biç imi</w>
bir çoğu</w>
bil meyi</w>
bek li
bas la
bakı mından</w>
ba tar
aşa mada</w>
ağaç ları</w>
avu kat
ar t</w>
an ti</w>
alı yorum</w>
alkı ş
adlandırı lan</w>
Yıl lar</w>
Yun an
O ysa</w>
Muh teşem</w>
Gen el</w>
Gelenek sel</w>
Ge li
Ev ren
D is
Chi ca
Bi yoloj
B F</w>
As lına</w>
A d
ə gər</w>
şey de</w>
şek er
şa ş
şa ka</w>
ş un</w>
ş mış</w>
ünü yle</w>
ü su
öz ür</w>
ön yargı
ödü lü</w>
zincir i</w>
yeten ekli</w>
yay ın</w>
yatı yor</w>
x a
ver diğini</w>
uy gun
us un</w>
u p</w>
tr en</w>
tir ler</w>
tasar lamak</w>
ta c
t -
süre si</w>
so mut</w>
si ya</w>
sağla dığı</w>
sava şa</w>
sah il
s ö
s pe
q or
q al
plan ı</w>
mülte ci</w>
mez dim</w>
liği yle</w>
lanı yorlar</w>
lan tı
l ler</w>
kü tle</w>
kusur suz</w>
konuşu yor</w>
konferan s</w>
ko ç
kna tı
kişi lere</w>
ki tle</w>
kem mel</w>
keli mesi</w>
ke yif</w>
kalan ı</w>
kah veren
iy yə
ister dim</w>
imiz deki</w>
il ki</w>
hücre lerini</w>
hita p</w>
hayat ları</w>
han g
gen e</w>
geli n</w>
g â
enerj iye</w>
ekonomi si</w>
dı rı</w>
dönüştür mek</w>
dra matik</w>
doğru l
diz üstü</w>
değiş tiğini</w>
den ize</w>
d ine</w>
c hi
bul ma</w>
boş luğu</w>
boz uk</w>
biz ə</w>
birey lerin</w>
bele diye</w>
bek leye
be sin
bazı larının</w>
bak ınca</w>
ağ acı</w>
ata lım</w>
ara sına</w>
anlı q</w>
an tik</w>
al d</w>
akıl lıca</w>
ak ciğer</w>
Ya zı
Wil li
R NA</w>
P M</w>
Kör fe
Ka ç
Jap on</w>
Hin t</w>
E ve</w>
D .</w>
Chica go</w>
Bili m
B öl
B on
Avru pa
An a</w>
Amerikalı ların</w>
Alqı ş</w>
2 6</w>
çalışı p</w>
Ü z
Ö zel</w>
yon larca</w>
yer lerinde</w>
yen ili
yapı yordu</w>
yapa bileceğimizi</w>
yaka laya
virüs ü</w>
var sa
v ru</w>
uza kla
tu za
tic aret
te l</w>
taraf ına</w>
t un
su m</w>
sinyal leri</w>
q ad
pr ot
olu yorsunuz</w>
olma sıydı</w>
oda sı</w>
od anın</w>
o ya</w>
nokta sında</w>
nokta dan</w>
ne leri</w>
n daki</w>
mü d
mu tasyon
mev cu
met rek
ma alesef</w>
ler imle</w>
l ör
kö pr
kuv vet</w>
kullanı r</w>
kullanı ldı</w>
konu larda</w>
kolek siyon
ko du</w>
kiş iyle</w>
kalkı p</w>
iş ley
iğ ne</w>
iste diklerini</w>
is iz</w>
gü ce</w>
grup ları</w>
giz lice</w>
gerçek liği</w>
gel meye</w>
g ara
f ı</w>
f u
etme leri</w>
ede biliyor</w>
düşünü yordu</w>
duygu su</w>
değer ini</w>
cana var
ca va
bulu t</w>
biz de</w>
beraber inde</w>
başla yacak</w>
baş vur
ayrı mcı
at om
ask er</w>
Ya ş
Un ut
T ic
Stre et</w>
Sa hip</w>
S y
Pro gra
Ka h
K i
E x
A h
8 00</w>
3 D</w>
20 12</w>
ə k</w>
şidde ti</w>
İ r
öz üm
ölçek li</w>
çıktı ğında</w>
ça ğ</w>
ç ikola
zorunda yım</w>
zorunda ydım</w>
yor dunuz</w>
yara yan</w>
yapa bilecek</w>
w ard</w>
uşa q
uy ku</w>
ti onal</w>
ti mizi</w>
teknoloj ilerin</w>
tah rip</w>
t lik</w>
sə k</w>
sız ca</w>
stre s</w>
stratej i</w>
seya hat
rü ş
r sunuz</w>
proje de</w>
organiz malar</w>
organiz ma</w>
nə ti
nes li</w>
ne m</w>
mə lu
mı knatı
mu ru</w>
milyon dan</w>
mi mar</w>
m larının</w>
m larla</w>
lu kları</w>
lu klar</w>
liste si</w>
len ir</w>
kutu p
kor id
karşı laya
kar ş
kar iyer</w>
kampan ya
kal dılar</w>
iy iz</w>
imiz den</w>
ili n</w>
ilgi mi</w>
ik ti
ik incisi</w>
i v
hem şire
hap se</w>
haber leri</w>
h ani</w>
göre ceğiniz</w>
gir en</w>
geçir di</w>
gerçekleştir mek</w>
fe min
ev den</w>
ettiği mizi</w>
en teresan</w>
durum unu</w>
diy ini</w>
değiş ime</w>
dey ə</w>
der gi
dene dik</w>
dağı t
cin sel
ca r</w>
c he
büyü t
bölüm ünü</w>
buz un</w>
bulu yorum</w>
bir imizin</w>
bilin ir</w>
benz in</w>
başla dığını</w>
baş lıyorlar</w>
bal on</w>
azal tmak</w>
at an
artı rı
araştırma cı</w>
a zı</w>
a kademik</w>
W at
Si likon</w>
M im
Ka ç</w>
Güven lik</w>
Gün eş
F o
E m
Di ğer
Deği ş
Belə liklə</w>
Aca ba</w>
A u
3 B</w>
200 1</w>
2 .000</w>
1 4
1 .000</w>
şu ma</w>
ş un
İs viç
İnanı yorum</w>
İ la
ği mi</w>
ülke lere</w>
öğren diğimiz</w>
öğr etmek</w>
çift lik</w>
çe y
çe te
Çalı şma
z lar</w>
yazı lı</w>
yanı mda</w>
yansı t
y dim</w>
ulaşı labilir</w>
tür lerin</w>
tut un
tor ba
te lif</w>
tasarı mın</w>
sorunu muz</w>
sistemi miz</w>
sev diği</w>
sebebi yle</w>
sanı yorum</w>
s ər
ro botik</w>
rağ ın</w>
po len</w>
pazar lama</w>
para dig
orta mı</w>
olma yabilir</w>
nası l
mi ye</w>
me mi</w>
ma v
lık sız</w>
la bilecek</w>
kç ı</w>
kurtu l
ktan sa</w>
koy u</w>
kayna klar</w>
kalma dı</w>
k ən</w>
iş imi</w>
iyim ser</w>
iy iydi</w>
ilgi liydi</w>
ilaç ların</w>
hız da</w>
hayat ında</w>
hafi f
ha klarını</w>
h ər
h ile</w>
geçmiş i</w>
geç erken</w>
gen i</w>
fil tre
fay da</w>
etti r</w>
etmek tir</w>
et leri</w>
eli mde</w>
e min
duy du
doğa sı</w>
dolu su</w>
diğer lerinden</w>
dik lerine</w>
destek lemek</w>
deniza l
dam la
ck er</w>
bo mba</w>
bilg isi</w>
bilecek ler</w>
bağla mda</w>
artı şı</w>
alı rlar</w>
aile leri</w>
ai lenin</w>
Ya va
T ra
R en
R B</w>
Orta lama</w>
Kral lık</w>
Genel likle</w>
Ch ris
Bakan lığı</w>
Amer ik
0 0
ə k
şüphe siz</w>
ş arap</w>
İtal ya</w>
İ ler
üzer in
ür ünün</w>
üniversite ye</w>
önce sinde</w>
çoğ unuzun</w>
çevri miçi</w>
çevre yi</w>
çalışma sını</w>
çalışa cağım</w>
ze hir
yo p
yayıl dı</w>
yardı mıyla</w>
yapı ya</w>
yapa bilirler</w>
yapa bileceğiniz</w>
ya vru</w>
tə k
tut kulu</w>
top laya
terör ist</w>
tem sil
tama miyle</w>
takı mı</w>
tah ta</w>
sınıf ta</w>
sürpr iz</w>
sü el</w>
söyle yin</w>
soru su</w>
seç imi</w>
serv is
savun ma</w>
s ünün</w>
s ün</w>
s k
rü ya
ros of
re zer
per i
parça yı</w>
oyna yan</w>
oturu yor</w>
olağ an</w>
obj e</w>
ne hir</w>
mü əl
min net
miktar ını</w>
met li</w>
me d</w>
lma dan</w>
len diği</w>
koruyu cu</w>
kili se
keşf edil
karşılaştı m</w>
karşı tı</w>
karşı lığında</w>
karşı laşma
kali tesi</w>
kal ıntı
ka blo
işle mi</w>
içer ik
iz dir</w>
it ler</w>
inti har</w>
in ler</w>
in ki
hə m</w>
hi rler</w>
hasta lıkların</w>
harita sını</w>
har ika
göster meye</w>
gitti ği</w>
gi din</w>
gezegen lerin</w>
gerek siz</w>
gerek miyor</w>
ge c
g ri
fotoğraf larını</w>
fela ket</w>
favor i</w>
farkında lık</w>
farklı lıklar</w>
fa b
f in
eş im</w>
eğitim li</w>
eli n</w>
dü ze
duy ur
durum una</w>
do ları</w>
dil ini</w>
dep resyon</w>
de si</w>
de l</w>
davranış sal</w>
danı şma
bölge leri</w>
bir şeyi</w>
bilir lerdi</w>
bek liyor</w>
başlaya biliriz</w>
başlangı c
başla yaca
başla dığımız</w>
bağ layan</w>
ba har
ağ ları</w>
ağ lar</w>
aç lık</w>
aynı sı</w>
ara sın
ar şi
anlat tım</w>
alı rken</w>
ah lak</w>
a ların</w>
T es
Stan ford</w>
S t
K ir
For d</w>
F er
E ri
E b
Dokt or
Deva m</w>
Bu z
Baş langı
B ek
B at
Ant ark
Al t
A v
əs lində</w>
şirket in</w>
şekil ler</w>
ır k</w>
İs la
üre me</w>
çıkar dık</w>
çocuk luk</w>
çağı r
çalı ştır
Üzer inde</w>
yıldız lar</w>
yüz üne</w>
yön ünde</w>
yer lerden</w>
yara dı</w>
ya ta</w>
y mış</w>
viz yon</w>
uzay da</w>
tı ra
tuva let</w>
te x
tah ta
ta blo
t lerin</w>
süre li</w>
soru yor</w>
soka kta</w>
ses li</w>
sağlaya bilir</w>
say dık</w>
san d
saat i</w>
robot un</w>
q ü
q alak
peş inden</w>
p edia</w>
on em
ola lım</w>
muz a</w>
lü z
li ye</w>
li lerin</w>
le v
lan ları</w>
laboratuvar da</w>
kur dum</w>
kullan dıkları</w>
ku ma
kr on
konuştu k</w>
kom bina
kla v
kir li</w>
kavra m</w>
kal or
kahra man</w>
kad ını</w>
iş li</w>
iş leyen</w>
imkan sız
il ler</w>
hasta sı</w>
hasta lığa</w>
hasa r</w>
hal le
ha yır
ha lü
göç men
gor ta</w>
git miş</w>
geçir en</w>
getire cek</w>
geliştir meye</w>
for m</w>
fark lıdır</w>
et mişti</w>
ek sen
egzer siz</w>
ede me
düşü ş</w>
dönü şme
devre ye</w>
deney sel</w>
de di
cid diye</w>
ce za</w>
c on
büyük lükte</w>
bulu ş
blo g
bl ok
bey indeki</w>
be k</w>
başlangı çta</w>
bazı larınız</w>
aydın lat
anlat tı
anla dık</w>
al ını
ak la</w>
a ku
Scot t</w>
N ik
M ey
Gen ç
Fiki r</w>
D ön
Cam bri
Bir den</w>
Bey n
Ay n
1 20</w>
şidde tin</w>
Şe hir
İ sa</w>
ğ ınıza</w>
önem ini</w>
çek tim</w>
yöne tic
yeten eği
yaşında ydım</w>
yardı m
yarat tı
yanlı ş
ya k</w>
veri lerin</w>
va kti</w>
tə k</w>
tör ler</w>
tu tar</w>
tik lerini</w>
telef onları</w>
tekn ik
teca vüz</w>
tavu k</w>
t h
sürü cü
su dan</w>
sev iyor</w>
sente tik</w>
parça larını</w>
para şü
on ce</w>
olma saydı</w>
olma k
mə si</w>
müz iğin</w>
mühendi s</w>
muha faza
min er
memn un
lığı mızı</w>
lı q
liği miz</w>
lendir mek</w>
lar ınıza</w>
la h
l on
l dım</w>
kə n
konuştuğ umuz</w>
kend iniz</w>
kaybet miş</w>
kaste t
kalı p</w>
kaldır ın</w>
ka ba</w>
iste miyoruz</w>
imkâ n
ilişk isi</w>
ih ra
hu su
his s</w>
gla de
gibi ler</w>
geç tim</w>
getir ip</w>
gerektir iyor</w>
gen lerin</w>
gar anti</w>
g os</w>
fik rimiz</w>
eğiti me</w>
ettiği mizde</w>
en jek
derin lik
der ek</w>
demi r</w>
davranış larını</w>
cevap lar</w>
ce l</w>
bölge ler</w>
böl genin</w>
bor ç</w>
bilim ciler</w>
bil dik
bebe ğin</w>
be li
baş larında</w>
bağ lı
az ın
arz u</w>
anım sa
an lıyoruz</w>
alan ların</w>
ada ma</w>
a zı
Y anlı
Vi et
Ta li
Sur iye</w>
San at
S im
Par k</w>
Ox ford</w>
Mic he
Me d
J im</w>
J er
Fran k</w>
Fl ori
Ekono mik</w>
E kim</w>
Dev let</w>
C D</w>
Britan ya</w>
Bil miyorum</w>
Ba sit
Atlan tik</w>
Ara p
Antark tika</w>
A ş
A lan</w>
A la
7 00</w>
0 0.000</w>
şif re</w>
şehr inde</w>
Ş aşı
ışı kları</w>
özel likler</w>
öncü lük</w>
ölü me</w>
Ü r
yı ğın
yüze yi</w>
yaşan tı
yaşa mı
yaz dığı</w>
yara tır
yapı lır</w>
yapı ları</w>
yan ların</w>
y seniz</w>
unu s</w>
tedar ik</w>
taşı ya
tanı ma</w>
ta biliriz</w>
sın av
si par
sez g
sağ a</w>
sa de</w>
rı q</w>
rosof t</w>
res min</w>
redde t
por tre
pir inç</w>
olmu ş
olma larını</w>
olaca ksınız</w>
olaca k
nega tif</w>
mı zı
mad denin</w>
ma sa</w>
ma dığım</w>
ma aş
lu r</w>
leye biliriz</w>
laboratu varı
kor kt
keli meleri</w>
ke se
kap lı</w>
kalı r</w>
ince lemek</w>
in en</w>
ilg isini</w>
ilaç ları</w>
ih la
hi re</w>
hakk inda</w>
göz lem</w>
görüntü leme</w>
gönder mek</w>
göl ge
gir er
gidi şa
ger eği</w>
ga zı</w>
eya let</w>
ettiği mi</w>
ettiği mde</w>
etti ğinde</w>
etmə yə</w>
este tik</w>
enfek siyon
el inizi</w>
ede bilecek</w>
düşündüğ ü</w>
duğ umu</w>
din leme
di yet
değiştir erek</w>
der ine</w>
dene mek</w>
defa larca</w>
de me</w>
cu lar</w>
bə zi</w>
bıraktı m</w>
büyü meye</w>
bu har
boy u
bl ok</w>
bi ya</w>
bec eri</w>
bebek ler</w>
başla dığında</w>
ba yanlar</w>
ağaç ların</w>
ağ a</w>
ağ a
aç tı
anla şma</w>
anla tır
alın mış</w>
alı yorsunuz</w>
a a</w>
Wal l</w>
Viet na
N iye</w>
Mar k</w>
M es
M ay
Kon t
Ha ziran</w>
Gülüş me</w>
Far k</w>
Be lir
Baş arı
B ron
ğı dır</w>
ği dir</w>
ün ə</w>
ü k</w>
öz en
önem liydi</w>
öl düre
öf ke</w>
çık maya</w>
çift ç
çabu cak</w>
zar if</w>
yıkı cı</w>
yükse len</w>
yon u</w>
yer leştire
yaşan an</w>
yaz arı</w>
yapı yordum</w>
yapma kta</w>
ya şı</w>
vere bilir</w>
v uz
v et
tür ün</w>
tü ler</w>
top lamak</w>
teme li</w>
tabi ki</w>
sür düre
sorun ların</w>
sal dırı</w>
sab ır
risk li</w>
q ay
pil ot</w>
on larda</w>
oluştur duğu</w>
olay ların</w>
ol salar</w>
og ren
nadir en</w>
mühendis liği</w>
mutlu yum</w>
mo s</w>
ma lara</w>
lo g
leşme nin</w>
ler iydi</w>
lar ında
lan mıştır</w>
la ka</w>
kı rı</w>
kutu p</w>
kuru m</w>
koşul lar</w>
koy ar
kon unun</w>
klar dı</w>
kendi lerinin</w>
ke di
kar tı</w>
j en
iz leme</w>
in ek</w>
ihti mal</w>
hız landırı
hikaye lerini</w>
he diye
hava yı</w>
hastane de</w>
haki katen</w>
güneş in</w>
gö m
giy in
git gide</w>
gezegen i</w>
gele ne
fikir lerini</w>
etki lerini</w>
eriş imi</w>
düşünü yorsanız</w>
doğ um
diğ inin</w>
davranı şı</w>
dava m</w>
can lılar</w>
bə n
bırakı yor</w>
büyük lüğü</w>
bölüm ünde</w>
biri lerinin</w>
bilgisayar ların</w>
başlangı cı</w>
başla madan</w>
başla dığımızda</w>
baş lıca</w>
bakar ken</w>
b ya</w>
ay ni</w>
arka sına</w>
a st
W in
Tas arı
Siz den</w>
S tep
P R</w>
Nor mal</w>
Mut lu
M or
Kon go</w>
K ili
H âlâ</w>
Gör ünü
F BI</w>
Er kek</w>
Bun lara</w>
Bel li</w>
Be at
B oy
B in</w>
B ilgi</w>
Ar jan
A kıl
200 3</w>
şa m</w>
İspan ya</w>
İ y
İ H</w>
ğı yla</w>
ür kü
öğrenci lere</w>
örüm cek</w>
çamaşı r</w>
ça kı
zek ice</w>
yürür ken</w>
yol una</w>
yaşı yorum</w>
yara maz</w>
yan da</w>
ya lı
x üsu
w el
veri ciydi</w>
ve l
va ka</w>
uzan an</w>
tör ü</w>
tor i
to z</w>
tep e</w>
teknoloj iyle</w>
tanı mı</w>
sə v
sır f</w>
savaş ta</w>
sa sı</w>
röporta j</w>
qu ru
q ra
profes ör
ot el</w>
oluştur du</w>
olu şa
olsay dım</w>
olma dığı
olası lığı</w>
o z</w>
nes neler</w>
mut suz</w>
mu si
mu s
mu ci
med yanın</w>
me lerin</w>
malze meleri</w>
ma il</w>
ler ler</w>
la syonu</w>
la cağını</w>
kırık lığına</w>
kı sal
küçü k
kur gu</w>
kur du</w>
ke le
kahveren gi</w>
kaba ca</w>
k ris
k g</w>
iş imiz</w>
iz len
iy iye</w>
hasta lıklara</w>
hal ini</w>
güven e
göster ge
görü p</w>
görev li
göre biliyorum</w>
göre biliyor</w>
gru ba</w>
gezegen ler</w>
gerek sin
gercek ten</w>
f onu</w>
etmek le</w>
er tesi</w>
enfek te</w>
en inde</w>
el ler</w>
eki bi</w>
edil diği</w>
edi lecek</w>
ede ceksiniz</w>
düşün düler</w>
dönü m</w>
durum lar</w>
durum dan</w>
doğ ur
cə k
ce z
can ın</w>
c üz
c unun</w>
büyü dü</w>
büt ünüyle</w>
bulu yor</w>
bul du
bu günün</w>
biz leri</w>
bilmi yorduk</w>
bilecek siniz</w>
bay ra
arkada şlar</w>
anlam ını</w>
an lardan</w>
alkı şlar</w>
ala kası</w>
al madan</w>
adı mı</w>
a ti
Yor ker</w>
Ya x
Y o
Tı p</w>
So v
P ara</w>
O to
Mer ak</w>
K ing</w>
GSY İH</w>
G el
Flori da</w>
Di jital</w>
Arkada ş
ə ş</w>
Ə s
şi ka
ş la</w>
ğ eri</w>
üreti yor</w>
özellik lerini</w>
ço kça</w>
ça k
Çocu kların</w>
zih in</w>
yı ğın</w>
yürüyü ş
yur t
yaşa yaca
yax ın
yakı t
vasi tə
var dık</w>
uğra şma
tut tuğ
tu z
ti fa
t we
t ru
t h</w>
sor dular</w>
sin ek</w>
ri -
r eti</w>
prote z</w>
pey n
perspek tif
pat lama
part ner
par ti</w>
pa ta
oran la</w>
ol sam</w>
ol f
mümkün dür</w>
mü za
mu ay
mevcu t
me ga
mah kum</w>
ma ç
ma si</w>
m larında</w>
lər inə</w>
leşme si</w>
la zer</w>
l leri</w>
köpr ü</w>
kok u</w>
kin g</w>
kim lik</w>
ki yat
kazan an</w>
kay gı
kar e
kalma yıp</w>
kala cak</w>
ka sa
k ına</w>
jener asyon
iş ken
iğ ren
iz of
iz leme
ister ler</w>
is tir
is eniz</w>
in dire
hə yat
hə lə</w>
hi a</w>
görüş ü</w>
göre bilir</w>
geç meden</w>
gel meden</w>
gel diğimde</w>
es in</w>
erkek lere</w>
endüstr isi</w>
endüst ri
el inizde</w>
edil diğini</w>
dır ma</w>
dır .</w>
düşün menizi</w>
düşün meliyiz</w>
dünya sının</w>
dü zey</w>
dur duru
don muş</w>
do muz
do ların</w>
di gi</w>
değil siniz</w>
den et
davranı şlar</w>
cı ya</w>
buz dola
boğ u
birbir ini</w>
bir isini</w>
bilim ci</w>
başlat tık</w>
bağlantı sı</w>
ban ka</w>
aça r</w>
ayakka bı</w>
ay kırı</w>
araba ya</w>
ara larında</w>
anı yor</w>
an lıyor</w>
ada mla</w>
Yıl dı
Y eter
Wiki pedia</w>
U ni
Oy un
Ni ha
New ton</w>
Mic rosoft</w>
M A</w>
Kut bu</w>
Kon gre</w>
Hindi st
Hede f
G az
Eti yop
E v</w>
Dış arı
D un
Cambri dge</w>
C id
Bu sh</w>
Br un
B ö
Ş ef
ülke lerdeki</w>
öyle ydi</w>
öl müş</w>
ö dün
çap ta</w>
za t</w>
yöne ten</w>
yön ü</w>
yetiş tire
yasa k
yapı yorsun</w>
yapa maz
y il
x an
ver meyi</w>
uy dur
ulaş tı</w>
tə lə
tut ku</w>
tekerlek li</w>
taşı ma</w>
tarih in</w>
tanı yor</w>
tanı k</w>
t ünün</w>
t y</w>
sıra daki</w>
sev me
se ve
say dım</w>
savaş tan</w>
sat mak</w>
sap ta
san iy
sahip siniz</w>
qi q
para lel</w>
otobü s</w>
organiza syon</w>
olası lık</w>
mə sə
müşter i</w>
müd də
meden iyet
me meli</w>
lər inin</w>
li gi</w>
ler sek</w>
laştırı yor</w>
landı lar</w>
lan ı</w>
kü t
kö y</w>
ku man
kr ar
koy arak</w>
klar i</w>
kiş isel
kaynak lanıyor</w>
kapasite si</w>
ka ta
ka lım</w>
ka lem</w>
k ot
için də</w>
is te</w>
internet i</w>
inter aktif</w>
ili p</w>
ila cın</w>
i yorsa</w>
hep inizin</w>
hareket li</w>
hareket in</w>
gözü ken</w>
göz əl</w>
graf i</w>
giriş im</w>
gidi yorum</w>
geçe cek</w>
geç tikçe</w>
gerçe ğe</w>
galak si</w>
for mü
for mu</w>
fen a</w>
felse fe
fe da
etki leye
en z
düşüne biliriz</w>
düşündüğ ünüzde</w>
dönüş üyor</w>
duygu lar</w>
duy muşsunuzdur</w>
duy duğu</w>
dos ya
diğer lerine</w>
disip lin
dir .</w>
de sen
dağı tım</w>
dayanı k
dayan an</w>
daki lerin</w>
cek lerdir</w>
ce de</w>
bö cekleri</w>
bö cekler</w>
bula biliriz</w>
bilme sini</w>
bi lerek</w>
başla mış</w>
başar dı</w>
bas ar
ba b
b r
aza lıyor</w>
ayr ıntı
anız ın</w>
an dı</w>
alan ı
al dıkları</w>
aca yip</w>
Za ten</w>
Yanlı ş</w>
V ak
Tar i
T al
T ak
Smit h</w>
Ora daki</w>
On lardan</w>
N el
Mən im</w>
Kan ser</w>
I ste</w>
Hindi stan
Ha f
F ır
Doğru su</w>
D al
C ity</w>
Ba ba</w>
Ar ist
20 50</w>
ə hə
ş ında</w>
ş arak</w>
İ ster</w>
üst ünden</w>
ünüz ün</w>
ünüz e</w>
ö bür</w>
çıktı k</w>
çocuk luğ
çi lik</w>
ça ğında</w>
ça n</w>
ç ürü
Ç ar
ze de
yıldı zı</w>
yuvar lak</w>
yorum .</w>
yer deki</w>
ye ter</w>
yaptığı mızı</w>
yapma larını</w>
ya hu
vu z</w>
ver iye</w>
vası ta
v ille</w>
un sur
umu yoruz</w>
tex n
ter ek</w>
tema s</w>
ta dını</w>
sə h
sıv ı
sı m</w>
sez gi
sayı sız</w>
sa ç</w>
s öyle</w>
s undan</w>
resi f</w>
qu r
q an
paten t</w>
parça sı
otiz m</w>
oter ap
os unu</w>
oluştu ğunu</w>
olur ken</w>
olsay dınız</w>
olduğ uydu</w>
olduğ unca</w>
o ş
nesne leri</w>
ne hir
mu k</w>
molekül leri</w>
mikros kop
man ların</w>
liği mizi</w>
lider leri</w>
laya lım</w>
lar sak</w>
lanı yorum</w>
kırıl gan</w>
kı y
ku r</w>
konuşma sı</w>
konuşma ları</w>
karı ştı
kal ması</w>
j ı</w>
istih bara
iste mez</w>
is indeki</w>
ir i</w>
inan a
in kar</w>
ilgilen en</w>
il ə
ik â
ho şuma</w>
hi per
güt meyen</w>
götür mek</w>
gör meyi</w>
gitti ler</w>
git me</w>
fır lat
far e
f üz
eş i</w>
evr imin</w>
ev lerine</w>
etme di</w>
etkileş ime</w>
esin len
el lerini</w>
el inden</w>
ede bilirim</w>
ede bil
dırı cı</w>
düşündüğ ünüz</w>
düzen leme</w>
dönüş ü
duyu yoruz</w>
duy u</w>
duy g
doğrul tu
diği me</w>
di lin</w>
der dim</w>
da ğın</w>
d anın</w>
büyü rken</w>
bulu r</w>
bu lan</w>
boy ut</w>
bir im
bir a</w>
bina ların</w>
bilgisayar ı</w>
bey ne</w>
bey inde</w>
bakı yorlar</w>
ara yüz
akı şını</w>
a san
Z ih
Yun an</w>
Sı radaki</w>
S h
Mu ha
Ma alesef</w>
Le on
Ken dini</w>
K ral</w>
K onu</w>
I şı
H is
Ge ce</w>
G ünü</w>
G ore</w>
G ana</w>
Bin lerce</w>
Bi g</w>
Ben zer</w>
B or
B ak</w>
A -
3 6</w>
ş ö
Ş ü
ğı t</w>
üs tü
öğren iyoruz</w>
öz ünde</w>
örne ğini</w>
çıkar ır
çı r
çevre de</w>
çalış anlar</w>
ça la
Çocu kken</w>
za n</w>
yüz en</w>
yü m</w>
yaşa mını</w>
yazı yor</w>
yar arı</w>
yapa biliyor</w>
yap ti
yap arım</w>
yaklaşı mı</w>
yaka lamak</w>
y ek
v ir</w>
uygulama lar</w>
tü cü</w>
ter im</w>
tep k
taraf ı
tanım lamak</w>
sü pür
söyleye biliriz</w>
st on</w>
spe sifik</w>
sonuç lara</w>
siste matik</w>
si r</w>
sev dim</w>
sandal ye</w>
sa la
sa dəcə</w>
ra bilirsiniz</w>
para sı</w>
olma q</w>
olan ın</w>
oda klı</w>
nö v
nokta yı</w>
müz ü</w>
mühendis ler</w>
mi de</w>
meye ceği</w>
mey il
ma ya
m ün
liber al</w>
li st</w>
ları mda</w>
l op
kı m</w>
kültür ün</w>
kö mək</w>
kura lı</w>
kullana bilir</w>
kra l
konuşu yorum</w>
ko mi
kişi leri</w>
kes il
ke mer
kaz a</w>
ka der
iç e
izof ren
iza h</w>
is in</w>
inanı yor</w>
inan an</w>
i dim</w>
i deki</w>
hükümet in</w>
hiç birşey</w>
hatır lıyor</w>
han esi</w>
hafta lık</w>
ha mı
ha liyle</w>
h ara
güzel liği</w>
görül memiş</w>
gize m</w>
genç lerin</w>
fırsat lar</w>
fel ci</w>
fayda sı</w>
evren deki</w>
emek li</w>
eli mizdeki</w>
elektrik sel</w>
elekt ron</w>
el lerinde</w>
dığ ının</w>
düşünür sünüz</w>
düşün meyi</w>
duru mu
dur du</w>
diye bilirim</w>
de po
da lış</w>
cüm le</w>
ci dir</w>
bı m</w>
böyle sine</w>
bulun maktadır</w>
bir denbire</w>
başka sının</w>
bam başka</w>
baba lar</w>
at tı</w>
anlam ında</w>
an der
ama ca</w>
alan ını</w>
a letler</w>
Y anı
Siz inle</w>
S B</w>
R ay</w>
L es
Ku tu
K eli
Ener ji</w>
Baş ka
A şı
4 .
əhə miy
üzü cü</w>
özellik lere</w>
örnek te</w>
çık ması</w>
çoğ umuzun</w>
çizgi ler</w>
çek er
Ödü lü</w>
Çoğ un
yöntem leri</w>
ye si</w>
yapıl dığı</w>
yapı ştırı
yapa bileceği</w>
var .</w>
v ana</w>
uzak laştı
toplu mlar</w>
taşı m</w>
tanı şma
t he
səbə b</w>
sıkı şı
söylen di</w>
st res
sorun larla</w>
sor una</w>
slay t</w>
seç il
ses sizlik</w>
sene de</w>
sen t</w>
sar sı
sanat ın</w>
sanat sal</w>
sa plan
s tan</w>
s oku
s c
proto tip</w>
protest o</w>
p üs
p ta</w>
oyna ya
olu b</w>
olan lardan</w>
o mur
n u
mü s
meye ceğini</w>
meta bo
met ro
ma sında</w>
ma m
lər ində</w>
lü kleri</w>
lma dık</w>
li mizi</w>
leme sine</w>
le ke
laya cağız</w>
laya cağım</w>
kısıt lı</w>
kuru l
kilo metre
kal maya</w>
kah ve
iz ler</w>
internet ten</w>
hük û
hikaye m</w>
her gün</w>
hay vanın</w>
hareket ler</w>
ham med</w>
gə lə
gün ünde</w>
görül düğü</w>
görü lebilir</w>
gen om</w>
gel mesini</w>
ge lerek</w>
g on
fərq li</w>
fil oz
fel ç</w>
eşit lik</w>
evren i</w>
etkileş im
etki ledi</w>
et tiniz</w>
ef ek
e ger</w>
dı ysanız</w>
düşünürü z</w>
duğumuz u</w>
duygu ları</w>
duy duk</w>
di yet</w>
değiş ken</w>
de diğini</w>
dah il
da sı</w>
da ha
c m</w>
büyü tü
bö b
bulun mak</w>
bir imi</w>
bin ayı</w>
bi çi
be yaz
başı mıza</w>
başka sı</w>
bağlantı ları</w>
bahs etti</w>
b on</w>
azal tı
ayı ran</w>
ası lı</w>
ara ştı
ar ın
an trop
al kol</w>
Yen iden</w>
S oğ
S S</w>
Ru anda</w>
Proj esi</w>
Ner ede</w>
N et
Müze si</w>
Kiş isel</w>
H üc
G ru
F inan
Eb ola</w>
E ğ
C al
Bro ok
Bay anlar</w>
8 5</w>
şehir leri</w>
ş unun</w>
Şaşı r
ür etmeye</w>
üc ret</w>
önce ydi</w>
ölçü m
çoğ unda</w>
çift çi</w>
çi lerin</w>
çalıştı rı
ç or
Örne k</w>
zorun lu</w>
yıl ını</w>
yetenek leri</w>
yer di</w>
yaşa dık</w>
yaşa dı</w>
yarata cak</w>
yapı sal</w>
yapı cı</w>
yaptı ğına</w>
yab ani</w>
uğra şan</w>
unut mayın</w>
ulu s</w>
ucu za</w>
tüğ ü</w>
toplu luğun</w>
tis tik</w>
tip i</w>
tar if
ta ze</w>
t lık</w>
söyle me
sun lar</w>
soy ut
sora bilirsiniz</w>
so f
siz lerin</w>
sistem lerin</w>
si yet
sev iy
sev in
sen tez
sa da
ruh u</w>
refa h</w>
qar anlıq</w>
peş inde</w>
pat er
oğ u</w>
oluştur maya</w>
oluş muş</w>
olmu ştum</w>
olmak sızın</w>
oda sına</w>
nəz ər
nesne lerin</w>
ne şe
ne y
n it
müz ik
müda hale
mira s</w>
mez sin</w>
meta for</w>
me tal
m o</w>
lmaz dı</w>
leş en</w>
len diğini</w>
le diler</w>
lanı yordu</w>
landırı yor</w>
landı kça</w>
l mış
kullanı lır</w>
konuşu yoruz</w>
ko yan</w>
kili t
kazan ç</w>
karşılaştı ğımız</w>
kala ba
kafa ta
k .</w>
itibar iyle</w>
in t</w>
in son</w>
il lüz
i ba
hə tta</w>
huz ur
hor m
har icinde</w>
ha sar
h ol
graf ik
geçir iyor</w>
fi yatı</w>
f ı
eğ r
etraf a</w>
etk iyi</w>
es ki
e d</w>
dışarı dan</w>
duvar ı</w>
değişik likleri</w>
değil lerdi</w>
den izin</w>
da y</w>
da lı
da l</w>
d ara
cu ları</w>
co cu
ceva bını</w>
bü ro
bilər ik</w>
bili yorsanız</w>
b li
ay dın</w>
artı q</w>
arttı rı
araba sı</w>
amp ;</w>
ale ti</w>
ad re
a di</w>
a ce
Y ü
T im</w>
Sı ra
Sa tur
S ing
O s
Nel son</w>
N es
N SA</w>
Mü kemmel</w>
Mü h
Li ber
Laboratu var
L T</w>
Kü tüp
I I</w>
Gele cek
Ga zete
Car ol
Bazı larınız</w>
& amp;</w>
şma sı</w>
şika yet</w>
İsviç re</w>
ğ inize</w>
üye leri</w>
ü mit</w>
ölç mek</w>
ödün ç</w>
öde ye
çift çiler</w>
çalışa cak</w>
yarı ya</w>
yaratı klar</w>
ya ban</w>
y ir</w>
vücu du</w>
var lık</w>
top rağın</w>
ti z</w>
te f
tanım layan</w>
sürec inde</w>
söylü yordu</w>
stratej ik</w>
soh bet
si gorta</w>
sezg isel</w>
semp to
sanay i</w>
s ömür
ra di
pu an</w>
pil ot
p lanı
onem li</w>
oll y</w>
ola ya</w>
ol gu
o muz
o fis</w>
nəti cə
niha yet</w>
naz ik</w>
nan o</w>
mürekke p</w>
muc ize</w>
mu yoruz</w>
mikros ko
meta for
masa ya</w>
masa da</w>
manı m</w>
malı dır</w>
mak ina</w>
mah v
ma mın</w>
ma a
lı ktır</w>
laşma sı</w>
lanı yoruz</w>
lan dım</w>
kuru lu</w>
kromo z
korid or
koor din
konus una</w>
kimse ye</w>
kar şın</w>
kan a
kalite sini</w>
iç ten</w>
ister se</w>
is ik
id ar
hayvan ı</w>
hayatı mızın</w>
hayat larının</w>
hasta ları</w>
göz ler</w>
götür üyor</w>
görün düğü</w>
görün düğ
gö kada
gidi yordu</w>
geç tik</w>
getire biliriz</w>
geli şi
g on</w>
g men
fotoğraf ta</w>
finan s</w>
fil min</w>
ev re
ev kala
et nik</w>
emi syon
ek to
e hti
düşünü p</w>
düşündüğ ümüzde</w>
düz ine</w>
dürü st
dük leri</w>
duy duğunuz</w>
doğu ştan</w>
doğ aç
dikkat lice</w>
dev letler</w>
de lik
d op
cihaz ları</w>
c t</w>
bulaşı cı</w>
bilme nin</w>
be z
baş vuru
bağlantı yı</w>
bağlantı lar</w>
bakter ilerin</w>
baka bilirsiniz</w>
ba har</w>
b ına</w>
açık lıyor</w>
aza ldı</w>
az a</w>
as linda</w>
alan larında</w>
Z or
Tali ban</w>
Se at
S ını
S ila
Orta ya</w>
Okyan usu</w>
Mo ore</w>
M ad
M W</w>
Hin tli</w>
Hep sini</w>
Hayat ta</w>
H ap
Ga tes</w>
G ali
Filist in</w>
C in
C he
Ba yan</w>
B C</w>
A.B. D.</w>
19 0
- ci</w>
ə sas</w>
ə də</w>
şı mızı</w>
ştı k</w>
şidde t
şa ka
şa hane</w>
şa f</w>
ışı ğa</w>
İ htiya
ü dür</w>
öğ leden</w>
ör tüsü</w>
öldür mek</w>
Ç ünki</w>
z anne
yıldız ın</w>
yox dur</w>
yolcu luğ
yerleştir dik</w>
yer lerin</w>
yaşında ydı</w>
yaz ın</w>
yapaca ğımız</w>
yanı ma</w>
we b
w a
ver meden</w>
uza yın</w>
uy arı</w>
umuz da</w>
tə x
tutar lı</w>
tartı şmaya</w>
tarih inin</w>
tara ma</w>
tanı tı
sü t</w>
söyle mişti</w>
söyle dikleri</w>
st u
sin yali</w>
si ber</w>
seviye sine</w>
sen inle</w>
sayı lar</w>
sal gı
sa ya
s ili</w>
renk ler</w>
po len
par la
orta mında</w>
ori ga
oran ını</w>
on ur</w>
okyanu sta</w>
oksi tos
niyet li</w>
niha i</w>
n u</w>
mə t</w>
möv cu
mu l
motor u</w>
mez ar
ma den</w>
lı klarla</w>
lum bağ
liy dim</w>
la kin</w>
kutu su</w>
kur gu
koy arsanız</w>
konus unu</w>
ki t
kağı dı</w>
katıl mak</w>
kapı yı</w>
kalı p
kaldırı p</w>
kain atın</w>
işle diğini</w>
iste ği</w>
iler liyor</w>
hoş lanma
ho ca
hede fi</w>
hayatı mızı</w>
hayat ına</w>
har a</w>
h uy
göz lerini</w>
göster i</w>
gerçek ler</w>
geliş ti</w>
geli rler</w>
fotoğraf çı
fil mini</w>
fil me</w>
fab rika</w>
fa kül
f al
eğiti l
eğ ri
ev vel</w>
ev cil</w>
et ken
eksik liği</w>
e bilir</w>
dı klarına</w>
düşün müştüm</w>
dö vr
durum la</w>
doğ dum</w>
diyal og</w>
dil miş</w>
de de
cı larla</w>
cen net
ce li</w>
bü r
bölge yi</w>
burada yız</w>
biz lerin</w>
birbir imizi</w>
bili me</w>
bili mada
be ye
başka larına</w>
baş lığı</w>
bağı ş</w>
baka biliriz</w>
ay lar</w>
at tı
as ında</w>
arı lar</w>
araba ları</w>
anlayı şı</w>
anlam sız</w>
alterna tif
ai len
ac h</w>
a kan</w>
Z or</w>
Ye mek</w>
Ye di</w>
Yax şı</w>
T K</w>
Sü per
Seat tle</w>
S imdi</w>
S ch
R is
R I</w>
Prob lem</w>
Na tional</w>
Kendi mizi</w>
Ka mer
H y
Geze gen
Düş ünün</w>
Dör dün
D uy
Char lie</w>
Ber lin</w>
Ban kası</w>
Arap ça</w>
An dro
A b
şey lər</w>
şek liyle</w>
şart lar</w>
şansı mız</w>
ş et
İç er
üzər ində</w>
üzer ey
öğ ü
çıl gın
çocu klarına</w>
çiz el
çi p
çevir mek</w>
çe si</w>
Öğr etmen
zorunda dır</w>
z la</w>
yürü yen</w>
yol unun</w>
yol suz
yer indeki</w>
yaşan dı</w>
yaşa mayı</w>
yaşa dıkları</w>
yaş ından</w>
yaş ana
yata y</w>
yapı ştır
yapı ş
yapma kla</w>
y dınız</w>
w s</w>
w a</w>
v üz
uçu ş
uzman ları</w>
unuz daki</w>
tüketi mi</w>
toplum ların</w>
topla yıp</w>
top lama</w>
ti yor</w>
tepe sinde</w>
te ması</w>
taş ını
sını fa</w>
söyle mem</w>
soru lara</w>
siya set
sistem inde</w>
simet rik</w>
sev iye</w>
ses le</w>
sene dir</w>
sefer de</w>
seb ze</w>
san s</w>
s ünde</w>
s ların</w>
s h
s eti</w>
ren kleri</w>
rek or
para ya</w>
op ti
mə li</w>
mükem mel
mut laka</w>
mu şlar</w>
mi si</w>
makine leri</w>
ma sıydı</w>
ma larının</w>
m lü</w>
m larına</w>
lı rken</w>
lü n</w>
lik tir</w>
ler inizle</w>
lene cek</w>
lama lıyız</w>
kurum ların</w>
kur ban</w>
konu ları</w>
klar ınızı</w>
kir li
kayna klarını</w>
katı la
kan un</w>
kan at</w>
kalite li</w>
kabl o</w>
j a</w>
iş gal</w>
iç ini</w>
iz ini</w>
iyile şme
isti yorsun</w>
ister iz</w>
iste dik
istatis tik
iske let
im za</w>
i lerinin</w>
hiss etmek</w>
hav anın</w>
hasta ya</w>
harcı yoruz</w>
halü sin
h iyer
gün cel
göster iyorum</w>
göster il
görün meyen</w>
göre lim</w>
gökyüz üne</w>
gö mül
gider seniz</w>
gerçe ğini</w>
gerek lidir</w>
geli yorum</w>
geli ri</w>
gazete ci</w>
g inin</w>
fot o
film ler</w>
femin ist</w>
fa tu
fa t</w>
eğiti min</w>
etti kçe</w>
enjek te</w>
el ma</w>
e htiya
düşün menin</w>
dönüş ür</w>
döne mi</w>
di yerek</w>
değiştir me</w>
dene meye</w>
bölge sel</w>
bulun makta</w>
bu tun</w>
biyo -
birlik də</w>
bilgisayar da</w>
bil diklerini</w>
bet on</w>
belir siz
bel kide</w>
başla tı
başla mıştı</w>
başka ları</w>
baş lı</w>
baş kan</w>
bas ka</w>
bahs ettiğimiz</w>
bahs etme
ba kan
ağac ın</w>
açık lamaya</w>
açı sını</w>
at han</w>
as lı</w>
araştırma cılar</w>
ara mızda</w>
ar tı</w>
ar gü
anlayı ş</w>
akı şı</w>
af f
adam ların</w>
T ony</w>
Seyir ci</w>
R us</w>
Park inson</w>
M is
Ha ber
H ər</w>
Geç enlerde</w>
G al
Etiyop ya</w>
E beve
Dik kat
Del hi</w>
Da hası</w>
Ce za
Bah s
Araştır ma
An laşı
Af gan</w>
əvv əl
Əs lində</w>
şu an</w>
ştır ma</w>
şidde te</w>
şa mpi
Şu bat</w>
ında yız</w>
İn an
üz ün
üst ündeki</w>
öldürü cü</w>
çı ğ
çat la
çal ın
ç isi</w>
zı p
zev k
ze t</w>
yön lendiri
yok sun</w>
yazılı mı</w>
yayıl mış</w>
yapaca ğı</w>
y il</w>
vide oda</w>
vasıta sıyla</w>
var mak</w>
val lı</w>
va ci
uygu la
ufa cık</w>
ter a
temel li</w>
tek lif
taşı r</w>
takdir de</w>
t ını</w>
sın lar</w>
söylen en</w>
siya h
sey ler</w>
sev iyoruz</w>
sebep lerden</w>
savaş mak</w>
sahi b</w>
rest oran
q az
psi kiyat
program lama</w>
progra mlar</w>
po und</w>
pira mi
pan tol
ot op
os kop
ora daydı</w>
olan ak
ol sanız</w>
ol og</w>
oku duğum</w>
nüf u
nör onlar</w>
nö q
mü dür</w>
mu y
mi mizi</w>
mez sek</w>
mey ve
merkez li</w>
me mişti</w>
ma kul</w>
lanma sına</w>
kuru lmuş</w>
kurtu lmak</w>
ku n</w>
koru ya
kesi m
kenar ında</w>
kağı t
karınca lar</w>
kampan ya</w>
kalan ını</w>
iş inde</w>
içer ide</w>
iyileştir mek</w>
isti krar
ir se</w>
in o</w>
hə min</w>
ho p</w>
hari kaydı</w>
hali hazırda</w>
günü müz</w>
görüş me</w>
gördüğ ünde</w>
gru bu
gos ter
git mesi</w>
geçir dik</w>
gelen i</w>
gel medi</w>
ge v
g oz
fiz yoloj
fil mde</w>
fazla sına</w>
evkala de</w>
etme lerini</w>
erke ğin</w>
enf eksiyon</w>
em niyet</w>
ekr ana</w>
ede ceğini</w>
düş man</w>
duyu yor</w>
duy dunuz</w>
doğa ya</w>
doğ ayı</w>
di ki
ders ler</w>
demokra sinin</w>
dağını k</w>
davranış ları</w>
cı yı</w>
coğraf i</w>
cihaz lar</w>
cerra hi</w>
bırak ın</w>
büyü ye
bölge deki</w>
bulun duğunu</w>
boy n
bit ti</w>
birbir imizle</w>
bir isine</w>
bilmi yordu</w>
bilir sem</w>
bile lim</w>
belir tmek</w>
başla yarak</w>
başar mak</w>
ba lıklar</w>
azal ma</w>
avu kat</w>
araştır mayı</w>
ara yıp</w>
ara dım</w>
anla mamız</w>
anahtar ı</w>
an on
an neler</w>
alır sanız</w>
alkı ş</w>
acı masız</w>
a it
Yap tığım</w>
Y ağ
Tele s
Tan zan
Sing ap
Seyir ciler</w>
Pek âlâ</w>
P ap
On larla</w>
N için</w>
M ısır
L ad
Ka m
Ka ide</w>
K evin</w>
J H</w>
In san
Hol landa</w>
Hen ry</w>
Gen e</w>
G rön
G iz
E h</w>
E ger</w>
D etro
Bili yoruz</w>
Arjan tin</w>
Ak lı
A M</w>
5 0.000</w>
20 20</w>
20 15</w>
şu ra
şar j</w>
ş çı
ş işe</w>
ş izofren
Şe hir</w>
üz günüm</w>
ülke si</w>
çıktı lar</w>
çıkar dığı</w>
çiç ek
çek er</w>
çağ rı</w>
zamanı mız</w>
yı s</w>
yön etme
yoğun luğu</w>
yor larsa</w>
yor du
yolcu luğu</w>
yetiştir mek</w>
yen lerin</w>
yarı sından</w>
yara dığını</w>
yap mıyoruz</w>
yan ları</w>
yaln ız
ver inin</w>
va l</w>
umuz a</w>
tə ş
tüke tim</w>
topra ğı</w>
tiyat ro</w>
sürü cü</w>
su re
sorun lara</w>
seç mek</w>
sey dim</w>
sen kron
sek tör</w>
se se</w>
sahibi m</w>
sa hə
rüş vet</w>
ro ket
referan s</w>
platfor m</w>
parça ların</w>
para yla</w>
p is
p ik
orman ları</w>
olur sam</w>
oldu klarına</w>
oldu gu</w>
ola bileceğine</w>
ol sak</w>
na n</w>
mül k
mu s</w>
miş ə</w>
miş ken</w>
me yle</w>
me te</w>
mas ke
ma sum</w>
ma ması</w>
lüğ ün</w>
liği m</w>
kıs mının</w>
kır mızı
kullan ama
kazanı yor</w>
kayı p
kayde de
kavra msal</w>
kat lı</w>
karika tür</w>
iç sel</w>
iz ole</w>
it fa
ince ledik</w>
im para
i o</w>
i kte</w>
i Po
i -
hayat taki</w>
göster dim</w>
gö ze
gi miz</w>
geç tiği</w>
ge cik
ga ler
fi miz</w>
fes ti
fen di</w>
fan tas
f ısı
f lor
eğili min
eği m</w>
erkek leri</w>
erkek lerden</w>
ede bi
düşün müş
duyu lan</w>
diz isi</w>
diren ç</w>
dig ini</w>
di lerim</w>
değiştir ir</w>
deste ği</w>
demi r
de dikleri</w>
d ri
büro kra
bö ceği</w>
bo y</w>
biraz dan</w>
bilin iyor</w>
bilgisa yarı
bi e</w>
bar dak</w>
aşama sında</w>
ayrı lmış</w>
ayrı lan</w>
at ör
arı yor</w>
araştır mak</w>
ara yan</w>
ara cın</w>
ara b
anlat tığı</w>
al dığınız</w>
Z ir
Z en
Ya ta
V atan
Top lum</w>
Ti tan</w>
T en
Sta si</w>
P azar
P al
Oku l</w>
Nor malde</w>
Müh endi
LE D</w>
L a</w>
K er
Jo e</w>
Jan e</w>
Ger iye</w>
Ge lin</w>
G ol
Fil m</w>
Eri c</w>
En düst
Ebeve yn
Dokt or</w>
D uygu
D A</w>
A ile</w>
4 7</w>
ştı r</w>
Ş ili</w>
İz leyici</w>
ğı mıza</w>
ürkü tücü</w>
çıkar ma</w>
çözü mün</w>
çi ğ
çap lı</w>
çalıştı kları</w>
çalışma larını</w>
ç ının</w>
ç anın</w>
Ör gü
za h
yükse liş
yü n</w>
yor sam</w>
yaş larında</w>
yasa dışı</w>
yaptı ğımızda</w>
yaptı ktan</w>
yahu t</w>
yaca ğınız</w>
yaca ktır</w>
vide olar
verir ler</w>
ver gi
vatanda ş</w>
tut un</w>
ti ğine</w>
sə n
sık ıntı</w>
söz leri</w>
söyle yerek</w>
söyle dik
su al
sti l</w>
sorun larını</w>
siz de</w>
siste mde</w>
silah ları</w>
sik lop
sen dro
sek si</w>
sayı sının</w>
sayı lır</w>
s ör</w>
roman tik</w>
robot ların</w>
ro ket</w>
raka mlar</w>
qə bul</w>
pos ter
piş manlık</w>
p ul
p hic</w>
otori te
or manın</w>
olmayaca ktır</w>
olduğ un</w>
oldu klarından</w>
ola mayaca
okul lar</w>
mı yorlardı</w>
müte va
mü fre
met o
mekaniz ma</w>
mar ket</w>
madde leri</w>
lü yordu</w>
lik çi</w>
li yordum</w>
leş ti</w>
le miş</w>
l yn</w>
kı yı</w>
köy de</w>
kö le</w>
kurtu la
koşul larda</w>
kom şu</w>
kol lek
kitab ını</w>
karde şi</w>
kal bin
kadın la</w>
işlev sel</w>
için di</w>
iç lerinde</w>
iz leri</w>
iyi lik</w>
ilginç tir</w>
hey kel</w>
hay ran</w>
han sı</w>
han gisi</w>
hal in
ha s</w>
gə lir
güzel di</w>
göster erek</w>
görün düğünü</w>
git meyi</w>
geçir diğim</w>
getir erek</w>
geli şmeler</w>
gel in
ge zi
fizik çi</w>
fikir le</w>
fazla dır</w>
f ederal</w>
ente l
edi yorlardı</w>
düşünce ler</w>
düşün dür
dük ten</w>
dü y
durum ları</w>
durdur mak</w>
dikkat inizi</w>
dey ir
ders leri</w>
de mək</w>
dayanı r</w>
d re
co ş
ci liği</w>
ci lerden</w>
cevap ları</w>
c rü
bul mayı</w>
bor u</w>
bire yin</w>
bir şeye</w>
bilsey dik</w>
bilmi r
bilgisayar ları</w>
bilgi lerini</w>
bileceği mize</w>
baş lı
bas kın</w>
ar dım</w>
ali yet</w>
alan larını</w>
ala kalı
ala ca
ak ıntı
ak si</w>
ak ciğer
ada y</w>
Y ı
S tar
S no
R ad
Oli mpi
O kulu</w>
Nic k</w>
Kaç ınız</w>
Ka tı
K op
Hu ku
Hep iniz</w>
Grön land</w>
Erkek ler</w>
Bü yük
Bilim sel</w>
Bey nin</w>
Aşa ğı
Ara ba</w>
A ta
4 8</w>
əla və</w>
ş ok
üç ü</w>
üret ken
ön lemek</w>
çocukları mıza</w>
Üç üncüsü</w>
Ç ince</w>
zı r</w>
yürüyü ş</w>
yol lardan</w>
yaşı mda</w>
yaşı m
yayı lıyor</w>
yaratı yoruz</w>
yan gın</w>
y ine
wel l</w>
uça ğı</w>
u d</w>
tüken miş</w>
tu re</w>
toplan tı</w>
tiş ör
ter ör</w>
tanı m</w>
tale p
t suna
t oku
sınır ı</w>
sürec ini</w>
sür ün
söyle miyorum</w>
sil in
sig orta
si hir
sey dik</w>
sağ lama</w>
sayı sal</w>
sa kin</w>
s per
rön t
ris kleri</w>
re sep
radya syon</w>
q ız
püs kür
profes yone
pencer e</w>
parça sıdır</w>
oyna maya</w>
oy una</w>
olma ma</w>
neden lerden</w>
mo dü
mi sa
me mur
me diler</w>
ma sanın</w>
lü t
li yorsunuz</w>
li t
lanma sını</w>
lama larını</w>
l inin</w>
kıla vuz
kâ r
kur ma</w>
kullanı lmış</w>
kullanı lması</w>
ku m
kt ur</w>
kra li
konuşma sını</w>
kolay dır</w>
kesi p</w>
kaynak lanan</w>
kanser in</w>
kali te</w>
k s</w>
içer ir</w>
iz ni</w>
iz leyici
istis na</w>
ir o
impara tor
ilgilen meye</w>
il k
iPo d</w>
hükümet ler</w>
hissedi yor</w>
his sini</w>
her halde</w>
he y</w>
hava dan</w>
hata lar</w>
har c
h opar
gə lir</w>
gün leri</w>
göz et
götür en</w>
görü yorlar</w>
görü lür</w>
go z</w>
geç erek</w>
gerekir di</w>
geniş let
fiyat ları</w>
fikir lere</w>
fi gür
fe s</w>
faz a</w>
eş cinsel</w>
etiket i</w>
et di</w>
esa sında</w>
er gen
engel lemek</w>
en s</w>
dü zen</w>
du rağ
doğru sal</w>
doğ muş</w>
dog ru</w>
di şi
deği şi
deta y</w>
der sin</w>
de siniz</w>
dan ı</w>
cava b</w>
buz ul</w>
bul muş</w>
bu ğ
bozuk luğu</w>
birlik te
bir leştire
bili n</w>
bil diğimizi</w>
bağ lılık</w>
bayı lıyorum</w>
b ər
ağır lığı</w>
açık laması</w>
arka sından</w>
ard ında</w>
araç ların</w>
anti -
anima syon</w>
anali zi</w>
an al
amacı m</w>
akı mı</w>
aile sinin</w>
adlandır dığımız</w>
a va
a v</w>
a tan</w>
Y arı
Vietna m</w>
Tür kiye</w>
Singap ur</w>
San al</w>
S E
R üz
P ol
Oy un</w>
N ə
Mut lu</w>
Me c
M ek
K as
Hindist anda</w>
F ri
En di
E M</w>
Detro it</w>
Cumhur iyet
C unku</w>
C ola</w>
C er
Brun o</w>
Ben imle</w>
Bel ə</w>
Baş kanı</w>
Ap oll
A L
A B</w>
3 .</w>
ərə k</w>
şey lerde</w>
şeffaf lık</w>
şarkı yı</w>
ıs rar</w>
ın cı</w>
İsra il
İs ve
üni te
öğren menin</w>
çöp e</w>
çocukları mız</w>
çiz e
çalışma mız</w>
ça lan</w>
Ö te</w>
Çif t
zorlu klar</w>
zor la</w>
yıl ları</w>
yüzey inde</w>
yüksel t
yöntem le</w>
yöne te
yor san</w>
yor muş
yeten e
yarı sına</w>
yar gı</w>
ver mişti</w>
uygulama sı</w>
uygulama ları</w>
unuz dan</w>
un cusu</w>
u ri
tu tarak</w>
temel inde</w>
teknoloj isini</w>
te la
tasarruf u</w>
tasar la
tanı ya
sınır lar</w>
süz ü
söyleye bilir</w>
son larında</w>
si c
seçen eği</w>
seç tim</w>
say dınız</w>
saat lerce</w>
sa çı
sa t</w>
sa mi
sa bit
s bur
rə qə
ro man</w>
reak siyon
ra h
qar şı</w>
psik oloj
psi ko
paylaşa cağım</w>
ot o</w>
ot a</w>
orta sına</w>
on ca</w>
olduğumuz a</w>
okyanu sa</w>
oku lu
neden den</w>
mı yım</w>
müs lü
mu yuz</w>
molekü lü</w>
met od
med ya
me tik</w>
me kan</w>
mad də</w>
lər indən</w>
len meye</w>
le min</w>
lar .</w>
lama sına</w>
lama m</w>
la ya</w>
la sik</w>
la net</w>
kə ş
köşe de</w>
kuş ku
kurulu ş</w>
kurtu lu
kullan dığım</w>
kları mın</w>
kişi lerle</w>
kir lilik</w>
kes tir
ke ser
katıl dım</w>
kar lar</w>
kar ide
kamu sal</w>
kam p</w>
kadın larla</w>
için dir</w>
is i
ip uç
ince leye
iletiş imi</w>
i lik</w>
hikaye ye</w>
hareket lerini</w>
hareket ini</w>
har f</w>
hal ka
gönder il
gitti ğinizde</w>
gir er</w>
geçir miş</w>
gerçek leri</w>
gel diğimiz</w>
gel diklerinde</w>
flor e
en trop
edin e
dığı mızdan</w>
dört te</w>
dön düre
duy maya</w>
dur un</w>
dino zor
di z</w>
d y
can landırı
c ına</w>
c iye</w>
büyü meyi</w>
bu lanı
biləcə y
bilir se</w>
bey z
başla malıyız</w>
ban t
ba cak</w>
aç tım</w>
ayır mak</w>
atı p</w>
ar tar</w>
anlaşma z
anlaya bilmek</w>
an n
alır sak</w>
akı ş
akl ınıza</w>
ada y
Wor l
Willi am</w>
Wat son</w>
V eri</w>
Tari h</w>
Soğ uk</w>
Sek iz</w>
Sah ra</w>
Sa v
S W</w>
Nik e</w>
Ne ander
M ev
M el
Kula ğa</w>
Kor uma</w>
Jef f</w>
Herke se</w>
H om
Görün en</w>
Er tesi</w>
Diye lim</w>
Di ğeri</w>
Bu da</w>
Bri an</w>
B ina
B A</w>
Aşa ğı</w>
Ayn en</w>
Apoll o</w>
Af rik
5 ,000</w>
20 30</w>
şo v
Ş arkı</w>
İnsan lık</w>
ü kle
öğren dik
öy kü</w>
ön der
ölü mün</w>
öl çek</w>
çə tin</w>
çocukları mızın</w>
çek erek</w>
çağ daş</w>
Ül ke</w>
Öz gür
Örgü tü</w>
Ölü m</w>
Çin li</w>
zorunda lar</w>
zir a</w>
zaman ları</w>
yıldız ları</w>
yıl daki</w>
yön lendire
yeteneğ ine</w>
yeni likler</w>
yavaş la
ya tır
xa tır
versiyon unu</w>
veri taban
vere lim</w>
ver diğiniz</w>
uz u
toh um</w>
til miş</w>
texn ologi
tekn iği</w>
tarz da</w>
ta lım</w>
səbə b
sıra larda</w>
söz lük
sinir sel</w>
seçen ek
sağlaya biliriz</w>
sağ lıyorlar</w>
san iz</w>
s tik</w>
qey ri-
q dan</w>
piyan o</w>
pe ten</w>
pat ron
parçacı klar</w>
p ul</w>
p orta
p iz
ot ek
or du</w>
olmaz sa</w>
olma mış</w>
oldu klarında</w>
olar dı</w>
ola bilirim</w>
okul dan</w>
oda k</w>
obe zi
ne s</w>
ne lerdir</w>
mə na
müfre da
molekül ler</w>
min im
mil let</w>
mil let
mi syon
mez se</w>
meliy dim</w>
man ev
mah re
ma yalım</w>
lüğ üne</w>
lezz etli</w>
ler .</w>
le bilen</w>
laştır mak</w>
lan ların</w>
kıla vuz</w>
kı za
kı ta</w>
kı l</w>
koy dular</w>
korku su</w>
kol tuğ
klar ınız</w>
kimse yi</w>
keşf ede
keç ir
kav ga</w>
katı ldı</w>
kat man</w>
karan lıkta</w>
kad arı</w>
k olu
k o</w>
k ili</w>
iz leyin</w>
iz den</w>
iste miyor</w>
in leri</w>
in ci
im plan
im lerin</w>
ilişk iyi</w>
iler leyen</w>
il ər
ik ili</w>
if e</w>
hız ını</w>
hissedi yorsunuz</w>
hiss etti
hi za
hay ret
ha sı
güb re
görünü r
göre mezsiniz</w>
gördüğ ünüzde</w>
gir miş</w>
gide bilir</w>
gecekon du</w>
gar anti
farke de
fa aliyet</w>
f t</w>
f evkalade</w>
eşit sizlik</w>
eş lik</w>
etrafı mızdaki</w>
et dir
ekonomi ye</w>
ek me
də rə
düşünürü m</w>
dünya mızı</w>
döngü sü</w>
doğru dur</w>
do ma
den li</w>
deh ş
dalga lanma
cu s</w>
bu ki</w>
benzer siz</w>
belir lemek</w>
beklen en</w>
becer ik
başlar sınız</w>
bağ da
baktı ğınız</w>
baktı ğımız</w>
ba tak
ağ ına</w>
ağ rı</w>
atmos feri</w>
arkadaş larımın</w>
araştır maları</w>
ap art
anız dan</w>
alet leri</w>
ala biliriz</w>
akt ara
Ya ban
Te mel
T ri
Sü per</w>
Step hen</w>
Siya h</w>
Ro bot
Pr ote
P A</w>
O da
Ner eye</w>
Ne hri</w>
Mu hammed</w>
Mik e</w>
Mak ine
Ma yıs</w>
M RI</w>
Leon ardo</w>
Kısa ca</w>
Kor k
Kol om
Haw ai
Harek et</w>
Gö k
Du var
Dedi ğim</w>
Dan im
C lin
C ap
Bu z</w>
Bron x</w>
Ara lık</w>
Ar t
A lı
A M
7 2</w>
şek le</w>
şar t</w>
şan sınız</w>
Şaşır tıcı</w>
Ş ah
İ ran
üste lik</w>
ür ettiği</w>
öte ye</w>
ön cü</w>
ö kü
ö dev
çıkar ın</w>
çıkar maya</w>
çoğun luk</w>
çeşi di</w>
çek tiğim</w>
çek meye</w>
çek in
çalıştı lar</w>
ç inin</w>
zorunda ydık</w>
zek â
yıl ların</w>
yükse li
yön lü</w>
yon un</w>
yet kili
yaşı yordu</w>
yap mıyor</w>
yak laşa
y y</w>
vücud unun</w>
vr anı
ver ilmiş</w>
v in</w>
uça klar</w>
umut suz
təh sil</w>
traj ik</w>
toplum larda</w>
ti kte</w>
temiz lik</w>
tati l
tasarı m
tali h
ta van
t ına</w>
sır rı</w>
sıcak lığı</w>
söyleye cek</w>
spek tru
soru yorum</w>
sor arsanız</w>
sol unum</w>
sistem lerini</w>
sağla dık</w>
sağ da</w>
sayfa sı</w>
sa klı</w>
robot u</w>
ri tü
ri tim
profes ör</w>
politika cılar</w>
pencer e
otur ma</w>
ot lar</w>
orta ma</w>
orman ı</w>
orman da</w>
olduğ uyla</w>
oku yan</w>
ogra phic</w>
o ya
o va
ner deyse</w>
məş ğ
mü əy
model ini</w>
miş lerdir</w>
milyar dan</w>
mikro p
meye ceğiz</w>
mer aklı</w>
me dikal</w>
may m
maa ş</w>
liği mi</w>
len mek</w>
leme sini</w>
lazı mdır</w>
lan manın</w>
l ının</w>
l mıştır</w>
l duğu</w>
kız lara</w>
kı ş
kı lıyor</w>
köşe sinde</w>
kullana cağım</w>
kula de</w>
kt en
koşul ları</w>
konuşma mı</w>
kitap ta</w>
kin s</w>
keşf i</w>
kend inden</w>
kelime sinin</w>
karmaşı klığı</w>
kap lumbağ
kamera lar</w>
kal ktı
k y
k lu
j et
iç me</w>
iz n
istih dam</w>
ist lerin</w>
insan oğlunun</w>
insan larının</w>
insan lardır</w>
ila ve</w>
i lerden</w>
i g</w>
i el</w>
i c</w>
hiyer ar
hikâye yi</w>
hi le
herke sten</w>
hayır sever
hayat larında</w>
hayal ini</w>
hatırla tıyor</w>
hasta lara</w>
harca dım</w>
hakk ını</w>
gün düz</w>
gülü m
görü şü
gönder di</w>
getir il
gerçek liğin</w>
ger gin
gel diğimizde</w>
fazla ca</w>
eği tmek</w>
eği limi</w>
en ce</w>
edi leme
dış a</w>
dı klarından</w>
düş üre
döner sek</w>
duy muş</w>
du yar</w>
dos t</w>
do r</w>
dina zor
dil de</w>
demokrasi yi</w>
cə y
cömer t</w>
cek tik</w>
büyü lü</w>
bo m
biz zat</w>
bit k
bir iyim</w>
bir iniz</w>
bilme diğimiz</w>
bileş en
bil inci</w>
bi ye</w>
bek lemek</w>
be li</w>
baka r</w>
bahse derken</w>
bahs ettiği</w>
ba g
aşı rı
açı ldı</w>
ayr ıntılı</w>
atı yor</w>
atı lmış</w>
atmosfer e</w>
arı yoruz</w>
arkadaş larının</w>
ar anızda</w>
anlaya bilirsiniz</w>
anima syon
an mış</w>
alı yordu</w>
alt ta</w>
algı lama</w>
al maları</w>
akt ör</w>
aklı mıza</w>
a la</w>
a ci
Ze landa</w>
Yap tı
Y iye
Y er</w>
S oy
S P</w>
Ne ler</w>
N üf
L ar
Körfe zi</w>
Her şey</w>
H ong</w>
F u
En gel
El -
Dünya ya</w>
Den e
D ün</w>
D ir
C ra
Bu lu
5 5</w>
3 .000</w>
200 2</w>
199 8</w>
19 00</w>
əla qə
şü k</w>
ştu k</w>
şeffa f</w>
Şimdi lerde</w>
ürün lerin</w>
üniversite de</w>
ölüm üne</w>
ölçü m</w>
çözüm leri</w>
çevre leyen</w>
Ç iz
Ç ek
z ən
z man
yüz ünde</w>
yü kü
yoru z.</w>
yolcu lu
yetişkin ler</w>
yetenek lerini</w>
yaşa yacak</w>
yaşa r</w>
yayın landı</w>
yayıl ması</w>
yarı sının</w>
yaptı ğınızı</w>
yapaca klarını</w>
yap manızı</w>
xə stə
x tə
va t</w>
uğra mış</w>
uzman lar</w>
uza t
un g</w>
u di</w>
tür lerinin</w>
tutu p</w>
tut tu</w>
tut maya</w>
tu z</w>
tro pi
toplulu klar</w>
televizyon da</w>
teca vüz
taşı ma
tartışma lar</w>
tari hi
tap ın
sınıf ı</w>
sıkı ştırı
söz ünü</w>
söyleye bilirsiniz</w>
sor duğum</w>
siz dir</w>
siya set</w>
siniz .</w>
seç ilmiş</w>
sen enin</w>
saç ma
sayı sına</w>
salg ını</w>
sahi den</w>
ruh sal</w>
ren kte</w>
re ha
r sam</w>
petrol ün</w>
pay ı</w>
pata tes</w>
par an
otur dum</w>
oto mobil</w>
orke stra
on ar
ol og
oda sında</w>
nor mal
moti vasyon</w>
mo r</w>
milyar d</w>
med yada</w>
manz ara</w>
mam mo
malı sın</w>
macer a</w>
ma tlar</w>
lı lığı</w>
lider i</w>
li leri</w>
laştı ra
landı ğımız</w>
kı lı
kü re</w>
kuş ların</w>
kut unun</w>
kurulu şları</w>
kuru yor</w>
kural lara</w>
kullanı larak</w>
koy maya</w>
konuşa lım</w>
kol unu</w>
kim e</w>
ken ar</w>
kayna kların</w>
kayb ettik</w>
karmaşı klık</w>
kanı tlar</w>
kal mıştı</w>
kal dığını</w>
k -
işit me</w>
iş inin</w>
içer iye</w>
izle meye</w>
iyileş tire
iste mezsiniz</w>
iste mem</w>
istatis tik</w>
ir ə
ino vasyon</w>
indir ge
in cil</w>
ili m</w>
ile ştir
ihtiyaç larını</w>
ifade si</w>
ide oloj
i sa
i mal</w>
hərəkə t</w>
hücre lere</w>
hiss ettiğim</w>
hikâye ler</w>
hi j
helikop ter
hedef e</w>
hayvan lara</w>
hayat ınızı</w>
hayat tan</w>
hap s
hac ker
h h
gə lən</w>
götür ür
görül dü</w>
gör düler</w>
gitti ğinde</w>
geno mu</w>
gel o</w>
fir ma</w>
fi ber</w>
feda kar
f ıs
f ek
ez ber
ettir mek</w>
etme li</w>
ekosiste m</w>
ek lemek</w>
ebeve yn</w>
e be
dəyiş ik
dırı r</w>
düşündüğ ünü</w>
düşünce leri</w>
düş er
dola şan</w>
doktor u</w>
deney in</w>
cek lerdi</w>
c ini</w>
bə t
büyü te
büyü menin</w>
bor u
biz iz</w>
birkaç ı</w>
bir- bir
bir biri</w>
belir leye
be ste
başlat tı</w>
başlangı ç
bağım lılık</w>
baz lı</w>
bakı lırsa</w>
bahset miyorum</w>
açık ladı</w>
ay i</w>
ara q</w>
antibiyo tik</w>
anlaşı lması</w>
an larsınız</w>
alda t
al maz</w>
ak ın</w>
adı yla</w>
a j
Z im
Yüz lerce</w>
Yap ay</w>
Yahu di</w>
Y ok</w>
W o
Vir gin
Tek sas</w>
P op
Matema tik</w>
Kısa cası</w>
Ku ran</w>
K arı
John son</w>
I l
Hawai i</w>
Gö ster
Ge ographic</w>
GS M
Duru m</w>
Da ğ
C ok</w>
C i
Bu günlerde</w>
Bu günkü</w>
Ba kalım</w>
B arı
Arist o</w>
Ale xan
Ada ları</w>
A T
3 50</w>
3 4</w>
3 1</w>
2 .</w>
- ki</w>
şə kil</w>
şü kür</w>
şir keti
şidde tle</w>
şehir deki</w>
Şü p
Şirket ler</w>
ğı r
ü ye</w>
önce sinden</w>
çocukları mızı</w>
çikola ta</w>
çi men
çar e</w>
çalış mış</w>
ç ları</w>
Çoğun lukla</w>
Çocu k
zorun lu
zengin lik</w>
ze min
yürü yor</w>
yüksel di</w>
yerleştir mek</w>
yer le</w>
ye m</w>
yaşa mlarını</w>
yaş lı
yayı lı
yarı şı</w>
yara mıyor</w>
yaptı ğınızda</w>
yapa mazsınız</w>
yapa cağımızı</w>
yapa biliyoruz</w>
yap tın</w>
ya lan
w or
veri lerini</w>
v ı
uğ r
uzak laşı
u x</w>
tə sir
tüke tim
tü p</w>
tut ma</w>
trans fer</w>
topra ğa</w>
ti ğin</w>
teor ik</w>
tekn ikleri</w>
tedav iyi</w>
taş ları</w>
tanım laya
sı yım</w>
söyle dik</w>
sorus unu</w>
soru ların</w>
sol da</w>
sin a</w>
simet r
seç me</w>
seç er
sağ daki</w>
saat ler</w>
s or</w>
rüz gâ
robot ları</w>
resim lerini</w>
q ər
q sə
pay laşma</w>
pat laması</w>
oynu yor</w>
on arı
olma dığımız</w>
oku mayı</w>
oj en</w>
odak lanma
ner ede
n os
n ar
muha faza</w>
miktar larda</w>
metabo liz
me mesi</w>
maz sak</w>
man ip
mak si
madde yi</w>
madde ler</w>
lanır ken</w>
l ok
kə s</w>
kuru ldu</w>
kullanı mını</w>
kullan madan</w>
ku cuk</w>
konuşma dan</w>
keşf etmeye</w>
key if
kavra mını</w>
kav ga
karşı ya
kara kteri</w>
kapsa yan</w>
kanı tı</w>
kal bi</w>
kafa tası</w>
k ana</w>
iğren ç</w>
isim lerini</w>
is ti</w>
inşa a</w>
inan dığım</w>
iki -
ik lim
i yorsanız</w>
i q
huku ki</w>
herke sle</w>
hem şir
he l
hayvan lardan</w>
hayatı mız</w>
hasta lığına</w>
hal kının</w>
güven ilir
göster diler</w>
gömü lü</w>
gra s</w>
getir diler</w>
ger il
gelir li</w>
gelecek tir</w>
g anın</w>
film leri</w>
fakül te
eşit tir</w>
etme mize</w>
es k
ensti tü
elbi se
ede meyiz</w>
düşe r</w>
düğ ümüz</w>
dönüştür ül
dön gü</w>
durum dayız</w>
duru yordu</w>
dolu ydu</w>
doku su</w>
diği mize</w>
digi miz</w>
deva m
dev ir
destek leme
der gi</w>
deneye lim</w>
deney leri</w>
da ydık</w>
da la
ca ğınızı</w>
ca z
bə r</w>
bə l
bölge sine</w>
bulun dukları</w>
bozu cu</w>
boy le</w>
bitki leri</w>
bina ları</w>
bin den</w>
bilme den</w>
bil miş</w>
beyn ine</w>
bek ler</w>
başla yacağız</w>
bağlan mış</w>
bakı ldığında</w>
bahs ettim</w>
ba ki
b ble</w>
b bi</w>
açı lan</w>
ay et
avu ç</w>
av cı
araştır ması</w>
anla manın</w>
algorit ma</w>
alan daki</w>
ala cağım</w>
aile min</w>
a lem
Ya şlı</w>
Y az
Vak fı</w>
Ter ör
Te h
T ok
Ste ven</w>
Pet rol</w>
P os
P it
P ay
Okyan us
Nor veç</w>
N u
Me sa
Man de
Mal di
Ma c
Lon g</w>
L G</w>
Kend inizi</w>
Kar maşı
K it
K ay
Hız lı</w>
Ha sta</w>
Gü ç
Ge z
G ran
E di
E S</w>
Da vranı
D ra
D evrimi</w>
D R</w>
Clin ton</w>
C RIS
C R</w>
C .</w>
Büyü kan
Bağı m
Ban ka
B unda</w>
Ağ ust
A i
4 2</w>
1 ,000</w>
. S
şu radaki</w>
şimdi lerde</w>
Ş una</w>
ır kçı
ın ır
İtal yan</w>
ümüz e</w>
ülke lerden</w>
ü mit
öğrenc inin</w>
öz ünü</w>
öldür en</w>
öl mek</w>
çu kur
çocu klardan</w>
çi leri</w>
çem ber
çek ilen</w>
çar pa
çalışma ların</w>
çalı yor</w>
ça tı</w>
zı t</w>
yüz ünün</w>
yüz geç
yunu s</w>
yen leri</w>
yeme ğe</w>
yaş ın</w>
yaş landıkça</w>
yaş a</w>
yazı sı</w>
yaz dığım</w>
yayın lanan</w>
yarata bilir</w>
yara tık</w>
yapıla bilecek</w>
yapa bileceğim</w>
yan in</w>
virüs ün</w>
verim li
uğra şmak</w>
uygu lu
uygu lanabilir</w>
unu r</w>
uldu z
ulaştı k</w>
uc undan</w>
tı kla
tür ünü</w>
topla mda</w>
tic areti</w>
ti ğiniz</w>
ter sini</w>
temel ini</w>
tas la
taraf taki</w>
tar zı
ta ydı</w>
t ların</w>
sır ga
sınır larını</w>
sürec inin</w>
süre liğine</w>
sol daki</w>
sit enin</w>
sin ap
simet ri</w>
seçen ekler</w>
seç imleri</w>
sev gili</w>
sev dikleri</w>
sek süel</w>
sahip liği</w>
sa tır
sa mimi</w>
re z
re y</w>
r ö
plan lama</w>
pek çok</w>
parça cık</w>
pa muk</w>
p lo
oturu rken</w>
olu yorum</w>
olağan dışı</w>
ok u</w>
odaklan mak</w>
nis peten</w>
miş di</w>
meslek taşım</w>
me tan</w>
me lo
ma dır</w>
lə ri
lı sın</w>
lma sının</w>
li min</w>
li kteki</w>
le sef</w>
lar ınızla</w>
la tı</w>
kızı l
kuru lan</w>
kullana bileceğimiz</w>
ku ran</w>
ku le
kor san
kolon i</w>
ko şa
ko le
kir le
ket bol</w>
kayı tları</w>
kaya k</w>
katılı mcı
karma şa
kapat mak</w>
kan dır
kalor i</w>
kademi s
ka p</w>
içer isine</w>
iz liyor</w>
iz lerken</w>
iyileş me</w>
istis na
isten meyen</w>
iste diğinizi</w>
iske let</w>
is iz
inki şaf</w>
inan ma
iki miz</w>
heyecan lıyım</w>
ha di
h il
gürültü lü</w>
gülü ş
güb re</w>
göz ü</w>
göz lerinin</w>
görüntü yü</w>
görün müyor</w>
gor e</w>
gi e</w>
gerek mez</w>
geli şiyor</w>
fır latı
fi ka
ez ya</w>
etmek tedir</w>
etki leyecek</w>
enerj isini</w>
emek lilik</w>
el ver
el lerinden</w>
ek ledik</w>
edir lər</w>
ede ceğiniz</w>
ede biliyoruz</w>
e d
düzel tmek</w>
dünya sını</w>
durum lara</w>
duru r</w>
doğaç lama</w>
do m</w>
diği mden</w>
dil inde</w>
değer lendiri
depre m</w>
deneyim leri</w>
den gele
de meye</w>
de kiler</w>
de gil
da ya</w>
da mla</w>
d ru
ce ğinden</w>
bıra kan</w>
bulu yoruz</w>
bu günlerde</w>
bili yorsunuzdur</w>
bilece ğin</w>
beyn imizin</w>
başla yacağım</w>
başarı yla</w>
baş lıyorum</w>
basın ç</w>
bas tır
ba la
ba i</w>
ba h</w>
ağı z
açıklaya cağım</w>
ayak ları</w>
atmos fer</w>
at ör</w>
at ar
arşi v
araba ların</w>
ar ke
anlat tığım</w>
anla yan</w>
an ten
an ket</w>
al bü
akl ın</w>
Yap mak</w>
Te z
T ru
Si er
Satur n</w>
S ky
S ay
R an
Profes ör</w>
O lan</w>
M üş
L ou
L ife</w>
Kont rol</w>
K om
He ç</w>
H ou
Gü ç</w>
Geli şme
Evr im</w>
Evr en</w>
Eli mizde</w>
E u
Dördün cü</w>
De ğer
D oku
Carol ina</w>
CRIS PR</w>
Brook lyn</w>
Bro wn</w>
Bel l</w>
Basit çe</w>
Ban glade
B ol
Atlan ta</w>
As linda</w>
Art hur</w>
Ale x</w>
5 0
5 -
3 8</w>
3 7</w>
199 9</w>
10 0,000</w>
əhəmiy yə
əcə k</w>
şə x
şir in</w>
Şi dde
İ ç</w>
ü mi
öz üm</w>
ömü r</w>
ö dene
ö den
ö demek</w>
çözünür lük
çö l</w>
çevre sindeki</w>
çek tiği</w>
çalışma da</w>
çalış mıyor</w>
zamanı m</w>
yə ni</w>
yüz me</w>
yöntem ler</w>
yaş ın
yaz mayı</w>
yaz arken</w>
yapıl mıştı</w>
yaptı ğın</w>
yapa cağımı</w>
yapa bileceğini</w>
ya sak</w>
x ar
vol kan
verir ken</w>
vatanda şlar</w>
var olan</w>
uça ğa</w>
uc una</w>
u re
tu ris
tu k</w>
toplulu kları</w>
ti me</w>
teş kil</w>
tem sili</w>
teknoloj isinin</w>
tekn ikler</w>
taraf lı</w>
tanı yorum</w>
tan rım</w>
takı lıp</w>
ta lar</w>
sız ıntı
sözcü k</w>
söyle diğini</w>
söyle diğimde</w>
sta d
st o
sorumlu luğ
sin dir
seyir ci</w>
sev en</w>
sağla yarak</w>
sağ lıyoruz</w>
sağ lı
say ının</w>
sa q</w>
sa fi</w>
risk ini</w>
ri yaz
qü vv
problem ini</w>
prob leme</w>
par çanın</w>
oğ lan</w>
oyun ca
oran ına</w>
oluşturu yorlar</w>
oluştura biliriz</w>
olsay dık</w>
ol gu</w>
okul larda</w>
nasıl sa</w>
n ı
mu a
mi yorsun</w>
mi g
mesaj lar</w>
mesafe de</w>
mes lek</w>
matematikç i</w>
matemati ğin</w>
maraq lı</w>
man evi</w>
makin enin</w>
ma lardan</w>
lü ler</w>
liği dir</w>
liz m</w>
li man
leşme yi</w>
lendir di</w>
laya bilirim</w>
lar ini</w>
lama yan</w>
lama lı</w>
lama kla</w>
la m
kız ları</w>
kız gın</w>
kullanıl dığını</w>
kullanı p</w>
kullana bilirsiniz</w>
koz mik</w>
kor e
konuş tu</w>
ko mu
key f
kesin ti
kaynak lara</w>
katı lım</w>
karşı mıza</w>
karar ları</w>
karakter ler</w>
kaldır mak</w>
kafa sını</w>
kafa sı</w>
jener asyon</w>
işle tim</w>
iske leti</w>
is iydi</w>
is iniz</w>
ince leme
ima j
ihla l</w>
i lerde</w>
hücre lerinin</w>
hayvan larda</w>
hat tı</w>
han eye</w>
haber dar</w>
ha bi
gücü yle</w>
görünüş ü</w>
gördüğ ünü</w>
gi z</w>
geç tiğini</w>
geç meye</w>
getir me</w>
getir iyoruz</w>
gere ç
gene tiği</w>
gele ne</w>
ge cenin</w>
fırsat ları</w>
fiz iki</w>
fi lan</w>
f ü
eşit liği</w>
ev lerinde</w>
ev leri</w>
etme mizi</w>
etme de</w>
etk iye</w>
et diyi</w>
el li</w>
ek si</w>
düşündük lerini</w>
dör dü</w>
döndüğ ümde</w>
dön dürü
dön dük</w>
duru rken</w>
dur madan</w>
du ktan</w>
du bl
donanı m</w>
dolay lı</w>
din ce</w>
değiştir ilmiş</w>
dey dik</w>
dalga ları</w>
da x
cu ların</w>
cu dur</w>
ce la
can ına</w>
c or
bulun dur
bo şa</w>
biyol og
biti yor</w>
birbir leri</w>
bir incisi</w>
bilme liyiz</w>
bile yim</w>
beyn inde</w>
beyn imiz</w>
bes lemek</w>
be si</w>
bağlan a
bahsedi yor</w>
ba ya</w>
aş ina</w>
açı sına</w>
ay na</w>
ara yüz</w>
ara dı</w>
amaç lar</w>
amacı mız</w>
alan larının</w>
ala bilmek</w>
al mamız</w>
al fa
a sa
Zim bab
Yok sul
Y üz</w>
Virgin ia</w>
Tə şək
Tes la</w>
Tanzan ya</w>
T unus</w>
Su udi</w>
Sor u
Por tek
P lan
Mah ke
Ma sa
L ut
Kon g</w>
Kar anlık</w>
I BM</w>
Hom o</w>
Hal k</w>
Gü zel
En cela
Den iz
D V
Bil diğimiz</w>
Başlangı çta</w>
Ba tı
Ba kter
Alexan der</w>
Al lah
Akıl lı</w>
A g
6 4</w>
20 14</w>
2 ,
ştı ğımız</w>
ştı ğı</w>
ştı m</w>
şma yı</w>
şimdi lik</w>
ısı tı
İn cil</w>
ğı ma</w>
öğren iyorlar</w>
öğre tim</w>
öy rə
önümüz de</w>
önem si
çır p
çiz gisi</w>
çarp an</w>
çalışı rlar</w>
ça y</w>
Ç ok
zorunda ydı</w>
zorlu kları</w>
ziyaret e</w>
ze ye</w>
za van
za vallı</w>
z ü
z le</w>
yı k
yum ru
yukarı dan</w>
yer lerini</w>
ye ler</w>
yaratıcı lığı</w>
yarata biliriz</w>
yar a</w>
yapı sının</w>
yapar dınız</w>
yapa bilecek
yap mıştım</w>
vücu da</w>
vü r</w>
vi a</w>
veri lerle</w>
vere biliriz</w>
var lıklar</w>
uygu lana
ulaştı m</w>
u ra</w>
tür ünün</w>
tür e</w>
tur uncu</w>
ti sa
terör iz
tepe sine</w>
teknoloj imiz</w>
te z</w>
te t
tanı dığım</w>
taban lı</w>
söyle me</w>
sof isti
sivrisin ek</w>
sin izi</w>
sim ge
sim di</w>
si hir</w>
seviy esini</w>
ses sizce</w>
sektör ü</w>
sağla maya</w>
savun masız</w>
sava şan</w>
sanatçı lar</w>
sa lardı</w>
res sa
ra zı</w>
q da</w>
psik oloji</w>
prot ok
pros e
pi gmen
pay laşan</w>
para dok
otur du</w>
organiz maların</w>
organ ları</w>
or g</w>
or dan</w>
oluştur ma</w>
olma ktır</w>
olduğ umdan</w>
oldu ktan</w>
ola bilmek</w>
ol oglar</w>
okul una</w>
odak lana
obezi te</w>
o va</w>
no kt
muay ene</w>
mi mizin</w>
mev sim
metre ye</w>
men su
maymun lar</w>
lık taki</w>
lüğ ünü</w>
lu q</w>
li st
lek tüel</w>
laş manın</w>
lat mak</w>
lan dık</w>
kın lık</w>
kü mesi</w>
kutu ya</w>
kuru mları</w>
kur ca
kullanı cı
kullan dılar</w>
koyu yoruz</w>
kos mos</w>
ko yar</w>
kim ler</w>
ki lat
kelime lerin</w>
kaste diyorum</w>
kara ciğer</w>
kar di
kalkın ma</w>
kah val
kadar ını</w>
ka bar
işaret leri</w>
iş çiler</w>
iz .</w>
isteme dim</w>
ip ucu</w>
in li</w>
in ip</w>
iler leye
i yorduk</w>
hə yat</w>
hə mişə</w>
hâl de</w>
hi t</w>
hayat ınızda</w>
hastalı klardan</w>
hasa t</w>
haf tanın</w>
ha cker</w>
gün delik</w>
gün cel</w>
gücü müz</w>
gözü ke
görünü yorlar</w>
geç iyoruz</w>
gezegen leri</w>
getire bilir</w>
gerçekleş ir</w>
geliştir di</w>
ge y
for mları</w>
flore san</w>
fantas tik</w>
eği lim</w>
evr il
ev ler</w>
ev lat</w>
etme yin</w>
etme yen</w>
et dim</w>
eli mden</w>
edi k</w>
ede mezsiniz</w>
e- posta
e ser</w>
e ge
e b
düşün ünce</w>
düzen len
düz ine
dünya yla</w>
duğ un</w>
durum unda
dun ya
doğ uru
diğer inin</w>
diza yn
din leyici
dil di</w>
di ken
değer lendire
dey in</w>
deneyim ler</w>
dene me
davr ana
d öl
cü r</w>
ce leri</w>
cazi be</w>
bəl kə</w>
büt çe</w>
bulun dum</w>
bula bilir</w>
bul dukları</w>
bir takım</w>
bilgi lere</w>
bilece ğinden</w>
beyz bol</w>
bey ine</w>
bet h</w>
bel gele
becer e
bebe ği</w>
baş ını</w>
baş lıyorsunuz</w>
bağ lar</w>
bar da
balon cu
bakı mı</w>
bak ma</w>
bah çe</w>
baba sının</w>
b .</w>
ağır lık</w>
açı lı
at öl
as lına</w>
arkadaşı mın</w>
arka ya</w>
anı r</w>
anlaşı lır</w>
anlaşı ldı</w>
an or
an lara</w>
alt ında
ala ka
akl ına</w>
aile lerin</w>
adam dı</w>
Ye men</w>
Uza y
Ti tan
Tem muz</w>
Tas ar
Ta bi
So mali</w>
Siste m</w>
Sa yı
S ə
S tar</w>
Phi la
P ren
Orta k</w>
Orta da</w>
O f
Ne fes</w>
Med ya</w>
L A</w>
Kız ıl</w>
Kor ku
Ka zan
Ju st
In cil</w>
Ha zır</w>
H el
H C</w>
G ünde</w>
Esa sen</w>
En don
Bil in
Bi raz
B lu
B ile
B hu
Avrupa lı</w>
Andro id</w>
An dre
Al tın</w>
Ak sine</w>
Afri kada</w>
A las
3 0
20 .000</w>
2. 5</w>
- 2</w>
şe k</w>
şart ları</w>
şa ir</w>
Ş ek
İla ç</w>
İk isi</w>
öğretme nin</w>
ön -
çıkar tı
çık maz</w>
çocuğ um</w>
çizg ili</w>
Önce den</w>
Ö n</w>
zarar sız</w>
zaman larında</w>
yön ünü</w>
yoru cu</w>
yet ki</w>
yer altı</w>
yaşım dayken</w>
yaşa dığınız</w>
yaz mış</w>
yarı ş</w>
yaptı ğında</w>
yakın ında</w>
w at
və ziy
vide osu</w>
ve da</w>
va kt
v ler</w>
v b</w>
uğul tu</w>
un ma</w>
tı sı</w>
tüğ ünü</w>
tör ün</w>
tu haf
trav ma</w>
topla dık</w>
top her</w>
to ler
ter imi</w>
tepe ye</w>
teles kop</w>
te si
tarih indeki</w>
tanım lama</w>
tah ri
taba ka</w>
t ana</w>
səv vür</w>
sıra ya</w>
sınır sız</w>
sıfır dan</w>
sı kça</w>
sürdürüle bilirlik</w>
söz de</w>
söyle miş</w>
sun duğu</w>
soğ ut
sor unla</w>
sor duğu</w>
solu can
soka ğa</w>
sok mak</w>
siz in
sev diğiniz</w>
sembol ü</w>
sebe bini</w>
sa tan</w>
sa ta
sa kat
rol ünü</w>
re ği</w>
r onik</w>
peri yo
per van
pe kala</w>
parçacı kları</w>
p res
oyn arken</w>
otek n
ot ları</w>
oper asyon</w>
oo h</w>
ono m</w>
olma yı
olma mızı</w>
olma mıza</w>
olduğumuz dan</w>
okyan usu</w>
oksi j
nör olojik</w>
nan o
mə yi</w>
mə qsə
mış lardır</w>
mı şım</w>
müh im</w>
miner al
mikro plar</w>
mek â
maz sın</w>
ma mıştı</w>
lı ğım</w>
lı ydık</w>
luğ undan</w>
lma yan</w>
lama q</w>
lama ktır</w>
kültür e</w>
kü p</w>
kü lo
kü ler</w>
köken li</w>
kullana cağız</w>
kesi ş
ken ki</w>
karşı lığı</w>
kar ın</w>
kapitaliz m</w>
kan lı</w>
kal maz</w>
kafa ma</w>
kadar ki</w>
ka c</w>
iç imizde</w>
iy se</w>
ince lemeye</w>
ince leme</w>
im ha</w>
im ge
ilgi lendiren</w>
ic ik</w>
i tir
i da
hu a</w>
her şeye</w>
hep sinden</w>
hep imize</w>
hem fikir</w>
hedef ler</w>
hay di</w>
hari kulade</w>
ha p</w>
h in
gün deme</w>
görüntü sünü</w>
görüne bilir</w>
göre meye
gör ü</w>
gönder me</w>
gönder iyor</w>
grup ların</w>
gider ler</w>
gi ye
geçe lim</w>
gerçe ğin</w>
gemi si</w>
geli rken</w>
gel diniz</w>
gece de</w>
ga li
g as
fir ması</w>
feno men
fe et</w>
fatu ra
farklı ydı</w>
fark li</w>
far enin</w>
fakt ör</w>
etme liyim</w>
em bri
elbi se</w>
ekonomi yi</w>
ek leme
edil mişti</w>
edi lir
e m</w>
düşüne cek</w>
döne cek</w>
dön meye</w>
duğ unuzu</w>
duy dukları</w>
dos tu</w>
diğer ini</w>
diren ci</w>
dina mik
din dar</w>
değil dik</w>
detay ları</w>
del p
de zavan
dakika lığına</w>
da ysa</w>
da imi</w>
da hası</w>
ci liğin</w>
ci kar
ca mi
c ınız</w>
büyük tür</w>
büyü dükçe</w>
bölüm leri</w>
bulu rsunuz</w>
boğ ul
boyut unda</w>
bir im</w>
bina ya</w>
bil diler</w>
beyn iniz</w>
benz iyordu</w>
be deli</w>
bağla mında</w>
bağ lamak</w>
basa ma
ba yıl
açık lık</w>
aydın la
avantaj ı</w>
at la
anne me</w>
anlatı yorum</w>
anla dı</w>
ameli yatı</w>
alt ını</w>
alt taki</w>
ala y
aktiv ist</w>
aklı mda</w>
Yunan istan</w>
Yava ş</w>
U ça
Tic aret</w>
Tele fon
Te x
S pa
Po lis</w>
Par ça
P azar</w>
P E
Mon ter
M A
Li der
Kap ı
I şık</w>
GSM H</w>
G ro
G or
G ener
G ala
Eğ len
Ever est</w>
Etraf ı
Encela dus</w>
Düz en
Dü şük</w>
Do u
D y
C uma</w>
Ben j
Banglade ş</w>
Ba tılı</w>
B ı
B ru
B lo
Aşa ma</w>
Avu stur
Ar ka
A c
A G</w>
9 6</w>
5 000</w>
4 4</w>
4 3</w>
10 -
şır ın
şı r</w>
şi kay
şefkat li</w>
şaşır t
ş ından</w>
ş unları</w>
ışı ğında</w>
ür ünü
ür etme</w>
ü me</w>
öğretmen lerin</w>
ölü r</w>
öldür dü</w>
çıkarı yorlar</w>
çözü me</w>
çocukları m</w>
çiç ekler</w>
çek tik</w>
çağ da</w>
çal mak</w>
ça lma
ç lık</w>
ç lı</w>
zara n</w>
yı q</w>
yürü mek</w>
yükse liyor</w>
yuz de</w>
yer lerine</w>
yaş ları</w>
yazı cı</w>
yay mak</w>
yax ın</w>
yarı sında</w>
yardı mcı
yarat tığımız</w>
yapıla cağını</w>
yapı da</w>
vi miz</w>
verir sek</w>
var oluş
uyan dır
umu du</w>
ucu z
u laşma</w>
tə crü
tüm ünü</w>
topla maya</w>
top ia</w>
ton larca</w>
teş h
tez ga
tercü me</w>
telef onlar</w>
tek ne
tasar ladık</w>
tartı şmak</w>
tarih ini</w>
tane sinin</w>
tan rı</w>
ta şlar</w>
ta van</w>
t enin</w>
sü t
söylen ir</w>
su s</w>
su f
su dur</w>
soru lan</w>
soka klarda</w>
so rar</w>
siz liği</w>
site sine</w>
sistemi mizin</w>
sinyal ler</w>
sil ə</w>
si yet</w>
seç tik</w>
sev diğimiz</w>
serbe st
sel lik</w>
sağ lığını</w>
sayıl maz</w>
sayı yı</w>
salon da</w>
saldır gan</w>
s la</w>
q ca</w>
problem lerin</w>
problem lere</w>
prensi p</w>
potansiye l
plan lama
plan da</w>
plan a</w>
pi ter</w>
performan sı</w>
per de
paylaş maya</w>
parça sının</w>
pa ket</w>
p at</w>
orta lıkta</w>
on i</w>
omuri lik</w>
olu rum</w>
olu k</w>
olmayaca ğını</w>
ol gun
ol d</w>
oksitos in</w>
odak lanmış</w>
na zaran</w>
mız dı</w>
mı mızı</w>
müəy yən</w>
mü xtə
muş lardı</w>
mutlu luğun</w>
moti vasyon
mon te</w>
mo ral</w>
mo der
mo d
misa fir
milyar a</w>
mekaniz ması</w>
mantı ğı</w>
makine yi</w>
ma g
m ö
lı klardan</w>
leştir il
leşi p</w>
le ği</w>
laş a</w>
landırı lmış</w>
landı kları</w>
lan gelo</w>
kəş f</w>
kıs kan
kı t
kü me
kullanır lar</w>
kullanı ma</w>
korkt uğ
kitap ların</w>
kir liliği</w>
ke li</w>
kaça k</w>
karşılaştı ğım</w>
kan unları</w>
kalı yorlar</w>
kahka ha</w>
ka ti</w>
ka le
ka bile</w>
işı q</w>
işken ce</w>
iy yət
istihbara t</w>
iler imiz</w>
ihtiyac ın</w>
i lerle</w>
hücre lerine</w>
hisse dersiniz</w>
hiss ettiğini</w>
hayatı mızda</w>
hatır lamak</w>
hata lı</w>
hasta yı</w>
han gi
hami le
halüsin asyon
ha tıra
h üz
gün əş</w>
gü müş</w>
göster dik</w>
görüş lü</w>
gördük leri</w>
gu m</w>
gittiği m</w>
geç enlerde</w>
genç lik</w>
for mda</w>
fikir ləş
fakir lik</w>
eğ ri</w>
ettik ten</w>
en ha
en e
eli t</w>
edin mek</w>
edi b</w>
ede bilen</w>
e pi
e p</w>
dığı mıza</w>
düşündüğ ümü</w>
düş müş</w>
düğ üm
dünya mızın</w>
doktor ların</w>
diren çli</w>
di ger</w>
değiştir memiz</w>
değiştir ip</w>
değer inde</w>
destek le
derece ye</w>
der se</w>
deniz de</w>
demo grafik</w>
delp hia</w>
de liğin</w>
dan dır</w>
d ına</w>
ce ye</w>
ca l</w>
ca -
büyükan ne
bölge lere</w>
bö yü
bura larda</w>
bul malıyız</w>
boyut ları</w>
birbir lerinden</w>
bir şeyleri</w>
bilme lerini</w>
bil sek</w>
beklenti si</w>
becer isi</w>
becer ileri</w>
be s</w>
başlar lar</w>
başla yınca</w>
başarı ya</w>
başarı sızlık</w>
bağı rı
ba ğı</w>
aşağı daki</w>
ağa ca</w>
açı klar</w>
arka da</w>
ara ş
alır ız</w>
akti ve</w>
acı yı</w>
a şi
a ğını</w>
a sal</w>
Yu karı
Yar ın</w>
Yar dım</w>
Y et
Uy gu
Tok yo</w>
Te d</w>
Sonra dan</w>
Si vil</w>
Sanı yorum</w>
S üre
S TK</w>
P as
Ola ğ
Ola y</w>
N ə</w>
N az
Mil yonlarca</w>
Mil li</w>
Merke z</w>
Merke z
M ur
M otor
La b</w>
L or
Ka v
K re
K A</w>
J F</w>
E kr
E d</w>
Dis ney</w>
Demokra si</w>
D os
D ic
Cas sini</w>
Bir inin</w>
Ber a
Ağust os</w>
Açı kça</w>
A dem</w>
9 7</w>
7 .
3 -
199 5</w>
19 30</w>
1. 5</w>
. Bu</w>
əl də</w>
əhəmiyyə tli</w>
şey lerdir</w>
şan sını</w>
ş ın
Şe hirler</w>
ış ını</w>
İz in</w>
İ m
öğrene biliriz</w>
ömr ü</w>
ölçü ləri</w>
çıkar ken</w>
çıka bilir</w>
çık ma</w>
çocuk la</w>
çizgi yi</w>
çek me</w>
çalışı yorduk</w>
ç lar</w>
Üz günüm</w>
Öğren ciler</w>
zar f
zaman dı</w>
z ində</w>
yır tıcı</w>
yıl ından</w>
yı ğı
yüzey de</w>
yu va</w>
yerleş im</w>
yen ik</w>
yaş larda</w>
yatırı mlar</w>
yasa sı</w>
yapı yorlardı</w>
yapı sına</w>
yapaca ğınız</w>
yapa mayız</w>
yap mıyorum</w>
w er
vu l</w>
verim lilik</w>
ver meliyiz</w>
v b.</w>
uğ ur
uyu şma
uygulama yı</w>
uygu laya
umu du
u sta</w>
tə bii</w>
tut k
toplulu ğa</w>
ti fi</w>
tek er</w>
taşın dım</w>
tati l</w>
taraf ın</w>
taraf indan</w>
tanıştı ğım</w>
tanım la
tah mini</w>
ta ktı
ta cağım</w>
t lara</w>
sın dayız</w>
sü lin</w>
söylü yoruz</w>
sorumlu luğu</w>
soru yorlar</w>
sonuc una</w>
son unu</w>
sofisti ke</w>
sine ma</w>
silah ı</w>
seç kin</w>
seya ha
sever ler</w>
sev dik
ser gi</w>
sefer e</w>
sebep lerinden</w>
san atı
s ünüz
s y
s lo
s leri</w>
s isi</w>
ru p</w>
reha bili
re sel</w>
rahat lıkla</w>
qad ın</w>
prensi bi</w>
potansiye lini</w>
pos ter</w>
pey ce</w>
pengu en</w>
para zi
p si</w>
oğlu mun</w>
oy unda</w>
ox u
ot uz</w>
on lari</w>
olma ya
olma larına</w>
olma dığından</w>
olduğ unuzda</w>
olduğ uma</w>
o ları</w>
ne l</w>
ne hrin</w>
nak li</w>
n ün</w>
məşğ ul</w>
müş tür</w>
muz daki</w>
muh teşe
mez seniz</w>
me min</w>
maz sanız</w>
maz dım</w>
malı lar</w>
mah rum</w>
mad də
m unu</w>
lən dir
lığı dır</w>
lo bi
ler inizde</w>
laştı ran</w>
lar ınızda</w>
kıya fet</w>
kural larını</w>
kt um</w>
kra l</w>
koy ma</w>
koru yan</w>
kom ş
kları mızdan</w>
kimyasal lar</w>
ki fa
kemi ği</w>
kasa ba</w>
karışı mı</w>
kal ktı</w>
kafa mda</w>
ka lem
j i
işle vi</w>
iş lerde</w>
içgüdü sel</w>
iy iler</w>
istir id
iste diğimizi</w>
is imleri</w>
ir dim</w>
inan mıyorum</w>
ilgilen iyorum</w>
il ər</w>
il leri</w>
iddi a
i ca</w>
i b</w>
hə m
hükü m</w>
hücre ye</w>
his se</w>
hazır lamak</w>
hazır la
hatırlat mak</w>
hasta lıktan</w>
harca ma</w>
haf ız
h ın</w>
h anı
gı ç</w>
güneş ten</w>
göz lə
götüre cek</w>
göster gesi</w>
görü le
gu r
gide bilirsiniz</w>
gezegen imizin</w>
ger ile
geniş liğinde</w>
geliştir ilmiş</w>
gele bilecek</w>
fonk siyonu</w>
fi il</w>
et ler</w>
entel lektüel</w>
engel leri</w>
eli mi</w>
e dər
dıra cak</w>
düşünü yorlardı</w>
düzey inde</w>
düzen e</w>
dünya lar</w>
dük lerini</w>
dos tum</w>
dolaşı p</w>
diği dir</w>
diğer lerini</w>
diy iniz</w>
din leyici</w>
din leme</w>
dik ta
dik dört
di len</w>
değiştire bilirsiniz</w>
deği ş</w>
deniz ana
deney de</w>
davranış ını</w>
dar be</w>
dan sı</w>
dalga lar</w>
daha ki</w>
cə də</w>
cı l</w>
cu m</w>
ceza sı</w>
bən z
bə x
bura yı</w>
bun ca</w>
bulun duğum</w>
bul un</w>
bul mamız</w>
bo şan
bit kinin</w>
bir leşme
bilgi miz</w>
bil sinler</w>
beş inci</w>
bes leye
ben cil</w>
belir te
belir leyen</w>
belir leme
başlat mak</w>
bağ lıyor</w>
bax ı
barın dır
bahsedi l
bahsede lim</w>
ba yılı
b ü</w>
b bü
ağ ının</w>
astr on
asker ler</w>
as kı
art maya</w>
art h</w>
arkadaş larıyla</w>
arkadaş larımla</w>
araç lara</w>
aracı lığı</w>
ar z</w>
anı za</w>
anla dınız</w>
alışı lmadık</w>
alı şık</w>
algı laya
al gı</w>
akti f
adı mlar</w>
a fet
U ç
U N
Temel de</w>
Sol daki</w>
Siste mi</w>
Sier ra</w>
Sa bah</w>
S w
S he
Q ə
P u
P ete</w>
Miche langelo</w>
Mande la</w>
M edia</w>
Le go</w>
Ku zey
Inter net
H il
Görünü şe</w>
Gelişme kte</w>
G lobal</w>
Fiz iksel</w>
F in
Eli za
Ed ward</w>
E D
Dik kat</w>
Der in</w>
D iz
Bak anı</w>
Ba li</w>
Aş k</w>
An tik</w>
Alas ka</w>
Aile m</w>
Afrikalı lar</w>
A ya
9 00</w>
3 ,000</w>
2 -
.S .</w>
ən də</w>
şçı l</w>
şirket lere</w>
şehir lere</w>
şaşır tı
şans lıydım</w>
ş ər
ısı rı
ır lar</w>
ı yla</w>
İr landa</w>
üç -
üzer i</w>
ümüz den</w>
öğren miş</w>
önce likli</w>
ön ündeki</w>
öl düğünü</w>
çıkı yorlar</w>
çıkarı r</w>
çıkar dığımız</w>
çöz me</w>
çiz mek</w>
çekir dek</w>
çarp ma</w>
Ü st
Çocu kları</w>
Ç ıl
zar t</w>
zaman ını</w>
yı lan</w>
yüzey inin</w>
yürü meye</w>
yük lü</w>
yönetic isi</w>
yol larda</w>
yen e</w>
yel pa
ye tim
yaşa ma
yazı p</w>
yara q</w>
yaptı rı
yapma z</w>
yapar dım</w>
yapa caksınız</w>
vur du</w>
video ya</w>
vide olar</w>
vi ral</w>
ver menin</w>
ver iliyor</w>
ver ilir</w>
va li</w>
v on</w>
v arım</w>
uğr una</w>
uy ğun</w>
us t</w>
un d
ulaşma sı</w>
tə n
tə d
toplum daki</w>
ti s</w>
ti mizin</w>
te laf
tasar lamaya</w>
tas vir</w>
tarih e</w>
taraf ındaki</w>
taki p
tak v
ta yım</w>
t ok
t lere</w>
sürü kle
süre gelen</w>
sür ət
syon un</w>
syon a</w>
sunu m</w>
su ru</w>
sorun lardan</w>
sor uyla</w>
silah lar</w>
ser in</w>
sem bolik</w>
se simi</w>
se si
satı r</w>
sat ran
sa ğır</w>
sa lı
s ha
ran s
ra lım</w>
qə ri
pür üz
pro qra
pro pa
por n
paylaştı ğımız</w>
par layan</w>
p uz
oyna t
oy sa</w>
otu ra
ot s</w>
orke stra</w>
oran ının</w>
ora larda</w>
on ya</w>
oluştura cak</w>
olu ş</w>
olmayaca ktı</w>
olma ktadır</w>
ne fes
n ü</w>
mən cə</w>
mışı z</w>
müəl lim
mühendi si</w>
muy dunuz</w>
mut fak</w>
mode lin</w>
mikro -
metre den</w>
mesaj ları</w>
man in</w>
malze meyi</w>
maliyet ini</w>
mahke me</w>
mahal le</w>
macer a
ma dıkları</w>
ma -
m -</w>
lı ktı</w>
lük s</w>
lendiri ci</w>
lendir ilmiş</w>
le h
le ce</w>
lanır lar</w>
l on</w>
l mıyor</w>
kız a</w>
kıv ıl
kı ran</w>
kü lü
kurtar maya</w>
kullanır ız</w>
ku şu</w>
kop u
konuşu yorlar</w>
konu lardan</w>
karşılaştı ğı</w>
karşı t</w>
karar lı</w>
kap ak</w>
kampan yası</w>
kal dığı</w>
ka van
ka os</w>
iş lerine</w>
iş lenmiş</w>
iğ inin</w>
için deydi</w>
izle yerek</w>
iy seniz</w>
it h</w>
isti qa
iste mi
iste mek</w>
iste diğin</w>
insan larin</w>
inc ə
inan cı
in iyor</w>
in deydi</w>
in at
ilginç ti</w>
iletiş im
il lik</w>
i yorsun</w>
i x</w>
i pek</w>
huy lu</w>
hissettir iyor</w>
hiss etmeye</w>
hipote z
hesa plan
her şeyden</w>
hep sine</w>
hemşir e</w>
hayret e</w>
haya lim</w>
harcı yor</w>
hapis hane</w>
h um
güç ler</w>
güver cin</w>
göster iliyor</w>
gördüğ ümüzde</w>
gör mesi</w>
giz lilik</w>
gir meye</w>
gir di
gider sek</w>
geçer lidir</w>
geç me</w>
geliştir il
gelir sek</w>
gelir di</w>
gel miştir</w>
gar ip
fikr inin</w>
fa ki
ev siz</w>
etme kti</w>
etk isiz</w>
eti ket</w>
et miştim</w>
et ken</w>
er seniz</w>
er iy
ek oloj
eden ler</w>
ebeveyn ler</w>
düşündük leri</w>
düzel te
dö şe
duy ul
duvar ın</w>
duvar ları</w>
du g
doku yu</w>
diye cek</w>
dikkat le</w>
di yorlardı</w>
di a
değiş imler</w>
dey ir</w>
der seniz</w>
da şı
da sınız</w>
ck s</w>
ciha d</w>
cek i</w>
ce hen
cali si
c og
bırakı r</w>
bı çak</w>
büyü müş</w>
boyu ta</w>
bo za
bir sey</w>
bilme diği</w>
bilg isini</w>
bi ten</w>
bes le
benze ye
be tim
barın dıran</w>
ban yo
bal onu</w>
baca kları</w>
ba y</w>
ba lıkların</w>
ba kanı</w>
azal ta
ayrımcı lık</w>
ata larımız</w>
at tım</w>
anı mız</w>
anlatı r</w>
amaç ları</w>
alma q</w>
aktar mak</w>
akl ınızda</w>
ah lak
adam larının</w>
Zaman la</w>
Yar dı
Ya le</w>
Y öne
V ic
Unut mayın</w>
Tan rı
T ut
Sür dürü
Su dan</w>
Siz ce</w>
Se lam</w>
S ınır
S unu
S tra
S ho
S ar
Ro bot</w>
Phila delphia</w>
Pat lama</w>
P ot
Oku la</w>
O S</w>
Ne p
Mü t
Mu si
Mo zart</w>
Mes lek
Kop enha
Kolom biya</w>
Kendi mize</w>
Kar iyer
Kan ada
K le
I .
Hristi yan</w>
Hayatı mda</w>
Har ita
Gü n</w>
Gör sel</w>
Gener al</w>
Fa zla</w>
F e
Endon ezya</w>
Eliza beth</w>
Elekt rik</w>
De v</w>
Co ca-
Cid di</w>
Chris topher</w>
B es
B ele
Aşı rı</w>
Ağ aç
A.B. D</w>
2 ,000</w>
ə mə
şı k
şer it
şempan ze</w>
şekl ine</w>
şaşır tan</w>
ş larını</w>
ışı klar</w>
ınca ya</w>
İs mi</w>
İ liş
ğı mın</w>
üst te</w>
üretil miş</w>
ülke lerinin</w>
öğren meyi</w>
öldürü yor</w>
çökü ş
çoğ al
çeliş ki</w>
çarpı şma</w>
çalışma m</w>
ç ili
â şık</w>
Ü re
Çev re</w>
zek anın</w>
ze hir</w>
zaman ının</w>
yüz de
yöneti ci</w>
yol suzluk</w>
yiye cekler</w>
yer lerinden</w>
yer də</w>
yaşa dığını</w>
yağı ş</w>
yarat tım</w>
yarar ına</w>
yap mıştı</w>
yap anlar</w>
yanıl sa
y etmez
y dum</w>
w ay</w>
vı k</w>
vu r</w>
var ya
var say
uzman lık</w>
uzer inde</w>
uz u</w>
uygu lamak</w>
ur t</w>
ur ken</w>
ulu yor</w>
ulaş maya</w>
ula şan</w>
ul ke
twe et</w>
tuz lu</w>
tut kum</w>
tu ra</w>
tu be</w>
topla mından</w>
test ler</w>
teknoloj iden</w>
te mp
tasar landı</w>
tartışma lı</w>
tartı şa
tamam la
tah ıl</w>
ta yı</w>
t ten</w>
sız dı</w>
sır t</w>
sınır ların</w>
sürec ine</w>
süre cek</w>
söy lerdi</w>
si v
si de</w>
seçen e
sava şa
s pa
rü ya</w>
ru tin</w>
ro -
res sam</w>
ra y</w>
r san</w>
politika sı</w>
poli si</w>
parça ya</w>
para larını</w>
p arı
otur mak</w>
os ente
or anın</w>
olur duk</w>
olma yanlar</w>
olay da</w>
olan ağı</w>
okul ları</w>
o is</w>
nöq tə
not lar</w>
na kle
mək dir</w>
mə y
muz dar
model ine</w>
mode le</w>
mo di
miş imdir</w>
miş im</w>
milyon da</w>
mez un
me le
mater yal</w>
malzeme lerin</w>
maliyet leri</w>
ma malıyız</w>
m ındaki</w>
m y</w>
lığı mızın</w>
lığ ınız</w>
lük le</w>
lü kə
lma dı</w>
ler imde</w>
lama yacak</w>
l dık</w>
kütle si</w>
köpek balığı</w>
kuvv eti</w>
kur şun</w>
kromoz om
kr onik</w>
koz m
kop ya</w>
konuştuğ um</w>
kolek tif</w>
kol a</w>
ko v
ko mut
keşf ettiler</w>
keş ke</w>
kem oterap
kem li</w>
kayb oluyor</w>
kati l</w>
karşıya yız</w>
kan lar</w>
kal mayı</w>
ka sıt
k lon
iç ki</w>
iz leyici</w>
isti yorlardı</w>
isteye ceğim</w>
iste k</w>
is tan
iro bi</w>
ip lik
insan oğlu</w>
iniz dir</w>
inanı lmazdı</w>
inan mayın</w>
inan maya</w>
inan cı</w>
im lerini</w>
ilişki lerini</w>
ile ş
ila hi</w>
ih an
i te
i lerine</w>
hə n
hi d
hayran lık</w>
hatırla dım</w>
hata ları</w>
hassa s
hareket siz</w>
ha lı</w>
ha kar
güven i</w>
günü müzün</w>
güc ünden</w>
göz lü</w>
götür ür</w>
göster mektedir</w>
görü n</w>
görsel leştir
görme dim</w>
görev li</w>
gördük leriniz</w>
göl ge</w>
git mesini</w>
girişim ciler</w>
geçir iyoruz</w>
getir iyorlar</w>
gerçekleşme si</w>
gelir se</w>
geli şe
gel mektedir</w>
gara j
fır la
farkında yım</w>
f ren
eş değer</w>
ey lemi</w>
etk isinin</w>
es kisi</w>
er di</w>
endüstris inin</w>
elektr on
el lerine</w>
ekonomi st
ek len
edi yorduk</w>
ede cektir</w>
düzen leyen</w>
dün yanı</w>
dö vü
duğ una</w>
duyu sal</w>
du sunu
diza y
diye bilir</w>
din le</w>
dile ğim</w>
di ven</w>
değiş imleri</w>
de mekti</w>
dam ga
dalga sı</w>
dahil inde</w>
d unun</w>
cı klar</w>
canlı ların</w>
ca ktım</w>
c ik</w>
bıraktı k</w>
bıra karak</w>
buğ day</w>
bulu ş</w>
bul duğu</w>
bu lan
boy unda</w>
birleştir en</w>
bire bir</w>
bin ler
bilir ik</w>
bile miyorum</w>
bil ge</w>
bi stan</w>
beyn inizin</w>
baş lık</w>
barı şçıl</w>
balin alar</w>
ba cak
ağ zı</w>
aç tığı</w>
ayrıl dım</w>
avan taj</w>
at arak</w>
as lan</w>
arttı ğını</w>
art ması</w>
araç larla</w>
ara n</w>
ara larındaki</w>
ansiye l</w>
anlı yorsunuz</w>
anlaya biliriz</w>
an siklop
alan ındaki</w>
ala cağız</w>
akı ş</w>
adlandır dığım</w>
a şan</w>
a kademis
a ga
Yeter ince</w>
Y atı
W oo
U yu
U C
Söyle diğim</w>
Se be
San ayi</w>
Sa man
S A
R ot
Per u</w>
Pek in</w>
P ra
Organ iza
Na irobi</w>
Mev cut</w>
Mese le</w>
M os
Lü b
Lin ux</w>
Li bya</w>
Le w
L P</w>
Kopenha g</w>
Keş ke</w>
I r
Hep inize</w>
Hayatı mın</w>
H i
Gi dip</w>
Gele ceğin</w>
F os
F DA</w>
E ya
E sas</w>
E ki
DV D</w>
D ür
Cra ig</w>
Coca- Cola</w>
Benj amin</w>
Ben den</w>
Baş ta</w>
B isik
As ker
Ar şi
Ada sı</w>
6 0
5 8</w>
4 .000</w>
3 000</w>
ətraf ında</w>
ə sa
Ə n</w>
şey im</w>
şap ka
Şimdi lik</w>
İş let
üste l</w>
üre tir</w>
ünüz den</w>
öğren iyor</w>
öğren di</w>
öğre til
ölçü sü</w>
çə kili
çıkar dım</w>
çi p</w>
çap ındaki</w>
zorlu klarla</w>
zo tik</w>
zaman ların</w>
za l
yıl ının</w>
yüz ündeki</w>
yöntem lerle</w>
yön etmek</w>
yolu dur</w>
yo ta</w>
yiy en</w>
yetiştir il
yelpa ze
yaşında yım</w>
yaşı ma</w>
yaş ını</w>
yayın ladı</w>
yara yacak</w>
yapış kan</w>
yapı landır
yapma mıza</w>
yapa bilirsek</w>
yap rak</w>
yan mış</w>
yan lara</w>
yan a
yaka lanma</w>
y ip
virüs ler</w>
vere ceğiz</w>
vere bilecek</w>
ver miyor</w>
uşa q</w>
uzun luğu</w>
tə s
tır na
tı ğında</w>
tı mı</w>
tür ümüzün</w>
tüm örü</w>
trop ik</w>
traj edi
tra je
tic ar
ti ra
teles ko
tehlike ye</w>
taşın abilir</w>
tasyon u</w>
tanı ştır
ta yken</w>
ta k</w>
səbəb dən</w>
sıkı ca</w>
sı y
sürdürüle bilir
sözcü k
söz ler</w>
sunu lan</w>
su al</w>
siz liğin</w>
sipar iş</w>
simü lasyon
silah ların</w>
seviye sinin</w>
sem bol</w>
se lek
sayı daki</w>
san sür
saf ha
sa dık</w>
s o</w>
rə s
ren gini</w>
re çete
re aktör
raf ik</w>
r ının</w>
qor x
q o
pros tat</w>
progra mın</w>
plan ları</w>
plan la
paylaşı lan</w>
p arkı</w>
oto ma
organ lar</w>
oran larını</w>
or jinal</w>
op at
oluştur arak</w>
olma mıştı</w>
olma ktı</w>
olma dıkları</w>
olay dan</w>
okur ken</w>
okul un</w>
nə cə
nokt anın</w>
nes nenin</w>
nere sinde</w>
neden lerinden</w>
ne yle</w>
na kit</w>
müz i
mutlu luğu</w>
musi qi</w>
mu m
miş iz</w>
miy diniz</w>
mer aklı
me diğimiz</w>
mayaca ğı</w>
masraf ları</w>
mantık sız</w>
man n</w>
man a
makina sı</w>
makina lar</w>
mak sızın</w>
mahalle de</w>
ma li
m lü
lı klarının</w>
lü dür</w>
lu s</w>
lo w</w>
liğ iniz</w>
lir sa</w>
lik lerinin</w>
li tre</w>
lama ktan</w>
la sı</w>
kı lar</w>
küçü mse
kö şe</w>
kâ ğıt</w>
ku yu
kten se</w>
kromo zo
konu m</w>
kon ekto
koltu k</w>
kollek tif</w>
kli p</w>
keşf edildi</w>
kaç ınız</w>
kaybe den</w>
karşı laş
karşı lamak</w>
kar tları</w>
kar ga
kam yon</w>
kalan lar</w>
kala cağız</w>
kal dı
kabiliyet i</w>
k iyle</w>
iş lere</w>
iş im
izle dim</w>
iz le</w>
iti ci</w>
istə r
isten en</w>
iste n</w>
is raf</w>
ince ledim</w>
inanı yorlar</w>
inan dır
in tika
in di
ilgilen iyor</w>
ik limi</w>
ih mal</w>
i ya</w>
i a
heves li</w>
hekay ə</w>
hayat ınız</w>
görünü şe</w>
görün mü
göre celi</w>
gön dər
gök yüzü</w>
grafi ği</w>
giy si
gide ceğiz</w>
geçir meye</w>
getir miş</w>
geliştir iyoruz</w>
geliştir diğimiz</w>
gele nek</w>
gel diğine</w>
gel diklerini</w>
fırt ına</w>
filoz of
felse fe</w>
fe m
favor im</w>
farklı lıkları</w>
f ır</w>
f ili</w>
evren e</w>
etme sine</w>
etkileş imde</w>
erke ley</w>
engel leye
eli mizden</w>
eli me</w>
elektri ği</w>
el den</w>
ekosiste m
eder sin</w>
ede bileceği</w>
e peyce</w>
e gi
də qiq
dış ından</w>
düşünü yorsun</w>
düşündüğ ümde</w>
düştüğ ünü</w>
düzine lerce</w>
düzen i</w>
dönüş ü</w>
duygu sunu</w>
duy duğumda</w>
durum dalar</w>
duru yorlar</w>
dur ma</w>
dop amin</w>
dir il
din lerken</w>
di ya</w>
di lek
di a</w>
değişme si</w>
dezavan taj
dey ildi</w>
denge yi</w>
den en
demokra tik
defa sında</w>
dayan a
da ya
da mar</w>
d ının</w>
cümle yi</w>
cu ma</w>
ceği mize</w>
ceva bım</w>
canlı ları</w>
ca klardır</w>
büyü mesini</w>
böyle ydi</w>
böyle dir</w>
bölge den</w>
bur un</w>
bu t
boy un</w>
bol ca</w>
bit tiğinde</w>
bilme li</w>
bilgi yle</w>
bilgi lerin</w>
bilg ili</w>
bileş eni</w>
bi ra
bi o
ber külo
benze miyor</w>
ben in</w>
beli rler</w>
bek liyoruz</w>
becer iler</w>
başla ması</w>
başla mamız</w>
ağ ında</w>
açık la
aza lan</w>
ay dan</w>
atı lan</w>
astero id</w>
asan sör
arkadaş larımız</w>
araştır manın</w>
araba yla</w>
ara mızdaki</w>
ap ar
anlata cak</w>
anali tik</w>
an an</w>
al çak</w>
ada mım</w>
Yıl da</w>
Yağ mur</w>
W ri
Teknoloj inin</w>
Te or
Ta zman
Sıra dan</w>
Sı fır</w>
Sy l
S L</w>
Ros s</w>
Ro c
P ri
P arkı</w>
Olağ an
Nor den</w>
Niha yetinde</w>
Na mi
Mühendi s
Mil o</w>
M y
M it
Lew is</w>
Lad in</w>
L ine</w>
Kul lanı
Ku ral
K el
Jos hua</w>
Jac k</w>
J as
Hika ye</w>
Hep inizin</w>
Hayatı m</w>
Ha m
H iz
Geçmiş te</w>
Fili p
Endi şe
E şim</w>
E arth</w>
Dış arı</w>
Düş ünü
Do aa</w>
Danim arka</w>
D ay
Ce p</w>
C I
Bi bli
Bhu tan</w>
Ban g</w>
B om
B erkeley</w>
B T</w>
Ar ka</w>
9 8</w>
9 .
5 .
20 13</w>
ə ş
şı dır</w>
şun lar</w>
ştı ğım</w>
şey se</w>
Şüp he
ız dıra
üç üncüsü</w>
üz ül
üz gün</w>
üst len
üreti yoruz</w>
öğren ir</w>
önce lik</w>
çıkar sa</w>
çı ları</w>
çözünürlük lü</w>
çocu ktan</w>
çey rek</w>
çevre mizdeki</w>
çevr ili</w>
çev renin</w>
çalışma dan</w>
çalış ın</w>
çalış anı</w>
Ç a
zamanı mızın</w>
yə m</w>
yır tı
yıl ındaki</w>
yu k
yolcu luğun</w>
yol ların</w>
yerleştir ilmiş</w>
yen e
yaş larında
yasa lar</w>
yapa bilen</w>
yan kı</w>
xüsu si</w>
w e</w>
verir siniz</w>
ven in</w>
var i</w>
va zi
va j
v o</w>
uzak lıkta</w>
uza q
uy un</w>
u d
tə min</w>
tır lar</w>
tı ğınızda</w>
tutku yla</w>
top layan</w>
top lar</w>
ti min</w>
teş his
terör izm</w>
ter min
teknoloji lere</w>
tasarımcı ları</w>
tara yı
tamam ının</w>
t çe</w>
sıra lar</w>
sınıf ın</w>
söyle ne
söy lerken</w>
suy unu</w>
sta tü
st ı</w>
sorun unu</w>
sorumlu lu
soru lardan</w>
sora cağım</w>
sora biliriz</w>
sk y</w>
seçen ekleri</w>
serv isi</w>
senkron ize</w>
senar yo</w>
sen den</w>
sara n</w>
sahip leri</w>
sabah ı</w>
sa x
röporta j
ruh ani</w>
rehber lik</w>
re f
ra p</w>
ra hi
r r
q lobal</w>
q in</w>
proje leri</w>
program ına</w>
popü lasyon
paz arı</w>
pat la
parçacı kların</w>
para sını</w>
pan ik</w>
pa gos</w>
p il</w>
oy du</w>
otur muş</w>
otori ter</w>
orta klık</w>
ordu ya</w>
or a</w>
olu şu</w>
olma kta</w>
olma dıklarını</w>
ol sunlar</w>
ol manızı</w>
okyanus lar</w>
ograf ik</w>
o ke
nör onların</w>
num un
nesil den</w>
ner de</w>
ne f
na kli
mər hə
mıknatı s</w>
mu ydu</w>
mil ə</w>
merkez leri</w>
merkez indeki</w>
mağ dur
madde lerin</w>
ma dığınız</w>
m larından</w>
lü r
li yorlardı</w>
ley di</w>
lama yla</w>
laboratuvar a</w>
l lı</w>
kültür ünün</w>
kuvvet leri</w>
kura mı</w>
kullanır sanız</w>
kullanı mının</w>
kullanı mına</w>
kullan manın</w>
kri ter
korku yorum</w>
konuşma m</w>
konuşa cağız</w>
konu dan</w>
kları mıza</w>
kları dır</w>
kili se</w>
keşif ler</w>
keşf ettiğimiz</w>
keşf etti</w>
kaça n</w>
kazan mış</w>
kayb olan</w>
kavra mlar</w>
katı lan</w>
kara da</w>
kalbi ne</w>
kadın lardan</w>
kadar dır</w>
kad ından</w>
iş ar
iz lerini</w>
iz deki</w>
ister sek</w>
iste diğinde</w>
ir onik</w>
insan sı</w>
in mek</w>
in ki</w>
ihra ç</w>
i dik</w>
hə ll</w>
hizmet ler</w>
hikaye mi</w>
hikaye lerin</w>
hi o</w>
hesa b
he le</w>
hazır ladık</w>
hay r
hata sı</w>
harcan an</w>
hamı sı</w>
ham bur
h ri
görüntü lerin</w>
gördü y
git miyor</w>
gidi ş
gerçekleşe cek</w>
gerek liydi</w>
gerek li
gele lim</w>
gel me</w>
gel diğim</w>
gay ri</w>
gali ba</w>
füz yon</w>
fos il
feno men</w>
fabri kası</w>
f f</w>
eğiti mde</w>
eğilim li</w>
ev li</w>
ev ime</w>
ettik lerinde</w>
etmə k
etme diği</w>
etkileş imi</w>
etkile diğini</w>
et miyorum</w>
et diyimiz</w>
esnek lik</w>
eser leri</w>
en den</w>
elver işli</w>
ekonomi de</w>
edi yorsanız</w>
eder se</w>
ede cekler</w>
ede bilirler</w>
dırı lmış</w>
düşünce lerini</w>
dünya mızda</w>
dük lerinde</w>
dönüştürü cü</w>
dönüştür en</w>
dön düğünü</w>
dura k
dur dum</w>
du klarını</w>
du klarında</w>
doğa dan</w>
diri yor</w>
din leyin</w>
değil lerdir</w>
değerlendir me</w>
derin lemesine</w>
derg isinde</w>
derece si</w>
dem li</w>
de s</w>
de me
da hi
ci bin
cez be
can landıra
ca sına</w>
bıraktı ğı</w>
bı yı
bulun ması</w>
birleştir erek</w>
bilmi yorlar</w>
bilgisayar la</w>
bilece ğinin</w>
bi m</w>
beş eri</w>
belir sizlik</w>
bek leme</w>
be lə
be del
başkan lık</w>
bağ ları</w>
balıkçı lık</w>
baktı lar</w>
bahse deyim</w>
ba lığının</w>
b ra</w>
ağı z</w>
ağ ların</w>
açı sıyla</w>
aya ğı</w>
ay larca</w>
as f
arttı kça</w>
arkadaş lık</w>
arkadaş larına</w>
arka mda</w>
alın tı
al mıştı</w>
ak siyon</w>
aile ye</w>
aile sine</w>
adlandırı lır</w>
a yet</w>
a tar</w>
a sit</w>
a kar
a a
You tube</w>
Yara tı
Yap mamız</w>
Ya sası</w>
Y ürü
Ven üs</w>
V ol
V ar</w>
Tez sler</w>
Tal k</w>
T un
T a</w>
T I</w>
T .</w>
So ut
Se con
Sav unma</w>
Sa m</w>
Sa at</w>
SE TI</w>
O hio</w>
Mik ro
Mat t</w>
M um
M T</w>
Lut her</w>
L it
Konu şma</w>
Kon seyi</w>
Kadın ların</w>
Ka sım</w>
Ka f
K imin</w>
Jon es</w>
J es
J ama
I P
Hükü met</w>
Hayat ın</w>
Ha ya
Gün ey
Gelecek te</w>
Gala pagos</w>
G öz</w>
Ev de</w>
E mp
E min</w>
Don ald</w>
Diğer leri</w>
D AR
Car l</w>
C hu
Böl ge
Bir denbire</w>
Bi rey
Anne min</w>
A z
A kademi
8 6</w>
5 2</w>
4 -
198 4</w>
18 .</w>
1, 5</w>
1 30</w>
şüphe ci</w>
ştu ğ
şer it</w>
şaşır ttı</w>
ışı l
ıs rar
ı lı
İ ster
İ leri</w>
İ le
ği ydi</w>
ği mizi</w>
üst teki</w>
ürün lerini</w>
ür ler</w>
ü mün</w>
öğretmen leri</w>
öğren cis
öz -
ön ünden</w>
ölüm leri</w>
ödül ünü</w>
çı ların</w>
çev ren
çek me
çare siz</w>
çalıştı klarını</w>
Üzer ine</w>
Üni versite</w>
zi yan</w>
zaman kinden</w>
yüz leri</w>
yük sək</w>
yü kü</w>
yum un</w>
yoru mlar</w>
yoksul luğu</w>
yetiştir ici
yeryüz ünde</w>
ye min</w>
ye meye</w>
ye dek</w>
yara sa
yapma mızı</w>
yapma mı</w>
yapma lı</w>
yapa bileceklerini</w>
yansı tı
yansı tan</w>
y yar
vücud una</w>
video ları</w>
vere bilirim</w>
ver ile
ve fat</w>
varsayı m</w>
vaci b</w>
uça kları</w>
uy dular</w>
un sur</w>
təh lükə
tə səvvür</w>
tu ş
tren d
traje di</w>
titre şim
tim sah
tesadü f</w>
tele k
tek stil</w>
te li</w>
tanıştı k</w>
tanı mlar</w>
tan siyon</w>
ta sav
ta bu
t lər</w>
t ine</w>
sənə t
sürü cüs
süper market
söyler ler</w>
suç u</w>
su altı</w>
soy u</w>
son larına</w>
son da
solu k</w>
so lar</w>
siz liğe</w>
si mde</w>
seç men
sever iz</w>
sen sör</w>
sen ize</w>
sen fon
sebebi yet</w>
se ye</w>
se lerdi</w>
sayfa ya</w>
satran ç</w>
saniye lik</w>
salg ının</w>
saldırı ya</w>
saat ten</w>
sa r</w>
sa ha</w>
rə k</w>
rü m
ros u</w>
ron tal</w>
ro pa</w>
risk ler</w>
res men</w>
re al
raki p
rahat sızlık</w>
ra y
pu su
prote z
progra mını</w>
profes örü</w>
pozis yon</w>
piz za</w>
per de</w>
pe di</w>
paz ara</w>
parça dan</w>
paha lı
oyna dığı</w>
orta daki</w>
organ ı</w>
omur ga
oluşturu rlar</w>
oluş umu</w>
olma malı</w>
olma larıdır</w>
olma dığınız</w>
olduğ umda</w>
oku r</w>
obje leri</w>
obe z</w>
num arası</w>
nere si</w>
ner den</w>
ne dy</w>
mər kə
müdür ü</w>
müddə t</w>
mövcu d</w>
miza h</w>
min ən</w>
min e
mimar lık</w>
met ro</w>
met ler</w>
merha ba</w>
matema tiği</w>
manip ü
makine lerin</w>
mahke meye</w>
ma larla</w>
m s</w>
m .
m -
lı yordum</w>
lı rdı</w>
lu yum</w>
li fi</w>
leş ir</w>
leye bilirsiniz</w>
ley le</w>
ler dim</w>
len mesini</w>
le o</w>
lat ör
la bilen</w>
l duğunu</w>
kış kır
kızı l</w>
kı kır
kök ten</w>
kutu cu
kurulu şlar</w>
kuru mu</w>
kullan mış</w>
kullan dığınız</w>
ku ca
kre di
koru yor</w>
koru yacak</w>
kolay laştır
ko şu</w>
ko ş
kları mdan</w>
kitle sel</w>
kitab ında</w>
kilo metrelik</w>
keşf etme</w>
kend in</w>
kazan dığı</w>
kazan dık</w>
kayb ettim</w>
kap lan</w>
kap ak
kanser e</w>
kamp üs
kal masını</w>
kal dığım</w>
kablo lar</w>
ka os
ka lirsa</w>
işlem ci</w>
işle ti
işaret ler</w>
iş leme
iş imizi</w>
iz lə
iyimser lik</w>
ister sem</w>
ince leyerek</w>
inan ama
in er</w>
imi yle</w>
im kanı
ilgi lene
il diğinde</w>
i ten</w>
i dam</w>
hə yatı
hə d
hissedi yordum</w>
his sine</w>
heyecan landıran</w>
hesa bı</w>
hayvan larla</w>
hayat lar</w>
hav za
hassa siyet
harca mak</w>
ha pis</w>
h u</w>
h eter
gəl mə
güç lerini</w>
güc lü</w>
göstere bilir</w>
göster meme</w>
göster iyorlar</w>
göster in</w>
görün dü</w>
görme diğimiz</w>
görev lisi</w>
görev leri</w>
göre ve</w>
gittiği mizde</w>
git memiz</w>
giri yoruz</w>
gir dik</w>
geç mesi</w>
gerçekleş tiği</w>
gerek çe
geliştir ildi</w>
gay ret</w>
fotoğraf ın</w>
fikir lerden</w>
fark ettik</w>
fa z</w>
f us</w>
f iye</w>
eğ e</w>
ey n
ev deki</w>
etti ğinizde</w>
etti ğine</w>
etrafı mızda</w>
etme lisiniz</w>
et te</w>
et sin</w>
et miyoruz</w>
et dik</w>
edə cək</w>
ede yim</w>
ede bileceğimiz</w>
e go</w>
dış kı
düşünür düm</w>
düşün meden</w>
düğ meye</w>
düzen siz</w>
düzen lemek</w>
düzen le
dür tü
dönüş ümü</w>
dön me</w>
duyu yorsunuz</w>
duyar ız</w>
duy du</w>
doğru ysa</w>
doğ asını</w>
dizi leri</w>
diye ceğim</w>
di yse</w>
di e</w>
değiştir iyoruz</w>
değişme z</w>
değişme ye</w>
derece lik</w>
deney ime</w>
dehş ete</w>
de part
de miştir</w>
de lice</w>
de dik
dağ ının</w>
davranı yor</w>
d hi</w>
d dü
cu m
ci miz</w>
ci lerle</w>
ce ğe</w>
caz ip</w>
can sız</w>
c y</w>
bırak ma</w>
bıra k</w>
bı ça
büyü mesi</w>
bölün müş</w>
bölüm ünün</w>
bölge lerine</w>
buluna bilir</w>
bula bilmek</w>
bu da</w>
biyoloj inin</w>
bir ler</w>
bilər əm</w>
bilece ğ
bile t</w>
bil meye</w>
başla mıştım</w>
başar mış</w>
baş ınıza</w>
baskı sı</w>
barı şı</w>
bar ədə</w>
ban liy
bak mayı</w>
b s</w>
b ono
açı lır</w>
açı lardan</w>
aça cak</w>
aç tık</w>
atı ldı</w>
arı yorum</w>
arttı rıyor</w>
araştırma da</w>
araştırma cı
ara yüzü</w>
ara r</w>
anne -
amp ul
alın ması</w>
algı layı
a dan</w>
Yap tıkları</w>
Ya p</w>
W olf
W K</w>
V an
U tan
Tur ing</w>
Tu haf</w>
Tex as</w>
Tazman ya</w>
T ip
T at
Syl via</w>
Se ya
Sara y</w>
S MS</w>
R A</w>
P in
Mə sə
Müş ter
Mey danı</w>
Mar ia</w>
M et
M ala
Kö p
Ko mik</w>
Ken nedy</w>
K lin
K ato
John ny</w>
Har ry</w>
Han s</w>
H ima
H a</w>
Güneş in</w>
Gan dhi</w>
Fran sızca</w>
Fran sız
F i</w>
Ev renin</w>
Eli mizdeki</w>
Ekr anda</w>
Di plo
C A
Bə li</w>
Bla ck
Bilgisayar lar</w>
B ot
Ameri kada</w>
AL S</w>
A dım</w>
6 .
3 0.000</w>
199 7</w>
1 80</w>
şı mı</w>
şempanze ler</w>
şehr inin</w>
şa ir
ş öyleydi</w>
ş te</w>
Ş ey
İz landa</w>
İs ti
üreti ci</w>
üm den</w>
ülke lerinde</w>
ü p</w>
öğren im</w>
özgür lük
örün tü
örnek le</w>
ön cə</w>
çı sı</w>
çocuğ unu</w>
çiğ ne
çek iş
çatışma lar</w>
çamaşı r
çalışı yorlardı</w>
ça ğına</w>
ça mur</w>
ça ldı</w>
Çocu ğ
Çalı şma</w>
Ç iç
zincir inin</w>
za syon</w>
za fer
z ən</w>
yə n
yı ğ
yürü te
yürü me</w>
yürü düm</w>
yükü mlü
yönlendir en</w>
yöneti l
yu t
yu suf
yu ru
yon ik</w>
yok ken</w>
yetiştir me</w>
ye ğen
ye yi</w>
ye me</w>
ye di
yaşı yorsanız</w>
yaşa manın</w>
yazı yordu</w>
yazı ları</w>
yaz mıştı</w>
yarı şma</w>
yara sa</w>
yapma dım</w>
yapma dı</w>
yapa bilirsin</w>
yan lardan</w>
yan kı
ya sanın</w>
ya ları</w>
y l</w>
ver mez</w>
varsa yalım</w>
va ziy
va di
v s</w>
uç mak</w>
uy ru
unu yor</w>
u ca</w>
tıb bın</w>
tüy lü</w>
tu tama
topla dım</w>
titre şim</w>
tik lerin</w>
ti ca</w>
tere ddü
temiz lemek</w>
telek tüel</w>
tekn is
tasarımcı ların</w>
tasarı ma</w>
tas ha</w>
tar lar</w>
tanı mak</w>
tan lar</w>
tale bi</w>
ta ya</w>
t te</w>
sür er</w>
suçlu lar</w>
sun an</w>
stres li</w>
st ru
spon sor
soru ş
sin ek
si ber
seçi ci</w>
seb ze
sava şma
sar sın
sar hoş</w>
santi gra
sahne yi</w>
sabah ın</w>
rən g
rə q
ro jen</w>
reç ete</w>
rest oran</w>
resim lerin</w>
resim deki</w>
radi kal
r larsa</w>
r du</w>
quru lu
qalak tika
q lar</w>
q ayı
pro fil
platfor mu</w>
paylaşı yorlar</w>
pat oj
parça sına</w>
para z
par mak
par ca
oyun ların</w>
oyn ay
os e
orman ların</w>
ora yı</w>
oluşturu lan</w>
oluştura bilir</w>
oluştur duğumuz</w>
ok or
ogra f</w>
n iyə</w>
mı yorsun</w>
müz iğe</w>
mül k</w>
mü l</w>
moder n
mobil ya</w>
miş sinizdir</w>
mimar inin</w>
mikro p</w>
me mek</w>
me ki
me diğim</w>
mater ya
m ünü</w>
m lık</w>
m ber</w>
lik lerine</w>
li sin</w>
li hazırda</w>
laştırı lmış</w>
lar ınızdan</w>
lan mıyor</w>
lan dalı</w>
lama ktı</w>
la p
l s</w>
l oj
l duğunda</w>
kırı klığı</w>
kırı k</w>
kömü r
köle lik</w>
kuyru k</w>
kurtara cak</w>
kur mayı</w>
kullanır ken</w>
kullan ın</w>
ku şları</w>
koya lım</w>
koru ma
korku yu</w>
korku t
konuşma mın</w>
konuşma da</w>
kontrol ünü</w>
kontrol lü</w>
ko med
kla ho
ki bar
ken t</w>
ke s</w>
kayna klarının</w>
kayna klardan</w>
kaybe diyor</w>
kasıt lı</w>
karb onu</w>
karar ını</w>
kapı ya</w>
kan alı</w>
kada ki</w>
kabl olar
k ında</w>
iş lerden</w>
içer iğin</w>
içer isindeki</w>
iy ili
is pat</w>
ira de</w>
ir əm</w>
ipuç ları</w>
inti li</w>
ila ca</w>
ika l</w>
ihtimal leri</w>
ihra ca
ide al
ic ra</w>
hə şə
hız ının</w>
huz ur</w>
hisse den</w>
hiss ettiğimiz</w>
hazır ladım</w>
hayatı mıza</w>
hayat ınızın</w>
hatırlat tı</w>
hatırla tı
ha lı
gün ünü</w>
gü re
götür dük</w>
göstər ir</w>
görev ler</w>
görev ini</w>
göre cek</w>
gör mək</w>
gör kemli</w>
git medi</w>
git meden</w>
gire cek</w>
gerek iyorsa</w>
ger gin</w>
geomet rik</w>
geliş imini</w>
gel se</w>
fır ça
fır satı
fotoğraf çı</w>
form unda</w>
for mlar</w>
fikr inden</w>
fikir lerle</w>
fikir de</w>
far z</w>
f ış
f lu
eş leştir
eğ il
etkin lik</w>
etki leme
eriş ilebilir</w>
er in</w>
en ge
ekran ı</w>
ekonomi st</w>
edə rək</w>
edi tör
edi rik</w>
dı m.</w>
düşüne bilir</w>
düşün cenin</w>
dön müş</w>
duy uru
du man</w>
doğrultu sunda</w>
dos ya</w>
doktor un</w>
do z</w>
dinle dim</w>
dikka timizi</w>
di limi</w>
değil miş</w>
den dir</w>
den di</w>
dek si</w>
de diğinde</w>
de diğimde</w>
dağılı mı</w>
dağ lar</w>
dayanık lılık</w>
dan sa</w>
cid di
cen net</w>
ce sine</w>
ce bi
bıraktı lar</w>
büyükan ne</w>
büyü len
bü kül
bulu yorlar</w>
boyut larda</w>
biç imleri</w>
biç im</w>
biti ş</w>
birey leri</w>
bilmi yorlardı</w>
bilme mizi</w>
bilim ler</w>
bilim cisi</w>
bileş en</w>
bil menizi</w>
ber ry</w>
ben cil
belirti leri</w>
bek lerken</w>
bebek lerin</w>
başarı yı</w>
başara biliriz</w>
baş la</w>
bazı larına</w>
bas ketbol</w>
balin aların</w>
bakar ız</w>
bahçe si</w>
ba lığın</w>
b ran
b -
aş ina
ağır lığında</w>
açık layan</w>
aç maya</w>
ayrı mı</w>
ayrı ldı</w>
aynı dır</w>
ay rım</w>
ay dır</w>
ateş i</w>
at maya</w>
at lat
asker leri</w>
arkadaş ının</w>
arkadaş larını</w>
arkadaş larımdan</w>
ara lar</w>
ara daki</w>
ara cını</w>
anne sinin</w>
anne lerin</w>
anlatır ken</w>
anlama mıza</w>
altyapı yı</w>
al çak
al manın</w>
al dığınızda</w>
a u</w>
a ilə
Zir a</w>
Yü zey
Yara tıcı</w>
X -
Wri ght</w>
W a
Ven edik</w>
U ğ
Tele fon</w>
St .</w>
Sov yet</w>
Sky pe</w>
Sila h
Secon d</w>
S pe
Rüz gar</w>
P rot
Okyan us</w>
O per
O klaho
N iyə</w>
Monter ey</w>
Mo MA</w>
Le one</w>
Le e</w>
Kütüp hanesi</w>
Ku antum</w>
Kita p
Ka hire</w>
Jos ep
Jas on</w>
J ü
Hasta lık</w>
Ha ki
H ır
Gül me</w>
Gre en</w>
Gen etik</w>
Gar ip</w>
F O
Etraf ta</w>
Et ki
Düşün düm</w>
Den izi</w>
Dan iel</w>
D iyor</w>
C ad
Biz den</w>
Biz de</w>
Barı ş</w>
B ilg
Ara bistan</w>
Amerik anın</w>
Al p
A str
A .</w>
. org</w>
ə də
şirket te</w>
şirket lerinin</w>
şirket inin</w>
şey lerdi</w>
şah si</w>
Şimdi ki</w>
Ş ika
ışı ğını</w>
ıs lık</w>
ını m</w>
ı ra</w>
İspan yol</w>
İle tiş
ğı mızın</w>
ün də</w>
üc reti</w>
öğretme ni</w>
öğreti yoruz</w>
öğren memiz</w>
öğre tir
öğre ten</w>
öz deş
öne me</w>
ömür lü</w>
ölç en</w>
ö teki</w>
ö k
çıx ar
çık mıştı</w>
çık masını</w>
çevre ci</w>
çekir değ
çek ici
çalışma lıyız</w>
Öğr etmen</w>
Ö rüm
yıl larında</w>
yüz yıllar</w>
yüz binlerce</w>
yürüyü şe</w>
yukarı daki</w>
yorlar .</w>
yor dun</w>
yol lara</w>
yiye cekleri</w>
yeten ekler</w>
yemek leri</w>
ye te
yaşı yordum</w>
yaşa yıp</w>
yavaş lat
yatırı mcılar</w>
yarar lana
yara salar</w>
yapılma sını</w>
yapıla bileceğini</w>
yapı yorduk</w>
yaptır mak</w>
yapmaz sak</w>
yapma lısınız</w>
yapma ktır</w>
yapma dığı</w>
yap ınca</w>
yanlı sı</w>
yan an</w>
yakala dı</w>
yak laş
yaca ğımız</w>
yaca klar</w>
xə ri
x oş
vücudu muzun</w>
verir iz</w>
verim siz</w>
ver mesini</w>
ve y</w>
va li
va kası</w>
va at</w>
v etli</w>
uç arken</w>
uza yı</w>
us unda</w>
unut un</w>
un i
umut suz</w>
ula ştır
u yan</w>
tə bi
tı mız</w>
tuta cak</w>
trans is
toplu yor</w>
toplu mları</w>
toler an
ti dir</w>
teşh isi</w>
test leri</w>
teknoloj ide</w>
tedav iye</w>
tasarı mları</w>
tasarı mlar</w>
tara yıcı
tabl osu</w>
ta ç</w>
t ra</w>
söylen iyor</w>
söyle miştim</w>
su lar</w>
stu ral
sta tis
st ar
sos yo
sorus una</w>
sic im</w>
sey in</w>
sey diniz</w>
sene lik</w>
say gın
sand viç
sabır sız
s s</w>
qəri bə</w>
q arı
psikol og</w>
protein ler</w>
progra mcı
pik sel
peyn ir
petrol ü</w>
pe s</w>
pe are</w>
pazar lık</w>
parti kül
para ları</w>
pak eti</w>
ot os
orman lar</w>
oper a</w>
om on</w>
oluşturu lmuş</w>
oluştu ğu</w>
olur larsa</w>
olmalı yım</w>
olma mak</w>
olay lara</w>
ola ma
ola bilir
obje ler</w>
nəz ər</w>
neşe li</w>
neden leri</w>
ne şe</w>
n üm
mış ken</w>
müxtə lif</w>
müt te
mü şahi
mü sa
muzdar ip</w>
mu yum</w>
mu yorlar</w>
model inin</w>
miy dik</w>
min ya
min icik</w>
mikros kop</w>
meşgu l
meye cektir</w>
mey dan
mesle ki</w>
merha met
meli ler</w>
mektu bu</w>
mekan iği</w>
man şet
malı ydım</w>
maliyet inin</w>
m on</w>
m lerini</w>
lı klarına</w>
lü m</w>
lu yorlar</w>
lma ları</w>
liğ inizi</w>
liy se</w>
li kti</w>
len yum</w>
lar sın</w>
kızıl ötesi</w>
kısı mda</w>
kır mak</w>
kı mın</w>
küçü m
kö yün</w>
kö kleri</w>
kural ların</w>
kur duğumuz</w>
kur dular</w>
kullanı lacak</w>
kullana bilirim</w>
kullan dığını</w>
kullan dıklarını</w>
ku lak
kt ör
koya bilirsiniz</w>
kopya sını</w>
konuştu ğu</w>
konuş arak</w>
konferan sta</w>
kon ser</w>
ko ka
ko dun</w>
kişi lerden</w>
kim lerin</w>
ki re
ken ti</w>
kazan maya</w>
kayna ğını</w>
kayde tmek</w>
kayb etmek</w>
katıl maya</w>
katkı sı</w>
karşı sına</w>
karde ş</w>
kap sı
kap layan</w>
kap anı
kan unu</w>
kal madan</w>
kafa sının</w>
ka bin
k un
işçi lerin</w>
iş siz</w>
için deyiz</w>
iç imde</w>
izle di</w>
iy lə</w>
iy ken</w>
istər dim</w>
iste diğinizde</w>
isim lendir
ip i</w>
insan lığa</w>
ingi liz
in dedir</w>
ilişki lendir
ilişk inin</w>
ilerle dikçe</w>
iler lemeye</w>
ile tmek</w>
ifa də</w>
iddi alı</w>
hır slı</w>
hoş n
hopar lör
ho en
hoen ix</w>
hissedi yorlar</w>
hi gan</w>
hesap laya
her zaman</w>
hayat larımızı</w>
hava cılık</w>
har man
hal let
hafif çe</w>
haber lerde</w>
ha ke
gəl di</w>
gül ün
göz en
göre bilmek</w>
gör meden</w>
gönder dik</w>
gu zel</w>
grup lara</w>
gibi y
gerçek liğe</w>
ger çi</w>
gelişme ye</w>
gelen in</w>
gele ceğimiz</w>
ga zi
fiz iği</w>
fi el
fabrika da</w>
f rontal</w>
etraf ına</w>
etraf ı</w>
etkileş imin</w>
er o</w>
enstrü man</w>
en izi</w>
ek liyoruz</w>
ek lem
ek ledim</w>
eder di</w>
ede ceğimiz</w>
düşünü len</w>
düşünce yi</w>
dünya sından</w>
döne me</w>
duyar sınız</w>
duy ma</w>
duru yorum</w>
dolar dı</w>
doku z
diği mizden</w>
diya gra
değiştir dik</w>
değişik liğinin</w>
değişik liğini</w>
değiş tiği</w>
değil sin</w>
derinlik lerine</w>
deneyim ini</w>
dene tim</w>
dene di</w>
de vu
de miyorum</w>
de likler</w>
daki lere</w>
da im</w>
cı yla</w>
cum hur
co in</w>
cin ayet
cerra h</w>
c her</w>
c han
c anı
bırak maya</w>
büyü düğünü</w>
bur g</w>
bulun ma
bulu ruz</w>
bulma ca</w>
bul gu</w>
bozuk luk</w>
bozuk lu
biyol og</w>
birleştir mek</w>
birbir lerinin</w>
birbir inin</w>
bir iydim</w>
bir isidir</w>
bilmi yorsunuz</w>
bili yorsa</w>
bil meyen</w>
bi ter</w>
bi a</w>
beyn ini</w>
beye fendi</w>
belge sel</w>
bek leyin</w>
başlaya bilirsiniz</w>
başar dım</w>
baş landı</w>
ban dı</w>
bakar sınız</w>
bak mamız</w>
b la</w>
aç ın</w>
aydın lık</w>
ayak lanma
av cı</w>
atmosfer ik</w>
as tım</w>
ard ına</w>
araş dır
ara dığımız</w>
anne leri</w>
anlama yın</w>
an nenin</w>
an dır</w>
alı ştır
algorit malar</w>
ala y</w>
al malıyız</w>
ada mış</w>
a mer
a liy
Y B</w>
W est</w>
Vücu du
V al
U mu
Ti yat
Ti bet</w>
Tay land</w>
T ime</w>
Sur iye
Sov yet
San ta</w>
Sa bah
S tu
S ir</w>
S ci
S arı</w>
R ap
Portek iz</w>
Poli tika
P lastik</w>
Okul da</w>
Ni san</w>
Na tasha</w>
N ükle
Müt hiş</w>
Mic higan</w>
Me ta
M ül
M ot
Lüb nan</w>
Liber ya</w>
Les ter</w>
Lar ry</w>
La gos</w>
L im
Kos ova</w>
Kend inize</w>
Kara yip
Kan sas</w>
K olay</w>
K işi</w>
Jer sey</w>
Hayvan lar</w>
Harek eti</w>
Hak ları</w>
H ip
Güç lü</w>
Gaz ze</w>
Gali ba</w>
F ul
F li
F el
Evren sel</w>
El- Kaide</w>
Dı ş</w>
Doku z</w>
Da la
Chu ck</w>
C y
C C</w>
Bru ce</w>
Belir li</w>
Beat bo
Avu stural
At mos
Ar iz
Anne si</w>
Andre w</w>
A rı
A kıl</w>
A ir
A K</w>
3 9</w>
19 75</w>
şiş ir
şekl indeki</w>
şaşı rı
şar ap
şansı m</w>
şans lıyız</w>
şans lı
Ş İ
ır kçı</w>
İnsan ın</w>
üç gen</w>
üz üm</w>
üre tir
ür ettiğimiz</w>
ür ettik</w>
ür etti</w>
öğren en</w>
öğr etmeye</w>
öz er
ölü r
ölç er</w>
ödül lendir
çıkı yordu</w>
çıkar dılar</w>
çöz memiz</w>
çö ker
çoğ una</w>
çizel ge
çif te</w>
çeşitli liğe</w>
çerçe ve</w>
çekir de
çek iyorum</w>
çalışa bilir</w>
ça lar</w>
Ölü m
Çoğ unuz</w>
Çocuk luğ
Ç eşit
zorunda sın</w>
zir ve</w>
za hü
z siniz</w>
yı ğını</w>
yüzleş mek</w>
yüz yıllardır</w>
yüksek likte</w>
yön lerini</w>
yuz den</w>
yur t</w>
yoz laşma</w>
yoksul luktan</w>
yet ki
yazı lar</w>
yatırı mı</w>
yatırı mcı
yaratıcı lığın</w>
yarat tılar</w>
yarat maq</w>
yara madı</w>
yapı m</w>
yapaca klar</w>
yapa maz</w>
yapa bilir
yanı sıra</w>
yan ınızda</w>
yakı tlar</w>
yaklaşı yor</w>
x ey
vizyon u</w>
vax t
var di</w>
uzman ların</w>
uzanı p</w>
unuz la</w>
unut mayacağım</w>
ulaşa cak</w>
uc unu</w>
tüketi ciler</w>
tü berkülo
tör en
tiği mizde</w>
teşe bbü
tesadü fen</w>
terör ist
ter im
tep kisi</w>
telef ona</w>
tela fi</w>
tek ne</w>
te ster
te dir
taşı yıcı</w>
tasarımcı sı</w>
tasar laya
taraf ını</w>
tama milə</w>
tak ıntılı</w>
ta ka
t onu</w>
sə s
sürük len
sür üs
sür tün
söyle meyi</w>
sora cak</w>
sor duğumda</w>
son uncusu</w>
sistem lerinin</w>
seyir ciler</w>
sev iyorlar</w>
ser ti
sektör ünde</w>
sayfa yı</w>
sava şlar</w>
sar f</w>
saniy enin</w>
san tre</w>
san i</w>
san ata</w>
saldırı sı</w>
sal lık</w>
sahip tim</w>
rü n</w>
rekla mı</w>
r .
qı sa</w>
qi q</w>
protok ol
problem le</w>
por t
politika cıların</w>
parça lardan</w>
paradig ma</w>
pan kre
oyun cağı</w>
oy la</w>
ortak laşa</w>
orta mlarda</w>
oluşturu p</w>
olmalı sın</w>
olma dığımı</w>
olduğumuz da</w>
ola ydı</w>
ola bilmesi</w>
oku yor</w>
og ların</w>
o v</w>
o tistik</w>
o dun</w>
nə nə
nüm un
nö tr
not ları</w>
nesil ler</w>
naz ik
mış sınızdır</w>
mı mızın</w>
müzis yen</w>
mü cev
model lerini</w>
milyon a</w>
mi sel
mi q
mi c
met r
mesa f
mer diven</w>
med yayı</w>
me mizin</w>
mah ve
ma vi
ma mıştım</w>
ma ktansa</w>
ma dal
m dir</w>
lığ ınızı</w>
lu lar</w>
lma sından</w>
liği mizin</w>
liğ indeki</w>
lise de</w>
li b</w>
ler miş</w>
ler inizden</w>
lendiri len</w>
lemen iz</w>
le diğini</w>
lda yan</w>
laşı r</w>
laş dır
lan tı</w>
l müş</w>
kıyı sında</w>
kı lmak</w>
küçü kken</w>
kütle li</w>
küresel leşme</w>
kür lər</w>
kültür ler</w>
köy e</w>
kutu ları</w>
kur arak</w>
kullan ması</w>
ku zeye</w>
kt ınız</w>
kriz inin</w>
kos mos
korun muş</w>
ko ç</w>
kes peare</w>
kes me</w>
kendi siyle</w>
kaç mak</w>
katılı mcı</w>
kat mak</w>
karşılaştı rıl
karşılaştı k</w>
karı şma
kar ın
kalma yacak</w>
kal binde</w>
kafa yı</w>
kade mi</w>
ka şif
j an</w>
işlet meler</w>
işlet me
işlem ler</w>
izle dik</w>
istiyor san</w>
istatis tiksel</w>
iq tisa
insan lardı</w>
iniz m</w>
in sülin</w>
in sa
imkan lar</w>
ima lat
ilişk iye</w>
ilet ken</w>
ile te
idar ə</w>
iba ti</w>
hükü m
hüku met
hi bri
hesap lamalar</w>
hep inizi</w>
hazır lık</w>
hatır lama
harita da</w>
harca dık</w>
har fi</w>
h ə</w>
h ör
güven in</w>
günü müzdeki</w>
gün eye</w>
göz lerinizi</w>
göv de</w>
göster miştir</w>
göster iyoruz</w>
gökyüz ünde</w>
gö k</w>
gun luk</w>
gra f</w>
gir meden</w>
gir diği</w>
geçe ceğim</w>
geç işi</w>
geç iyordu</w>
gez dir
gelişme nin</w>
geliş imin</w>
gel diğinizde</w>
fə aliy
for mat
fil ler</w>
fel çli</w>
f li
ev ri
ev lerini</w>
et ta</w>
et on</w>
et le</w>
er ken
ente gra
engel leyen</w>
elekt roman
ele man
el mi</w>
ekonomi sine</w>
ek leyerek</w>
efsan evi</w>
edil me
edil diğinde</w>
eder dim</w>
e me
dı şı
düşünü rler</w>
düğ ümde</w>
düz əl
dünya mız</w>
doğru luk</w>
doğ duğu</w>
doğ ayla</w>
do z
dino zor</w>
di yordum</w>
di ci</w>
değişme di</w>
değil seniz</w>
değer dir</w>
destek liyor</w>
destek leye
der lerdi</w>
der gisi</w>
deneye ceğim</w>
den iyoruz</w>
def ter
de sin</w>
de ko
danış manlık</w>
da lə
da kine</w>
cə nu
coğraf ya
ck y</w>
civar ı</w>
ceza landırı
cep he
c ti
büyü tmek</w>
biç imini</w>
birleştir ip</w>
bilgisayar lara</w>
bil seydi</w>
bi nin</w>
bes leyen</w>
belir leyici</w>
bekle dim</w>
bek liyorlar</w>
bebe ğim</w>
başlar ken</w>
başla dıklarında</w>
başka sına</w>
başka larını</w>
başar dılar</w>
baş larda</w>
bar iz
bar a</w>
bakı şı</w>
baktı ğında</w>
bahçe sinde</w>
ba zi</w>
ba c
b ün
ağ zı
açı l
açı ktı</w>
azın lık</w>
ayak lı</w>
atı kları</w>
as a</w>
arı ları</w>
artır mak</w>
art ma</w>
arkadaşı mla</w>
ark ən</w>
anı t</w>
anlat ma</w>
anla şa
anla yıp</w>
anla malıyız</w>
an ik</w>
am ca
alan ından</w>
al g
ak e</w>
adlandırı lıyor</w>
abar tılı</w>
a mi</w>
Z ek
Ye tiş
Whi topia</w>
V an</w>
Tü keti
T om
T he
T S
Sno w
Sek s</w>
Ro b</w>
R ek
Pa d</w>
Oğ lum</w>
Olağan üstü</w>
Oklaho ma</w>
O re
Nep al</w>
Məsə lən</w>
[...]
