#version: 0.2
t h
i n
a n
th e</w>
e r
o s
o u
a t</w>
a p
in g</w>
t o</w>
a r
ap os
& apos
i s</w>
e n
&apos ;
t i
o f</w>
an d</w>
r e
a l
o n
o r
e r</w>
e d</w>
th at</w>
o n</w>
i n</w>
e s</w>
o t
q u
i t
s t
th e
w h
o u</w>
l y</w>
i t</w>
o m
v e</w>
c a
l i
a c
qu ot
quot ;</w>
& quot;</w>
a s</w>
y ou</w>
a t
r o
w e</w>
u s
&apos; s</w>
l e</w>
o r</w>
n d</w>
er e</w>
e n</w>
n o
b e
h a
e l
d i
T h
A nd</w>
e c
m a
r i
e s
th is</w>
l o
a b
i l
a s
g h
ou t</w>
l d</w>
v er
i c
u r
a n</w>
ti on</w>
m e</w>
ar e</w>
l e
o p
a l</w>
u t</w>
k e</w>
s i
en t</w>
w as</w>
a y</w>
f or</w>
al ly</w>
c h
u n
ha ve</w>
c om
s e</w>
ou r</w>
s e
d e
n e
the y</w>
g o
s h
w it
r a
ca n</w>
on e</w>
wit h</w>
w or
t s</w>
al l</w>
b e</w>
o l
p e
o w</w>
us e</w>
p l
&apos; t</w>
e x
t er</w>
wh at</w>
S o</w>
c e</w>
ab out</w>
s o</w>
p ro
a g
ou ld</w>
i r
gh t</w>
th in
th er</w>
e t</w>
no t</w>
c on
no w</w>
s a
s om
r e</w>
u l
t o
t er
d s</w>
p er
u c
t r
d o</w>
d o
ver y</w>
m y</w>
m e
op le</w>
or e</w>
th ing</w>
th ere</w>
&apos; re</w>
li ke</w>
us t</w>
pe ople</w>
i s
ro m</w>
I t</w>
it y</w>
ti on
f rom</w>
s p
a r</w>
c i
m p
t u
t a
v er</w>
k ing</w>
b ut</w>
v i
e ar
f f
an t</w>
a u
j ust</w>
ca use</w>
t ed</w>
er s</w>
W e</w>
m o
d e</w>
s t</w>
B ut</w>
i r</w>
ur e</w>
at e</w>
s u
the se</w>
Th e</w>
i f</w>
u s</w>
g s</w>
b o
el l</w>
h e</w>
b y</w>
the m</w>
u p</w>
a d
f or
m ore</w>
p o
a m
k now</w>
g e</w>
go ing</w>
wh en</w>
ou n
ha d</w>
h i
p ar
lo o
be cause</w>
w ay</w>
in d</w>
g i
es s</w>
p re
W h
a tion</w>
e y</w>
som e
w ere</w>
the ir</w>
h ow</w>
ic h</w>
thin k</w>
se e</w>
wh o</w>
g et</w>
o ther</w>
f e
t h</w>
os e</w>
w n</w>
w ould</w>
wh ich</w>
y our</w>
an y</w>
tion s</w>
e v
ou nd</w>
g h</w>
re ally</w>
t w
i d</w>
t ing</w>
ti me</w>
il l</w>
f i
&apos; ve</w>
o d</w>
en ce</w>
ou r
e m
au gh
com p
in e</w>
c re
wh ere</w>
a y
h ere</w>
tu ally</w>
augh ter</w>
os t</w>
&apos; m</w>
h as</w>
the n</w>
wor ld</w>
k s</w>
y ear
l l</w>
c o
ab le</w>
f u
ap p
g e
a d</w>
L aughter</w>
Th is</w>
t e
b u
d ay</w>
b i
som e</w>
in to</w>
Y ou</w>
u m
st r
d on</w>
r ou
ac k</w>
un d
ac tually</w>
w ill</w>
ac e</w>
year s</w>
al l
ca l</w>
s el
uc h</w>
c l
g o</w>
d ing</w>
thin gs</w>
en t
h e
en ts</w>
st ar
c ould</w>
N ow</w>
be en</w>
ag e</w>
w ant</w>
m i
v es</w>
g re
ma ke</w>
l it
di ff
p h
Th ey</w>
f ir
d y</w>
as t</w>
h app
g u
k ed</w>
m ost</w>
ch an
t ri
t le</w>
es t</w>
s o
st e
com e</w>
f e</w>
v ing</w>
ti ve</w>
i z
some thing</w>
ri ght</w>
th an</w>
sa id</w>
m ent</w>
wor k</w>
t y</w>
th ose</w>
t ure</w>
in ter
en ti
t al
i es</w>
m uch</w>
on g</w>
ec t</w>
ou s</w>
st or
d u
i c</w>
c h</w>
l a
ti c
g r
fir st</w>
w e
diff er
pl a
y ing</w>
s y
n o</w>
th ou
al so</w>
i g
ne w</w>
p r
g y</w>
pro b
it e</w>
ma n</w>
i mp
an s</w>
tw o</w>
b ack</w>
d es
en d</w>
on s</w>
lit tle</w>
w i
ay s</w>
b le</w>
go t</w>
ac t</w>
f o
loo k</w>
o ver</w>
0 0</w>
c e
d ed</w>
Th at</w>
at ed</w>
on ly</w>
v e
g en
ev en</w>
s ay</w>
i m
li fe</w>
re e</w>
i de
st u
h is</w>
p os
ne ed</w>
m on
d n</w>
es s
t ra
m any</w>
sh e</w>
c oun
A p
I n</w>
fu l</w>
s c
Wh at</w>
h er</w>
it s</w>
ar d</w>
ta ke</w>
ver y
bo dy</w>
lo t</w>
ch o
bu il
com m
m s</w>
ec h
s ti
m il
k ind</w>
or t
si on</w>
h u
pla use</w>
r u
Ap plause</w>
m in
ic e</w>
t ur
th rou
k e
ac h</w>
di d</w>
ar ound</w>
n ing</w>
c ol
ec on
f f</w>
m ar
at er</w>
d er</w>
f ri
f in
n i
und er
f a
differ ent</w>
el l
ec i
Th ere</w>
e very
ti es</w>
ti c</w>
al s</w>
tr y</w>
b er</w>
di s
throu gh</w>
ti m
go od</w>
p a
re d</w>
w er</w>
do wn</w>
i ma
re s
re c
or t</w>
e very</w>
con t
y e
p ri
c ar
o k</w>
w s</w>
sa me</w>
an ce</w>
an d
c all
v ed</w>
an k</w>
I n
pre s
be ing</w>
il l
a m</w>
un i
in g
&apos; ll</w>
s ur
happ en
prob le
t ech
e st
si de</w>
w r
le ar
mp le</w>
m at
stor y</w>
an s
ar y</w>
or s</w>
W ell</w>
a f
p ut</w>
c ent</w>
o b
I f</w>
sel f</w>
sh o
b r
b l
H e</w>
do ing</w>
g ra
at ing</w>
l ar
g a
w ays</w>
p u
an y
lo gy</w>
u e</w>
ch il
s ol
er i
e l</w>
s ci
st s</w>
call ed</w>
n ed</w>
b as
v el
ca me</w>
so ci
d uc
t e</w>
ex per
s on</w>
om e</w>
per cent</w>
n a
pl an
w om
li on</w>
h el
ag a
t ly</w>
o l</w>
e ver</w>
ma de</w>
&apos; d</w>
tion al</w>
f ore</w>
qu es
ac h
p i
b ra
th ree</w>
d re
chan ge</w>
tech no
under st
en c
t ter</w>
us ed</w>
h o
t re
re s</w>
ye ar</w>
hu man</w>
imp ort
t ell</w>
f ind</w>
an c
to day</w>
des ig
s en
w ell</w>
lo w</w>
d er
wh y</w>
p ic
f act</w>
in t</w>
o wn</w>
at es</w>
ste m</w>
le t</w>
g er</w>
di dn</w>
y s</w>
v en</w>
B e
ide a</w>
in gs</w>
star ted</w>
af ter</w>
en g
k es</w>
C h
gre at</w>
t en
ge ther</w>
wi th
c our
tal k</w>
me m
be li
tim es</w>
w ing</w>
ter s</w>
be tter</w>
be fore</w>
mi ght</w>
to gether</w>
al iz
sh i
w an
f t</w>
me di
0 00</w>
thou ght</w>
l ast</w>
f am
ne ver</w>
s er
sh ould</w>
Th ank</w>
f l
h ear
w ent</w>
pl ace</w>
s m
o m</w>
in v
import ant</w>
c ul
bi g</w>
l ess</w>
g ro
i l</w>
b it</w>
p s</w>
t ting</w>
k i
e ly</w>
an other</w>
par t</w>
ex p
gi ve</w>
k no
o ff</w>
il ity</w>
sti ll</w>
p p
v ir
d at
as e</w>
c r
proble m</w>
exper i
m er
j o
sy stem</w>
, 000</w>
c or
ima g
ne x
ar i
ag o</w>
nex t</w>
m an
tw e
in s</w>
c ri
a tions</w>
cour se</w>
c ess</w>
hi m</w>
fe w</w>
ou s
it ed</w>
str uc
re ad
si ble</w>
po li
for ma
n um
star t</w>
w a
f ound</w>
b ot
s cho
o ld</w>
an ds</w>
e w</w>
e ach</w>
inter est
Wh en</w>
w ater</w>
aga in</w>
es e</w>
comp le
d d
ca tion</w>
& #
&# 9
be g
bra in</w>
wom en</w>
techno logy</w>
e ff
c er
2 0
ic ally</w>
sh ow</w>
do es</w>
w ar
1 9
de vel
twe en</w>
pro duc
f ac
e p</w>
to o</w>
l ong</w>
t en</w>
c ou
or g
be tween</w>
e ve</w>
com es</w>
dat a</w>
d eci
&apos ;</w>
al ity</w>
us ing</w>
comp u
i ght</w>
fam i
me an</w>
in cre
lo gi
chan g
dre n</w>
ques tion</w>
is t</w>
a mple</w>
o le</w>
sp ec
po int</w>
ex ample</w>
forma tion</w>
loo king</w>
j ect</w>
s pe
c u
ec ts</w>
c ap
gen er
st a
n at
or y</w>
b li
os s</w>
b re
underst and</w>
s es</w>
d one</w>
O n
n s</w>
chil dren</w>
al i
s econ
re as
li ve</w>
wan ted</w>
es n</w>
ce p
n ess</w>
sel ves</w>
n ec
lo ve</w>
he al
s k
do esn</w>
f ul
Be cause</w>
ou gh</w>
li ght</w>
S t
a way</w>
un ity</w>
u m</w>
th er
c all</w>
ma y</w>
f ace</w>
em ent</w>
H ow</w>
A fri
ab ly</w>
wor king</w>
1 0</w>
hel p</w>
per son</w>
econ om
wh ole</w>
pu bli
tr ying</w>
al ways</w>
s ort</w>
re al</w>
tr ans
d ol
re sp
beli eve</w>
m us
l ine</w>
ic i
ma y
g l
w al
d ri
ti cal</w>
org an
c ity</w>
com ing</w>
scho ol</w>
mil lion</w>
for m</w>
ul ar</w>
ti v
gr ap
s ec
e p
devel op
in formation</w>
h um
fe el</w>
u tion</w>
d es</w>
coun try</w>
c ur
b or
se ar
po wer</w>
ro om</w>
me ans</w>
li m
al e</w>
ou t
m om
is h</w>
thin king</w>
pr ot
in t
en er
cre ate</w>
th s</w>
m y
ver n
z e</w>
l dn</w>
ne e
ell s</w>
en d
f r
ul t</w>
col l
s ing</w>
may be</w>
h op
el ec
on es</w>
o ff
y p
r y</w>
le a
st o
f our</w>
to ok</w>
se e
si g
a ma
c k</w>
v al
su b
w er
mon ey</w>
ma king</w>
every thing</w>
as k</w>
v o
l an
c en
be come</w>
m is
ent ly</w>
ot s</w>
sm all</w>
ki ds</w>
h al
go vern
lo b
em s</w>
b us
read y</w>
m en</w>
sp ace</w>
o t</w>
st ri
num ber</w>
h ome</w>
desig n</w>
en ough</w>
g rou
in ess</w>
en ds</w>
s ing
tri es</w>
s ure</w>
fu ture</w>
On e</w>
b il
hi gh
te ly</w>
resp on
p le</w>
st er</w>
h ar
M y</w>
t or</w>
re e
secon d</w>
ab ility</w>
sen se</w>
p as
ve l</w>
we e
w at
for m
U n
it ing</w>
Afri c
z ing</w>
ge tting</w>
op p
buil ding</w>
o f
in es</w>
at h</w>
be st</w>
S he</w>
w ed</w>
s it
wh i
with out</w>
s ed</w>
qu ite</w>
fi ve</w>
se t</w>
d ge</w>
Th ese</w>
tic s</w>
an g
a k</w>
happen ed</w>
fo re
pl ac
stu d
h ard</w>
ar e
l es</w>
ener gy</w>
wh e
e qu
it al</w>
soci al</w>
i d
pre t
bo ok</w>
s on
l ed</w>
li ves</w>
ac r
cont ro
y oun
tal king</w>
to ld</w>
ph y
is m</w>
n er</w>
c are</w>
u t
le ft</w>
fo od</w>
e y
ar t</w>
coun tries</w>
ic s</w>
re ad</w>
re aliz
f ol
prob ably</w>
re la
at ely</w>
L et</w>
pi ec
w on
shi p</w>
g g
in di
pl ay</w>
b ro
in ed</w>
buil d</w>
m or
l and</w>
k en</w>
be au
uni ver
interest ing</w>
th ers</w>
acr oss</w>
mem ber</w>
b er
pret ty</w>
ac k
di c
bi o
fami ly</w>
d in
l on
e du
ta in</w>
ous ly</w>
ou se</w>
sa w</w>
g lob
ent al</w>
ca se</w>
2 0</w>
vir on
v en
lar s</w>
s uc
s uch</w>
par tic
any thing</w>
E ar
ha ving</w>
H ere</w>
dol lars</w>
hal f</w>
thou gh</w>
whi le</w>
stu ff</w>
sp eci
m ents</w>
c an
as ked</w>
mom ent</w>
el s</w>
e as
Wh y</w>
sci enti
5 0</w>
mo ve</w>
experi ence</w>
en viron
A n
el e
c ha
F or</w>
li ving</w>
w ard</w>
si ve</w>
se en</w>
Afric a</w>
in ce</w>
d ays</w>
sci ence</w>
si ons</w>
en e
A mer
v a
si mple</w>
he ad</w>
Amer ic
w as
gh ts</w>
d ra
happ en</w>
m en
youn g</w>
ma kes</w>
e ty</w>
sear ch</w>
di se
m ach
con nec
su pp
ot e</w>
wor ks</w>
N o</w>
comm uni
A s</w>
n or
in e
c le
to p</w>
om e
ch ar
ti s
h and</w>
o ver
e mp
happen s</w>
Ear th</w>
l ater</w>
p or
compu ter</w>
v is
thou s
sa ys</w>
ne t</w>
pro cess</w>
p op
enc es</w>
publi c</w>
el se</w>
ap s</w>
tur n</w>
al most</w>
heal th</w>
ic es</w>
ec ted</w>
ca r</w>
m ind</w>
in side</w>
m m
k ay</w>
u p
b ri
ev ol
lear n</w>
ch all
dis co
go es</w>
ir d</w>
of ten</w>
f ar</w>
In ter
cont in
a h</w>
hi gh</w>
c ra
c es</w>
m ul
de p
reas on</w>
N ew</w>
pic ture</w>
comm unity</w>
tr u
an ding</w>
i a</w>
c ent
organ iz
some one</w>
c ells</w>
or der</w>
sing le</w>
g ir
cl u
v ol
pro gra
pa ti
plan et</w>
fr on
en s</w>
loo ked</w>
sa ying</w>
ol s</w>
ste ad</w>
our s</w>
al ready</w>
A ll</w>
pl ay
proble ms</w>
bil lion</w>
no thing</w>
mar k
st er
pos sible</w>
k in
tu res</w>
M ar
y et</w>
pro ject</w>
p at
do c
s ity</w>
al lo
f un
cl as
mon ths</w>
ag es</w>
ur al</w>
vi de
a ff
i st
bot h</w>
my self</w>
whe ther</w>
f lo
1 ;</w>
&#9 1;</w>
hi story</w>
ans wer</w>
glob al</w>
di rec
3 ;</w>
&#9 3;</w>
In di
wor ds</w>
b ad</w>
re member</w>
u al</w>
i gh
os p
le ad
hop e</w>
ur y</w>
sol u
govern ment</w>
o c
e t
Ch in
ser v
is su
si on
ama zing</w>
ti l</w>
beau ti
p er</w>
imag ine</w>
on ce</w>
lan gu
mat ter</w>
di es</w>
A l
l ing</w>
with in</w>
r an
ke ep</w>
ac y</w>
l s</w>
chil d</w>
bus iness</w>
f il
or i
li es</w>
d ro
b ers</w>
ex c
hear d</w>
f er
ur ing</w>
ide as</w>
g n
t able</w>
wr ong</w>
op en</w>
ti ci
c anc
ti ce</w>
ve ly</w>
jo b</w>
f ra
li c
br ing</w>
Un ited</w>
e d
ge ts</w>
A m
ac tion</w>
u ro
loo ks</w>
incre di
grou p</w>
h und
wor d</w>
vi du
ni ght</w>
ap pro
o s</w>
bas ically</w>
mo ther</w>
0 s</w>
buil t</w>
c ess
b ly</w>
i cal</w>
indi vidu
3 0</w>
op er
mat eri
0 ,000</w>
ir e</w>
G o
ta tion</w>
t ors</w>
j u
at t
ph ot
ma s
won der
piec e</w>
was n</w>
tiv ity</w>
fi c</w>
tr ue</w>
h y
M us
plac es</w>
o grap
ch e
b lo
si x</w>
per son
pro f
beauti ful</w>
gu y</w>
ri s
st re
ap e</w>
und er</w>
un til</w>
stor ies</w>
ic k
du ce</w>
t in
h ouse</w>
d ru
in ing</w>
nat ure</w>
an im
fri ends</w>
T E
A r
er ing</w>
ta king</w>
f el
canc er</w>
ca ted</w>
t on</w>
is n</w>
n am
fi g
contro l</w>
. .</w>
ph one</w>
our selves</w>
lear ned</w>
k new</w>
ar ti
vi ew</w>
the m
ful ly</w>
E n
. ..</w>
c op
sh ed</w>
wom an</w>
sti tu
ac tly</w>
deci ded</w>
P e
cul ture</w>
be came</w>
spec ies</w>
h er
re search</w>
edu cation</w>
St ates</w>
stu dy</w>
mus ic</w>
tr an
na me</w>
b ar
ru n</w>
re co
do m</w>
pos i
e -
cou ple</w>
le vel</w>
i on</w>
j ects</w>
sh are</w>
in st</w>
Inter net</w>
comple tely</w>
soci ety</w>
gr ound</w>
ne t
in no
de l</w>
ul ation</w>
ch ing</w>
20 0
m ic
happen ing</w>
ex actly</w>
vide o</w>
t un
m ust</w>
U .
a w
he ar</w>
dd le</w>
p ol
aga inst</w>
ac c
li st
fron t</w>
sto p</w>
ou th</w>
st ems</w>
oun ds</w>
them selves</w>
it self</w>
hear t</w>
li ons</w>
s li
re qu
r un
langu age</w>
enti al</w>
comp any</w>
cl os
a tive</w>
s ince</w>
me as
ec tive</w>
dise ase</w>
ques tions</w>
in ning</w>
in k</w>
ap er</w>
na tional</w>
k ers</w>
c lim
ar ch
some times</w>
fi el
Americ a</w>
u r</w>
f -
f und
k er</w>
every body</w>
ar ly</w>
lit er
be ha
sh ar
tu al</w>
h ours</w>
mo del</w>
wor ked</w>
t om
ec tion</w>
L i
opp ort
pl es</w>
cre ated</w>
s h</w>
us es</w>
p ast</w>
kin ds</w>
ver ed</w>
con si
ap pe
anim als</w>
some body</w>
pr in
col le
ch ed</w>
si mp
p ul
struc ture</w>
st ra
re li
ra ther</w>
diff ic
po wer
n er
kno wn</w>
in stead</w>
t yp
t -
con ver
o thers</w>
logi cal</w>
en ing</w>
an ts</w>
Am eri
hu ge</w>
beha vi
lar ge</w>
tur ns</w>
i se</w>
d ec
a ir</w>
ou ldn</w>
f ar
comp an
cep t</w>
cent ury</w>
every one</w>
u es</w>
in du
i ve</w>
s ound</w>
bas ed</w>
h aps</w>
st ed</w>
o ce
cou ldn</w>
ad v
1 00</w>
ut es</w>
c le</w>
j our
Y or
univer se</w>
eng ine
de v
thous ands</w>
c ir
st ate</w>
gre s
ell ing</w>
bl ack</w>
b ed</w>
Ameri can</w>
h or
fo c
s is</w>
stud ents</w>
st ance</w>
lear ning</w>
ic k</w>
er y</w>
pro vi
rela tion
str y</w>
al ong</w>
par ents</w>
le ast</w>
de mo
d ar
am oun
E uro
p ot
en ted</w>
environ ment</w>
war ds</w>
v ari
fa ther</w>
tur ned</w>
R e
st ing</w>
d ent</w>
O kay</w>
partic ular</w>
p e</w>
sy stems</w>
at s</w>
re si
ro w</w>
fig ure</w>
an t
rec or
chang ed</w>
tic ally</w>
ear ly</w>
b ab
Indi a</w>
w in
s or
th y</w>
di g
ta ken</w>
ga ve</w>
b ur
c ell</w>
vi ol
w ar</w>
ne ws</w>
happ y</w>
l ots</w>
k ey</w>
G od</w>
re st</w>
min utes</w>
sc ale</w>
d r
enti re</w>
or din
h ind</w>
at ure</w>
Th en</w>
C on
mach ine</w>
ci ties</w>
bre a
O h</w>
1 5</w>
o od</w>
e mo
w on</w>
si ze</w>
out side</w>
ta in
n on
nat ural</w>
ex t</w>
see ing</w>
m ess
compan ies</w>
res s</w>
f ish</w>
re ality</w>
ca te</w>
p le
d -
un ch</w>
p ur
id enti
f ree</w>
sel f-
i ther</w>
O K</w>
differ ence</w>
diffic ult</w>
ma j
y -
ta kes</w>
gi ven</w>
cl ose</w>
O r</w>
fri end</w>
fe el
be hind</w>
s our
nee ded</w>
m ental</w>
lea ve</w>
c k
ul es</w>
te am</w>
kno w
vi sion</w>
at or</w>
bo o
beg inning</w>
se qu
mo v
ma l</w>
TE D</w>
s cre
di ence</w>
mo ving</w>
b ility</w>
elec tri
fin ally</w>
Yor k</w>
re l
ma g
ra di
k ill
enc y</w>
d ers</w>
an ti
tr ac
par ts</w>
n ers</w>
ex pla
a ir
re gi
A f
t est</w>
wal k</w>
wh at
nee ds</w>
t ou
ey es</w>
beg an</w>
A u
per f
pat ter
p t</w>
eas y</w>
ti vely</w>
th ird</w>
di ed</w>
c y
per haps</w>
T o
de fin
ver age</w>
b loo
mo d
mi ddle</w>
in clu
gu ys</w>
phy s
y our
gro w
econom ic</w>
d uring</w>
ch em
ter ms</w>
re g
pri v
mark et</w>
ex tre
cur r
F r
pop ulation</w>
realiz ed</w>
re pres
de li
te ach
h on
fiel d</w>
c al
are a</w>
an ci
ab or
N or
le g
ima ge</w>
d ence</w>
your self</w>
gro w</w>
phy si
ne y</w>
con f
qu ick
h ol
sur vi
sur pri
b ir
at ten
as es</w>
Chin a</w>
inno v
bor n</w>
power ful</w>
lon ger</w>
pos ed</w>
a i
I s
lo cal</w>
it h</w>
cer tain</w>
wee k</w>
simp ly</w>
fel t</w>
f ic
de ca
comm on</w>
c os
Y e
D o</w>
phot ograp
can not</w>
h ands</w>
ex pl
car e
w ers</w>
li g
N A</w>
A t</w>
par t
amoun t</w>
wonder ful</w>
fl u
know le
d en</w>
T o</w>
inv ol
poli tical</w>
L o
c ost</w>
sp end</w>
in f
grow th</w>
en ge</w>
ab solu
se ven</w>
hum ans</w>
an tly</w>
a ds</w>
pre dic
medi a</w>
des cri
S .</w>
ver sity</w>
at e
g one</w>
g ed</w>
pr ac
l ost</w>
e ts</w>
S ome</w>
t elling</w>
b an
ac ter
e vi
de ath</w>
s ha
li ke
p sy
chang es</w>
O ur</w>
ul ts</w>
su m
con di
c y</w>
quick ly</w>
res our
chall enge</w>
arch it
Pe ople</w>
t ot
m et</w>
an ima
su per
sp ent</w>
hum an
de al</w>
iz e</w>
fun c
z ed</w>
wr it
ob vi
as tic</w>
on d</w>
c li
gr and
what ever</w>
u res</w>
o -
ne ur
tri ed</w>
s il
in i
ful l</w>
wee ks</w>
ga me</w>
in sp
ho ld</w>
Ye ah</w>
W or
p ay</w>
logi es</w>
th re
o ds</w>
mo vi
t ro
fi ed</w>
rou ght</w>
li sh</w>
in c
hel p
L e
opport unity</w>
hund re
al one</w>
sit ting</w>
interest ed</w>
ste p</w>
b ack
boo ks</w>
tra di
s qu
reli gi
pos si
ne igh
fa il
di e</w>
J o
sur face</w>
o g
e ither</w>
4 0</w>
wr ite</w>
fol lo
I s</w>
em er
im pro
f ly</w>
d ly</w>
clim ate</w>
U. S.</w>
val ue</w>
econom y</w>
mic ro
M o
physi cal</w>
i li
ci vi
in stitu
es p
ac e
ing ly</w>
gro wing</w>
gi ving</w>
cle ar</w>
for ward</w>
pati ents</w>
p aper</w>
an al
C A</w>
re le
m os
oce an</w>
Mus ic</w>
d en
D NA</w>
underst anding</w>
conver sa
qu e</w>
in ation</w>
po in
Y es</w>
wh ite</w>
s mar
s ite</w>
f as
w ouldn</w>
u ght</w>
po or</w>
progra m</w>
or ig
ho od</w>
el lig
ri ed</w>
o il</w>
lo g
behavi or</w>
M a
sit u
sho ws</w>
me an
comple x</w>
ca mer
S u
J ust</w>
m ol
knowle dge</w>
bu y</w>
ac cess</w>
spe ak</w>
pre ci
per i
ig n</w>
or ies</w>
con sci
as h
ris k</w>
mul ti
for ce</w>
e ight</w>
enti ally</w>
reco gn
fund am
chang ing</w>
st age</w>
num bers</w>
hundre ds</w>
en ding</w>
per form
o d
ca tions</w>
bloo d</w>
like ly</w>
a verage</w>
scienti sts</w>
cl es</w>
techno logies</w>
su ff
spe a
com b
year -
materi al</w>
gir l</w>
gg est</w>
ab o
O n</w>
vo ice</w>
ordin ary</w>
ch es</w>
b rought</w>
b ene
fe et</w>
b a
N ot</w>
us h</w>
t em
si mil
mor ning</w>
g ing</w>
are as</w>
develop ed</w>
d om
pl ant</w>
man ag
m al
incredi ble</w>
for tun
fa v
ro bo
x i
t es</w>
mil es</w>
in ve
lo w
liter ally</w>
i red</w>
feel ing</w>
realiz e</w>
person al</w>
int ellig
in ten
uc k</w>
f ur
com pe
P ar
se ems</w>
pro duce</w>
c ut</w>
mil lions</w>
em ents</w>
u te</w>
to ols</w>
t ar
car b
as s</w>
su dd
s eri
n al</w>
imag es</w>
fe ar</w>
f y</w>
S e
atten tion</w>
R ight</w>
vi e
su sta
o p</w>
comp li
G re
ti z
st ro
va il
re p
m ine</w>
ex am
N o
individu al</w>
g ar
pr om
to m</w>
p an
gre en</w>
ill s</w>
tur al</w>
m ale</w>
g ger</w>
f ree
car s</w>
c ro
ac hi
star ting</w>
re ly</w>
a x
tran sp
mov ement</w>
issu e</w>
gener ation</w>
gen e
anc es</w>
sol ve</w>
se ver
res ult</w>
net work</w>
f it</w>
am es</w>
supp ort</w>
he ad
gres s</w>
er ed</w>
h osp
anima l</w>
H a
wr ote</w>
st e</w>
e f</w>
di st
f ast</w>
evol ution</w>
1 2</w>
mo ved</w>
g est</w>
bl ue</w>
ver s</w>
r ate</w>
m ing</w>
chall eng
bo x</w>
in st
di sc
for ms</w>
d ou
L a
z y</w>
c ks</w>
al low</w>
au th
te mp
mol ec
mo der
mi c</w>
disco vered</w>
cre ating</w>
as king</w>
a vail
wat ch</w>
i sts</w>
desig ned</w>
d ings</w>
re vol
cer tain
u ally</w>
eas i
M ay
n y</w>
la w</w>
k id</w>
ech an
En g
ul arly</w>
ter ri
C an</w>
pa in
k y</w>
dig ital</w>
am s</w>
op en
mar ke
absolu tely</w>
run ning</w>
e at</w>
so on</w>
gi ves</w>
compu ters</w>
1 1</w>
rec ently</w>
l ess
ex ist
ec h</w>
ch i
tin y</w>
tici p
il s</w>
develop ment</w>
ur ity</w>
sol ution</w>
suc cess
nor mal</w>
de ep
any one</w>
t y
f ine</w>
con v
ar s</w>
all s</w>
the ma
gir ls</w>
Euro pe</w>
shi ps</w>
grou ps</w>
n ice</w>
ex pres
indu stry</w>
develop ing</w>
bo ard</w>
th ro
li ved</w>
b al
avail able</w>
E very
A c
y es</w>
sour ce</w>
au dience</w>
or ity</w>
bot tom</w>
st and</w>
chan ce</w>
tre at
sh ort</w>
de gre
medi c
h and
en ded</w>
connec ted</w>
cen ter</w>
v ill
ter m</w>
s le
pu tting</w>
m a</w>
in s
de ep</w>
dep end
reas ons</w>
U ni
relation ship</w>
me et</w>
cho ice</w>
y ond</w>
sa ve</w>
innov ation</w>
ex tra
b ul
S ome
sho wed</w>
l in
incre as
esp eci
especi ally</w>
typ e</w>
produc t</w>
b all</w>
6 0</w>
us h
m echan
clas s</w>
the ory</w>
str on
medi cal</w>
me t
la b</w>
ec ting</w>
ce i
h om
experi ment</w>
con struc
col or</w>
viol ence</w>
ti ves</w>
see m</w>
se a</w>
pati ent</w>
a tional</w>
plan ts</w>
ou ght</w>
z er
Wor ld</w>
D e
issu es</w>
appro ach</w>
ca mp
g en</w>
play ing</w>
on line</w>
imp act</w>
comp as
beg in</w>
tal ked</w>
s end</w>
maj or</w>
fil m</w>
be comes</w>
year- old</w>
g es</w>
b at
ma p</w>
dar k</w>
bre ak</w>
simil ar</w>
se x</w>
oun d
l ate</w>
ey e</w>
con cer
tru th</w>
su p
resour ces</w>
r an</w>
F ir
nec ess
ma thema
l ines</w>
sm all
om s</w>
m oun
ci tiz
dri ve</w>
demo cr
beli ev
B y</w>
ma in</w>
fav or
communi ties</w>
C om
19 9
tri bu
to wards</w>
c lo
wor th</w>
sever al</w>
s tic
r it
foc us</w>
Eng lish</w>
fu n</w>
di ag
co de</w>
ec ture</w>
read ing</w>
pr os
gi c</w>
be yond</w>
at ors</w>
incredi bly</w>
gre at
eff ect</w>
b s</w>
ac coun
uc le
tech ni
so f
ra is
mis sion</w>
ha ven</w>
carb on</w>
bab y</w>
st and
wr iting</w>
eff ici
Fir st</w>
str ong</w>
sh ape</w>
tr ust</w>
st ay</w>
dru gs</w>
dev ice</w>
b acter
anal y
ad d
ac i
Go og
th ank</w>
ro ad</w>
pot ential</w>
er ci
speci al</w>
s ounds</w>
S outh</w>
exper im
t op
s ent</w>
h our</w>
ar en</w>
h un
expla in</w>
ev en
ni fic
com for
N e
co ol</w>
aliz ed</w>
mess age</w>
invol ved</w>
evi dence</w>
bi gger</w>
on to</w>
ch ec
re ach</w>
pro cess
m u
Goog le</w>
r .</w>
perf ect</w>
in al</w>
do or</w>
us ion</w>
int ro
gu e</w>
stre et</w>
n u
imp os
dru g</w>
sy m
per spec
me ly</w>
fore st</w>
bas ic</w>
str an
sec urity</w>
jour ney</w>
di men
de ed</w>
a v
tr al</w>
pp ed</w>
gu ess</w>
May be</w>
E very</w>
si a</w>
r ules</w>
partic ularly</w>
wal king</w>
situ ation</w>
sec re
ri ghts</w>
pic tures</w>
o w
susta in
sol ar</w>
pic k</w>
n ucle
movi e</w>
kno ws</w>
de t
char ac
p en
l y
di stri
to wn</w>
dre am</w>
de ta
sho wing</w>
psy cho
meas ure</w>
m ed</w>
h it</w>
en ly</w>
0 -
tre es</w>
t ele
g ot
o re
c ed</w>
Jo h
prin ci
ac tive</w>
sion al</w>
qu ality</w>
mon th</w>
moder n</w>
h y</w>
sy n
pres ent</w>
li fe
le ad</w>
l and
conf lic
con n
Mar s</w>
w ish</w>
te ach</w>
sa fe</w>
non -
i tion</w>
r ap
b it
ar ed</w>
B i
high -
exam ples</w>
b es</w>
Wh ere</w>
2 5</w>
sh ing</w>
lead ers</w>
c lear
P ro
n os
iz ed</w>
de ad</w>
t on
fer ence</w>
devel op</w>
st anding</w>
n ar
li st</w>
or d</w>
ob s</w>
star ts</w>
res ults</w>
emp lo
app li
w all</w>
um ent</w>
suc cess</w>
posi tion</w>
any body</w>
gre w</w>
en ter
scho ols</w>
o es</w>
lar gest</w>
conversa tion</w>
colle ag
an ks</w>
al th</w>
8 0</w>
pro per
cl in
camer a</w>
t ree</w>
sp ir
robo t</w>
f le
certain ly</w>
bi ggest</w>
b an</w>
de ter
cre ative</w>
scienti fic</w>
f all</w>
contin ue</w>
Af ter</w>
n ine</w>
d y
cho ose</w>
am ong</w>
ro le</w>
hund red</w>
fami lies</w>
ca t
as h</w>
gra du
ex tr
s al
respon se</w>
high er</w>
en sive</w>
G e
wan ts</w>
tw are</w>
spe ed</w>
fi ght</w>
fir e</w>
favor ite</w>
f er</w>
democr acy</w>
se x
w in</w>
t end</w>
stud ent</w>
r ing</w>
ob jects</w>
extra ordinary</w>
exc iting</w>
buil dings</w>
medic ine</w>
B ra
s it</w>
P h
sof tware</w>
pa in</w>
nam ed</w>
list en</w>
im medi
equ i
colle ge</w>
ac ks</w>
O f</w>
wi fe</w>
off ice</w>
cra zy</w>
c in
scre en</w>
individu als</w>
do w
ac tions</w>
E ven</w>
li z
wor l
str ate
po ver
on y</w>
me ant</w>
de b
inclu ding</w>
ill ing</w>
h an
g ri
com par
ag ing</w>
st at
pro jects</w>
pover ty</w>
par ticip
min ute</w>
j us
it ary</w>
fur ther</w>
fa ster</w>
ar ds</w>
Lo ok</w>
D on</w>
se par
o kay</w>
every where</w>
a vi
pl an</w>
peri od</w>
materi als</w>
coll abor
bo dies</w>
ac tivity</w>
Wh o</w>
ob ject</w>
mas s</w>
bo y</w>
T a
B o
st ers</w>
mach ines</w>
m ous</w>
G er
perspec tive</w>
fortun ately</w>
ad d</w>
p ay
mod els</w>
de pres
sk in</w>
sho wn</w>
mem ory</w>
at ures</w>
y ed</w>
tot ally</w>
success ful</w>
st ore</w>
sk y</w>
j obs</w>
ear s</w>
fin ding</w>
C ar
tim ate</w>
sc en
fundam ental</w>
elec tr
S i
su g
s ou
ru p
er ous</w>
To day</w>
J ap
E x
B ri
wat ching</w>
w ind</w>
no tice</w>
intellig ence</w>
i an</w>
g al
even tually</w>
bi le</w>
an n
M e
H ar
lo ved</w>
ga in</w>
con sum
ac her</w>
M ost</w>
su mm
o logy</w>
l ose</w>
incre ase</w>
form ed</w>
de m
compas sion</w>
M ic
C o
r os
prot ect</w>
me th
li gh
is ms</w>
d ang
ca ses</w>
V ide
T w
D i
ta ught</w>
sig nific
osp here</w>
li ar</w>
le y</w>
al ing</w>
Vide o</w>
vel s</w>
to ol</w>
serv ice</w>
sc ri
piec es</w>
obvi ously</w>
neigh bor
l l
ing ing</w>
gen es</w>
Chin ese</w>
str u
produc ts</w>
p ose</w>
no body</w>
ex ist</w>
des er
we ver</w>
prof es
l ay
ess entially</w>
d on
cri sis</w>
tem per
ma in
wor se</w>
ver se</w>
lo wer</w>
kill ed</w>
doc tor</w>
allo wed</w>
C ol
ri es</w>
organiz ation</w>
con st
w il
ro r</w>
r om
B u
sp o
ri ch</w>
m ot
ear li
vill age</w>
t ells</w>
speci fic</w>
ran ge</w>
inter est</w>
go al</w>
compli cated</w>
sup posed</w>
s l
oun ded</w>
ol der</w>
W ith</w>
M i
Americ ans</w>
us ually</w>
um p</w>
ther e
sp ac
smar t</w>
jo y</w>
fol low</w>
exc ited</w>
o x
a th
Nor th</w>
5 00</w>
sho t</w>
sh e
nucle ar</w>
in te
extre mely</w>
wi de</w>
tradi tional</w>
some where</w>
s un
posi tive</w>
allo ws</w>
o h</w>
leg al</w>
heal thy</w>
gener al</w>
g as</w>
condi tions</w>
vi sible</w>
treat ment</w>
pro gress</w>
min ds</w>
ci es</w>
inter national</w>
g er
fin anci
fi gu
bacter ia</w>
abo ve</w>
ter r
recor d</w>
ke pt</w>
hosp ital</w>
f ru
H e
qu i
e th
bio logy</w>
a in</w>
Th ose</w>
wa it</w>
w ood</w>
is tic</w>
contin u
S h
H o
sudd enly</w>
su n</w>
recogn ize</w>
institu tions</w>
b unch</w>
teach ers</w>
st opp
ou d</w>
exp ect</w>
electri city</w>
archit ecture</w>
we b
ma tic</w>
logi sts</w>
in flu
i al</w>
f ant
cont ext</w>
ari ly</w>
writ ten</w>
throu gh
thous and</w>
far m
distri bu
disc us
conn ect</w>
b om
P er
tra vel</w>
sp read</w>
patter n</w>
star s</w>
st om
patter ns</w>
ni a</w>
hi c</w>
fo ot</w>
W i
S a
z z
tru ly</w>
t a</w>
ra tion</w>
produc tion</w>
lar ger</w>
e ma
e ful</w>
b ing</w>
H I
sh ap
poli ce</w>
in come</w>
fam ous</w>
ach ed</w>
wor kers</w>
wi se</w>
ver sion</w>
te acher</w>
impos sible</w>
cul tural</w>
priv ate</w>
m ent
con tribu
Afri can</w>
revol ution</w>
ph ones</w>
en ter</w>
deci sions</w>
W est</w>
2 00</w>
se em
in deed</w>
gh tly</w>
gene tic</w>
free dom</w>
ici al</w>
govern ments</w>
ep ing</w>
eff ective</w>
compe ti
wa ste</w>
plan e</w>
bra ins</w>
ar ri
S o
ous ness</w>
exp ensive</w>
deca des</w>
R i
Ch ri
tion ary</w>
ti tu
ir s</w>
exp lo
ar m</w>
si bility</w>
ph en
or ts</w>
on ic</w>
got ten</w>
as p
al ism</w>
1 8</w>
w ell
tra ining</w>
some how</w>
poin ts</w>
ph il
enc ed</w>
dow n
b and</w>
an e</w>
A re</w>
1 0
sor ts</w>
s ong</w>
pol l
ne w
ili ties</w>
hi m
g ames</w>
au tom
provi de</w>
great est</w>
e ting</w>
ur s</w>
su mp
solu tions</w>
re fl
g -
vis ual</w>
v ic
up on</w>
mean ing</w>
indu stri
consi der</w>
bot s</w>
any more</w>
a p</w>
seri ous</w>
ser ies</w>
r en
mor al</w>
m ir
engine ering</w>
dri ving</w>
s mo
neur ons</w>
in si
i shed</w>
cri tical</w>
re por
re cei
human ity</w>
fo ot
flo or</w>
der ed</w>
d aughter</w>
tou ch</w>
en or
e ties</w>
ali ve</w>
s wi
p age</w>
organiz ations</w>
no tic
be ings</w>
be coming</w>
ad ap
t an
f our
cap ital</w>
I mag
- year-old</w>
wer en</w>
ther ap
stu dies</w>
serv ices</w>
mil itary</w>
challeng es</w>
C ity</w>
we a
tu m
secon ds</w>
poli cy</w>
mas sive</w>
happ iness</w>
cre a
T V</w>
t ory</w>
small er</w>
relation ships</w>
ho t</w>
di versity</w>
tr ou
financi al</w>
e m</w>
dise ases</w>
comple te</w>
co ld</w>
citiz ens</w>
ar r
ac tual</w>
won der</w>
um ents</w>
prot e
op s</w>
om en
dang erous</w>
ro bots</w>
ple ase</w>
la ws</w>
cal cul
as ed</w>
1 8
sti c</w>
re mark
r is</w>
me ters</w>
est er
deci sion</w>
de f
d ow</w>
b its</w>
any where</w>
J u
m it
gal ax
g ent
diag nos
con sequ
ac ting</w>
P o
v al</w>
sig n
him self</w>
fas cin
es ti
cos ts</w>
to -
ther n</w>
sk ills</w>
al ter
ag ed</w>
st y
spea king</w>
ri se</w>
pres sure</w>
pres s</w>
ou ra
log ist</w>
li ghts</w>
g ni
tre at</w>
regi on</w>
it ation</w>
earli er</w>
doc tors</w>
clear ly</w>
al g
M on
s us
phen omen
con cept</w>
poli tics</w>
man u
h ic
tra in</w>
sub ject</w>
shar ed</w>
perform ance</w>
ox y
jus tice</w>
eri a</w>
cu ri
cep tion</w>
as s
ac ity</w>
a mp
wa iting</w>
cop e</w>
as se
w o
un e</w>
immedi ately</w>
fac es</w>
curr ent</w>
L on
val ues</w>
ti n</w>
s low</w>
d ance</w>
aw are</w>
S te
wal ked</w>
r ace</w>
par a
n ot
k ill</w>
deca de</w>
Imag ine</w>
vir us</w>
ot h</w>
h ous
aliz ation</w>
HI V</w>
C an
tw o-
through out</w>
h ur
colleag ues</w>
cle an</w>
R o
v acc
t or
mo bile</w>
Wh ich</w>
W ar</w>
7 0</w>
jour n
fe ed</w>
anc ed</w>
S A</w>
Li ke</w>
uni que</w>
s we
pri ce</w>
inve st
equ ality</w>
direc tion</w>
S p
th ree
list ening</w>
fami liar</w>
ess es</w>
en ting</w>
do g</w>
ac ci
underst ood</w>
s ch
pa ir</w>
op h
ini ti
follo wing</w>
care er</w>
af ter
a ster
tis su
on e-
le -
l ab
i res</w>
f its</w>
eng th</w>
conflic t</w>
beau ty</w>
W e
th i
si mul
rec ent</w>
re sear
l led</w>
f low</w>
er e
c ele
Uni versity</w>
J e
we ight</w>
w illing</w>
sustain able</w>
li ber
le vels</w>
in fra
gre ater</w>
tion ed</w>
there fore</w>
pp ing</w>
ori th
in a</w>
fin al</w>
ar g
ve hic
s -
mi sta
land sc
A d
ye ah</w>
wor k
typ es</w>
s at
func tion</w>
at ory</w>
alg orith
E ast</w>
Ch ris</w>
the tic</w>
phys ics</w>
l uc
for th</w>
depend ent</w>
wh ose</w>
sig n</w>
experi ences</w>
cap it
tra vel
r ot
qu ar
le gs</w>
expl or
enc oura
connec tion</w>
H u
vari ous</w>
t ext</w>
soci eties</w>
m es</w>
cho ices</w>
ur ban</w>
s ell</w>
ra id</w>
oc cu
hi stor
comfor table</w>
ac ked</w>
well -
t ex
no ther</w>
j a
di vi
d ama
con ven
1 4</w>
st ree
inv ented</w>
ec tively</w>
c ked</w>
rel ated</w>
progra ms</w>
mo m</w>
fe male</w>
f re
e e</w>
comm it
ac ts</w>
S y
A nother</w>
t t
s ent
manu fac
in str
appe ar</w>
5 ,000</w>
19 8
wor st</w>
ta tions</w>
st ress</w>
ra ise</w>
pul l</w>
ma gic</w>
li e</w>
l os
g gl
fant astic</w>
er a</w>
deci de</w>
d ying</w>
d ness</w>
anc y</w>
In stead</w>
ta ins</w>
sy mp
pe di
p ath</w>
cr os
ab les</w>
S econ
Joh n</w>
stran ge</w>
religi on</w>
mat h</w>
environ mental</w>
direc tly</w>
cont ent</w>
communi cate</w>
a head</w>
M any</w>
stopp ed</w>
st ation</w>
pr int</w>
help ed</w>
gen e</w>
fa ir
e um</w>
cor por
co ver</w>
bri dge</w>
a di
we alth</w>
us eful</w>
tr ack</w>
notic ed</w>
ne ar</w>
mem bers</w>
ex cept</w>
Lon don</w>
prac tice</w>
l u
em br
d a</w>
any way</w>
al though</w>
af raid</w>
add ress</w>
pe ace</w>
m osphere</w>
l li
in stance</w>
en ess</w>
consci ousness</w>
a id</w>
F rom</w>
summ er</w>
pre par
plan ets</w>
l ar</w>
infra structure</w>
fl ying</w>
exp ected</w>
d ate</w>
arti st</w>
ag ree</w>
P a
teach ing</w>
sen s
ri c</w>
re pe
pa id</w>
l ack</w>
e ding</w>
de mon
at mosphere</w>
ad di
we ap
publi shed</w>
pr ene
pi cal</w>
mos tly</w>
k il
g ate</w>
enor mous</w>
effici ent</w>
cor rec
bir th</w>
as soci
W ester
zer o</w>
marke ts</w>
an k
ag ri
us i
terri ble</w>
temper ature</w>
stree ts</w>
l ands</w>
impro ve</w>
de stro
C ali
re duc
f ying</w>
a vo
R us
ter ed</w>
en ch</w>
con tr
con fi
clos er</w>
F ace
seem ed</w>
l ying</w>
high ly</w>
g ery</w>
fi gh
el lit
dev ices</w>
am bi
Tw o</w>
Cali for
tu red</w>
three -
su s</w>
sa fe
pl at
pl astic</w>
par ty</w>
me eting</w>
ill ed</w>
ac tiv
N ational</w>
tur ning</w>
s wit
ph o
insp ired</w>
ent re
bi li
app ed</w>
al ist</w>
achi ev
K en
w is
tim ately</w>
play ed</w>
mi le</w>
experim ents</w>
entre prene
dol lar</w>
cap acity</w>
camp a
ca uses</w>
ac cep
An y
y a</w>
tra ff
tis m</w>
p ush
it es</w>
for get</w>
fe els</w>
ev ent</w>
eff ects</w>
secre t</w>
remark able</w>
m it</w>
ho le</w>
fu el</w>
f la
en tation</w>
dra w</w>
ari a</w>
ter y</w>
survi ve</w>
struc tures</w>
n ur
expl ore</w>
disco ver</w>
ap art</w>
ali a</w>
Face book</w>
signific ant</w>
pri son</w>
p ush</w>
obvi ous</w>
net works</w>
ne arly</w>
hel d</w>
communi cation</w>
anci ent</w>
Y our</w>
Califor nia</w>
1 6</w>
sat ellit
photograp h
os y
me ter</w>
be es</w>
am a</w>
ab ilities</w>
Ta ke</w>
D r.</w>
w el
shar ing</w>
n ation</w>
mm ing</w>
l er</w>
inte gr
h us
bro ken</w>
b one</w>
and a</w>
Bra z
A b
x es</w>
squ are</w>
ot ing</w>
ess ed</w>
em is
bio logical</w>
B ro
man i
con duc
comm erci
car ry</w>
att ack</w>
W om
st ates</w>
st ar</w>
pur pose</w>
produc ed</w>
min i
il ing</w>
c ore</w>
M an</w>
we b</w>
tre m
terr or
sug ge
stre am</w>
sle ep</w>
s at</w>
ound ation</w>
ex ten
cu stom
1 ,000</w>
web site</w>
m el
f os
desig ners</w>
crea tivity</w>
chil d
ag re
T i
spe ech</w>
sli de</w>
scienti st</w>
des p
degre es</w>
charac ter</w>
achi eve</w>
Th ink</w>
9 0</w>
sur r
sli ghtly</w>
mo tiv
lon g-
ist an</w>
di a
v ul
te en
orig inal</w>
emo tional</w>
dro p</w>
di o</w>
clas s
br inging</w>
wor ry</w>
stic k</w>
st -
respon sibility</w>
re -
easi ly</w>
dd en</w>
cri min
chem ical</w>
al -
shi ft</w>
possi bly</w>
pas sed</w>
par ti
op pos
cro w
Euro pe
C hi
Af gh
vic ti
re ma
help ing</w>
he at</w>
d ad</w>
cor ner</w>
ck et</w>
ach es</w>
w ear
tis h</w>
tele vision</w>
ru le</w>
m p</w>
kno wing</w>
for ces</w>
f ab
bas is</w>
z o
resear ch
j ec
intro duc
hear ing</w>
fas hi
ver ing</w>
ot yp
mat ters</w>
lo ad</w>
import antly</w>
e ating</w>
dy nam
differ ently</w>
G u
stand ard</w>
re duce</w>
pas sion</w>
neigh b
kil ome
jo in</w>
eng age</w>
cen tral</w>
be low</w>
ans wers</w>
tu m</w>
t al</w>
stra ight</w>
b ought</w>
ali ties</w>
Wester n</w>
x ed</w>
un g</w>
sur gery</w>
ra in</w>
ha ir</w>
gi ant</w>
differ ences</w>
ad y</w>
Gre at</w>
radi o</w>
photograp h</w>
necess ary</w>
mis sing</w>
extr a</w>
bab ies</w>
ar t
ai m</w>
A I
tw ice</w>
trou ble</w>
sump tion</w>
r ying</w>
pre v
pre si
lead ing</w>
desp ite</w>
cele br
Au str
stor s</w>
pop ular</w>
le t
la un
b ble</w>
app ly</w>
V i
B er
moun tain</w>
il ed</w>
evol ved</w>
enti rely</w>
co ff
avi d</w>
H ey</w>
Afgh an
sty le</w>
res ol
phil os
n a</w>
defin ition</w>
comp on
bu t
bl ind</w>
ac ti
Afghan istan</w>
sp ending</w>
na tive</w>
gu n</w>
gen ome</w>
fin ished</w>
fi x</w>
c ot
bo ys</w>
Ch ar
1 3</w>
val u
s al</w>
religi ous</w>
rais ed</w>
p al
n one</w>
mom ents</w>
in tu
foc used</w>
easi er</w>
b la
R a
vis it</w>
tur ing</w>
su me</w>
pas s</w>
o ther
maj ority</w>
low -
l a</w>
har d
ent ally</w>
ari an</w>
an g</w>
ach ing</w>
O r
H is</w>
tran si
tot al</w>
t ask</w>
supp ly</w>
ser ve</w>
landsc ape</w>
ing ton</w>
h ot
fun ny</w>
descri be</w>
degre e</w>
consci ous</w>
ar ies</w>
an z
an ger</w>
Th e
O b
Mus li
trem end
ro ck</w>
ri ver</w>
respon d</w>
qu ick</w>
organ isms</w>
neighbor hood</w>
invest ment</w>
bal ance</w>
z en</w>
x ity</w>
ti l
ro oms</w>
rep ort</w>
identi ty</w>
fi cation</w>
er ship</w>
en ed</w>
ema il</w>
el ess</w>
aliz e</w>
uni ties</w>
tici ans</w>
re turn</w>
re fu
pri mar
plac ed</w>
farm ers</w>
d ents</w>
Is ra
2 ,000</w>
si des</w>
s ick</w>
pain ting</w>
gl ass</w>
din os
cre ates</w>
coll ective</w>
M an
19 7
z ine</w>
ple as
meas u
ec u
R ic
I ra
trans l
tion ally</w>
opport unities</w>
off er</w>
ne ga
gr y</w>
es sion</w>
emp o
call s</w>
bl ing</w>
Jap an</w>
we ar</w>
rou gh
no tion</w>
l ling</w>
l am
iz ation</w>
gra de</w>
f all
cy cle</w>
comple xity</w>
arti sts</w>
ac cur
Th anks</w>
C am
3 00</w>
vol un
us ual</w>
stud ying</w>
oppos ite</w>
n an
la w
imag ination</w>
dom in
deter min
and -
Q u
1 .
s la
molec ules</w>
gra v
fore ver</w>
di stance</w>
clas si
civi liz
bus in
ap h
O ver</w>
1 0,000</w>
st uck</w>
nu tri
figu red</w>
des ire</w>
depres sion</w>
civi l</w>
c ell
believ ed</w>
an ce
Europe an</w>
D avid</w>
strate gy</w>
ke ts</w>
it ely</w>
g ly</w>
exp ec
dou b
di sa
c um
D P</w>
va tive</w>
suff ering</w>
lim ited</w>
chec k</w>
ap preci
a -
M ex
w alls</w>
tissu e</w>
ne l</w>
ma ga
in ci
hy dro
ear th</w>
bene fits</w>
vir tual</w>
respon sible</w>
r ac
oper ation</w>
l oss</w>
im m
fail ure</w>
f icial</w>
f ically</w>
c o</w>
ali sts</w>
ad a</w>
T ur
F in
3 D</w>
transp or
s y</w>
lead ership</w>
ce ive</w>
bu d
be l</w>
ar tic
C O
Ac tually</w>
win dow</w>
u tionary</w>
su it</w>
so il</w>
sit es</w>
pre vi
oxy gen</w>
nar ra
le tter</w>
l at
engine ers</w>
br ings</w>
bl ed</w>
bil lions</w>
a stron
ul timately</w>
t ons</w>
resp ect</w>
qu es</w>
hol ding</w>
extre me</w>
eff ort</w>
con ference</w>
bri lli
bir ds</w>
aff ord</w>
acti vi
S an</w>
D ar
Au dience</w>
par k</w>
ir ing</w>
i de</w>
ha bit
e dge</w>
cre d
c ard</w>
Ho wever</w>
trans form</w>
tra ined</w>
stu died</w>
g ers</w>
equ al</w>
child hood</w>
cha ir</w>
be d
b ank</w>
as si
adv ant
ac king</w>
tri al</w>
tra de</w>
so ld</w>
sa ving</w>
re ve
p rou
f s</w>
cat ch</w>
car to
c t</w>
bl es</w>
b on
asse m
app ing</w>
Fr ench</w>
y el
hus band</w>
gen der</w>
for ced</w>
du e</w>
dre ams</w>
di sp
at temp
an -
serv ation</w>
sec tor</w>
less on</w>
it ch
in -
ig n
hel ps</w>
ess or</w>
coll ap
bro ad
br and</w>
an a</w>
T u
v ast</w>
supp or
sh el
rep li
manag ed</w>
inter act</w>
coff ee</w>
bo at</w>
ad op
W ash
T wit
Indi an</w>
2 4</w>
vul ner
spac es</w>
sh ort
s w
ri age</w>
possi bility</w>
pho to</w>
kilome ters</w>
fore sts</w>
f requ
emo tions</w>
bene fit</w>
anc ing</w>
Secon d</w>
On ce</w>
A t
suc ce
sc ul
open ed</w>
in visible</w>
gent le
figh ting</w>
fair ly</w>
el er
cri me</w>
blo ck</w>
wear ing</w>
ul ate</w>
th row</w>
t ent</w>
on -
nor m
necess arily</w>
mo on</w>
l ap
ke e
hor ri
deep ly</w>
consequ ences</w>
cha in</w>
beli ef</w>
ad ver
T al
Ha ve</w>
Ge or
Bri tish</w>
traff ic</w>
se ly</w>
nam es</w>
luc ky</w>
industri al</w>
go l
el ements</w>
disco very</w>
condi tion</w>
co o
Some times</w>
N ig
AI D
A gain</w>
rup tion</w>
f ro
ec osy
al es</w>
accoun t</w>
Wash ington</w>
A n</w>
temp or
ta il</w>
refu ge
new sp
li c</w>
it able</w>
gg ing</w>
g yp
f lies</w>
every day</w>
el es
e fully</w>
compar ed</w>
col ors</w>
cap able</w>
campa ign</w>
ar m
am ing</w>
Braz il</w>
tremend ous</w>
no ise</w>
li f
inv est</w>
h ome
for d</w>
cre ation</w>
ca ught</w>
c ing</w>
st one</w>
sol di
repres ent</w>
predic t</w>
part ment</w>
op tim
et c</w>
ep ide
dem and</w>
be l
b le
wa ke</w>
tri l
th in</w>
sudd en</w>
ro ll</w>
rele v
on g
o logical</w>
mi gr
l en
f illed</w>
d a
bas e</w>
ad ults</w>
a st
AID S</w>
ste ps</w>
pro found</w>
philos op
om y</w>
nega tive</w>
mon it
lea ds</w>
il e
ci ence</w>
brea k
Twit ter</w>
D id</w>
A sia</w>
A ma
ste in</w>
s ac
he ads</w>
gener ate</w>
ev ents</w>
br an
back ground</w>
transp ar
tar get</w>
surpri se</w>
sor ry</w>
sen si
mo thers</w>
fail ed</w>
f li
cra tic</w>
c ru
acc eler
a im
wil d</w>
un fortunately</w>
therap y</w>
st ay
resi dent</w>
organiz ed</w>
mo ves</w>
mar ried</w>
i ds</w>
ha s
gen cy</w>
g lo
en joy</w>
const antly</w>
b ru
ty pical</w>
sh ou
sa v
mo tion</w>
le ts</w>
grap h</w>
f light</w>
desig ning</w>
co gni
bili ties</w>
au tism</w>
P ri
G r
F or
1 7</w>
um s</w>
su m</w>
sion ate</w>
sex ual</w>
res sed</w>
prou d</w>
phenomen on</w>
perf ec
or row</w>
is es</w>
int ell
gg le</w>
follo wed</w>
fa ir</w>
coun t</w>
competi tion</w>
clos ed</w>
cir cle</w>
ca de
ar ms</w>
Ira q</w>
1 ,
val ent</w>
t ough</w>
surpri sed</w>
sp ot</w>
s ons</w>
r in
r a</w>
pas s
other wise</w>
lea ving</w>
k a</w>
fascin ating</w>
fac tory</w>
f ill</w>
enc ing</w>
cont act</w>
be at</w>
be ar</w>
as ks</w>
ag s</w>
W il
Th ree</w>
N A
tre ated</w>
par al
pa th
m ouse</w>
hi dden</w>
exist ence</w>
ex hi
en se</w>
deli ver</w>
dama ge</w>
cor ding</w>
Se e</w>
titu de</w>
s low
prof it</w>
pre gn
p ounds</w>
lead er</w>
lab or</w>
ke eping</w>
inv ited</w>
de a
consi dered</w>
ca used</w>
beg ins</w>
ap ers</w>
M ore</w>
Ger many</w>
th ri
sig nal</w>
pu ts</w>
oper ate</w>
gro wn</w>
ge ly</w>
fore ign</w>
experi enced</w>
ex tin
descri bed</w>
b ird</w>
TE D
M c
F i
E gyp
wa ves</w>
univer sity</w>
r on
pic ked</w>
p ha
oce ans</w>
n ote</w>
n it
mi d
men tioned</w>
mal aria</w>
l abor
inv en
i or</w>
clin ical</w>
ca te
I T</w>
worl d
vie ws</w>
sho p</w>
sh ouldn</w>
r ates</w>
produc tive</w>
phys ici
oun ding</w>
hous es</w>
cre atures</w>
concer ned</w>
commerci al</w>
char ge</w>
C oun
struc tion</w>
sto od</w>
sequ ence</w>
sec tion</w>
scen e</w>
re m
ran dom</w>
ke t
ju d
engine er</w>
dri ven</w>
dimen sional</w>
conv inc
cl oud</w>
bro ther</w>
a thy</w>
T im
P le
wh om</w>
sta ur
reg ular</w>
re staur
organ ic</w>
l ay</w>
en cies</w>
deb ate</w>
construc tion</w>
ai ly</w>
P al
CO 2</w>
yel low</w>
wat ched</w>
th ir
surpri sing</w>
sign als</w>
recei ved</w>
prac tic
plat form</w>
movi es</w>
m ma
identi fy</w>
fe ed
es ome</w>
ele ph
cop y</w>
cir cu
che ap</w>
avo id</w>
aff ect</w>
F e
we ird</w>
tri p</w>
safe ty</w>
quot e</w>
parti cles</w>
oper ating</w>
ki d
influ ence</w>
en ever</w>
emplo ye
curr ently</w>
cate g
busin esses</w>
ar gue</w>
Li fe</w>
us ers</w>
survi val</w>
research ers</w>
prev ent</w>
plan ning</w>
multi ple</w>
mathema tics</w>
ill u
hon est</w>
h ate</w>
gener ations</w>
fashi on</w>
electri c</w>
edu ca
Mex ic
E ach</w>
wa ve</w>
ul ations</w>
tion ing</w>
th -
tal ity</w>
sus p
phot os</w>
p ages</w>
m outh</w>
inv esti
har der</w>
fol ks</w>
ex ists</w>
ess ential</w>
char acter
M il
Austr alia</w>
si ght</w>
s and</w>
oc cur
ob s
man age</w>
lea ves</w>
fo ld</w>
f ell</w>
contin ent</w>
Go od</w>
Fr anc
y er</w>
thre at</w>
t ac
s pl
pu zz
p ra
mic ros
fa ith</w>
e g
B rit
19 6
un less</w>
slow ly</w>
r ay</w>
princi ples</w>
pl us</w>
iz ing</w>
has n</w>
exper ts</w>
er t</w>
d aily</w>
call ing</w>
brilli ant</w>
be t</w>
at ch</w>
am i</w>
G DP</w>
- up</w>
volun te
spec tr
si ster</w>
ra in
process es</w>
perfec tly</w>
mp s</w>
m er</w>
inter action</w>
h ell</w>
gh t
far m</w>
er -
do ws</w>
deep er</w>
de fine</w>
d el
Bi g</w>
ve -
u le</w>
trans formation</w>
to ward</w>
t ol
ster y</w>
sta tis
separ ate</w>
r ural</w>
pay ing</w>
os ity</w>
in j
hom es</w>
h a</w>
desig ner</w>
charac ters</w>
analy sis</w>
an thro
V ery</w>
S we
P resident</w>
Ama z
2 1
se as
princi ple</w>
met aph
j e
fiel ds</w>
est ab
agri culture</w>
Ch il
C E
vo ices</w>
to x
techni cal</w>
sa ved</w>
requ ires</w>
profes sional</w>
min d
inter ven
in ner</w>
hol es</w>
b us</w>
arti ficial</w>
ar ity</w>
4 00</w>
1 5
wis dom</w>
wer ed</w>
v ement</w>
tum or</w>
thre at
t ech</w>
sur ve
spo ke</w>
pa int</w>
p y</w>
on ed</w>
norm ally</w>
ner v
maga zine</w>
le g</w>
j ump</w>
is ol
doc um
de aling</w>
civiliz ation</w>
cir cum
ch imp
M S</w>
K .</w>
D o
v ote</w>
ten s</w>
stitu te</w>
sti mul
si an</w>
s ul
mus eum</w>
mar riage</w>
mag ne
laun ched</w>
intell ec
ha dn</w>
go ld</w>
fri end
Mexic o</w>
M r.</w>
wor ried</w>
tal ks</w>
seri ously</w>
scul p
ne uro
let ters</w>
ins ects</w>
conversa tions</w>
con cep
arg ument</w>
ann oun
advant age</w>
ac cept</w>
a ti
S tre
Every body</w>
viol ent</w>
ur ch</w>
uc ks</w>
ris ks</w>
ra tional</w>
or ders</w>
mo di
mess ages</w>
mean ing
inter pre
erci se</w>
eff ectively</w>
de st
coll ect</w>
col on
co vered</w>
b y
b in
M al
Every thing</w>
Can ada</w>
tom orrow</w>
te sting</w>
so li
shi f
or d
o be
increas ingly</w>
high est</w>
ga ther
ga p</w>
g el
ex ercise</w>
deta il</w>
comp are</w>
coll ection</w>
cl aim</w>
chem i
bl in
ang le</w>
z one</w>
stru ggle</w>
spir it</w>
re action</w>
po e
par ent</w>
mat ch</w>
lay er</w>
hy po
g ation</w>
fac ing</w>
f al
ex plan
ex act</w>
direc t</w>
c tion</w>
appe ared</w>
R ob
Chri st
z es</w>
z a</w>
v es
simp li
sig ned</w>
sent ence</w>
rele ase</w>
re f
prote in</w>
pro ve</w>
p ment</w>
ot ed</w>
k ne
imp li
fl u</w>
fac ts</w>
demon str
curi ous</w>
connec tions</w>
au d
appro pri
ab led</w>
V al
B os
B ar
wonder ing</w>
sym bo
sp i
satellit e</w>
prot otyp
proper ty</w>
pres er
p it
grap hic</w>
grap h
es tim
emis sions</w>
coun ter
G o</w>
tril lion</w>
the ater</w>
sm ell</w>
si vely</w>
me at</w>
intellig ent</w>
g ay</w>
di o
cred it</w>
comp os
cho ol</w>
b oun
av y</w>
adv anced</w>
the sis</w>
te x</w>
sp on
sc an
produc ing</w>
pp er</w>
n e</w>
mil li
hop efully</w>
grand mother</w>
gradu ate</w>
emer ging</w>
dou ble</w>
din ner</w>
camer as</w>
artic le</w>
an tum</w>
ad ed</w>
ac ted</w>
ab str
Tim es</w>
B ill</w>
weap ons</w>
u ri
symp tom
ser ved</w>
sa d</w>
s co
re al
process ing</w>
presi dent</w>
op ening</w>
micro bes</w>
lo cation</w>
li br
import ance</w>
ge on</w>
fra me</w>
fin ger</w>
dra wing</w>
car ds</w>
c ure</w>
W ould</w>
H i
E in
vehic le</w>
ti ous</w>
th care</w>
techni ques</w>
swit ch</w>
shap es</w>
sh es</w>
r are</w>
galax ies</w>
es cap
equi valent</w>
bro ke</w>
arri ved</w>
acci dent</w>
a war
M IT</w>
L in
univer sal</w>
qu it
manag ement</w>
l au
bre ast</w>
ang ing</w>
addi tion</w>
ad ult</w>
ver sus</w>
vari ety</w>
su ggest</w>
sp ring</w>
ri d</w>
relev ant</w>
reas on
prom ise</w>
gg ed</w>
feel ings</w>
deta ils</w>
chemi stry</w>
al o
4 5</w>
stru ggl
speci fically</w>
re sc
ph er
part ner</w>
narra tive</w>
mus cle</w>
met al</w>
logi c</w>
lo c
l as
in dependent</w>
id ly</w>
gen i
fa il</w>
con cl
al ed</w>
L ast</w>
I tal
I I</w>
A le
vis u
sym me
sel ling</w>
se tt
p id</w>
no w
mat es</w>
manufac turing</w>
li qu
i ly</w>
gl and</w>
g on
e th</w>
cre te</w>
a k
F ri
vide os</w>
sto ck</w>
sho es</w>
re ci
pre -
neur os
mar k</w>
langu ages</w>
j ective</w>
hosp it
heal thcare</w>
feed back</w>
cor ruption</w>
au l</w>
associ ated</w>
anti bio
alter native</w>
The ir</w>
S ince</w>
Ric hard</w>
R es
P i
wea ther</w>
war ming</w>
us ive</w>
thin ks</w>
sour ces</w>
ro ads</w>
rele ased</w>
op e</w>
n ose</w>
mor tality</w>
ma tically</w>
ma ster</w>
long- term</w>
l unch</w>
h i</w>
fos si
form ing</w>
blo cks</w>
b allo
We b</w>
S ha
Mi ddle</w>
Ein stein</w>
A s
7 5</w>
10 0,000</w>
t eles
symptom s</w>
priv ile
nerv ous</w>
mov ements</w>
four th</w>
exist ing</w>
equi pment</w>
eng ine</w>
econom ics</w>
ch er</w>
G i
vie wed</w>
um in
str ength</w>
rela tively</w>
re min
kill ing</w>
is ti
is land</w>
intellec tual</w>
increas ing</w>
in her
em ber</w>
dr ink</w>
defin itely</w>
cou ra
ca st</w>
bi a</w>
an o</w>
Wom en</w>
W hi
3 5</w>
transpor tation</w>
se at</w>
rough ly</w>
qu antum</w>
prin ting</w>
poli ticians</w>
ou se
org ans</w>
oph isti
ne ath</w>
molec ule</w>
life time</w>
increas ed</w>
gi es</w>
fin ish</w>
fac tors</w>
es h</w>
e ds</w>
d est</w>
bre ath</w>
Stre et</w>
K ore
Har v
C ome</w>
Brit ain</w>
20 th</w>
war m</w>
vol u
us er</w>
un k</w>
ul l</w>
thou ghts</w>
sen ding</w>
s ophisti
res h</w>
rem ote</w>
rap idly</w>
possi bilities</w>
per form</w>
on y
ne ar
nat ur
mp ed</w>
in ts</w>
gre en
gra tion</w>
fel low</w>
exp an
distribu tion</w>
d ry</w>
cu tting</w>
cor tex</w>
class room</w>
ap art
air plane</w>
ad ly</w>
Ple ase</w>
An gel
Amaz on</w>
vulner able</w>
ve ge
valu able</w>
stra tion</w>
se es</w>
requ ired</w>
pro ce
na tions</w>
mem ber
it u
expres sion</w>
ech no
do ors</w>
deser t</w>
cul tures</w>
comb ination</w>
at trac
an i
U. K.</w>
Geor ge</w>
D es
C ould</w>
B as
ye ster
terror ism</w>
su ici
shou l
re main</w>
pro p
m pl
los ing</w>
ke ys</w>
inv ent</w>
insp i
in fin
in equality</w>
ic als</w>
ho wever</w>
f oundation</w>
evol utionary</w>
dri ver</w>
dis ci
defin ed</w>
cap ture</w>
an xi
aff ected</w>
Ar ab
world wide</w>
wh enever</w>
tan e
se ts</w>
r ound</w>
r hy
grand father</w>
electri cal</w>
e u
e li
Ken ya</w>
Fr ance</w>
x ing</w>
w est</w>
ro b
meth od</w>
intu i
inst all
go ti
galax y</w>
ere as</w>
epide mic</w>
employe es</w>
emp ty</w>
dist inc
con sumption</w>
cle an
chem icals</w>
bre ad</w>
anti -
a urs</w>
Su n</w>
NA SA</w>
H ol
C or
worl ds</w>
victi ms</w>
under neath</w>
um ber</w>
travel ing</w>
statis tics</w>
sec ure</w>
re ached</w>
previ ous</w>
prepar ed</w>
pl ays</w>
pic ally</w>
ph r
n ic
m ate</w>
is co</w>
h os
go ods</w>
gentle men</w>
g an
fundam entally</w>
fi le</w>
em bar
dynam ic</w>
dol ph
convinc ed</w>
b ar</w>
aw esome</w>
ar ts</w>
L os</w>
Jap an
I S
D oes</w>
3 ,000</w>
yester day</w>
son gs</w>
sensi tive</w>
se tting</w>
sc ared</w>
recor ded</w>
prof essor</w>
men ted</w>
less ons</w>
k et</w>
environ ments</w>
en coun
disci pl
dimen sions</w>
behavi ors</w>
ba g</w>
b ol
J ames</w>
I ran</w>
1 50</w>
writ er</w>
tradi tion</w>
to il
spectr um</w>
scri p
sa tis
requ ire</w>
rec y
qu a
poin ted</w>
particip ate</w>
la unch</w>
l ady</w>
kee ps</w>
it ting</w>
in sur
gi ft</w>
g all
eng aged</w>
co al</w>
care fully</w>
autom a
att acks</w>
algorith ms</w>
adver ti
ac le</w>
absolu te</w>
Y et</w>
D is
sol ved</w>
si x
s an
re ment</w>
radi cal</w>
radi ation</w>
priv acy</w>
organ ism</w>
mem ories</w>
ma mm
intro duce</w>
elec tion</w>
cr uc
ac tor</w>
W al
En gland</w>
A ra
w ings</w>
un it</w>
ul ated</w>
teen ag
primar y</w>
per s</w>
ne goti
ly mp
l ink</w>
is ed</w>
inter face</w>
ex change</w>
det ect</w>
clo ck</w>
cen ters</w>
ca ting</w>
bat tery</w>
at ri
an gl
1 7
pot entially</w>
or ing</w>
op tion</w>
neighb ors</w>
mi x</w>
ki st
in ev
he avy</w>
go als</w>
fe min
ent y</w>
di r
de -
d ots</w>
confi dence</w>
con ta
ci l</w>
aw ful</w>
ad ded</w>
S cot
J an
Harv ard</w>
stu pid</w>
sk ele
s outh</w>
ri de</w>
repres ents</w>
re t
re place</w>
por tra
org an</w>
open -
nee d
mechan ism</w>
k itch
grav ity</w>
g or
fund ing</w>
es timate</w>
dinos aurs</w>
b right</w>
Con gress</w>
200 8</w>
0 0,000</w>
y ers</w>
un known</w>
te sts</w>
ste el</w>
rou gh</w>
part ners</w>
m as</w>
jo ined</w>
gra m</w>
der son</w>
correc t</w>
cli ck</w>
challeng ing</w>
c at</w>
bud get</w>
b ic
S chool</w>
P S</w>
Nig eria</w>
N a
K e
At lan
wh el
wer ing</w>
transi tion</w>
re ven
qu e
oc ca
mal es</w>
ir t</w>
gener ated</w>
g ment</w>
fossi l</w>
fle xi
fi sh
c ents</w>
activi ties</w>
ac cording</w>
U S</w>
Tal k</w>
Franc isco</w>
2 .
vir uses</w>
v ey</w>
te eth</w>
struc k</w>
stat us</w>
pre ven
per ception</w>
p ack
out come</w>
or al</w>
off ic
nor th</w>
mathema tical</w>
introduc ed</w>
gr an
expres s</w>
dep lo
dep ends</w>
contro lled</w>
consi st
compon ents</w>
co ast</w>
C .</w>
9 9</w>
19 5
st able</w>
prot ection</w>
proper ties</w>
pro por
poe try</w>
molec ular</w>
medi um</w>
liqu id</w>
l or
inven tion</w>
inclu de</w>
ill ness</w>
h ouse
explor ation</w>
est s</w>
con crete</w>
cogni tive</w>
cl ou
cl aim
cen tu
cen tr
bat tle</w>
appli ed</w>
P aul</w>
Isra el</w>
E l
C enter</w>
tri ck</w>
stre t
st y</w>
sil ence</w>
sa mple</w>
regi ons</w>
re ti
prot ected</w>
over whel
natur ally</w>
is on</w>
hor iz
hon or</w>
g un
ent ure</w>
di v
cor al</w>
brea king</w>
ar ing</w>
Musli m</w>
C l
2 000</w>
ti ll</w>
th es</w>
st ant</w>
soldi ers</w>
sol ving</w>
situ ations</w>
resour ce</w>
re mind</w>
pl ate</w>
m ur
lo ck</w>
l in</w>
l augh
hop ing</w>
gi cal</w>
en able</w>
demo cratic</w>
cur ve</w>
con ser
car rying</w>
awar eness</w>
ang ers</w>
adv ice</w>
ac tors</w>
Y ou
S at
K i
C en
0 0
w are</w>
volu me</w>
vi a</w>
tempor ary</w>
sig ns</w>
resol ution</w>
re member
qu anti
pul led</w>
plan es</w>
ori ties</w>
moun tains</w>
metaph or</w>
ca ve</w>
bu bble</w>
Pa kist
20 10</w>
t les</w>
sophisti cated</w>
ro of</w>
restaur ant</w>
resi stance</w>
no on</w>
meaning ful</w>
imp res
hi de</w>
dri ves</w>
de man
ber g</w>
aster o
W ow</w>
Mic ha
Japan ese</w>
Al so</w>
tri als</w>
te sted</w>
sou l</w>
rais ing</w>
pl u
op tions</w>
log ically</w>
liter ature</w>
li ked</w>
ici ans</w>
echno logy</w>
collabor ation</w>
as ses</w>
V o
On ly</w>
B l
Ara b</w>
An derson</w>
ty pically</w>
swi mming</w>
swi m</w>
st ances</w>
sk ill</w>
se v
sc r
rhy th
res er
pregn ant</w>
po em</w>
om as</w>
no vel</w>
imp le
fu nd</w>
fall ing</w>
encoura ge</w>
en jo
emo tion</w>
el ing</w>
ed it
dr in
crimin al</w>
chimp anz
bu ying</w>
bar ri
aster n</w>
ance stors</w>
Tu be</w>
H er</w>
Chri sti
Be fore</w>
vacc ine</w>
techno logical</w>
st eri
per man
per cent
orig in
not es</w>
m aps</w>
kitch en</w>
interest s</w>
inno vative</w>
in struc
imm une</w>
hospit als</w>
go s</w>
fac tor</w>
f resh</w>
doub t</w>
de struction</w>
corpor ate</w>
conv ince</w>
const ant</w>
ch ic
bi om
appreci ate</w>
Me di
In stitute</w>
21 st</w>
wal ks</w>
sp orts</w>
s lo
occu r</w>
mista ke</w>
institu tion</w>
hur t</w>
gri d</w>
fu els</w>
fe wer</w>
fac ed</w>
expla ined</w>
exp on
ev ening</w>
embr ace</w>
cra ft</w>
consum er</w>
S ol
Chi ca
Angel es</w>
was h
sing ing</w>
s na
re ward</w>
re spec
r ene
na vi
my stery</w>
ma kers</w>
li cen
it i</w>
gener ally</w>
evi l</w>
dro pped</w>
do gs</w>
di et</w>
des per
con stra
ch est</w>
centu ries</w>
bor ing</w>
amp ;</w>
You Tube</w>
Whi le</w>
S er
L u
Chica go</w>
B G</w>
& amp;</w>
va st
tra ge
top ic</w>
st un
sens ors</w>
run s</w>
rela tive</w>
recor ds</w>
re a
poli cies</w>
play er</w>
in ion</w>
imag ined</w>
i Ph
hy per
ho ods</w>
form er</w>
disa ster</w>
cr oss</w>
c king</w>
asp ects</w>
J er
D .</w>
sta ff</w>
sh all</w>
re fer
provi ding</w>
progra mm
pos t-
pleas ure</w>
phys ically</w>
pedi a</w>
pe ace
p ort</w>
p il
newsp aper</w>
mis s</w>
l -
it arian</w>
instr ument</w>
evol ve</w>
effici ency</w>
ch ose</w>
c ement</w>
bus y</w>
ap es</w>
amoun ts</w>
te ams</w>
sc ar
re ver
mot or</w>
mista kes</w>
men tion</w>
me -
inter view</w>
imag in
hol ds</w>
gar den</w>
fl at</w>
ent ary</w>
emp athy</w>
el ine</w>
do zen</w>
dea ths</w>
de di
coll ected</w>
bot tle</w>
at en</w>
ar d
accur ate</w>
S tu
G ree
C i
win ter</w>
tic a</w>
th anks</w>
shap ed</w>
ro ots</w>
ri sing</w>
ri di
rel ate</w>
re stri
pro of</w>
pe t</w>
op inion</w>
measu red</w>
ly wood</w>
inf ected</w>
explan ation</w>
exp and</w>
estab li
ec tions</w>
cul ar</w>
crow d</w>
be e</w>
b a</w>
appropri ate</w>
ap par
ad mit</w>
acc es
ab sor
Per haps</w>
P aci
wonder ed</w>
sp ar
photograph s</w>
os is</w>
on ics</w>
in gre
ingre di
fi shing</w>
f at</w>
electr onic</w>
discus sion</w>
co ordin
ca using</w>
ca mp</w>
bi as</w>
appe ars</w>
anal o
agre ed</w>
M at
F ive</w>
B ank</w>
200 9</w>
xi de</w>
x im
wor ker</w>
tol er
sev ere</w>
qui et</w>
push ing</w>
pres ence</w>
pre ce
perform ing</w>
om ic</w>
l ength</w>
inspi ration</w>
entreprene urs</w>
econom ies</w>
direc tor</w>
dar k
bo xes</w>
ar re
am ed</w>
allo wing</w>
St ate</w>
St an
S ep
N umber</w>
ul timate</w>
ul ous</w>
the -
t ack
suff er</w>
stron ger</w>
resi li
re less</w>
par king</w>
or an
occur red</w>
n or</w>
hor se</w>
h ack
fil ms</w>
fe eding</w>
cr ash</w>
connec ting</w>
compu ting</w>
clo thes</w>
bur ning</w>
bor ders</w>
bir th
b ones</w>
au ton
as sume</w>
ar my</w>
a cade
Sep tem
Par is</w>
Paci fic</w>
N i
Char les</w>
B r
Any way</w>
un usual</w>
ton ight</w>
s ca
recogn ized</w>
prote ins</w>
prac tical</w>
person ally</w>
percent age</w>
p es</w>
grap hy</w>
func tions</w>
es tic</w>
comb ined</w>
after noon</w>
Val ley</w>
T e
Septem ber</w>
S ou
O lymp
5 0,000</w>
ta x</w>
stu dio</w>
stay ed</w>
si ties</w>
repor ted</w>
rema ins</w>
refuge es</w>
pro gres
p y
opp ing</w>
min ist
in d
ic a</w>
hand le</w>
gu ar
flo wers</w>
figu res</w>
fer ti
fal se</w>
exper t</w>
ex ter
ecosy stem</w>
depend ence</w>
appli cations</w>
an gry</w>
ad es</w>
Uni on</w>
Micha el</w>
K ing</w>
Every one</w>
vehic les</w>
v it
v ation</w>
stat ement</w>
pas sionate</w>
op ia</w>
off ered</w>
ne u
lar gely</w>
instr uments</w>
illu str
hydro gen</w>
ge ograp
expl os
elec tro
dra matic</w>
comfor t</w>
co ol
clos ely</w>
cli p</w>
ch ap
algorith m</w>
W ill</w>
Un fortunately</w>
O c
No body</w>
A l</w>
- to-
- like</w>
sug ar</w>
sub -
sc ore</w>
o rest</w>
no where</w>
mir ror</w>
lo cked</w>
labor atory</w>
l ine
in fl
il legal</w>
fi f
fe atures</w>
ex tent</w>
el ev
deter mine</w>
d ancing</w>
but ton</w>
auth ority</w>
Th omas</w>
Ob ama</w>
M u
G lob
Bos ton</w>
B al
u ary</w>
t at
succe ed</w>
spec tac
ser ving</w>
re pair</w>
re move</w>
re ceive</w>
ra w</w>
psy ch
produc tivity</w>
para dig
p un
on e
lin ked</w>
ha n</w>
fru str
fr ank
fin gers</w>
eff orts</w>
dre w</w>
dis play</w>
d ay
chi p</w>
ch art</w>
an der</w>
Sat ur
6 00</w>
2 2</w>
wat er
war s</w>
under water</w>
tain ment</w>
t ape</w>
t all</w>
so -
ri gh
recy cl
poll ution</w>
person ality</w>
out comes</w>
mar ine</w>
jo ke</w>
is tics</w>
h its</w>
green house</w>
gra b</w>
gl am
g ent</w>
frank ly</w>
fra me
f alls</w>
equ ally</w>
distribu ted</w>
dia be
der ing</w>
cre ature</w>
concl usion</w>
com pla
chic ken</w>
che str
bor der</w>
bom b</w>
bi tion</w>
attemp t</w>
Ste ve</w>
S ec
Rus sia</w>
P M</w>
Jan uary</w>
Ger man</w>
G PS</w>
2 1</w>
vacc ines</w>
sur vey</w>
sel s</w>
provi ded</w>
on i
ol ds</w>
ju dge</w>
ja il</w>
impli cations</w>
her o</w>
four -
fle w</w>
fin ance</w>
fi re
ex ecu
el ement</w>
e fs</w>
circum stances</w>
capit alism</w>
bl u
b o</w>
at oms</w>
a de</w>
G en
4 ,000</w>
y l
vo ca
tox ic</w>
t y-
str ing</w>
od d</w>
o logists</w>
mus ical</w>
la dies</w>
horri ble</w>
func tional</w>
embar r
cour t</w>
che aper</w>
ch urch</w>
asp ect</w>
as sum
all -
ad dic
B a
y ment</w>
v est</w>
un like</w>
ti e</w>
suici de</w>
s can</w>
ra m
p en</w>
ori al</w>
l un
insi ght</w>
inc enti
gro ws</w>
glo be</w>
geni us</w>
flo ating</w>
er ror</w>
er r
er ever</w>
en h
emer gency</w>
der al</w>
conven tional</w>
c el
bic y
ap p</w>
abstr act</w>
T om</w>
R w
F a
Dar win</w>
1 6
tr end</w>
ter -
te e</w>
sustain ability</w>
surve ill
sp reading</w>
sh ment</w>
sen ses</w>
recor ding</w>
reco gni
pop ulations</w>
o gen
multi -
mon key</w>
main tain</w>
ma m
lim its</w>
iPh one</w>
fic tion</w>
f loo
ex posed</w>
el d</w>
den se</w>
dat ab
d anger</w>
comb ine</w>
cho os
car ried</w>
be lon
ar gu
acces sible</w>
G ener
B ab
Ab out</w>
youn ger</w>
um b</w>
tou ched</w>
t ables</w>
sil k</w>
seas on</w>
sch ol
scen ari
ro ot</w>
quar ter</w>
pri me</w>
pe ak</w>
pa int
mp ing</w>
marke ting</w>
mani pul
li ver</w>
lau gh</w>
journ alist</w>
insur ance</w>
in cl
i m</w>
he im
ha m</w>
equ ation</w>
eng aging</w>
educa tional</w>
diagnos ed</w>
custom ers</w>
cr ying</w>
continu ed</w>
con trac
collap se</w>
clin ic</w>
brea the</w>
b age</w>
am ent</w>
acc um
Cen tral</w>
Ap ple</w>
200 7</w>
zo om</w>
vir tu
trac king</w>
til ity</w>
techni que</w>
ta ste</w>
sub jects</w>
sp here</w>
sc ary</w>
recogni tion</w>
re moved</w>
re gre
ra m</w>
profes sion
play ers</w>
p ack</w>
m ice</w>
libr ary</w>
ke y
ing -
hot el</w>
her oes</w>
heim er</w>
har m</w>
h all
g li
eli min
dis h</w>
de partment</w>
consum ers</w>
bar ely</w>
ath le
antibio tics</w>
aff ord
Some thing</w>
Re member</w>
Pal est
Pakist an</w>
O s</w>
H ouse</w>
H er
Fin ally</w>
F our</w>
E d
w ire</w>
v an</w>
tri c</w>
trans formed</w>
t an</w>
surveill ance</w>
stor y
sha me</w>
ro cket</w>
puzz le</w>
pri ze</w>
pri son
plan ted</w>
pl om
on ing</w>
om es</w>
of -
obs essed</w>
ner ship</w>
mechan ical</w>
m ples</w>
inter nal</w>
in put</w>
g ence</w>
frame work</w>
ell o</w>
dis appear</w>
coura ge</w>
col li
ac qu
Sa har
M ini
He alth</w>
An tar
whe el
w ine</w>
un expected</w>
tre ating</w>
str angers</w>
see ds</w>
sav ings</w>
ridi cul
rene w
re aching</w>
ra dic
pl as
ph arm
organiz e</w>
or bit</w>
o tic</w>
mis sed</w>
le f
l ung</w>
in tri
in o</w>
he ight</w>
fa ult</w>
f ed</w>
ear th
dom estic</w>
deb t</w>
conven i
coll ecting</w>
ban ks</w>
archit ect</w>
S m
Glob al</w>
D ay</w>
C al
B en
Antar c
z heimer</w>
wan ting</w>
v ot
u pper</w>
t asks</w>
surr ounded</w>
sho ot</w>
sa mples</w>
s mile</w>
ro cks</w>
pur su
psycho logical</w>
pre dat
practic es</w>
po wers</w>
po p</w>
pain ful</w>
mit ted</w>
magne tic</w>
lic on</w>
in ju
h ost</w>
fa ke</w>
f ears</w>
exist ed</w>
el a</w>
dra matically</w>
curi osity</w>
col um
clas ses</w>
care ful</w>
bur n</w>
be ach</w>
an ia</w>
am i
ag ency</w>
ag ement</w>
ac les</w>
ab use</w>
Sy ri
Pro ject</w>
N .</w>
Is lam
G ir
Al zheimer</w>
vi l</w>
three- dimensional</w>
swe et</w>
sa tion</w>
pres ented</w>
poll en</w>
pen gu
le gi
kne e</w>
gu i
g ust</w>
es tion</w>
eleph ant</w>
eg gs</w>
diffic ul
cy ber
confi dent</w>
commit ted</w>
co -
classi c</w>
c kets</w>
b ow</w>
b al</w>
an ticip
T r
T or
R u
G al
19 th</w>
y ard</w>
wi reless</w>
travel ed</w>
to y</w>
ti an</w>
the me</w>
st ations</w>
shoul der</w>
sear ching</w>
pat ent</w>
neighbor hoods</w>
meth ods</w>
me d
m ess</w>
gr and</w>
explor ing</w>
dro ve</w>
dis order</w>
dec line</w>
cor d</w>
colleag ue</w>
chan nel</w>
cha mp
ch rom
brea thing</w>
ballo on</w>
ate ful</w>
apart ment</w>
V ir
S cience</w>
R evolution</w>
N ext</w>
N at
Inter national</w>
Egyp t</w>
C he
v or</w>
v as
tr uck</w>
tane ously</w>
t ories</w>
some what</w>
sel ection</w>
repres ented</w>
re verse</w>
re ference</w>
re comm
preci sely</w>
pos t
pl ans</w>
pha se</w>
p ost</w>
p apers</w>
over all</w>
n els</w>
itu de</w>
il le</w>
identi cal</w>
ici an</w>
gu il
flo wer</w>
fi xed</w>
fascin ated</w>
escap e</w>
edu cated</w>
destro yed</w>
coo king</w>
contr ast</w>
con centr
communi cations</w>
clou ds</w>
ci enti
birth day</w>
ax is</w>
at tr
achiev ed</w>
ac u
U. N.</w>
T ra
Par k</w>
La tin</w>
J es
wor thy</w>
trans forma
ti tle</w>
thro wn</w>
sun light</w>
spea ker</w>
soli d</w>
si mpl
sha ke</w>
s and
pos es</w>
phr ase</w>
l oud</w>
i ed</w>
hous ing</w>
hon est
g al</w>
fortun ate</w>
ess ence</w>
di verse</w>
con servation</w>
cle ver</w>
automa tically</w>
appli cation</w>
app le</w>
anxi ety</w>
accep ted</w>
X -
6 0s</w>
win dows</w>
whe el</w>
wh erever</w>
u gly</w>
transpar ency</w>
tion -
sur geon</w>
stand ards</w>
st ands</w>
ru pt</w>
psycho logy</w>
pros per
pas sing</w>
over come</w>
o ci
intui tive</w>
i um</w>
f usion</w>
drin king</w>
dist ur
descri p
contribu te</w>
clim b</w>
celebr ate</w>
cei ved</w>
c up</w>
be e
auth enti
archit ects</w>
ab und
So ci
Ne w
M oun
M ay</w>
Gre en
E thi
D emo
C y
v a</w>
un comfortable</w>
the less</w>
sugge sts</w>
so- called</w>
smar t
sh irt</w>
ri ce</w>
po cket</w>
pl enty</w>
paral y
mm a</w>
micros cope</w>
lim it</w>
inter active</w>
he a
ge -
g in
fru it</w>
fe ature</w>
et ary</w>
en tr
econom ists</w>
divi de</w>
dis ability</w>
dio xide</w>
dep end</w>
construc t</w>
con stitu
citiz en</w>
bro wn</w>
b ags</w>
as ide</w>
ac compli
No thing</w>
M R
J os
H ig
G et</w>
C a
B e</w>
Afric ans</w>
whi st
ul a</w>
symbo l</w>
supp ose</w>
spl it</w>
sp inal</w>
si zed</w>
rec ru
r ar
pi ano</w>
mil k</w>
mi ze</w>
mechan isms</w>
la m</w>
inv ite</w>
histor ical</w>
h all</w>
gra in</w>
gl aci
gi ble</w>
gen u
fi ve-
experi encing</w>
enter ed</w>
ene my</w>
doc uments</w>
desig ns</w>
concep ts</w>
con clu
co ck
cap tured</w>
can di
ca ble</w>
c ow</w>
ag end
adap t</w>
a i</w>
W a
T it
R os
R ec
L it
F oundation</w>
D ec
C ha
A ri
9 0s</w>
2 7</w>
. D.</w>
we igh
vill ages</w>
tu s</w>
ti le</w>
ta p</w>
su rely</w>
push ed</w>
prin ted</w>
pol ar</w>
po orest</w>
pas sen
paradig m</w>
p ed</w>
ol dest</w>
n est</w>
las er</w>
inter actions</w>
i er</w>
hard ware</w>
f at
dist ant</w>
de gra
cro ps</w>
com e
col ony</w>
att ached</w>
an at
Stan ford</w>
Sp ace</w>
P an
O ther</w>
Mus eum</w>
Joh n
G a
Com m
Christ mas</w>
B ay</w>
1 9</w>
w l</w>
se ven
re plac
pol y
philosop hy</w>
p in
ne ither</w>
leg acy</w>
inter acting</w>
her self</w>
han g</w>
gn ity</w>
expec tations</w>
dis orders</w>
des k</w>
d ates</w>
contro ver
contin ues</w>
bro thers</w>
Wom an</w>
T ex
Swe den</w>
No bel</w>
J une</w>
D en
6 5</w>
2 3</w>
19 4
1 4
y outh</w>
wee k
ves sels</w>
tici an</w>
ti red</w>
ter ies</w>
see k</w>
scri pt</w>
s now</w>
repe at</w>
rela tions</w>
re pu
publi c
proper ly</w>
progra mming</w>
pain ted</w>
p ure</w>
p are</w>
ori sts</w>
ong st</w>
ob st
infin ite</w>
h att
ga ther</w>
f are</w>
ev el
en sure</w>
em bed
elec tions</w>
ec e</w>
do z
do t</w>
d ust</w>
cu te</w>
au r</w>
astron om
ap pl
am ongst</w>
aliz ing</w>
T ell</w>
P en
Mic ros
Hig gs</w>
G han
B ur
8 0s</w>
wh ales</w>
well- being</w>
vir tually</w>
uc k
ta tive</w>
t ability</w>
ster ed</w>
st ag
se ed</w>
se as</w>
s n
s ession</w>
rom an
produc es</w>
privile ge</w>
pre fer</w>
po ol</w>
paint ings</w>
neighb or</w>
met abo
m .</w>
leg is
la id</w>
integr ated</w>
ing dom</w>
ig nor
hun gry</w>
h ire</w>
gr ay</w>
gr ass</w>
fund ed</w>
fir m</w>
es c
er al</w>
ear n</w>
e k</w>
e ar</w>
dra wn</w>
divi ded</w>
deli vered</w>
conflic ts</w>
c enti
ba th
b low</w>
an ony
al u
afford able</w>
ad ding</w>
acade mic</w>
W all</w>
V er
S S</w>
Kore a</w>
Ar t</w>
A h</w>
A .</w>
9 5</w>
. m.</w>
y i
ver ies</w>
v ital</w>
un its</w>
te a</w>
t- hand</w>
spir it
sho ck</w>
ru b
ra p</w>
quar ters</w>
pri ces</w>
pic king</w>
perman ent</w>
per su
p es
op ti
o de</w>
mus h
multi p
mind set</w>
mi d-
inv as
ide al</w>
hum or</w>
ful l-
forma l</w>
farm er</w>
exhi bition</w>
er ies</w>
electr onics</w>
di gnity</w>
dep ending</w>
def ense</w>
commit ment</w>
chrom os
cha os</w>
cep tions</w>
bi ke</w>
Wi ki
S un
S ch
O x
Man hatt
Hol lywood</w>
G ra
D u
Chil dren</w>
Bas ically</w>
Ad am</w>
7 0s</w>
wh ereas</w>
treat ments</w>
thi er</w>
ta x
sto res</w>
so ft</w>
sing ly</w>
sac ri
s ki
repres en
rel ation</w>
or chestr
optim istic</w>
op posed</w>
neur on</w>
mamm als</w>
main ly</w>
lo aded</w>
l ens</w>
is s</w>
inv ent
hear ts</w>
hal f-
friend ly</w>
f ounded</w>
extr act</w>
enter tainment</w>
emp ha
ell ed</w>
e igh
diagnos is</w>
concer n</w>
col ate</w>
bro w
beli efs</w>
behavi oral</w>
auth or</w>
announ ced</w>
ag gres
Wh ite</w>
S pan
P ol
Manhatt an</w>
Is lam</w>
H um
3 2</w>
200 5</w>
vi br
transp ort</w>
toil et</w>
ta g</w>
se where</w>
robo tic</w>
ri min
re r</w>
r and
pres entation</w>
ob jective</w>
licen se</w>
ki lo
j ected</w>
inten ded</w>
insp ire</w>
incenti ves</w>
ign ore</w>
hun ger</w>
hi p</w>
glob alization</w>
gh ten
flu id</w>
ess ing</w>
en z
di str
di plom
di alo
determin ed</w>
den sity</w>
cr y
cop es</w>
compon ent</w>
certain ty</w>
be have</w>
au di
Wil li
N G
B on
20 11</w>
- based</w>
ti ed</w>
sta ti
so le
smo ke</w>
shar k</w>
se y</w>
ri st</w>
remin ded</w>
rar ely</w>
r ab
pur cha
par ties</w>
o k
o ft</w>
ne ts</w>
mon keys</w>
mi gration</w>
ment ally</w>
me et
meet ings</w>
lat est</w>
journ alists</w>
inf ection</w>
incre ases</w>
in y</w>
in formed</w>
har dly</w>
gun s</w>
graph ics</w>
glob ally</w>
g ments</w>
fro zen</w>
fla g</w>
ex ha
ex cl
es is</w>
en th
ec tor</w>
ec k</w>
cor respon
contro lling</w>
con tra
co m</w>
adv ance</w>
S ar
Res ear
Re ally</w>
O ce
N ever</w>
Musli ms</w>
H i</w>
. C.</w>
vis ited</w>
ur ation</w>
un g
su per</w>
strate gies</w>
squ e
sli des</w>
sh ut</w>
se m
pro per</w>
my th</w>
meas uring</w>
liber al</w>
li ft</w>
lap top</w>
invol ves</w>
inst inc
imag ing</w>
ill usion</w>
i P
habit at</w>
g in</w>
fac ial</w>
f oun
el sewhere</w>
dri ll</w>
direc tions</w>
diabe tes</w>
dedi cated</w>
cruc ial</w>
choos ing</w>
carto on</w>
back wards</w>
at tribu
aff ects</w>
adverti sing</w>
ad ing</w>
P u
P ole</w>
Micros oft</w>
Con go</w>
vol can
univer sities</w>
under lying</w>
ul ating</w>
terror ist</w>
teles cope</w>
sy ste
stic ks</w>
smo king</w>
sk ull</w>
si sters</w>
sh ops</w>
respon ses</w>
refl ect</w>
re ments</w>
predic table</w>
poli o</w>
out put</w>
off icial</w>
o v
o logist</w>
life style</w>
life -
lay ers</w>
i le</w>
h at
guar an
f it
extin ct</w>
embed ded</w>
el ed</w>
earth qua
destro y</w>
d ress</w>
d ges</w>
conv ic
co operation</w>
bra ve</w>
al d</w>
P r
Bu dd
An y</w>
Afric an-
zer o-
vir al</w>
un believ
tu be</w>
stran ger</w>
ster e
si de
sco res</w>
satellit es</w>
s or</w>
rand om
provi des</w>
power ed</w>
p uni
on al</w>
need le</w>
n ings</w>
mon y</w>
lo vely</w>
li s
le tting</w>
le l</w>
isol ated</w>
inve sting</w>
in ations</w>
for gotten</w>
fe deral</w>
ex pos
der ly</w>
d ding</w>
comp rom
ca ts</w>
S im
P or
P R</w>
Je wish</w>
Ale x
wh ale</w>
we ak</w>
victi m</w>
ush ed</w>
ul f</w>
thir ds</w>
ter ing</w>
tele phone</w>
smar ter</w>
sk y
resc ue</w>
r yp
prot ecting</w>
predic ted</w>
posi tions</w>
p hi
ow ned</w>
li kes</w>
inev itable</w>
indi ca
inclu des</w>
im men
identi fied</w>
i ons</w>
h ill</w>
gu ide</w>
gon na</w>
foc using</w>
eth ical</w>
eng agement</w>
elec ted</w>
e es</w>
di an</w>
d am
cos mo
contr act</w>
consequ ence</w>
capit a</w>
blo g</w>
auton om
appar ently</w>
agend a</w>
Vo ice</w>
T ri
R IS
N ature</w>
N ations</w>
Li b
D el
Atlan tic</w>
20 ,000</w>
2 50</w>
year- olds</w>
trage dy</w>
ten sion</w>
syn thetic</w>
sub tle</w>
struggl ing</w>
spirit ual</w>
spectac ular</w>
sp ots</w>
sil ent</w>
s ke
resi stant</w>
re in
r ent</w>
origin ally</w>
ne ural</w>
mem or
ma ker</w>
inve sted</w>
imp acts</w>
grand children</w>
govern ance</w>
flexi ble</w>
estim ated</w>
en abled</w>
disco veries</w>
di ver
d augh
daugh ters</w>
construc ted</w>
cap ability</w>
bri ef</w>
bar re
b ucks</w>
aw k
ar med</w>
ag encies</w>
Wh e
Th ings</w>
Rw anda</w>
J en
H on
F ran
vari ation</w>
tri ck
transpar ent</w>
tr ends</w>
thre w</w>
sump tions</w>
stra igh
stor m</w>
sho oting</w>
s ket
reve al</w>
pi lot</w>
pi le</w>
offic er</w>
ob servation</w>
mini ster</w>
loo p</w>
la be
l uck</w>
is ing</w>
impro vement</w>
h anging</w>
gran ted</w>
ge ous</w>
flo ws</w>
fab ric</w>
f ought</w>
es the
ell er</w>
e ded</w>
doc ument</w>
do x</w>
dis ap
dir ty</w>
de vast
con sume</w>
co h
circu it</w>
cir cles</w>
c ous
b ill</w>
ap o
Wiki pedia</w>
Tex as</w>
R om
M os
M ary</w>
In deed</w>
H om
F u
D on
D H</w>
3 .
20 12</w>
weap on</w>
we al
ridicul ous</w>
revol u
repor ts</w>
regi me</w>
re form</w>
pres sed</w>
pi g</w>
phys ic
per pe
p lot</w>
kill er</w>
in ch</w>
i ans</w>
gr ateful</w>
ge ons</w>
g y
g ut</w>
fri ghten
doz ens</w>
datab ase</w>
ce iling</w>
ca sh</w>
bri e
be gun</w>
b oss</w>
b alls</w>
ali en</w>
ag ue</w>
Rob ert</w>
MR I</w>
H el
Ghan a</w>
D an</w>
B I</w>
B C</w>
Antarc tica</w>
199 0s</w>
wil d
ver tical</w>
ve ter
under ground</w>
trans fer</w>
ti p</w>
the ories</w>
tech n
spo ken</w>
se l</w>
ra ti
prototyp e</w>
phil anthro
paral lel</w>
par tly</w>
p ace</w>
obe sity</w>
nutri tion</w>
mos quit
mil len
meas ures</w>
lim b</w>
li ve
li an</w>
li a</w>
inten se</w>
head ed</w>
gl asses</w>
foot ball</w>
f ear
ex pedi
engine ered</w>
embarr as
e ball</w>
dri vers</w>
dolph ins</w>
dimen sion</w>
di c</w>
d ated</w>
cr ash
consist ent</w>
con tain</w>
character istics</w>
c tic</w>
c c
br a</w>
boun dar
anima tion</w>
addi tional</w>
ab s</w>
S or
S al
Mar tin</w>
Is land</w>
H en
F lor
CE O</w>
C u
B ang</w>
Arab ic</w>
A R
wh is
w inning</w>
thro wing</w>
t led</w>
spea kers</w>
sou thern</w>
re con
re act</w>
r ul
prob ability</w>
pre h
per si
per mission</w>
oper ations</w>
open- source</w>
mus cles</w>
monit or</w>
ligh ting</w>
lic op
innov ations</w>
ful ness</w>
frequ ency</w>
fr ac
fin ds</w>
fab ulous</w>
ex tend</w>
deser ve</w>
de x</w>
de fe
cor n</w>
con cent
com mod
co ok</w>
c lic
c in</w>
brea ks</w>
boundar ies</w>
bo ards</w>
be long</w>
b att
as sumptions</w>
arr ang
ace u
a ks</w>
Pri ze</w>
Ph il
Pe ter</w>
P hi
G ol
G ive</w>
Ethi opia</w>
y ours</w>
y al</w>
wh o
wel come</w>
un t</w>
un clear</w>
trans late</w>
ter rit
t ears</w>
symme try</w>
suff ered</w>
st ops</w>
rou te</w>
repu tation</w>
reco very</w>
ra ys</w>
ra ft</w>
or ous</w>
nutri ents</w>
neuros cience</w>
me al</w>
lo cated</w>
l o</w>
l ecture</w>
it ations</w>
instruc tions</w>
insp iring</w>
ic ked</w>
go ver
gar bage</w>
fil ter</w>
fail ing</w>
er adi
emer ged</w>
ed ges</w>
d anc
cr y</w>
bu b
bol a</w>
bla me</w>
bicy cle</w>
T en</w>
P l
J a
Isra el
I .</w>
Gre en</w>
E M</w>
200 4</w>
- and-
z ar
v oting</w>
transl ated</w>
th ick</w>
terr orists</w>
tack le</w>
super -
sp ort</w>
secre ts</w>
se ats</w>
ri cher</w>
re turned</w>
r on</w>
particip ation</w>
p ink</w>
ni ght
na ked</w>
line ar</w>
li zed</w>
legis l
lea p</w>
ingredi ents</w>
her o
har m
han ded</w>
gen oci
ge ome
g ated</w>
fig uring</w>
fav or</w>
f an</w>
dialo gue</w>
d ency</w>
conf used</w>
con fron
bro ad</w>
blu e
ber t</w>
bar s</w>
ast oni
arch y</w>
analy ze</w>
agri cultural</w>
Ti me</w>
Oce an</w>
Mar k</w>
M om</w>
L E
Hu man</w>
De partment</w>
A ir
writ ers</w>
w and
usi ons</w>
un able</w>
u d</w>
tra jec
to ber</w>
teenag ers</w>
tal ent</w>
suff ici
sle eping</w>
ske p
sil ly</w>
sh ri
sculp ture</w>
ro lling</w>
religi ons</w>
refuge e</w>
re st
rap id</w>
radic ally</w>
qu est</w>
psy chi
pres sion</w>
pre pare</w>
po et</w>
par as
ow ner</w>
os en</w>
orig in</w>
organiz ing</w>
oran ge</w>
op ens</w>
nur ses</w>
nor thern</w>
nit ure</w>
n es
mechan ics</w>
mar ry</w>
ma gn
lin ks</w>
k ni
it ate</w>
immedi ate</w>
hu m</w>
help ful</w>
har vest</w>
go od
g am
expon ential</w>
en for
embr ac
ele g
ecosy stems</w>
dis appeared</w>
dinos aur</w>
dark ness</w>
competi tive</w>
comm is
ca ta
bl ack
b y-
at a</w>
as sign
after wards</w>
Ri ver</w>
Oc tober</w>
Ma ke</w>
Ital y</w>
Gree k</w>
C ap
3 0s</w>
y o</w>
ver sions</w>
top s</w>
ti zed</w>
t ar</w>
she et</w>
sh ore</w>
sh ell</w>
sc ales</w>
sa fer</w>
res on
reli able</w>
re tin
pri mi
pi one
physic ist</w>
off ici
ob serv
nar row</w>
mo de</w>
lo an</w>
j i
initi al</w>
in tr
he licop
ha m
gra ms</w>
gene tically</w>
fri ger
fif th</w>
fac tories</w>
ex trac
ex ception</w>
enter pri
demonstr ate</w>
d eri
curr ency</w>
cry st
cros s-
contra dic
co in</w>
cho colate</w>
cha irs</w>
cata stro
camp us</w>
calcul ate</w>
c us
bio logists</w>
b ound</w>
b acks</w>
as sa
arg uments</w>
appro aches</w>
air craft</w>
Span ish</w>
So vi
Palest ini
M y
Fri day</w>
F ort
D uring</w>
1 0-
yp e</w>
wi red</w>
vi ously</w>
tum ors</w>
thre ats</w>
tex t
tar gets</w>
surpri singly</w>
st ages</w>
simpli city</w>
s its</w>
s er</w>
ro ws</w>
res ses</w>
re friger
ram id</w>
r at</w>
prom ote</w>
pro pos
pl ed</w>
particip ants</w>
ner ve</w>
mi xed</w>
ma d</w>
k es
j am
ir on</w>
i ous</w>
i e</w>
ha bit</w>
exten ded</w>
ev alu
establi shed</w>
el ite</w>
e ye
e go</w>
e ast</w>
discus s</w>
diag ram</w>
d ented</w>
corpor ations</w>
cli ents</w>
chimpanz ees</w>
chan ces</w>
car ing</w>
bio diversity</w>
be ars</w>
arti cles</w>
archit ec
agre ement</w>
ad ol
acci dents</w>
M e</w>
E bola</w>
Ac t</w>
A -
2 9</w>
. A.</w>
ur a</w>
threat ened</w>
ter ror</w>
stron gly</w>
sto red</w>
sta irs</w>
sac red</w>
primar ily</w>
predic tion</w>
prece dented</w>
pre fer
partic le</w>
ob serve</w>
my steri
micro -
interest ingly</w>
human itarian</w>
gra des</w>
fur niture</w>
foot print</w>
fli p</w>
fa thers</w>
fa st
expan sion</w>
exc it
encoun ter</w>
emer ge</w>
dd le-
d ating</w>
contro ls</w>
compe te</w>
comb at</w>
ch osen</w>
brie fly</w>
bas eball</w>
al ga
al a</w>
ad minist
V en
U g
Ri o</w>
Qu e
Ha iti</w>
H y
Gener al</w>
200 6</w>
volunte ers</w>
tri cks</w>
trans plant</w>
t our</w>
st ones</w>
sh ots</w>
sh opping</w>
separ ated</w>
ro wing</w>
reco ver</w>
qu it</w>
pre mi
poin ting</w>
physici an</w>
photograp hy</w>
photograp her</w>
p ound</w>
or a</w>
ma gical</w>
lu x
li ed</w>
inclu ded</w>
id a</w>
histor ic</w>
ferti liz
fac ility</w>
exter nal</w>
exc ell
emplo yment</w>
down load</w>
dis rup
depres sed</w>
dep th</w>
deli very</w>
deli ber
de ly</w>
cra f
con temporary</w>
comm un
bu ried</w>
au ti
at titude</w>
assem bly</w>
arri ve</w>
a king</w>
Whe ther</w>
W at
Vi et
Si x</w>
S qu
Ob viously</w>
M or
La b</w>
L ar
z e
un precedented</w>
um a</w>
success fully</w>
st or</w>
spi der</w>
sla very</w>
sh ine</w>
sen ior</w>
sacri f
ri vers</w>
reason able</w>
re al-
py ramid</w>
profession als</w>
prin ter</w>
primi tive</w>
preci se</w>
photograph ed</w>
pharm aceu
pe er</w>
pass words</w>
p ap
li um</w>
lan ded</w>
l es
ju mped</w>
in gu
il er</w>
hypo the
hi cal</w>
heal thier</w>
h il
gi le</w>
gar d
frustr ated</w>
far ming</w>
exp anding</w>
el derly</w>
dom s</w>
dec l
d al</w>
con tains</w>
clos est</w>
cir cul
char ity</w>
cap abilities</w>
bi al</w>
be er</w>
b en
arre sted</w>
ans wered</w>
ag gre
a to</w>
Wi thin</w>
Wi th
Sou thern</w>
S k
R ome</w>
Ox ford</w>
M and
Islam ic</w>
H ello</w>
D an
Bo b</w>
B ush</w>
8 00</w>
200 3</w>
1 20</w>
z z</w>
wit ness</w>
was h</w>
war ning</w>
un likely</w>
to cin</w>
suppor ted</w>
sugge sting</w>
sion ally</w>
shar ks</w>
scenari o</w>
resili ence</w>
real m</w>
prosper ity</w>
prof its</w>
ot a</w>
op y</w>
nur se</w>
n -
min im
medi cation</w>
law yer</w>
knowle d
inj ury</w>
impro ving</w>
im migr
hi p
h ey</w>
got ta</w>
fore station</w>
fi ber</w>
expla ining</w>
dis abled</w>
dic tionary</w>
cr it
conser vative</w>
con sul
chi ps</w>
chap ter</w>
chan nels</w>
ch r
categ ory</w>
blo ck
asse ts</w>
as pi
al ty</w>
achiev ement</w>
a is
Z e
With out</w>
S ur
Lit tle</w>
1 3
1 2
0 .
wi dely</w>
v ember</w>
up set</w>
ul tra
tran sc
ti er</w>
sym b
symb ols</w>
survi ved</w>
sugge sted</w>
skele ton</w>
simul ation</w>
sent ences</w>
reduc ed</w>
r ush</w>
pret end</w>
o red</w>
min ing</w>
mat ri
mar ks</w>
list ened</w>
less ly</w>
le an
it er</w>
inter viewed</w>
hack ers</w>
gol den</w>
ev in</w>
enth usi
enter ing</w>
eleph ants</w>
di g</w>
conclu de</w>
chi ef</w>
ch ron
categ ories</w>
Ug anda</w>
S ing
M ag
Fr ank</w>
E astern</w>
Ar ctic</w>
200 1</w>
wit n
vie wing</w>
ut ter
tra u
titu des</w>
ten ds</w>
tal s</w>
scho ol
s .</w>
res sing</w>
prot o
predic tions</w>
pa irs</w>
p ump</w>
oun dly</w>
o th
me ga
lo red</w>
l it</w>
impro ved</w>
im mer
hop es</w>
gather ing</w>
f illing</w>
eri an</w>
en ables</w>
edu cate</w>
disp os
cros sing</w>
crimin als</w>
conta min
connec tivity</w>
com preh
cer ti
ca tal
c s</w>
autom o
auth or
attr act</w>
arti stic</w>
alga e</w>
al tru
activi sts</w>
T y
T es
Si licon</w>
Sh ould</w>
Se a</w>
S om
Resear ch</w>
Phi li
M in
L ist
Jes us</w>
In du
G ar
G ab
B run
B F</w>
wheel chair</w>
wa i
unbeliev able</w>
trans mission</w>
tra ins</w>
tr ucks</w>
ti se</w>
terri fying</w>
t ate</w>
t ab
sta tic</w>
shif ting</w>
sal es</w>
pul ling</w>
preci ous</w>
pos ter</w>
pit ch</w>
ph os
per ceived</w>
optim ism</w>
ograp hic</w>
od ds</w>
mer ely</w>
me ta
ma il</w>
m ut
m ou
laugh ing</w>
inve stors</w>
interven tion</w>
initi ally</w>
i j
hom eless</w>
hi red</w>
h itting</w>
gr as
gol f</w>
go ds</w>
fr action</w>
fast est</w>
explo red</w>
experim ental</w>
earthqua ke</w>
disc rimin
deta iled</w>
d entally</w>
cro p</w>
co vering</w>
civi c</w>
b in</w>
arr ay</w>
ar do</w>
al t</w>
air port</w>
adop ted</w>
Un til</w>
S am
P rot
Or gan
Mi ke</w>
Mar ch</w>
J im</w>
Is n</w>
Gir l</w>
G ulf</w>
C re
y fish</w>
wi d
wea k
v ors</w>
v acu
tra gic</w>
the ore
t ancy</w>
suppor ting</w>
shel ter</w>
sha dow</w>
sh u
sens ory</w>
s mil
rob ust</w>
repres entation</w>
repli cate</w>
re placed</w>
re cep
qu alities</w>
perform ed</w>
oxy tocin</w>
ni ghts</w>
mus icians</w>
mir acle</w>
min d-
min al</w>
meth ane</w>
mag nific
le verage</w>
imag ery</w>
home work</w>
hear t
he al</w>
gradu ally</w>
genoci de</w>
g ases</w>
g aps</w>
fin ger
fac ilities</w>
excit ement</w>
et ro
er o
en de
en a</w>
domin ant</w>
d ressed</w>
colon ies</w>
clim bing</w>
char ged</w>
ca s
bur den</w>
bla h</w>
b un
b adly</w>
autonom ous</w>
auth orities</w>
and er
accep table</w>
ac ies</w>
ab and
W o
W as</w>
Sor ry</w>
N SA</w>
G ates</w>
Christi an</w>
B lack</w>
A m</w>
3 3</w>
20 s</w>
, 500</w>
wi der</w>
w age</w>
v y</w>
ur ban
tradi tions</w>
ti les</w>
t ap
st ability</w>
she ets</w>
see king</w>
ri cul
renew able</w>
re view</w>
re fer</w>
r ings</w>
prof oundly</w>
pro file</w>
ph or
p ort
mo bility</w>
lo ans</w>
la ke</w>
k able</w>
j ection</w>
intu ition</w>
industri es</w>
hea ven</w>
happ ier</w>
grand parents</w>
gl ad</w>
fra gile</w>
foot age</w>
fin ed</w>
fi res</w>
femin ist</w>
extin ction</w>
exper tise</w>
estim ates</w>
ed ly</w>
dra wings</w>
dis gu
d i</w>
conduc ted</w>
compas sionate</w>
comm ents</w>
coll ectively</w>
col or
clos ing</w>
cha ins</w>
bi c</w>
bath room</w>
b os
at ar</w>
as sumption</w>
an ni
T ru
Scot t</w>
M other</w>
L ong</w>
I ran
H al
Dec ember</w>
B ack</w>
7 00</w>
00 0-
y an</w>
u ti
u bi
tri bes</w>
th al</w>
tar ge
ta ined</w>
t ank</w>
sur faces</w>
sum mar
su gg
stro ke</w>
shri mp</w>
she ep</w>
sch iz
s ne
reven ue</w>
remember ed</w>
re minds</w>
re build</w>
qu ali
pur poses</w>
prot est</w>
pi gs</w>
par ks</w>
mysteri ous</w>
may or</w>
magn itude</w>
l ou
jus ti
is lands</w>
ig no
high way</w>
g os
fall en</w>
f es
explos ion</w>
er able</w>
descrip tion</w>
deman ds</w>
cu ts</w>
conver t</w>
collabor ative</w>
cer em
catastro p
bu rea
blo wing</w>
b or</w>
attrac tive</w>
as ing</w>
arr ator</w>
architec tural</w>
ag er</w>
adv enture</w>
N arrator</w>
M is
Fi f
Car ol
A cade
20 50</w>
198 0s</w>
- making</w>
vie wer</w>
v ice</w>
tun e</w>
tra its</w>
to wer</w>
syn the
str eng
shel f</w>
rhyth m</w>
restri c
regre t</w>
reduc ing</w>
publi sh</w>
preser ve</w>
per ceive</w>
peace ful</w>
or b
nec k</w>
near by</w>
motiv ated</w>
micro bial</w>
marke t
m on</w>
li ament</w>
k o</w>
j ell
inst antly</w>
ins ul
in car
ho li
head ing</w>
ha i</w>
gar age</w>
ep is
enc ryp
di ve</w>
di le
cor als</w>
cop y
chec k
bur ned</w>
bru ary</w>
believ es</w>
au dio</w>
ad vo
accoun ts</w>
T er
T echnology</w>
Sovi et</w>
S E
Nor way</w>
N one</w>
Mo on</w>
Mini ster</w>
I .
Ha wai
Go vern
Flor ida</w>
Fe bruary</w>
F ree
F BI</w>
E ric</w>
Coun cil</w>
Cam bridge</w>
B el
&apos; clock</w>
v able</w>
un certainty</w>
to ys</w>
tissu es</w>
ti ps</w>
su its</w>
ste al</w>
simul taneously</w>
sex y</w>
se t
roman tic</w>
ri l</w>
reci pe</w>
real istic</w>
re tro
pos ted</w>
pengu ins</w>
p ing</w>
our ing</w>
on a</w>
off ices</w>
oc curr
o dy</w>
newsp apers</w>
n om
mo od</w>
liter acy</w>
li hood</w>
ki ly</w>
key board</w>
ins ect</w>
gather ed</w>
es thetic</w>
enfor cement</w>
ed a</w>
don es
difficul ty</w>
di ving</w>
custom er</w>
cur ricul
cre w</w>
cr ack</w>
can e</w>
bra in
believ ing</w>
bed room</w>
at tle</w>
ari ties</w>
appl ying</w>
appe ar
ambi tious</w>
ad vis
T .</w>
S pe
S pain</w>
Nor thern</w>
N ic
M er
M ad
K evin</w>
Indu stri
In dones
Col um
C ra
C our
Be ij
6 ,000</w>
3 0,000</w>
2 6</w>
wash ing</w>
ver s
ur ge</w>
trajec tory</w>
tra uma</w>
tion ality</w>
tim acy</w>
tic ket</w>
sub way</w>
sub si
struc tural</w>
stay ing</w>
sh it</w>
ser ver</w>
realiz ing</w>
qui to</w>
prepar ing</w>
po le</w>
pan els</w>
ore sc
ne ys</w>
na tives</w>
motiv ation</w>
mi ddle-
lo ving</w>
la bel</w>
kin son</w>
ki e</w>
k ick</w>
in k
ic on</w>
honest ly</w>
grav it
gr ounds</w>
fun ds</w>
fl ash
exp ecting</w>
ex er
err ors</w>
entreprene ur</w>
ec raft</w>
e ter
dro ps</w>
di ble</w>
di a</w>
demon stration</w>
cy cles</w>
correc tly</w>
consi der
com ment</w>
ci ous</w>
burea uc
beauti fully</w>
astoni shing</w>
astero id</w>
angl ad
ama z
air s</w>
ag ents</w>
ad m
ad ays</w>
ab s
Yor ker</w>
Th ird</w>
Squ are</w>
R ed</w>
P ut</w>
Lo ve</w>
La w</w>
F ord</w>
Demo cr
D A</w>
Can adi
B oth</w>
B anglad
Al though</w>
2 8</w>
197 0s</w>
. com</w>
wor e</w>
wat ers</w>
tun a</w>
tr ash</w>
tic ism</w>
ti ze</w>
ta ining</w>
susp ect</w>
stri ke</w>
star ing</w>
st ly</w>
sci ences</w>
scen es</w>
ro gen</w>
re d
previ ously</w>
pi x
person alized</w>
para dox</w>
pan el</w>
p it</w>
oph ren
off ers</w>
navi gate</w>
mos quito</w>
mm er</w>
magnific ent</w>
m m</w>
m -
ly n</w>
ligh t
law yers</w>
l ot
it er
inno cent</w>
hum ili
horiz on</w>
fant as
esc ence</w>
er o</w>
equ ity</w>
ent y-
distri ct</w>
disco vering</w>
d ose</w>
concer ns</w>
compu tation</w>
comp elling</w>
circu its</w>
by e</w>
bub bles</w>
bu g</w>
bran ch</w>
bo red</w>
bl ank</w>
bi zar
b ats</w>
au g
astero ids</w>
ar cha
anat omy</w>
air planes</w>
ag ent</w>
adap ted</w>
activ ate</w>
ab y
a tic</w>
a de
a .m.</w>
V ic
T re
St ar</w>
St ar
Satur n</w>
Sahar an</w>
S W</w>
Ju ly</w>
Hi gh</w>
F er
D a
Bu il
Bo y</w>
Bl ue</w>
Bi ble</w>
Be ing</w>
Acade my</w>
8 5</w>
20 15</w>
z ones</w>
wild life</w>
what so
whatso ever</w>
w ill
v ille</w>
sque e
sp in</w>
smo oth</w>
signific antly</w>
shi pping</w>
sens or</w>
seem ingly</w>
schiz ophren
run k</w>
remember ing</w>
reg ard
regard less</w>
re actions</w>
pros thetic</w>
pro jec
ou ter</w>
ot echnology</w>
open ness</w>
ob served</w>
o ked</w>
min es</w>
ment or</w>
m apping</w>
lun gs</w>
lim itations</w>
it ors</w>
intri gu
insi ghts</w>
hun ting</w>
house hold</w>
hi er
guil ty</w>
great -
gradu ated</w>
f ancy</w>
expec tancy</w>
ema ils</w>
domin ated</w>
dom ain</w>
distinc t</w>
di um</w>
descri bing</w>
dec re
de forestation</w>
dam n</w>
continu ous</w>
constra ints</w>
consci ously</w>
compar ison</w>
clo thing</w>
claim s</w>
cl ay</w>
cell ular</w>
ca ves</w>
be sides</w>
b at</w>
anthro po
aggres sive</w>
ade qu
Wh at
U S
Secon dly</w>
Rus sian</w>
M ach
L .A.</w>
K ar
Ital ian</w>
E s
Chil d</w>
work force</w>
wor ms</w>
wo ke</w>
win ds</w>
wand ering</w>
vi bra
va cation</w>
v ag
u ed</w>
tri gg
tri be</w>
trac ks</w>
tr ace</w>
tr a</w>
to w
the ast</w>
teles copes</w>
ta tional</w>
ta il
t sun
t one</w>
surr ounding</w>
sil ver</w>
ro of
reduc tion</w>
re ads</w>
r ats</w>
psycho logist</w>
prop ag
pri sons</w>
plan etary</w>
peri ods</w>
pe op
passen ger</w>
orig ami</w>
n ou
monit oring</w>
mis sions</w>
manag er</w>
m ort
lon g
li ce</w>
l ec
jud gment</w>
in justice</w>
in duc
i est</w>
head lines</w>
gener ating</w>
gen ous</w>
flu oresc
f ts</w>
f ound
f is
exten sion</w>
est ate</w>
encoura ged</w>
en i
empo wered</w>
el ly</w>
dia c</w>
controver si
con front</w>
cha m
carto ons</w>
ca p</w>
bran ches</w>
bizar re</w>
bio logist</w>
bin ary</w>
bil li
bene ath</w>
be ating</w>
b end</w>
assi stance</w>
ap or
analo gy</w>
a ster</w>
a ca
W in
Syri a</w>
R B</w>
Olymp ics</w>
J on
G ore</w>
Fran k
E du
Des ign</w>
D evel
African- American</w>
A M</w>
195 0s</w>
ubi quit
tri gger</w>
terri fied</w>
ten dency</w>
temper atures</w>
teenag er</w>
t less</w>
t ance</w>
story telling</w>
soldi er</w>
short -
sho cked</w>
se a
reg ul
refl ection</w>
re mot
re actor</w>
rati o</w>
r us</w>
physici sts</w>
p ants</w>
ordin arily</w>
om ics</w>
o tion</w>
ne at</w>
n ic</w>
mat ure</w>
m ously</w>
kill s</w>
k i</w>
inv enting</w>
influ enced</w>
inf ections</w>
in ity</w>
ho p</w>
hard est</w>
gene tics</w>
for got</w>
ec tors</w>
dy s
desper ately</w>
demo graphic</w>
dama ged</w>
coun ting</w>
contin ents</w>
clu b</w>
ci g
challeng ed</w>
can opy</w>
at ers</w>
al istic</w>
activ ist</w>
ac knowledge</w>
a c</w>
Su per
Sm ith</w>
S top</w>
S ir</w>
Ph .D.</w>
M A</w>
L ord</w>
Industri al</w>
Devel op
D ou
D ad</w>
Bro ok
5 0s</w>
19 0
, 000-
vacu um</w>
v enture</w>
ubiquit ous</w>
stri king</w>
straigh t
sti cal</w>
st ays</w>
speci alized</w>
spea ks</w>
soci ally</w>
smart phone</w>
sh y</w>
sel ected</w>
scr atch</w>
sand w
safe ly</w>
sacrif ice</w>
s enti
ro les</w>
rit u
ris h</w>
reti rement</w>
rema ining</w>
ra tions</w>
ra il
pro pose</w>
prison ers</w>
portra it</w>
plu g</w>
pi e</w>
pa ths</w>
or ph
oper a</w>
mosquit os</w>
mos pher
man ner</w>
lux ury</w>
lon ely</w>
lo g</w>
ll a</w>
lar ge-
lan ding</w>
la p</w>
jell yfish</w>
iz za</w>
inst ant</w>
in ches</w>
ic e
glam orous</w>
g ating</w>
flo wing</w>
fi bers</w>
f ate</w>
expla ins</w>
ent ro
en try</w>
el son</w>
dynam ics</w>
dolph in</w>
discipl ine</w>
dis abilities</w>
de ar</w>
d or
comm and</w>
cli ent</w>
cl arity</w>
ca ke</w>
bul b</w>
bot tles</w>
boo k
barri er</w>
anony mous</w>
an ten
an ity</w>
ama zed</w>
adv ances</w>
ac tively</w>
abs ence</w>
Willi am</w>
Th rough</w>
Ste ph
S ure</w>
Ra ther</w>
R oc
O ff
Le on
Is lands</w>
F o
Au gust</w>
Ar gent
Alex ander</w>
A sian</w>
y ourselves</w>
wat ts</w>
vi al</w>
ver -
transl ation</w>
ti me-
teen age</w>
te en</w>
t ary</w>
stopp ing</w>
ste pped</w>
spac ecraft</w>
scre ening</w>
s ink</w>
rema ined</w>
recei ving</w>
re ha
qu ad
prom ised</w>
pro ved</w>
pro posed</w>
pre scrip
pla in</w>
pan ic</w>
pal m</w>
pa use</w>
p al</w>
me l</w>
matri x</w>
ma ster
lo ws</w>
lic it</w>
le ment</w>
lab s</w>
l aughter</w>
kni fe</w>
k in</w>
institu tional</w>
in ery</w>
impres sive</w>
horiz on
ha bits</w>
h ated</w>
gu id
gr ab
gi e</w>
gener ous</w>
fol ding</w>
fa i
em a</w>
e aten</w>
di al</w>
dd enly</w>
d op
d ential</w>
d ele
curricul um</w>
cu st
cos mic</w>
continu ing</w>
concent ration</w>
coh ol</w>
camp s</w>
bur gh</w>
b ound
att acked</w>
athle tes</w>
as m</w>
Ze al
Some body</w>
N elson</w>
M ol
La dies</w>
L T</w>
Indones ia</w>
Hen ry</w>
E mp
E m
E con
Dis ney</w>
Beij ing</w>
2 4
wi res</w>
we dding</w>
un cle</w>
to es</w>
th or
ta xes</w>
t esti
sus pic
succe eded</w>
stri p</w>
strate gic</w>
st ine</w>
sou p</w>
some day</w>
small est</w>
shar p</w>
sal t</w>
ri sky</w>
research er</w>
re store</w>
rap ed</w>
r i</w>
r ating</w>
pursu e</w>
pri de</w>
pres sing</w>
por tion</w>
pas sive</w>
pack age</w>
p on
p ir
p ig
on ia</w>
off ering</w>
obst acles</w>
o ven</w>
o li
o ks</w>
mo ld</w>
men tation</w>
measu rements</w>
mach inery</w>
lo ves</w>
l ls</w>
it or</w>
inter ior</w>
inte gration</w>
inf ec
in dependence</w>
immen se</w>
ignor ance</w>
i gh</w>
hon y</w>
heal ing</w>
hall uc
gro cer
fu r</w>
fre sh
fil mma
far ms</w>
fail ures</w>
fab ri
expedi tion</w>
exer c
ere k</w>
entro py</w>
em en</w>
econom ist</w>
don or</w>
differ enti
deep est</w>
cy lin
copy right</w>
conn ects</w>
com et</w>
co operate</w>
che ese</w>
campa ig
buil ds</w>
break through</w>
br is</w>
bi e</w>
bi an</w>
be aten</w>
barri ers</w>
awk ward</w>
are t
al cohol</w>
ac hu
ab ili
What ever</w>
Tur ns</w>
Sun day</w>
Su ddenly</w>
R NA</w>
O k
Medi a</w>
John son</w>
G and
E .
D erek</w>
Col le
Ber lin</w>
B M</w>
z i
win d
weal thy</w>
un -
trans mit</w>
tr apped</w>
terri bly</w>
t i</w>
susta in</w>
stor age</w>
sh or
sec tions</w>
scre ens</w>
s wal
rub ber</w>
rou t
ro lled</w>
r o</w>
propor tion</w>
proce d
proced ure</w>
preci sion</w>
pot ent</w>
pleas ant</w>
plan ting</w>
p ene
p acked</w>
overwhel ming</w>
ous y</w>
or an</w>
neu tral</w>
me tric</w>
main stream</w>
lis m</w>
ligh ten
lif ted</w>
kid ney</w>
kee pers</w>
journ alism</w>
interpre tation</w>
inju red</w>
incl usive</w>
incar cer
in cen
imag ining</w>
igno red</w>
hypo thesis</w>
human -
he avi
go d</w>
fortun e</w>
fo ods</w>
fi es</w>
fe males</w>
exha u
ex ag
er ce</w>
end ang
en vel
ec ological</w>
ear ning</w>
e pi
dr one</w>
down town</w>
div or
di stor
di am
devast ating</w>
deci sion
de fault</w>
crit eria</w>
comple ted</w>
colum n</w>
collap sed</w>
co vers</w>
co lored</w>
cienti sts</w>
c us</w>
br ush</w>
be half</w>
ar i</w>
appe aring</w>
accoun tability</w>
aband oned</w>
Zeal and</w>
Wh it
To gether</w>
T ali
S he
S en
R ed
Pro f
Mo z
Mo ore</w>
M as
L a</w>
I ts</w>
Cour t</w>
Chi le</w>
Ch an
Brun o</w>
B il
Al most</w>
Ab solu
zero- sum</w>
wor rying</w>
wo ods</w>
whe at</w>
val ley</w>
ush ing</w>
un conscious</w>
u red</w>
tsun ami</w>
trans forming</w>
th umb</w>
territ ory</w>
sub stance</w>
sub st
stra tions</w>
scan ning</w>
scan ner</w>
san itation</w>
respon ded</w>
requ i
que en</w>
pu p
psycho logists</w>
pro ven</w>
prin ts</w>
phos phor
peop les</w>
par achu
p izza</w>
ot ted</w>
occur s</w>
occa sionally</w>
nu ts</w>
mor ality</w>
mom en
minim um</w>
mathema ticians</w>
mam mo
m ics</w>
li sts</w>
labe led</w>
l friend</w>
l ad
install ed</w>
im per
ide ology</w>
ick ens</w>
hor mon
hi ding</w>
helicop ter</w>
h acking</w>
gentle man</w>
fra mes</w>
expos ure</w>
evol ving</w>
enz y
dr ones</w>
dist ingu
det ection</w>
dest iny</w>
defin ing</w>
decre ase</w>
cri mes</w>
cour ses</w>
coun ter</w>
conveni ent</w>
cont ex
co at</w>
cer e
c and
bom bs</w>
bom b
blo wn</w>
blin dness</w>
b ite</w>
at titudes</w>
alter natives</w>
al titude</w>
ac knowled
X- ray</w>
U p</w>
Th ir
Sp eci
Soci al</w>
S wis
S till</w>
S il
Prof essor</w>
Palestini an</w>
L uc
L A</w>
J ane</w>
D ut
D ra
Colle ge</w>
C ur
Bri an</w>
Ar my</w>
3 6</w>
volunte er</w>
v ary</w>
up side</w>
tou ching</w>
ton gue</w>
ther mal</w>
te l</w>
t ag
supp lies</w>
subst anti
straight forward</w>
sl ums</w>
si zes</w>
si der</w>
reli ef</w>
pe ts</w>
pe ers</w>
pass word</w>
pas ses</w>
p ill
on er</w>
offici als</w>
o oh</w>
ner ves</w>
n am</w>
momen tum</w>
me g
ma tion</w>
landsc apes</w>
l en</w>
k ingdom</w>
invest ments</w>
introduc tion</w>
integr ate</w>
indi genous</w>
im provi
ic king</w>
hy bri
har ve
gli mp
fun g
follo ws</w>
ff s</w>
f ing</w>
extra ordinarily</w>
ex ce
end less</w>
en e</w>
dro w
docum entary</w>
descri bes</w>
democr acies</w>
dec or
d os
cri tici
conv ey</w>
con tain
con fir
cig aret
chromos ome</w>
bur st</w>
bo ld</w>
bel t</w>
at omic</w>
at mospher
assign ment</w>
assem ble</w>
appear ance</w>
al arm</w>
ac he</w>
Viet nam</w>
Ti m</w>
T ony</w>
T anz
Sh ang
S wit
S imp
S aud
Pe ace</w>
O l
NG Os</w>
N I
Mand ela</w>
M el
List en</w>
Hom o</w>
H igh
H C</w>
Ex cept</w>
Del hi</w>
Com pu
Canadi an</w>
C ath
Banglad esh</w>
B en</w>
A L
2 5
w ound</w>
vi sions</w>
vege tables</w>
u mp
ti ble</w>
t ant</w>
syn dr
suffici ent</w>
sub ur
ster n</w>
st ack</w>
sp ra
so ap</w>
simpl er</w>
sen sing</w>
s anc
ro ll
reve aled</w>
ree fs</w>
ree f</w>
read ers</w>
re alities</w>
rain forest</w>
pul se</w>
prot ests</w>
profes sion</w>
por ts</w>
pol lin
pol ar
po t</w>
po ckets</w>
philosop her</w>
phenomen a</w>
pharmaceu tical</w>
p el
ow nership</w>
ow ners</w>
orig ins</w>
on going</w>
ograp hy</w>
no des</w>
micro phone</w>
mel t</w>
medic ines</w>
mar ch</w>
mani fe
m and
lo ads</w>
le an</w>
large- scale</w>
iz es</w>
inten sive</w>
inten sity</w>
infec tious</w>
in i</w>
hop ed</w>
home town</w>
histor ically</w>
gu ard</w>
gi vers</w>
ge ar</w>
fron tal</w>
fre ely</w>
es cal
equ ations</w>
ent -
endang ered</w>
encoura ging</w>
emplo yed</w>
dis agree</w>
d or</w>
cul tiv
cot ton</w>
consum ed</w>
concer t</w>
con sen
compe ting</w>
ca sting</w>
c a</w>
bot tom
bo om</w>
bo ats</w>
ban king</w>
b i</w>
b ands</w>
au to
appro ved</w>
ann ual</w>
am p</w>
ali an</w>
accompli shed</w>
ab ling</w>
Wa it</w>
Swis s</w>
S pr
Par kinson</w>
P A</w>
L ou
J up
H all</w>
Gre ece</w>
D s</w>
C os
Brook lyn</w>
Bro wn</w>
B re
B ol
B at
Absolu tely</w>
6 0,000</w>
200 2</w>
199 8</w>
19 60</w>
- of-
yi eld</w>
y n
ver i
v ant
utter ly</w>
ter rain</w>
suc k</w>
sub jective</w>
st um
sp an</w>
separ ation</w>
sca ff
s che
ritu als</w>
resi dents</w>
requ est</w>
rela tives</w>
ref used</w>
qui e
pur suit</w>
pro -
pri or</w>
po int
p ill</w>
op ini
mot or
min ority</w>
manipul ate</w>
manag ers</w>
m one</w>
low est</w>
legisl ation</w>
legi timate</w>
k el
j un
it age</w>
inter section</w>
int on</w>
illustr ate</w>
hor mone</w>
hand ful</w>
guaran tee</w>
ge l</w>
frighten ing</w>
for -
fol ded</w>
fl ou
el ds</w>
discus sions</w>
dile mma</w>
di vision</w>
cou ples</w>
cor ners</w>
controversi al</w>
comprom ise</w>
comm it</w>
co inci
clean ing</w>
class rooms</w>
ca su
bre eding</w>
bel ly</w>
ban g</w>
auti stic</w>
audi ences</w>
appro xim
appro aching</w>
appe al</w>
app y</w>
an i</w>
ambi gu
am ine</w>
am ate
adop t</w>
administ ration</w>
accur acy</w>
Sing ap
Sec urity</w>
Ri ghts</w>
R ay</w>
Mic hel
M ur
K a
J ack</w>
Israel i</w>
Gr and</w>
F re
D oc
D E
Cath o
Carol ina</w>
C ho
B ron
4 8</w>
20 0,000</w>
wor m</w>
whe els</w>
war e
wa ited</w>
ves sel</w>
va tives</w>
v oted</w>
ur able</w>
underst ands</w>
u ality</w>
tri cal</w>
ti fication</w>
th- century</w>
th west</w>
te dly</w>
survi vors</w>
stret ch</w>
sti g
sp inning</w>
sig nature</w>
sh r
s ni
s es
ro w
resi st</w>
res ur
recycl ing</w>
re think</w>
rais es</w>
pros titu
pros tate</w>
pr osp
poli tically</w>
plat forms</w>
pl um
paraly zed</w>
p ecu
ou ts</w>
ong side</w>
non profit</w>
narra tives</w>
n esses</w>
mo bili
m uni
lea f</w>
it ably</w>
inter n
initi ative</w>
in ser
imple ment</w>
il a</w>
i di
h at</w>
func tioning</w>
fra ud</w>
form at</w>
expres sions</w>
empo wer</w>
eleg ant</w>
electro des</w>
ec ology</w>
dou bled</w>
di arr
dea f</w>
de stri
cur ves</w>
contro ll
compu tational</w>
comp ounds</w>
communi cating</w>
cal ories</w>
bul let</w>
belon gs</w>
b all
angl es</w>
amp li
amaz ingly</w>
al ongside</w>
Wh ereas</w>
Steph en</w>
Se attle</w>
Saud i</w>
N et
I sa
E ven
D re
D etro
C D</w>
4 0,000</w>
zer land</w>
vari ations</w>
u ps</w>
tun nel</w>
tou gh
thri ve</w>
super market</w>
stor ms</w>
stom ach</w>
st on</w>
sel fish</w>
s per
s lower</w>
rit ual</w>
resol ve</w>
remark ably</w>
reg ulation</w>
recogn izing</w>
re produce</w>
r ape</w>
privile ged</w>
pri ority</w>
pres su
phosphor us</w>
p a</w>
over night</w>
orchestr a</w>
or -
observ ations</w>
ob jec
mu tations</w>
mis erable</w>
mas ses</w>
market place</w>
lo cations</w>
like lihood</w>
li fel
leg ally</w>
ing er</w>
inf ant</w>
in timate</w>
identi ties</w>
he a</w>
har mony</w>
hand -
grocer y</w>
gl ue</w>
gh ted</w>
geome try</w>
g as
fra g
fir st-
f way</w>
expres sed</w>
expan ded</w>
excell ent</w>
eth nic</w>
er als</w>
enterpri se</w>
en em
dist ances</w>
dia meter</w>
deplo yed</w>
demo cra
def end</w>
dec lar
da wn</w>
cruc i
cros sed</w>
cop ic</w>
consum ing</w>
chr onic</w>
che mo
ch ur
bus es</w>
bon ds</w>
be an</w>
bacter ial</w>
b and
automo bile</w>
authenti c</w>
appro ached</w>
ant a</w>
an no
ad el
acceler ate</w>
a the
a er
Y oun
Tali ban</w>
T om
Swit zerland</w>
Some one</w>
Sa me</w>
S D</w>
Que en</w>
P rin
No vember</w>
Ne ander
M K</w>
K u
Ch urch</w>
Ap ril</w>
A ge</w>
4 7</w>
20 14</w>
196 0s</w>
z ation</w>
wi ves</w>
web sites</w>
we t
we stern</w>
we ed</w>
war ri
w rist</w>
vi vi
vi sion
v enti
us cri
therap ies</w>
teach es</w>
te ar</w>
t z</w>
syndr ome</w>
sp ati
six -
she er</w>
sel ect</w>
sc al
s in
revol utionary</w>
res ul
refl ected</w>
rec k
re sem
re n</w>
psych op
pregn ancy</w>
pre me</w>
pre ad</w>
po ems</w>
pic k
pes tici
pe destri
p ouring</w>
over -
om ing</w>
o do
neu tr
n ity</w>
my th
min us</w>
mi x
mess y</w>
me ets</w>
mathema tician</w>
man uscri
ma xi
loc ally</w>
lif esp
le ep</w>
kin dness</w>
ju ven
jo int</w>
j et</w>
ir ts</w>
interpre t</w>
inter views</w>
inter net</w>
inher ently</w>
incen tive</w>
imp ul
hop eful</w>
high- tech</w>
harm ful</w>
gir lfriend</w>
ga ined</w>
g an</w>
fundam ent
frequ ently</w>
fl ash</w>
fi red</w>
fe ver</w>
fac il
explo it</w>
ess ly</w>
enem ies</w>
em bo
docum ented</w>
destro ying</w>
decision -making</w>
dec k</w>
de pos
contribu ted</w>
contr ary</w>
comp lish</w>
come dy</w>
co des</w>
clu ster</w>
cl ue</w>
care ers</w>
bri dges</w>
bo ther</w>
bloo d
ble w</w>
as i</w>
ad ul
ac complish</w>
Wat son</w>
St .</w>
Singap ore</w>
Shang hai</w>
S el
Organ ization</w>
K oran</w>
Jup iter</w>
Jer sey</w>
J our
Even tually</w>
B ell</w>
Ari st
Any body</w>
A ir</w>
1. 5</w>
wid th</w>
wel fare</w>
w rap</w>
un happy</w>
tiv eness</w>
thri lled</w>
thre sho
thresho ld</w>
t ori
t all
sur geons</w>
str ings</w>
stere otyp
st es</w>
retin a</w>
ref use</w>
re vel
r ose</w>
portra its</w>
po x</w>
plas tics</w>
phi a</w>
par enting</w>
out break</w>
ou gh
mus ician</w>
mu d</w>
mo tions</w>
mm ed</w>
mem es</w>
mel ting</w>
l y-
it ems</w>
it an</w>
install ation</w>
ine -
ho ly</w>
ha med</w>
ha ir
gu ards</w>
gravit ational</w>
glaci er</w>
gen omes</w>
ge st
fin dings</w>
f on
ev apor
enjo yed</w>
ell a</w>
elimin ate</w>
el em
earli est</w>
ear ned</w>
dro pping</w>
dra g</w>
discrimin ation</w>
den ial</w>
de struc
de fic
d ung</w>
consen sus</w>
conduc t</w>
concentr ated</w>
co ach</w>
chimpanz ee</w>
chec ked</w>
candi date</w>
can v
cal m</w>
ca tes</w>
broad er</w>
bound ary</w>
b uc
aud it
at ro
at oes</w>
assum ed</w>
ari ans</w>
anticip ate</w>
an ic</w>
aff ecting</w>
adel phia</w>
add ressing</w>
ad just</w>
abund ance</w>
a esthetic</w>
a be
Tur key</w>
Q a
Phil adelphia</w>
P ret
P it
L augh
Je ff</w>
J ac
Ge ographic</w>
Gab by</w>
Dut ch</w>
Coun ty</w>
Cl inton</w>
Catho lic</w>
Braz ili
Be at
B us
Arist ot
An drew</w>
Ac cording</w>
A T</w>
4 2</w>
20 20</w>
w rest
visu alize</w>
vis ually</w>
ver ts</w>
ven ue</w>
vas cular</w>
us eless</w>
ur us</w>
tun ed</w>
tu bes</w>
tri vial</w>
tri ps</w>
trans fer
th and</w>
th a</w>
syn ap
st res
st le</w>
so oner</w>
sk i</w>
si ans</w>
shif ts</w>
sen sation</w>
sen ds</w>
sec tors</w>
s ors</w>
s ale</w>
restaur ants</w>
repor ting</w>
reg ularly</w>
reg ard</w>
programm ed</w>
pro position</w>
pro be</w>
philanthro py</w>
or dered</w>
opini ons</w>
off spring</w>
off -
occurr ing</w>
occu p
na tion
mi xing</w>
mat ched</w>
mark er</w>
manag ing</w>
lo com
lan es</w>
l ined</w>
kne es</w>
kes pe
k n
it em</w>
isol ation</w>
indi cate</w>
in formal</w>
im plant</w>
i ghts</w>
gr ass
gi a</w>
g han</w>
g ering</w>
form ula</w>
fl esh</w>
fil es</w>
far ther</w>
f est</w>
exag ger
estab lish</w>
er ra</w>
du ty</w>
dre aming</w>
dec ent</w>
de pic
d ary</w>
d am</w>
contribu tion</w>
com mon
clin ics</w>
ce -
car ed</w>
ca s</w>
but ter
break fast</w>
bor row</w>
bo y
ba i</w>
avo i
au ts</w>
ar ded</w>
ag e-
aff airs</w>
advo cate</w>
adequ ate</w>
activ ated</w>
T ha
St age</w>
Si erra</w>
Sha kespe
S tr
Qa eda</w>
Pret ty</w>
Por tu
P T
Me an
M en</w>
M W</w>
Leon ardo</w>
Indi ans</w>
H osp
H ong</w>
C ri
Any one</w>
A T
3 0-
20 13</w>
20 -
1 1
work place</w>
win ner</w>
we l</w>
vot ers</w>
val ence</w>
tro pical</w>
tre as
toler ance</w>
toil ets</w>
theore tical</w>
tex ts</w>
su red</w>
ste am</w>
smil ing</w>
sequ ences</w>
righ t-hand</w>
ri dge</w>
repe ated</w>
recomm end</w>
re war
puni shment</w>
pul ls</w>
prot ective</w>
propos al</w>
plan ned</w>
phenomen al</w>
per ceptions</w>
pecu liar</w>
part nership</w>
part ner
overwhel med</w>
ori um</w>
on stage</w>
om ed</w>
ol ine</w>
ol en</w>
offic ers</w>
no ises</w>
near est</w>
ne o
mush room</w>
mur der</w>
mot ors</w>
modi fied</w>
mod eling</w>
me tic</w>
mar ked</w>
man ual</w>
liter ate</w>
le thal</w>
k ton</w>
jo y
it ating</w>
in o
impres sion</w>
hum ility</w>
hon ey</w>
ho ok</w>
hal fway</w>
h -
gras p</w>
gra ve</w>
gl ori
geograp hy</w>
g ates</w>
fr an
exc use</w>
ex ec
eng ines</w>
encoun tered</w>
en -
electr on</w>
eigh t-
eg g</w>
des pair</w>
deli cious</w>
dec ep
de vil</w>
de als</w>
d umb</w>
d runk</w>
d ental</w>
cra p</w>
coun ted</w>
coun sel
con fig
com ic</w>
collabor ate</w>
co her
clu bs</w>
clim bed</w>
cli ff</w>
cerem ony</w>
bi ases</w>
back yard</w>
b ond</w>
b ills</w>
at ric</w>
at ories</w>
accoun table</w>
Wh o
W ol
Tanz ania</w>
T as
S ta
S now
S an
N ick</w>
N ep
M ari
H op
H im
Green land</w>
G l
E ver
D ru
Co ke</w>
C RIS
Atlan ta</w>
Af ghan</w>
4 0
199 9</w>
199 0</w>
19 80</w>
y og
win ners</w>
war mer</w>
ven ess</w>
us age</w>
ul tr
tur b
tru st
tro ops</w>
trau matic</w>
tiv al</w>
ther ed</w>
th ur</w>
th r
techn ically</w>
tal e</w>
swit ched</w>
so cc
socc er</w>
skele tal</w>
simpl est</w>
sc ans</w>
sa ke</w>
s in</w>
rot ate</w>
revolu tion
realiz ation</w>
re aches</w>
prac tically</w>
pr ay</w>
pl ing</w>
pi pe</w>
parachu te</w>
p our</w>
p ills</w>
ob sole
na sty</w>
na mely</w>
mis m</w>
mi mic</w>
m ac
li ze</w>
laugh ed</w>
la sting</w>
jour nal</w>
je al
it y-
invol ve</w>
invas ive</w>
inten tion</w>
innov ate</w>
il es</w>
ic onic</w>
hor ses</w>
hier archy</w>
hel pl
gra mma
gor geous</w>
glimp se</w>
ge o
found ations</w>
fol ds</w>
flo at</w>
fi cations</w>
f in</w>
f ence</w>
ex cep
ev al</w>
est ers</w>
el abor
doub le-
dest ination</w>
deser ves</w>
demonstr ated</w>
deli vering</w>
deci ding</w>
cosmo s</w>
conver ted</w>
contribu ting</w>
classi cal</w>
cat ching</w>
car t</w>
candi dates</w>
bur g</w>
bat teries</w>
b am
astronom ers</w>
art work</w>
ans as</w>
al lies</w>
aci ous</w>
achiev ing</w>
a u</w>
a tives</w>
T uni
T I</w>
Sy stem</w>
S anta</w>
P MS</w>
M ac
M R</w>
Jo e</w>
J us
J eff
Hawai i</w>
Hal f</w>
Detro it</w>
D .C.</w>
CRIS PR</w>
B it
B ir
Ar thur</w>
Ar ch
Ap ol
Ale x</w>
A K</w>
5 5</w>
3 1</w>
youn gest</w>
y e</w>
wr apped</w>
wo o
wa sted</w>
w ling</w>
visu alization</w>
vis iting</w>
ver theless</w>
tw ins</w>
tra p</w>
threat ening</w>
th us</w>
stimul ation</w>
sta ke</w>
sper m</w>
sm u
sing le-
sh at
sc aling</w>
sa il</w>
rout ine</w>
robo tics</w>
reha bil
re stor
public ly</w>
pi geon</w>
ph a</w>
perspec tives</w>
persi st
osy n
opp er</w>
ol d-
obsole te</w>
now adays</w>
non e
none theless</w>
ni um</w>
mas k</w>
m apped</w>
m all</w>
lo s</w>
list ed</w>
lef t-hand</w>
lea ther</w>
lam p</w>
ket ball</w>
k icked</w>
ju di
inter s</w>
insul in</w>
ins ane</w>
inju ries</w>
inev itably</w>
in ti
in fr
in ary</w>
imple mented</w>
imagin able</w>
im migration</w>
i ri
hy dr
hun t</w>
happ ily</w>
h s</w>
h h
glam our</w>
gener ates</w>
fri ction</w>
for give</w>
fluoresc ent</w>
fe a
fam ously</w>
ey ed</w>
ev ity</w>
en abling</w>
empo wering</w>
empo wer
emo tionally</w>
e ing</w>
di gi
desper ate</w>
des k
de mic</w>
d ough</w>
cy ber</w>
cru el</w>
con qu
co ast
car ries</w>
car dio
calcul ated</w>
bo ots</w>
blo gs</w>
b ad
associ ate</w>
as th
as set</w>
ar bit
apo logi
apart ments</w>
any on</w>
ang es</w>
al le
ac id</w>
abund ant</w>
a- half</w>
a stro
V -
Tit an</w>
St asi</w>
Shakespe are</w>
Satur day</w>
S pi
S ho
S P</w>
Nig erian</w>
Me dic
Ken ne
J ord
Co ast</w>
Ci vil</w>
Char lie</w>
Argent ina</w>
Apol lo</w>
9 00</w>
5 0-
3 7</w>
20 30</w>
1, 500</w>
z er</w>
witn essed</w>
w an</w>
ver t</w>
us able</w>
ti zing</w>
tat to
targe ted</w>
summ it</w>
sub- Saharan</w>
st olen</w>
sequ encing</w>
sandw ich</w>
s wing</w>
s now
respon si
represen tative</w>
repres enting</w>
real- time</w>
re land</w>
rac ing</w>
r ors</w>
pur ple</w>
prison er</w>
preven tion</w>
prescrip tion</w>
prepar ation</w>
pre y</w>
pr on
pl ates</w>
pan demic</w>
p unch</w>
p ays</w>
p -
ogen s</w>
off s</w>
ob sc
n ate</w>
my ce
mi es</w>
mem br
man kind</w>
ma ke
m ly</w>
m ere</w>
l ers</w>
k iss</w>
ji had</w>
inci dent</w>
in dex</w>
in ate</w>
ig er</w>
i g</w>
i can</w>
hon ey
ho lo
graph s</w>
gr u
gl uc
ggl ing</w>
gen esis</w>
g ins</w>
fish eries</w>
fac tion</w>
epis ode</w>
enh ance</w>
ende av
en s
embarras sing</w>
edit or</w>
e ks</w>
determin es</w>
deplo y</w>
deci des</w>
de adly</w>
coun tless</w>
continu ously</w>
conta ined</w>
cont em
compos ition</w>
col n</w>
co ws</w>
chec ks</w>
ch ers</w>
ca the
bo t</w>
bo o</w>
bi ol
ber ry</w>
bee tle</w>
bas ketball</w>
b ind</w>
auth ors</w>
attemp ts</w>
antibio tic</w>
ans wering</w>
anni vers
adop tion</w>
acqu ired</w>
U l
T eles
St even</w>
S um
S how</w>
Pu bli
Pro b
O ut</w>
O pen</w>
O .
Medi cal</w>
Lin coln</w>
Kore an</w>
I cel
Ha ving</w>
D V
C as
Budd h
Bron x</w>
9 6</w>
7 2</w>
3 8</w>
0 th</w>
z zy</w>
y ards</w>
worl d-
wor th
who ever</w>
vo cal</w>
veter ans</w>
uni form</w>
u tility</w>
tra it</w>
tow ns</w>
th al
syste matically</w>
susp ended</w>
sub mer
st em
signific ance</w>
sho cking</w>
sh ut
ser ves</w>
scre aming</w>
schizophren ia</w>
satis fied</w>
s wee
s wa
ro pe</w>
ri gi
ri ding</w>
ren der</w>
recon ci
r aci
qu is
programm ers</w>
pro v
pro li
predat ors</w>
po is
play ful</w>
physici ans</w>
pat ri
pat ents</w>
p here</w>
or ting</w>
ome ter</w>
om in
o king</w>
multip ly</w>
man eu
live stock</w>
list en
k it</w>
k ins</w>
je wel
j an
it -
investi gation</w>
inten tions</w>
in timacy</w>
id ity</w>
ici ous</w>
hormon es</w>
horizon tal</w>
hor ror</w>
head -
h es</w>
h es
free zing</w>
favor ites</w>
exhi bit</w>
execu tive</w>
ex quis
ex ceptions</w>
enti ties</w>
empower ment</w>
emer gence</w>
econom ically</w>
e ums</w>
disrup tive</w>
dis per
det ector</w>
desk top</w>
de ad
cre am</w>
cous ins</w>
convic ted</w>
conduc tor</w>
con g
con ception</w>
co oper
co di
chemo therapy</w>
che at</w>
char ges</w>
ch ickens</w>
calcul ations</w>
c ally</w>
bu ff
bi op
bam boo</w>
autom ated</w>
attrac ted</w>
astron omy</w>
arm or</w>
ar rest</w>
ar -
annivers ary</w>
ani el</w>
accep tance</w>
acceler ating</w>
ac commod
Z ero</w>
U K</w>
U C
Snow den</w>
Per u</w>
P ra
Mo der
M um
L ad
L G</w>
Ke ep</w>
K ong</w>
K er
Je ws</w>
J H</w>
I reland</w>
Har ry</w>
H ome</w>
Gand hi</w>
El ec
Egyp tian</w>
E mma</w>
E d</w>
Develop ment</w>
C er
C R</w>
Bus iness</w>
Brazili an</w>
B ot
Aristot le</w>
Ar chi
A I</w>
7 ,000</w>
198 4</w>
z ines</w>
vo id</w>
ver ted</w>
ver bal</w>
v an
us al
usal em</w>
univer ses</w>
un le
un ited</w>
ultr as
tru sted</w>
tiz ation</w>
ti tion</w>
th um
th ood</w>
tex ting</w>
ter ey</w>
ta ke
t elec
suppor tive</w>
su it
stre ams</w>
stic king</w>
sta ir
st ressed</w>
st abili
sp ite</w>
sp are</w>
small pox</w>
sk illed</w>
shor ter</w>
shif ted</w>
sett led</w>
schol ar
ro wed</w>
ri ses</w>
resur rec
resc ued</w>
replac ing</w>
refl ects</w>
rec ur
reason ing</w>
ra ge</w>
r at
pun c
publi shing</w>
pu rely</w>
produc ers</w>
pre scri
poli tician</w>
pene tr
open ha
op ar
ol ly</w>
o let</w>
nor ms</w>
nit rogen</w>
me als</w>
maga zines</w>
ma xim
los ses</w>
lo gging</w>
in struction</w>
hol ders</w>
high light</w>
her itage</w>
head quarters</w>
h emis
gluc ose</w>
gin ia</w>
gall ery</w>
foun der</w>
fla vor</w>
ex otic</w>
et al</w>
enor mously</w>
eni x</w>
emer ges</w>
dra g
don ors</w>
dic t
des pread</w>
des c
de bris</w>
d enti
d ation</w>
cre dible</w>
cre ator</w>
cr yp
cor ri
con sent</w>
chec king</w>
ch -
canv as</w>
bus h</w>
biol umin
arch i
approxim ately</w>
ai red</w>
ac ou
absor b</w>
Vir ginia</w>
To o</w>
Th ere
Su pp
SE TI</w>
Re public</w>
Prob ably</w>
Pa ti
PT SD</w>
P lan
Mon terey</w>
Mat t</w>
Mach ine</w>
Le go</w>
L HC</w>
Jer usalem</w>
J ones</w>
Inter est
I BM</w>
Hosp ital</w>
H or
H ind
H aw
C anc
2 5,000</w>
. 5</w>
y n</w>
w ow</w>
voca bul
vis ed</w>
vi se</w>
vari able</w>
v ements</w>
uni qu
uc ked</w>
tri bal</w>
transforma tive</w>
top ics</w>
ti ans</w>
te dness</w>
t abo
syste matic</w>
sy l
stu res</w>
stri ct</w>
spe ech
sm ells</w>
sche me</w>
repe at
re y</w>
re turns</w>
re actors</w>
random ly</w>
pro hi
princi pal</w>
p ad</w>
os ex
obe se</w>
o y
mus eums</w>
mam mal</w>
ma sters</w>
lot tery</w>
long evity</w>
lim ate</w>
la h</w>
kid ding</w>
it ar</w>
ir ony</w>
invent or</w>
interven tions</w>
inter connected</w>
int act</w>
inst all</w>
ing ness</w>
in mates</w>
immigr ants</w>
i tions</w>
hu a</w>
heavi ly</w>
har bor</w>
gu er
gr at
gr as</w>
gard ens</w>
g low</w>
g a</w>
fl uc
fl at
fir ing</w>
fail s</w>
ess ors</w>
es cent</w>
enjo ying</w>
electr ons</w>
e astern</w>
dop amine</w>
do or
diarr hea</w>
danc ers</w>
cri tically</w>
coordin ation</w>
confron ted</w>
colum ns</w>
collabor ators</w>
co l</w>
co ding</w>
co ded</w>
clu sters</w>
cl oth</w>
cl ing</w>
cham ber</w>
ch at
celebr ity</w>
celebr ated</w>
catal y
car diac</w>
ca v
ca cy</w>
c on</w>
bi kes</w>
b ury</w>
b b
att ach</w>
assum ing</w>
argu ed</w>
analy zing</w>
an gu
ag ers</w>
ad dy</w>
ac compan
W ay</w>
W atch</w>
U sing</w>
Tra de</w>
There fore</w>
Tes la</w>
Teles cope</w>
T ran
Sahar a</w>
Pa ul
P ho
P E
New ton</w>
Ne ws</w>
L ine</w>
Kenne dy</w>
K y
K an
I M
H an
H am
For ce</w>
F ur
B hu
Au dio</w>
8 ,000</w>
3 50</w>
z i</w>
x y</w>
wi shes</w>
wi despread</w>
wash ed</w>
virtu e</w>
vi olet</w>
ver e
ven s</w>
va e</w>
v ania</w>
ul ture</w>
u ce</w>
tu ber
tru ths</w>
tri ump
trans mitted</w>
trans it</w>
tra ding</w>
tou ches</w>
tol l</w>
th ank
text books</w>
tane ous</w>
syl vania</w>
survi vor</w>
speci ally</w>
speci alist</w>
sp reads</w>
so vere
six th</w>
resili ent</w>
reser ve</w>
rel ates</w>
reg ulations</w>
rec all</w>
re jected</w>
re generate</w>
ra ins</w>
ques tion
prototyp es</w>
prom ising</w>
po ison</w>
pen cil</w>
pa ste</w>
p ou
p in</w>
or th
openha gen</w>
op tical</w>
on ds</w>
nor m</w>
ne gl
myce lium</w>
mu tation</w>
mod est</w>
maxim um</w>
mas sively</w>
lo wed</w>
lap tops</w>
kel ey</w>
justi fy</w>
jud ges</w>
j ac
investi gate</w>
int ent</w>
ingredi ent</w>
in hi
in depend
har d-
h ob
h o</w>
ght ful</w>
fro g</w>
fat al</w>
f ted</w>
est er</w>
esp ite</w>
eri al</w>
ep er</w>
electr om
ed it</w>
ed -
do od
distur bing</w>
distinc tion</w>
discus sing</w>
discus sed</w>
dis gust</w>
det ected</w>
destruc tive</w>
des cen
deman ding</w>
d ar</w>
d an</w>
cus sion</w>
cul osis</w>
cu ps</w>
cru de</w>
cr um
cous in</w>
consi dering</w>
con doms</w>
compar ing</w>
comp ati
clu es</w>
cha se</w>
ca ge</w>
bu m</w>
bri gh
ballo ons</w>
assa ult</w>
as hamed</w>
ap i
analy zed</w>
ambi tion</w>
al together</w>
addic tion</w>
accur ately</w>
a wake</w>
a qu
W on
S even</w>
S cr
Par ty</w>
P art</w>
Olymp ic</w>
Off ice</w>
Ni ke</w>
M id
Lu ther</w>
Hi story</w>
Gr and
Ed ward</w>
E D</w>
Don ald</w>
D espite</w>
D C</w>
Con sider</w>
Col om
Christ op
C openhagen</w>
C old</w>
Ber keley</w>
Ben jam
A .
9 7</w>
3 4</w>
ware house</w>
w ins</w>
w ages</w>
vulner ability</w>
venti l
univer s
un ately</w>
umin um</w>
ty pe
tuber culosis</w>
tro pic
transpor ted</w>
tion aries</w>
tic k</w>
ti tles</w>
ti ght</w>
tal ented</w>
t s
t is</w>
t ful</w>
syn chron
sugg estion</w>
struggl ed</w>
stret ched</w>
str ands</w>
ste pping</w>
stag gering</w>
sp ends</w>
sp ell</w>
sli ce</w>
sla ve</w>
short- term</w>
shi pped</w>
sha king</w>
sex ually</w>
ses sions</w>
se mi
s ounded</w>
rou s</w>
ri des</w>
replac ement</w>
recycl ed</w>
r um
quie tly</w>
proce du
procedu res</w>
pro ph
preven ting</w>
pre valence</w>
po w
pass age</w>
par ag
on to
occa sion</w>
net working</w>
negoti ate</w>
n sylvania</w>
mu st
min g
milli meter</w>
medi cations</w>
me tals</w>
man -
ma inten
mainten ance</w>
m es
los es</w>
lo y
lo ose</w>
lin gu
ligh t-
lifesp an</w>
li ers</w>
le op
l an</w>
k is
ju ice</w>
j unk</w>
j am</w>
individu ally</w>
impos ed</w>
illu stration</w>
high- speed</w>
gest ure</w>
gener ic</w>
ga ins</w>
fron tier</w>
fluc tu
fi x
fe eds</w>
f ans</w>
explo de</w>
elabor ate</w>
diagnos tic</w>
dem o</w>
d rought</w>
d board</w>
cylin der</w>
cou ch</w>
cor rupt</w>
cong estion</w>
con fer
com a</w>
colli sion</w>
cock ro
cir cular</w>
ch ess</w>
calcul us</w>
broad cast</w>
bl ings</w>
bi ased</w>
barre l</w>
b ited</w>
b id</w>
at om</w>
as ka</w>
ar ro
ang el
ali ens</w>
aff air</w>
ad ju
aca dem
ac cess
Z im
Spr ing</w>
Som alia</w>
S har
R en
R ab
Ph ot
Pen nsylvania</w>
N an
Moz art</w>
Moun tain</w>
M ul
Le one</w>
K os
J F</w>
H ear
Gree ks</w>
G O</w>
Fort unately</w>
E ve</w>
E l</w>
Cos ta</w>
Ch ap
C limate</w>
C lear
B ru
B or
9 8</w>
4 4</w>
19 50</w>
1. 2</w>
ung le</w>
underst and
typ ing</w>
tu p</w>
trac es</w>
tra iler</w>
top -
to oth
ti ghtly</w>
them es</w>
terri fic</w>
ta ils</w>
t ling</w>
t arian</w>
stri kes</w>
str at
story t
spe eds</w>
spati al</w>
sil s</w>
si blings</w>
shel ves</w>
se min
se al</w>
scienti fically</w>
s ick
s ance</w>
ris m</w>
ri cane</w>
reve als</w>
repeat edly</w>
qu o</w>
propag anda</w>
process ed</w>
practic ing</w>
persu ade</w>
particip ating</w>
on ist</w>
occu py</w>
occu pi
mul tin
mis sion
millen nia</w>
mi gh
measu rement</w>
m are</w>
low- cost</w>
lo go</w>
liz abe
le ans</w>
laun ching</w>
labor atories</w>
kno ck</w>
kid n
ju mping</w>
is y</w>
infl ation</w>
hum ble</w>
hon ored</w>
hel met</w>
har ness</w>
h en</w>
gu es</w>
gradu ates</w>
g ang</w>
fin ite</w>
fin i
fil med</w>
fertiliz er</w>
fe es</w>
envel ope</w>
entr ance</w>
en ters</w>
embrac ing</w>
electrom ag
dru m</w>
don ated</w>
distribu te</w>
distingu ish</w>
dir t</w>
determin ation</w>
des ires</w>
danc er</w>
d le</w>
cr acks</w>
cop ies</w>
con fined</w>
comp ound</w>
commis sion
color ful</w>
co verage</w>
civiliz ations</w>
civi lian</w>
chimp s</w>
cha sing</w>
catastrop hic</w>
cat tle</w>
car dboard</w>
canc ers</w>
ca us
c ue</w>
c es
bri ck</w>
b ath</w>
astron auts</w>
ass ment</w>
as signed</w>
app s</w>
an esthe
am bul
all y-
ali ke</w>
al uminum</w>
ag en</w>
ack er</w>
ac res</w>
ab sur
ab road</w>
a a</w>
Zim bab
Youn g</w>
Un der
Tal ks</w>
T ry</w>
Speci al</w>
Sim il
Publi c</w>
Po int</w>
O per
N E
Li br
La ke</w>
L P</w>
L I
K ingdom</w>
J C</w>
I m
Hum ans</w>
Ho ward</w>
Gi us
G G</w>
Free dom</w>
F ore
F DA</w>
E lizabe
E S</w>
D R</w>
D -
Cy rus</w>
Cam bo
CE Os</w>
Bl ack
B A</w>
writ es</w>
wi ped</w>
week end</w>
w ol
w et</w>
vocabul ary</w>
vel o
v is</w>
ultra violet</w>
tw ist</w>
tur ally</w>
tra vels</w>
toler ant</w>
to oth</w>
therap ist</w>
swe at</w>
sur gical</w>
super no
st are</w>
squ ar
some time</w>
skep tical</w>
simil arly</w>
si r</w>
shoul ders</w>
sex uality</w>
satis faction</w>
sa uce</w>
s ma
s log
s a</w>
ro t</w>
respec ted</w>
resear ching</w>
rela tivity</w>
re views</w>
re productive</w>
prof itable</w>
prof essors</w>
pri ori
pp y</w>
ple ased</w>
pengu in</w>
path way</w>
p ac
os c
opar dy</w>
op position</w>
op ho
ob serving</w>
night mare</w>
nic ely</w>
na ive</w>
mou ths</w>
min ded</w>
mi gra
membr ane</w>
mar t</w>
m esh</w>
it ly</w>
it ated</w>
inter rup
imper ative</w>
im planted</w>
ill umin
il and</w>
ig ned</w>
id ers</w>
ice berg</w>
habit ats</w>
great ly</w>
grab bed</w>
gra ins</w>
gr oss</w>
gr ant</w>
go o
gas oline</w>
fru its</w>
for cing</w>
flo ors</w>
fe at
f ici
f ers</w>
experim enting</w>
exam ine</w>
ex tro
ex -
end ers</w>
elev ator</w>
edit ors</w>
dou bling</w>
div ine</w>
disap pointed</w>
depres s
defic it</w>
d us</w>
d ged</w>
cu be</w>
coun ts</w>
cor relation</w>
cool ing</w>
condi tioning</w>
colle ges</w>
clos ure</w>
car es</w>
cap s</w>
cal end
bul bs</w>
brea th
br ands</w>
be et
be a
attribu tes</w>
atmospher ic</w>
assem bled</w>
ari um</w>
argu ing</w>
archa e
appreci ation</w>
app lies</w>
ance stor</w>
analo g</w>
aggre gate</w>
ag an</w>
adm ire</w>
adap tive</w>
adap tation</w>
a than</w>
a j
Ye ar</w>
Wor l
W ater</w>
W ar
T en
T -
Su b
S tation</w>
O thers</w>
Libr ary</w>
Le a
K ur
K in
Ju li
Ho lo
Ga za</w>
Ever est</w>
Edu cation</w>
Dan ny</w>
D ig
Com p
Clear ly</w>
C ru
Benjam in</w>
Ar ound</w>
4 3</w>
- year-olds</w>
x -
woo den</w>
vit am
v ali
un fortunate</w>
un fair</w>
ul ty</w>
u l</w>
tr ay</w>
there by</w>
tan gible</w>
ste ady</w>
sta dium</w>
spec im
spar k</w>
sp rin
sp iders</w>
so red</w>
sli me</w>
sho wer</w>
sho e</w>
semi -
se duc
sculp tures</w>
scr at
sc aled</w>
s ful</w>
revolu tions</w>
remot ely</w>
refer red</w>
reco vered</w>
rec t
read er</w>
re ject</w>
raci al</w>
pros ecu
progres sion</w>
process or</w>
pos ters</w>
pol l</w>
pix els</w>
pil es</w>
physi ology</w>
pen is</w>
pas sions</w>
paras ite</w>
p ity</w>
over seas</w>
over head</w>
ou tra
ori ented</w>
opti mi
on ically</w>
off shore</w>
ob lig
o o
no -
n is</w>
mush rooms</w>
multin ational</w>
mo ther
min erals</w>
metabo lism</w>
me tr
mar vel
mar row</w>
locom otion</w>
lim bs</w>
liber ty</w>
le ap
l i</w>
l ately</w>
k -
ja zz</w>
ir onic</w>
invol ving</w>
inter faces</w>
indica tes</w>
independ ently</w>
in spec
in genu
in ated</w>
ill a</w>
hybri d</w>
gui ded</w>
gra ff
gi gan
gi an</w>
gh et
genu ine</w>
gener osity</w>
gener ative</w>
ge stures</w>
full- time</w>
friend ship</w>
fra gments</w>
fish er
fil ters</w>
fi xing</w>
fa st-
f lights</w>
equ als</w>
eng ths</w>
en ri
el li
ec d
e ase</w>
dra ma</w>
discipl ines</w>
diplom acy</w>
dic tionaries</w>
diag nose</w>
di shes</w>
d ors</w>
cust om</w>
concentr ate</w>
commod ity</w>
claim ed</w>
cele bra
busin ess
bottom -up</w>
be am</w>
batt le
bas ement</w>
b yp
b read
b ent</w>
automa tic</w>
att end</w>
as leep</w>
apologi ze</w>
ap a
an ecd
an e
al li
ais sance</w>
acqu ire</w>
ack et</w>
ac cent</w>
a a
V ol
Uni verse</w>
Su preme</w>
S uch</w>
R em
Po wer
Mean while</w>
Le ban
L ater</w>
K at
Jos hua</w>
In dus</w>
Go als</w>
Gen e</w>
Fu nd</w>
F ar
F O
En viron
E igh
D or
D I</w>
Christop her</w>
Canc er</w>
C lar
B .</w>
Arch it
Al aska</w>
A bed</w>
8 6</w>
2. 5</w>
15 0,000</w>
1 30</w>
z ona</w>
y clo
wor n</w>
weigh s</w>
vis cer
vi sibility</w>
vi able</w>
uri al</w>
un ks</w>
trick y</w>
transforma tions</w>
trac ked</w>
tr y
through s</w>
ther lands</w>
text book</w>
t anks</w>
t age</w>
suspic ious</w>
sur ing</w>
success es</w>
suc ks</w>
stig ma</w>
ste aling</w>
stati stical</w>
spac e-
sna kes</w>
sla ves</w>
sig ning</w>
sh ining</w>
sh a</w>
se gment</w>
scrip ts</w>
san i</w>
sa mpl
s car</w>
rou tin
ro oted</w>
reven ues</w>
respon ding</w>
re invent</w>
re design</w>
progra mma
prob able</w>
pow der</w>
plac ing</w>
pic ks</w>
perpe tr
per sons</w>
pe er-
pay ment</w>
ow ns</w>
ot es</w>
orph an
ori entation</w>
or ds</w>
opp ed</w>
oper ated</w>
ol era</w>
ol a</w>
multi verse</w>
mon o
mir rors</w>
mid st</w>
mat tered</w>
mat ches</w>
luc kily</w>
lob by</w>
light ning</w>
lifel ong</w>
lic itly</w>
li ps</w>
lef t-
l ings</w>
k yo</w>
k ings</w>
k er
investi ga
inven tions</w>
integr ity</w>
initi atives</w>
in qu
in form</w>
in complete</w>
house holds</w>
helpl ess</w>
he ter
h ills</w>
gramma r</w>
graff iti</w>
gigan tic</w>
gg ers</w>
frequ encies</w>
fl ags</w>
fi ghts</w>
excep tional</w>
equi pped</w>
entreprene urial</w>
enc yclo
en lighten
empha size</w>
effici ently</w>
e ted</w>
e ps</w>
e Bay</w>
dre amed</w>
di se</w>
di ment</w>
deliber ately</w>
defin es</w>
declar ed</w>
d dy</w>
d are</w>
cu es</w>
cos t-
constitu tion</w>
conser vatives</w>
config uration</w>
com modi
coast al</w>
chromos omes</w>
car ri
car pet</w>
bul l
bud gets</w>
bu tt
bo s</w>
be ds</w>
bal anced</w>
back grounds</w>
ash es</w>
ari th
arbit r
appro val</w>
ap ples</w>
an gi
adi ly</w>
add ressed</w>
a do</w>
Y ale</w>
Worl d
W ouldn</w>
Ven us</w>
U SA</w>
Tw enty-
To kyo</w>
T ai
T .
Sy l
Soci ety</w>
Sar ah</w>
S her
Rec ently</w>
R S</w>
P os
P ort
P ic
P at
O oh</w>
Nor den</w>
NG O</w>
M ill
Laugh s</w>
J as
Iran ian</w>
In formation</w>
H ur
Gius sani</w>
F l
Ex c
Dar win
D ata</w>
D al
Colum bia</w>
Ci ties</w>
C r
C ape</w>
Bit coin</w>
Be ach</w>
Austr alian</w>
Ari zona</w>
6 4</w>
199 5</w>
19 30s</w>
19 00</w>
1 5,000</w>
1 2,000</w>
0 0s</w>
z u
y land</w>
will ingness</w>
we igh</w>
wa ste
w rec
vo y
ver b</w>
ur ine</w>
un ting</w>
um en</w>
u x</w>
two- thirds</w>
twe et</w>
tur ers</w>
tri angle</w>
transl ator</w>
trans actions</w>
tom ato</w>
thro at</w>
tex ture</w>
tatto os</w>
t os
t ags</w>
sul fi
suit case</w>
sub mit</w>
su ma
sto ck
stat e-
stair case</w>
sor ship</w>
sne a
sna ke</w>
shap ing</w>
self- interest</w>
scre am</w>
schol ars</w>
scenari os</w>
s thand</w>
s light</w>
routin ely</w>
rom ance</w>
reser ves</w>
rele asing</w>
regi onal</w>
refriger ator</w>
rec ession</w>
re forms</w>
re ds</w>
re de
re construct</w>
rac ism</w>
r h
quanti ty</w>
quali fied</w>
pros the
pros ec
prom ises</w>
pro jection</w>
pressu res</w>
predat or</w>
pi pes</w>
phr ases</w>
philos oph
passen gers</w>
part ments</w>
p ulation</w>
p ts</w>
ou l
ot on
os ion</w>
os h</w>
oper ates</w>
occupi ed</w>
obst acle</w>
o id</w>
non- zero-sum</w>
no isy</w>
ne tic</w>
mil d</w>
mark ers</w>
mag ni
lon gest</w>
lin king</w>
lea k</w>
le x
le ments</w>
jud gments</w>
ju mps</w>
jo ining</w>
instinc t</w>
inher ited</w>
ingenu ity</w>
impro vements</w>
imp aired</w>
identi fying</w>
iP od</w>
honest y</w>
hi o</w>
he ated</w>
har sh</w>
guer ri
gover n</w>
good bye</w>
frustr ating</w>
fru stration</w>
fos ter</w>
flexi bility</w>
fir sthand</w>
fir mly</w>
fantas y</w>
fa vel
explo ded</w>
explan ations</w>
expec tation</w>
ex cess</w>
eth ics</w>
eter nal</w>
es say</w>
es day</w>
er up
er nal</w>
enti ty</w>
en tations</w>
e ver-
dra ws</w>
dra gon
docum enting</w>
dis appearing</w>
direc ted</w>
diam onds</w>
di gging</w>
der ness</w>
deep -
dec reas
de light</w>
crow ded</w>
cr ushed</w>
coura geous</w>
cop ied</w>
convinc ing</w>
contribu tions</w>
contradic tion</w>
compati ble</w>
comm ons</w>
clos et</w>
cl a
cin ema</w>
ci an</w>
che ating</w>
character istic</w>
bur ger</w>
break throughs</w>
bo iling</w>
block chain</w>
bl ur
bl essed</w>
bio logically</w>
beet les</w>
be side</w>
be ll</w>
bacter ium</w>
b ill
b ay</w>
ay a</w>
authenti city</w>
aug mented</w>
ash a</w>
as yl
as i
angel o</w>
ambul ance</w>
am y
altru ism</w>
alter ed</w>
al ter</w>
al ge
ad ds</w>
accum ulate</w>
accoun ting</w>
ac tu
ac es</w>
Z i
Y el
W it
Tu esday</w>
Si b
Re public
R adi
Pho enix</w>
Pe te</w>
Par liament</w>
P re
Ne therlands</w>
Mum bai</w>
Mo vement</w>
Michel angelo</w>
Mic hi
Mex ican</w>
M T</w>
Lib ya</w>
L at
Ke pl
Jeff er
I mp
Go ing</w>
Egyp tians</w>
Coun try</w>
Col a</w>
C anyon</w>
Bal i</w>
B la
A th
A sh
A bra
19 45</w>
ye ast</w>
y nam
y m
up date</w>
um es</w>
ultras ound</w>
ul tural</w>
transfer red</w>
transc end
trans action</w>
tradi tionally</w>
to wers</w>
ther wise</w>
th ly</w>
th ick
th ful</w>
te st
te es</w>
tag ged</w>
symme trical</w>
survi ving</w>
sur fing</w>
supp orts</w>
su ms</w>
stres sful</w>
sto cks</w>
squee ze</w>
squar es</w>
spon taneously</w>
sour cing</w>
sl um</w>
si s
shr ink</w>
shar es</w>
sh rin
seven th</w>
sensi tivity</w>
se als</w>
sa dness</w>
sa dly</w>
roof s</w>
rigi d</w>
ri chest</w>
relev ance</w>
reci pi
recep tor</w>
rat ings</w>
rain forests</w>
ques tioning</w>
pursu ing</w>
purcha se</w>
publi sh
psychi atric</w>
propor tion
projec tions</w>
proble matic</w>
pro vo
presi dential</w>
pres enting</w>
premi se</w>
pes si
per cep
pe tro
pati ence</w>
ou tw
orb iting</w>
oper ator</w>
od or</w>
mos que</w>
mma d</w>
meth odo
mem orial</w>
med itation</w>
me tro
magne ts</w>
libr aries</w>
liber als</w>
li er</w>
lan e</w>
j ungle</w>
issu ed</w>
ir o</w>
inv itation</w>
inher ent</w>
infr ared</w>
ine a</w>
induc ed</w>
ima l</w>
il ep
hu gely</w>
head line</w>
hat red</w>
halluc inations</w>
ha z
ha r</w>
ha mmad</w>
h ack</w>
good ness</w>
fos sils</w>
fo ie</w>
fit ness</w>
fin e-
figh ters</w>
ff ed</w>
far -
f ting</w>
extre mism</w>
exerc ises</w>
ex am</w>
ep ilep
ep h</w>
en ship</w>
duc k</w>
disa sters</w>
dis plays</w>
dis k</w>
di zed</w>
di ous</w>
dep ths</w>
del ay</w>
def en
d ur
d ump</w>
d ome</w>
d ity</w>
cur sor</w>
correspon ds</w>
cooper ative</w>
construc ting</w>
consi sts</w>
compu te</w>
coher ent</w>
cli ps</w>
cl er
circul ation</w>
char ter</w>
champ ion</w>
ch olera</w>
ch at</w>
centi meter</w>
ca bles</w>
bru tal</w>
brow ser</w>
broad ly</w>
bo wl</w>
bo ost</w>
be ats</w>
b bean</w>
asth ma</w>
assi stant</w>
ass ess
ash ed</w>
ari bbean</w>
ar row</w>
ap parent</w>
an as</w>
al pha
air line</w>
ag on</w>
aff ir
aci ties</w>
acc used</w>
a we</w>
a urus</w>
Zimbab we</w>
Y emen</w>
W el
V s</w>
Un like</w>
T ed</w>
Syl via</w>
Supp ose</w>
St or
Republic ans</w>
Red wood</w>
R ep
R O
R N
R A</w>
Pr ince</w>
P ur
O therwise</w>
N ami
N ai
Mu hammad</w>
Moun t</w>
Mini stry</w>
Michi gan</w>
M G</w>
Le e</w>
La gos</w>
Kos ov
K ids</w>
Jos eph</w>
I ce</w>
Him al
Hear t</w>
H old</w>
H ans</w>
Gol den</w>
G M</w>
F ood</w>
Elizabe th</w>
Di rec
De ep</w>
Cra ig</w>
Cor ps</w>
Con nec
C aribbean</w>
Budd ha</w>
Bhu tan</w>
Au stri
As k</w>
Al bert</w>
A C
A A</w>
5 8</w>
3 00,000</w>
20 16</w>
199 4</w>
1. 3</w>
y ota</w>
won ders</w>
well- known</w>
wat ches</w>
warri or</w>
w is</w>
vol umes</w>
ven tures</w>
vari ables</w>
v in</w>
v ents</w>
ur ship</w>
up ward</w>
un intended</w>
tw in</w>
tri cs</w>
tr unk</w>
tor n</w>
to ol
ti de</w>
th read</w>
th an
ter minal</w>
t u</w>
t ec
t ally</w>
symp hony</w>
sus cep
st- century</w>
st in
spir al</w>
sp ray</w>
sp r
sp ill</w>
sp her
smart phones</w>
slo wed</w>
sket ch</w>
side walk</w>
si licon</w>
sha dows</w>
sh out</w>
secon d-
scan ned</w>
sal ary</w>
s- on</w>
rob i</w>
ro ckets</w>
responsi bilities</w>
respon ds</w>
rehabil itation</w>
reg ulated</w>
reg ulate</w>
re viewed</w>
re pa
radi o
puzz les</w>
publi can</w>
psychi atri
pri orities</w>
pri cing</w>
preven ted</w>
pra ying</w>
pol itan</w>
philosop hical</w>
person alities</w>
peri o
pen sion</w>
path ways</w>
partner ships</w>
pan ies</w>
oun ce</w>
or g</w>
op ian</w>
num erous</w>
nucle us</w>
no de</w>
ni e</w>
ne vertheless</w>
n ap
mul tic
mor ph
mon ster</w>
maxi mize</w>
mani pulation</w>
mag net</w>
m ist</w>
lo cks</w>
li ans</w>
less ness</w>
la hom
introduc ing</w>
inst ances</w>
innov ators</w>
incarcer ation</w>
in ject</w>
ill in</w>
ic illin</w>
i ties</w>
hur ts</w>
human kind</w>
hu h</w>
high ways</w>
he ating</w>
guil t</w>
go at</w>
glaci ers</w>
gl es</w>
ger ies</w>
fe t
expres sing</w>
expon entially</w>
explo itation</w>
excl usive</w>
enti tled</w>
enthusi asm</w>
employe e</w>
emp ath
emer gent</w>
elem entary</w>
e ats</w>
do g
disgu sting</w>
disa d
disad vant
dis on</w>
difficul ties</w>
di sh
develop ers</w>
dev oted</w>
deser ts</w>
d uration</w>
cros s
cro codi
cour ts</w>
counter -
controver sy</w>
cont acted</w>
con spir
chem ist</w>
ch unk</w>
cap tain</w>
campaig ns</w>
cal ci
ca mel</w>
ca m
ca -
c er</w>
bo xing</w>
blo cking</w>
bl ast</w>
biom ass</w>
billi on
bi ot
bene ficial</w>
be hold</w>
be ans</w>
bas eline</w>
asyl um</w>
as sure</w>
arti facts</w>
ar range</w>
ar ding</w>
apa gos</w>
any time</w>
anxi ous</w>
amp u
all ing</w>
al ties</w>
air o</w>
adol escence</w>
ad voca
acceler ated</w>
a unt</w>
W right</w>
V ene
Tas man
T ro
St one</w>
Simil arly</w>
S us
S up
S cientists</w>
S ay</w>
S am</w>
S .
Rom an</w>
R oss</w>
Or leans</w>
Ok lahom
Nai robi</w>
Ma j
M s.</w>
M ot
M ind</w>
M P
Jord an</w>
John ny</w>
I S</w>
Hu bble</w>
Hel p</w>
H ung
H ad
Go od
Gal apagos</w>
F our
Di ego</w>
Cu ba</w>
Com panies</w>
C ir
C airo</w>
C T</w>
Arab ia</w>
5 9</w>
5 2</w>
21 st-century</w>
199 7</w>
17 th</w>
yl an</w>
work shop</w>
wa king</w>
w ounds</w>
vot es</w>
volcan ic</w>
vis itors</w>
ver ge</w>
ver al</w>
ve il</w>
urban ization</w>
under -
un seen</w>
un acceptable</w>
ultra -
ul arity</w>
tu rer</w>
trust worthy</w>
trans mit
tion ist</w>
tim ing</w>
thri ving</w>
thin kers</w>
ther more</w>
th als</w>
ten ded</w>
te mple</w>
tal ents</w>
tabo o</w>
syn thesis</w>
symme tries</w>
symbo lic</w>
surve ys</w>
sulfi de</w>
sty les</w>
stre aming</w>
stati stic</w>
stand ar
soci etal</w>
sle pt</w>
sk ies</w>
simul ated</w>
simul ate</w>
sho ot
sa iling</w>
s ound
righ t-
resol ved</w>
rel uc
regi stered</w>
recogn izes</w>
re turning</w>
re production</w>
re acting</w>
ra inf
r ant</w>
r anging</w>
prostitu tion</w>
pri mates</w>
preser ved</w>
predic ting</w>
pra g
pol es</w>
pi p
pip eline</w>
perman ently</w>
per vas
pe l</w>
pe e</w>
out door</w>
on- dollar</w>
ob li
o logically</w>
o ke</w>
o ids</w>
notic ing</w>
non violent</w>
n ick
mu tual</w>
mu til
mp tion</w>
motiv ate</w>
migh ty</w>
mid night</w>
metabo lic</w>
mat ching</w>
mar ri
mar ath
manufac ture</w>
make up</w>
ma stery</w>
ma ma</w>
m ill</w>
m ans</w>
ligh ter</w>
li der</w>
k le</w>
k ar
ju ana</w>
jo kes</w>
j ecting</w>
invas ion</w>
intrigu ing</w>
interven e</w>
integr ating</w>
in cu
imp ri
imp ressed</w>
ic y</w>
hu b</w>
hack er</w>
h ut</w>
h ec
gu itar</w>
gu est</w>
gri ef</w>
gl ed</w>
gi fts</w>
gall on</w>
fu zzy</w>
fol k</w>
fe tus</w>
et te</w>
er ec
enzy mes</w>
entreprene urship</w>
endeav or</w>
em in
ell ular</w>
ell ers</w>
easi est</w>
dro p
dos es</w>
divor ce</w>
distr acted</w>
dec om
de fl
d un
cu tt
crash es</w>
coun try
cos tu
cop s</w>
conveni ence</w>
contex ts</w>
cogni tion</w>
co ca
citiz enship</w>
che ap
can dy</w>
calcul ation</w>
ca fe</w>
c opper</w>
bu mps</w>
bu gs</w>
bre ed</w>
ban ned</w>
bal con
b are</w>
as is</w>
ari ous</w>
ari al</w>
ar teries</w>
appe aling</w>
ap ol
ann a</w>
anim ate</w>
all ed</w>
al ert</w>
ag ree
ad versity</w>
ad er</w>
aci ds</w>
ac re</w>
a tively</w>
Wh enever</w>
Ven ice</w>
V e
Tha iland</w>
Re publican</w>
Po li
Phili pp
Oklahom a</w>
O ri
Nat ural</w>
Mon day</w>
Mil o</w>
Lin ux</w>
Lib eria</w>
L O
K no
Interest ingly</w>
I A</w>
F i</w>
E ither</w>
Col l
B lo
An n
AL S</w>
A w
A G</w>
4 0s</w>
4 00,000</w>
2 ,
18 th</w>
0 0-
- in-
- hour</w>
zer os</w>
wi pe</w>
we ir
wa sting</w>
w iring</w>
w a</w>
ver te
velo city</w>
valu ed</w>
vag ina</w>
ur gent</w>
uni on</w>
um ental</w>
tra de-
tor al</w>
to s</w>
tic kets</w>
ti a</w>
the irs</w>
th ic</w>
ten tion</w>
ten th</w>
tall er</w>
tail -
t ome</w>
t ably</w>
synap ses</w>
sur geries</w>
substanti al</w>
struc tured</w>
stron gest</w>
stri c
strat osphere</w>
stitu tion</w>
st ole</w>
st amp</w>
squ id</w>
spher es</w>
speci alists</w>
sol o</w>
smar test</w>
small -
slog an</w>
si bly</w>
shu ff
shou ting</w>
short ly</w>
shi eld</w>
she pher
sever ely</w>
s s</w>
s ang</w>
s ab
ro gate</w>
repor ters</w>
rele ases</w>
rela x</w>
refl ective</w>
reason ably</w>
re use</w>
re per
re over</w>
re hear
random ness</w>
rainf all</w>
pul sion</w>
pu mps</w>
prot ects</w>
programma ble</w>
programm er</w>
preser vation</w>
poll ut
po ols</w>
plan kton</w>
pl un
pil ots</w>
pestici des</w>
percep tual</w>
pay ments</w>
par tis
par liament</w>
pal e
organiz ational</w>
opti mize</w>
opp on
oper ational</w>
op ing</w>
o we</w>
neo cortex</w>
mor ally</w>
min imal</w>
mamm oth</w>
lo ver</w>
lif ting</w>
li me
lear ns</w>
lay ing</w>
lap se</w>
kin der
kinder gar
kilome ter</w>
ir rational</w>
inv iting</w>
inter medi
impul se</w>
illustr ates</w>
ic ons</w>
ic ks</w>
iP ad</w>
hero ic</w>
hemis phere</w>
he l</w>
he els</w>
ha ble</w>
ga ze</w>
ga ining</w>
g ang
g ad
fun eral</w>
fro gs</w>
frequ ent</w>
fini shing</w>
filmma ker</w>
fair ness</w>
fa me</w>
f itting</w>
exquis ite</w>
exp ose</w>
exist ential</w>
ex clu
evalu ate</w>
eth oven</w>
ess ness</w>
equ ili
epi ph
ener gi
embrac ed</w>
embarras sed</w>
ed iting</w>
dra gged</w>
dispos al</w>
dis placed</w>
dis cre
dig it
deri ved</w>
defe at</w>
decep tion</w>
de al
crow d
coun cil</w>
contain er</w>
cont ents</w>
conf using</w>
concep tual</w>
compos ed</w>
com pressed</w>
coll agen</w>
coca ine</w>
cigaret te</w>
ch al
cen tered</w>
celebra tion</w>
ca stle</w>
ca m</w>
butt ons</w>
bri um</w>
bri cks</w>
bor ne</w>
be aches</w>
b ench</w>
author itarian</w>
att acking</w>
associ ation</w>
appropri ately</w>
anti depress
and- a-half</w>
alge bra</w>
ag ging</w>
ad mini
ad mi
ac ute</w>
absur d</w>
ab used</w>
a ut</w>
a ked</w>
Y u
Who a</w>
W ars</w>
Vic tori
Tuni sia</w>
Tor onto</w>
TED Talk</w>
Sy d
Se veral</w>
R over</w>
Q .</w>
P atri
O hio</w>
Nor we
Nep al</w>
Neander thals</w>
Mil ky</w>
Medic ine</w>
Mar ine</w>
M ama</w>
M A
Lo oking</w>
Le wis</w>
Lad en</w>
LE D</w>
L im
L au
L ady</w>
Jus tice</w>
Jeffer son</w>
Jas on</w>
J ama
Himal ay
H ir
H as</w>
Gar den</w>
E le
Doc tor</w>
D ylan</w>
D aniel</w>
Comp any</w>
Ch uck</w>
Buddh ist</w>
Be ethoven</w>
B ang
Al right</w>
Al an</w>
A my</w>
A id</w>
9 4</w>
5 4</w>
199 3</w>
199 1</w>
198 9</w>
197 5</w>
whist le</w>
wh it
war fare</w>
volun tary</w>
vivi d</w>
vege tation</w>
vari eties</w>
uniqu ely</w>
uni fied</w>
um -
traff icking</w>
tor ture</w>
ti ger</w>
tat too</w>
ta stes</w>
surr ound</w>
summar ize</w>
sub sequ
stimul ate</w>
sp ouse</w>
sou ls</w>
ski p</w>
si tion</w>
shut tle</w>
set tle</w>
ser vers</w>
sel ective</w>
sec ular</w>
scar ce</w>
sc ope</w>
s ought</w>
ro om
ro c
ro ad
ri ots</w>
ri g</w>
ri bat
ribat i</w>
reti re</w>
restri al</w>
repor ter</w>
repli ed</w>
ren dered</w>
remin der</w>
regi ster</w>
recru it</w>
re wards</w>
re tail</w>
re members</w>
re fle
ra il</w>
ra dar</w>
quanti ties</w>
pur pos
proto col</w>
proli fer
progres sive</w>
produc er</w>
prefer ences</w>
pra yer</w>
plas ma</w>
photograph ers</w>
pervas ive</w>
perf ection</w>
pen icillin</w>
pe tition</w>
path ogens</w>
para meters</w>
par all
pap er
p an</w>
p .m.</w>
os evel
osevel t</w>
op a
oc ell</w>
obs ession</w>
non sense</w>
no vel
ner d</w>
ne gie</w>
na tionally</w>
na tion-
n ell</w>
moder n
mil it
migr ate</w>
ment ors</w>
mar gin
manufac turers</w>
m um</w>
m ity</w>
le vel
la sts</w>
la sted</w>
la kes</w>
k o
jan itor</w>
j o</w>
j ar</w>
it ry</w>
ir ri
ir able</w>
invol vement</w>
in th</w>
in er</w>
impri son
hun g</w>
hos tile</w>
her d</w>
harve sting</w>
h h</w>
h ers</w>
h alls</w>
gra d</w>
gr ounded</w>
gr ace</w>
govern mental</w>
glori ous</w>
gent le</w>
gall eries</w>
ga it</w>
g ically</w>
g ate
ful filling</w>
fu tu
follo wers</w>
floo d</w>
fi del
fidel ity</w>
f ir</w>
extre mes</w>
expres sive</w>
exhau sted</w>
equili brium</w>
encryp tion</w>
emp iri
emp ire</w>
embr y
eff i
dre am
dis connect</w>
di ves</w>
der -
den ied</w>
degra ded</w>
decl ining</w>
dd led</w>
dang ers</w>
cour t
corpor ation</w>
confir med</w>
concl usions</w>
con dem
compla in</w>
compar able</w>
comb inations</w>
com .</w>
coll ar</w>
claim ing</w>
civi lians</w>
ch e</w>
cathe dr
categ or
carb on-
calend ar</w>
calci um</w>
ca- Cola</w>
bri be</w>
bloo dy</w>
blo cked</w>
ben ign</w>
be aring</w>
be ar
bas sy</w>
band width</w>
ban k
ban anas</w>
b ust</w>
b acked</w>
avoi ding</w>
auton omy</w>
at us</w>
at -
ambigu ous</w>
adul thood</w>
activ ism</w>
acou stic</w>
accompan ied</w>
Z o
W r
Syd ney</w>
Swe dish</w>
Su dan</w>
Sol ly</w>
Sm all</w>
Si de</w>
S to
Ro osevelt</w>
R ac
R .</w>
Pri me</w>
Pit ts
Paul o</w>
P y
P ot
P hy
Ma thema
Leban on</w>
L yn
L ess</w>
L G
LG B
Ki ribati</w>
K B</w>
Jour nal</w>
Ira q
Icel and</w>
Haw king</w>
H mm</w>
F al
Exc use</w>
Emp ire</w>
E mi
E .</w>
Dig ital</w>
Di ff
Den mark</w>
De ad</w>
Da ve</w>
D av
Co ca-Cola</w>
Car negie</w>
Car l</w>
Cam p</w>
Cam er
C C</w>
Be tter</w>
B ul
B est</w>
B S</w>
Ar m
Ar du
9 .
. com.</w>
ã o</w>
weigh ed</w>
wat t</w>
war t</w>
w ells</w>
vitam in</w>
viscer al</w>
vic tory</w>
v ent</w>
v ar
under way</w>
under estimate</w>
un predictable</w>
un lock</w>
un imaginable</w>
u tter</w>
u pri
u el</w>
tru sting</w>
sy stem
susta ined</w>
suma bly</w>
struggl es</w>
stic ky</w>
st a</w>
spac es
so le</w>
slo wing</w>
sli p</w>
sl u
sket ches</w>
sing ers</w>
sha de</w>
sen sible</w>
secon dary</w>
s api
ro lls</w>
ri sts</w>
ri ghtly</w>
rhyth ms</w>
reti red</w>
resp ir
requi rement</w>
recei ver</w>
re tr
re mit
ra tion
prototyp ing</w>
pres entations</w>
practic ed</w>
pou red</w>
pop s</w>
point ment</w>
persu as
pedestri an</w>
paras ites</w>
paraly sis</w>
ow l</w>
our se</w>
ough ly</w>
op ed</w>
ogen ic</w>
of- the-
ob tained</w>
ob o</w>
no ble</w>
ni cal</w>
new ly</w>
neuro logical</w>
nee ding</w>
nec tar</w>
mort g
mobili ze</w>
min or</w>
micros copic</w>
medi eval</w>
marri ages</w>
m n</w>
m i</w>
li ath</w>
leop ard</w>
len ses</w>
lean ing</w>
le ver
lad der</w>
ja w</w>
j i</w>
is tically</w>
ir a</w>
invent ors</w>
inj ection</w>
infin itely</w>
indi cation</w>
ind ul
inci dentally</w>
in sec
in efficient</w>
ill usions</w>
ill nesses</w>
ide ological</w>
i on
humili ation</w>
hot els</w>
horri fic</w>
holi day</w>
ho oked</w>
hip po
he lium</w>
he li
hall way</w>
ha mmer</w>
gor ous</w>
g eria</w>
fung i</w>
func tionality</w>
fer tility</w>
femin ine</w>
fear ed</w>
fas c
f ills</w>
f i</w>
eth an
epide mics</w>
el bow</w>
du g</w>
dro id</w>
do -
dis rupt</w>
dis connected</w>
direc tors</w>
din burgh</w>
diagnos tics</w>
cryst al</w>
cr acked</w>
counter intuitive</w>
contrac ts</w>
cont ag
cont acts</w>
construc tive</w>
connec tome</w>
conduc ting</w>
con cussion</w>
con ceived</w>
compu ter-
compla ining</w>
commis sion</w>
comb ining</w>
collabor ator</w>
clim bers</w>
cl ari
cho re
cere br
cen sorship</w>
cell phone</w>
ca u
br ate</w>
blue print</w>
bl ink</w>
bio -
bi otechnology</w>
bas ket</w>
attribu te</w>
atten ding</w>
aspi rations</w>
arrang ed</w>
ari se</w>
ar rows</w>
ap plause</w>
an om
an ism</w>
al i</w>
al bum</w>
advant ages</w>
abor tion</w>
a esthe
W K</w>
Vene zu
Ul timately</w>
U ber</w>
Syri an</w>
Sup er</w>
Sim on</w>
Si x
Se x</w>
S in
S hi
Rus sians</w>
Ro yal</w>
R on
Qu ite</w>
Pitts burgh</w>
O ld</w>
No tice</w>
Nat asha</w>
Nami bia</w>
Le ague</w>
Lar ry</w>
L ots</w>
L earning</w>
L ama</w>
Kepl er</w>
Kan ner</w>
K o
K le
K en</w>
K ansas</w>
K A</w>
Je opardy</w>
In t
In side</w>
I Q</w>
HI V-
H und
Geor gia</w>
G ran
G or
G am
F ul
F il
Ex actly</w>
E ri
E dinburgh</w>
Dal ai</w>
DV D</w>
Compu ter</w>
Ca use</w>
C lu
C A
Bru ce</w>
Bra d</w>
B P</w>
B J</w>
Al pha</w>
A lice</w>
8 7</w>
y le</w>
x on</w>
work shops</w>
wol ves</w>
wi shed</w>
whis per
wa vel
w ounded</w>
vie w
vibra tions</w>
vibr ating</w>
vege table</w>
vast ly</w>
v ac
usi vely</w>
us s</w>
up right</w>
un equal</w>
un certain</w>
u n</w>
u ba</w>
two- dimensional</w>
tur bul
tropic s</w>
tril lions</w>
top- down</w>
to wel</w>
tic als</w>
thre ads</w>
tax i</w>
tain ly</w>
t ants</w>
suscep tible</w>
surr oun
sub stitute</w>
su ally</w>
stun t</w>
streng ths</w>
stre am
sti ll
stereotyp es</w>
ste er</w>
st ling</w>
st ated</w>
st al
sp ot
sn ap
slo pe</w>
sing ular</w>
sh irts</w>
sett lement</w>
sequ enced</w>
se am
se -
sch ed
sc ru
sc ape</w>
rou tes</w>
rot ating</w>
rewar ded</w>
reson ance</w>
renew ables</w>
re define</w>
ra tic</w>
r he
prot ocell</w>
prom oting</w>
pro jected</w>
pri mate</w>
prev ent
pol ls</w>
phot o
perpe tu
perform ers</w>
pe aks</w>
pat ch</w>
parag rap
over looked</w>
or able</w>
on ica</w>
o bos</w>
nor theast</w>
neighbor ing</w>
na h</w>
myth ology</w>
my ths</w>
my ster
multip li
moun ted</w>
mon soon</w>
mo on
mir acles</w>
mini mize</w>
migr ants</w>
mi sts</w>
mer cy</w>
ment ary</w>
ment ality</w>
mega -
me me</w>
mat ing</w>
marvel ous</w>
manuscri pt</w>
ma id</w>
m un
lo ading</w>
lime stone</w>
k ite</w>
judi ce</w>
jewel ry</w>
jeal ousy</w>
is en</w>
ir rit
int end</w>
ing- edge</w>
influ ences</w>
indi rec
incre mental</w>
in habit
in er
in da</w>
in comes</w>
improvi sation</w>
immigr ant</w>
imagin ary</w>
hyper -
hu g</w>
honey bees</w>
hil ar
hi stories</w>
hi ma</w>
happ iest</w>
h eck</w>
guid ance</w>
gl ory</w>
ful fill</w>
fu eled</w>
frighten ed</w>
free ze</w>
fore cast</w>
fo ol
flo wn</w>
fir ms</w>
fashi oned</w>
fair y</w>
f uc
exten sive</w>
exam s</w>
ex it</w>
ex hilar
ethan ol</w>
escap ed</w>
eri cal</w>
eradi cation</w>
ep y</w>
end ants</w>
en ey</w>
emplo y</w>
emis sion</w>
embo died</w>
el iness</w>
el ders</w>
effi cacy</w>
e po
e able</w>
drow ning</w>
dragon flies</w>
dr ank</w>
discipl inary</w>
dis si
develop mental</w>
det ectors</w>
dep le
den y</w>
de er</w>
de alt</w>
dd in</w>
d son</w>
cr an
costu me</w>
coordin ate</w>
cool er</w>
coo ked</w>
continu um</w>
cont est</w>
connec tedness</w>
conf usion</w>
con ve
comp ul
commodi ties</w>
comm only</w>
coinci dence</w>
cienti st</w>
ci ans</w>
check list</w>
che f</w>
character ized</w>
ch y</w>
certi fi
cerebr al</w>
cent ric</w>
ce ton</w>
catastrop he</w>
ca de</w>
bre w</w>
bos on</w>
bor rowed</w>
beg in
be ef</w>
bas sa
bal lot</w>
b iting</w>
av atar</w>
astron aut</w>
arre n</w>
arch ive</w>
arbitr ary</w>
ar ena</w>
appreci ated</w>
appl au
ap ar
ani um</w>
alpha bet</w>
all as</w>
ali en
ag nos
accep ting</w>
acc o</w>
ac on</w>
a wa
W arren</w>
U sually</w>
U k
Th ank
So on</w>
Sk ype</w>
Ser vice</w>
Sec ret
Scot land</w>
S low</w>
S inging</w>
S M</w>
R ou
Prin ceton</w>
Phili p</w>
Palest ine</w>
P la
O ver
N ice</w>
N N</w>
Moder n</w>
Mi ami</w>
M aga
L ight</w>
Kosov o</w>
K -
J im
Int ellig
In tel</w>
In no
I M</w>
Gi ven</w>
G rou
G ri
G il
Fif ty</w>
F ol
E r
Democr ats</w>
De pression</w>
De an</w>
Col or
Christi ans</w>
Chri st</w>
Cer tainly</w>
Cambo dia</w>
Bri dge</w>
Bos nia</w>
Bab y</w>
B ased</w>
A. I.</w>
A B</w>
4 .
3 9</w>
199 6</w>
11 th</w>
. org</w>
- year</w>
y ou
wrec k</w>
wonder fully</w>
week ends</w>
voy age</w>
volcan oes</w>
vo ic
vision ary</w>
vibr ate</w>
up loaded</w>
under graduate</w>
un employment</w>
u a</w>
twe ets</w>
tw ist
tremend ously</w>
tra il</w>
tici pat
ti more</w>
threat en</w>
thous and
ter min
temp tation</w>
surroun dings</w>
super power</w>
sugg es
subur bs</w>
stun ning</w>
stro kes</w>
stra ins</w>
statis tically</w>
sta kes</w>
sta in
speech es</w>
spe eding</w>
sp a
si ghts</w>
sh -
sel ls</w>
secre tly</w>
seas ons</w>
sea water</w>
school ing</w>
scholar ship</w>
sc rap
sapi ens</w>
s ar
ri pped</w>
recy cle</w>
re treat</w>
re fined</w>
re d-
re create</w>
rac es</w>
quot es</w>
publi cation</w>
prevent able</w>
pre judice</w>
pr one</w>
pos ture</w>
pos ts</w>
poll u
poll ination</w>
pol ite</w>
po or
phot osyn
philosoph ers</w>
pain ter</w>
p lo
p ine</w>
out -of-
open ly</w>
obs es
not -
myster ies</w>
mix ture</w>
mir ac
mind ful</w>
meaning less</w>
mar sh
mani fest</w>
man ages</w>
m ers</w>
low- income</w>
lou der</w>
lo be</w>
li zing</w>
li king</w>
les bian</w>
la wn</w>
kindergar ten</w>
joy ful</w>
je ans</w>
j uni
j a</w>
institu te</w>
insi sted</w>
in secure</w>
in door</w>
imm un
hypothe ses</w>
human e</w>
hos ts</w>
he ights</w>
he el</w>
grass roots</w>
go ats</w>
gi ver</w>
geograp hic</w>
ge tic</w>
gall ons</w>
friend ships</w>
free way</w>
fra ming</w>
fo am</w>
flou rish</w>
finger tips</w>
financi ally</w>
fil ed</w>
fam ine</w>
f ense</w>
experim entation</w>
execu tives</w>
ex cer
evi dent</w>
electromag netic</w>
doc tr
digit ally</w>
dig its</w>
differenti ate</w>
diff er</w>
det ecting</w>
dec entr
de partments</w>
dar ity</w>
d um
cutt ing-edge</w>
cul turally</w>
cos tly</w>
correspon ding</w>
constra ined</w>
consist ently</w>
confer ences</w>
con dom</w>
con ceive</w>
con ce
compreh ensive</w>
competi tors</w>
comm and
co p</w>
clean ed</w>
char ging</w>
ch le
certi fied</w>
celebr ating</w>
ce l</w>
cardio vascular</w>
bu mp</w>
boun ce</w>
blo gging</w>
bla de</w>
bl essing</w>
bl end</w>
ber ty</w>
belon ging</w>
bar k</w>
back up</w>
avi ation</w>
as ym
ar ch</w>
ang els</w>
analy tical</w>
an don</w>
air ports</w>
ad mitted</w>
accum ulated</w>
aby tes</w>
abstr action</w>
absor bed</w>
a zz
Wel come</w>
V is
Un cle</w>
Uk ra
U r
Tr ust</w>
Tr ans
T uring</w>
T ar
Ste wart</w>
Sib eria</w>
Secret ary</w>
Sec re
S MS</w>
R ick</w>
P op
P lay
P in
O f
Nor man</w>
N u
N et</w>
Mon tan
Mar gar
Maga zine</w>
M aria</w>
M T
M M</w>
Luc kily</w>
In dex</w>
Hu h</w>
G old</w>
G all
Ex pl
Emi ly</w>
Ear th-
E specially</w>
Demo cratic</w>
De fense</w>
D allas</w>
D I
Con ference</w>
C ou
C ent
C M
Bro thers</w>
Be hind</w>
As soci
Arm strong</w>
An droid</w>
8 2</w>
4 6</w>
19 70</w>
10 0-
z ler</w>
worth while</w>
whist le
war ms</w>
ver ly</w>
ven ues</w>
v icious</w>
ur gency</w>
und ry</w>
un stable</w>
un necessary</w>
un finished</w>
un employed</w>
ul ative</w>
u ter
transi stor</w>
tor tured</w>
ti st</w>
ti pping</w>
the on</w>
ten ding</w>
te ens</w>
tat or
ta tives</w>
t oss</w>
t ances</w>
sur plus</w>
sub urban</w>
su le</w>
su ed</w>
stum bled</w>
ster dam</w>
stand point</w>
soli darity</w>
sol ar-
simul ations</w>
si p</w>
si ghted</w>
sh ments</w>
sh ells</w>
sett ings</w>
ser oton
ser en
sen sa
schol ar</w>
satis fying</w>
ru bble</w>
reven ge</w>
reve aling</w>
restric ted</w>
requi rements</w>
regre ts</w>
re vi
re stra
re mix</w>
re construction</w>
re claim</w>
rac ist</w>
r ushed</w>
r s.</w>
r acy</w>
ques tioned</w>
quanti tative</w>
prosp ect</w>
port able</w>
poor ly</w>
pollut ants</w>
pla usi
pl ying</w>
ph er</w>
par an
pack aging</w>
p per
p is
p h</w>
p acking</w>
on ists</w>
on co
om on</w>
obsc ure</w>
nucle i</w>
novel ty</w>
negoti ations</w>
near -
nat ures</w>
nan otechnology</w>
n ine
monit ored</w>
mom s</w>
modi fication</w>
mi ti
mi mic
mi a</w>
meas urable</w>
mathema tically</w>
mar i
mar gins</w>
man n</w>
mal nutrition</w>
lon eliness</w>
loc king</w>
le af
la stly</w>
kilo grams</w>
kid neys</w>
juven ile</w>
jour neys</w>
j ury</w>
j acket</w>
it ch</w>
it a</w>
intrigu ed</w>
insi c</w>
inf ect</w>
industri alized</w>
indica tors</w>
in habit</w>
in corpor
imp ose</w>
ill ary</w>
ide als</w>
hypothe tical</w>
hot ter</w>
hop eless</w>
hol der</w>
ho o</w>
hi ves</w>
h int</w>
h acked</w>
gr ace
goo d-
gh ost</w>
ge ological</w>
fes tival</w>
fe e</w>
fac ulty</w>
fa int</w>
f ill
exp ort</w>
exp licitly</w>
exp ense</w>
eth ic</w>
environ mentally</w>
elev ated</w>
el and</w>
ear ing</w>
e ste
disp ar
dis proportion
dis appears</w>
develop s</w>
devast ated</w>
d ging</w>
cultiv ate</w>
cros ses</w>
cri ticism</w>
cri ses</w>
crash ing</w>
coun ty</w>
cou pled</w>
corri dors</w>
cop ying</w>
conven tion</w>
contin ually</w>
compreh en
commission ed</w>
comm erce</w>
cock tail</w>
clean er</w>
cl ap</w>
circum stance</w>
circu itry</w>
chur ches</w>
cha otic</w>
ch im
cen sus</w>
cel ad
celad us</w>
catal o
car pen
cam els</w>
ca ust</w>
c is
bur n
bu ri
bra kes</w>
boy friend</w>
bomb sight</w>
ble eding</w>
bl ad
battle field</w>
barre ls</w>
att or
athle te</w>
assess ment</w>
artic ulate</w>
arri ving</w>
arrang ement</w>
ar ose</w>
an gible</w>
ambi a</w>
al ore</w>
acci dentally</w>
ab andon</w>
ab ama</w>
a ward</w>
a thetic</w>
a ire</w>
U p
Thir ty</w>
Tes zler</w>
T am
St art</w>
Simp le</w>
S ounds</w>
S adly</w>
S O
S B</w>
Ren aissance</w>
Portu gal</w>
Pati ent</w>
P C</w>
Mo MA</w>
Margar et</w>
Mar cus</w>
M uch</w>
M rs.</w>
M au
M .</w>
Lou is</w>
LI GO</w>
L es
K it
I N
Hund reds</w>
H un
H ou
H ill</w>
H appy</w>
Go o
G rowing</w>
F I
En celadus</w>
De ath</w>
D r
D AR
Con ven
Con tro
Color ado</w>
Camer on</w>
C up</w>
C amp
C .
Beat boxing</w>
Bat man</w>
Bang alore</w>
Bal timore</w>
As per
Ardu ino</w>
Am sterdam</w>
Al ready</w>
Al abama</w>
African- Americans</w>
5 6</w>
4 1</w>
2. 0</w>
10 th</w>
1 40</w>
- Fi</w>
zo o</w>
yl on</w>
water fall</w>
war m
w ing
volcan o</w>
veter an</w>
ve ins</w>
v ory</w>
un sustainable</w>
un know
uc ky</w>
trou bled</w>
thro ws</w>
thou se</w>
thir dly</w>
tempor al</w>
tax pay
t enti
tenti mes</w>
synthe si
syn c</w>
survi ves</w>
sur f</w>
suici dal</w>
storyt eller</w>
squ ared</w>
spon taneous</w>
spir its</w>
smu ggl
sion ately</w>
simpli stic</w>
si le</w>
si de-
shrin king</w>
sha hi
separ ating</w>
sel ler</w>
secon dly</w>
scal able</w>
sc are</w>
s i</w>
rough out</w>
ro ck
rep ly</w>
rein forced</w>
red und
recru ited</w>
recei ves</w>
realiz es</w>
re be
radi us</w>
qua tic</w>
pun ish</w>
pul ses</w>
pre frontal</w>
pot ato</w>
pos s
pop ulated</w>
play ground</w>
pill ar</w>
pher om
p ond</w>
oran gu
op i
op er</w>
om muni
oc top
not e
no tions</w>
ni ti
ni ece</w>
ni al</w>
neuro genesis</w>
need les</w>
nan op
n ut</w>
mo ons</w>
middle- class</w>
metaph ors</w>
mess aging</w>
mat s</w>
manufac tured</w>
m und
loy alty</w>
log istics</w>
liter al</w>
lit t
le ys</w>
le gen
lan der</w>
la zy</w>
l ure</w>
kno cked</w>
kilo s</w>
ke en</w>
iz ard</w>
ir relevant</w>
ir onically</w>
intri cate</w>
inten tional</w>
int angible</w>
inst ability</w>
inser t</w>
inj ected</w>
incu b
in puts</w>
in geni
imp acted</w>
im mortality</w>
ill es</w>
idi ot</w>
i or
hum idity</w>
hom ici
head- tail-
he h</w>
hand ling</w>
han dy</w>
ham burger</w>
h iring</w>
gri m</w>
gr ound
ggl es</w>
ge eks</w>
g ently</w>
g ec
foun ders</w>
for- profit</w>
fo ol</w>
fo o
fo li
fo g</w>
fl ed</w>
fit ted</w>
filmma kers</w>
explor ers</w>
exp en
exhau sting</w>
execu ted</w>
este em</w>
epiph any</w>
environ ment
empha sis</w>
elimin ated</w>
el ites</w>
el ines</w>
eigh th</w>
eff ec
educa ting</w>
ec es</w>
e z</w>
du al</w>
don ation</w>
dis ruption</w>
di al
develop ments</w>
determin ing</w>
deter ior
dep ended</w>
demo graphics</w>
deliber ate</w>
def ending</w>
dec o
de pri
dd ler</w>
critici zed</w>
cra wl</w>
cra b</w>
cor p
controll er</w>
contem pl
contamin ated</w>
conf ession</w>
compe tent</w>
commun al</w>
collap ses</w>
collabor ating</w>
coll ections</w>
co ined</w>
classi fied</w>
cho ir</w>
char is
centi meters</w>
capit alist</w>
cap sule</w>
calcul ating</w>
but t</w>
brow sing</w>
bom bing</w>
bit ter</w>
bio fuels</w>
bi ome
bel ts</w>
begin nings</w>
bee keepers</w>
be loved</w>
be having</w>
ban kers</w>
b ag
attr action</w>
attemp ted</w>
appar atus</w>
app er</w>
anticip ated</w>
anno ying</w>
anim ated</w>
anat om
amate ur</w>
am en</w>
ad jac
ach ers</w>
academ ics</w>
ac tic</w>
ac qui
Win dows</w>
Wil son</w>
Ver onica</w>
V ill
V .</w>
U shahi
U V</w>
U N</w>
Tur k
To yota</w>
Tit anic</w>
Th roughout</w>
Tasman ian</w>
Ta h
Stor y
Star bucks</w>
Sen ate</w>
Sa ve</w>
Ro y</w>
R am
R I
Q atar</w>
Ph D</w>
P sy
P as
Ma h
Li ve</w>
L is
Ke ith</w>
Ju lia</w>
J ill</w>
IS IS</w>
I. Q.</w>
I niti
Hop efully</w>
He brew</w>
Gu inea</w>
Gu ar
Gr ound</w>
Govern ments</w>
Govern ment</w>
Gl ass</w>
Ger mans</w>
Frank lin</w>
Fin land</w>
F am
Euro pa</w>
E S
E DI</w>
Do aa</w>
Di dn</w>
Des ert</w>
DAR PA</w>
D ic
C uri
C oper
C S
Buil ding</w>
Bon o</w>
Be yond</w>
Be tween</w>
Bar ack</w>
B ad</w>
Al len</w>
Abra ham</w>
A h
A gency</w>
9 3</w>
7 6</w>
6 8</w>
5 3</w>
&apos; all</w>
zi p</w>
x t
world view</w>
whistle blo
wh ol
weak ness</w>
wa x</w>
volunte ered</w>
vi an</w>
vel ing</w>
val id</w>
ut ors</w>
up load</w>
un ted</w>
un familiar</w>
un aware</w>
un a</w>
ty ran
triump h</w>
transc end</w>
toler ate</w>
tim eline</w>
til age</w>
thir d-
thin g
the id</w>
testi mony</w>
tele phones</w>
te am
tal es</w>
tab let</w>
t ans</w>
swit ches</w>
susp ected</w>
sur rogate</w>
suff ers</w>
sub mitted</w>
str ous</w>
stimul us</w>
state- of-the-
state-of-the- art</w>
stat ements</w>
star vation</w>
si e
short age</w>
shepher d</w>
seroton in</w>
self- esteem</w>
se wage</w>
se iz
se aled</w>
satis fy</w>
sal mon</w>
sa ves</w>
sa il
rul ing</w>
rul ed</w>
ri shing</w>
resurrec tion</w>
resul ting</w>
resul ted</w>
restric tions</w>
requ ests</w>
represen tatives</w>
ren dering</w>
rel essly</w>
reduc es</w>
rect angle</w>
recomm end
re moving</w>
re inventing</w>
re cl
ran e
ra tive</w>
ra ff
r ing
r ented</w>
puni shed</w>
provi ders</w>
pro ving</w>
prev ents</w>
preser ving</w>
pres ses</w>
pres ents</w>
prefer red</w>
pre sumably</w>
pr inters</w>
pot atoes</w>
poe tic</w>
po ore
poore r</w>
plac e
pill ars</w>
ph al
pedi atri
parti al</w>
par ticipat
p acks</w>
ou trage
opti mal</w>
op tic</w>
op hi
ommuni cations</w>
ome ters</w>
off line</w>
off ensive</w>
ob iles</w>
o is</w>
nur ture</w>
n i</w>
mund ane</w>
mom ent
mod ules</w>
mis ery</w>
minist ers</w>
milli on
methodo logy</w>
mel ody</w>
mean time</w>
may ors</w>
mar vel</w>
man- made</w>
mal low</w>
ma ge</w>
lo wing</w>
lim itation</w>
life times</w>
lif ts</w>
lic k
li ti
li ation</w>
lea ks</w>
le m</w>
lar vae</w>
la in</w>
ke l</w>
k ick
jud ged</w>
ju ggling</w>
journ als</w>
jo ints</w>
ir re
investi gating</w>
inti mid
inter viewing</w>
instinc ts</w>
install ations</w>
in ner
immen sely</w>
ig ners</w>
i k
hun ters</w>
hippo campus</w>
high- resolution</w>
hear s</w>
har mon
ha irs</w>
h ats</w>
gu ests</w>
gu essed</w>
go d
free doms</w>
fre ak</w>
fra med</w>
fil ming</w>
femin ism</w>
f us</w>
explos ions</w>
exp end
exp ands</w>
et ta</w>
establi shment</w>
eradi cate</w>
er osion</w>
er gy</w>
er ase</w>
epilep sy</w>
en vision</w>
en ched</w>
edu le</w>
ed ited</w>
e- to-
e ag
do do</w>
distur b
dispar ate</w>
disc ourse</w>
di ans</w>
descrip tions</w>
depres sing</w>
deli ghted</w>
day light</w>
day -to-
day-to- day</w>
d war
cyber criminals</w>
cri tic</w>
cri p
cri ed</w>
cre ators</w>
cra wling</w>
cor r
cool ed</w>
convic tion</w>
compe t
comp ass</w>
commit ments</w>
comm ands</w>
col i</w>
cockro ach</w>
clic king</w>
chem ists</w>
car tilage</w>
cap acities</w>
ca tor</w>
ca fe
ca bin</w>
c tions</w>
bureauc racy</w>
bul lying</w>
bul lets</w>
bo il</w>
blue fin</w>
blo ws</w>
black -
biot ech</w>
biom at
bicy cles</w>
ber y</w>
be st-
be ard</w>
avi an</w>
avail ability</w>
audit orium</w>
attor ney</w>
astronom ical</w>
arro g
are foot</w>
ant ane
an n</w>
ag e
addic ted</w>
ad ventures</w>
ad ow</w>
acknowled ged</w>
accommod ate</w>
ab usive</w>
a quatic</w>
a b</w>
X- rays</w>
Willi ams</w>
We b
W al-
Vir gin</w>
Victori an</w>
Ushahi di</w>
Un der</w>
To wer</w>
To p</w>
Ti bet</w>
Tai wan</w>
Sol omon</w>
Sol ar</w>
S ão</w>
S ev
S eri
S ci
Rus sell</w>
Ro b</w>
RIS D</w>
R L</w>
Po lice</w>
Pi x
P ros
P at</w>
P D
O ak
O E
Norwe gian</w>
N Y
Montan a</w>
M ass
M art</w>
M all</w>
Lar ge</w>
La wr
Jes se</w>
J .</w>
Isa ac</w>
I l
Himalay as</w>
For get</w>
F ant
F ac
Econ omic</w>
Ear ly</w>
E mer
E ll
E E
Com ple
Com passion</w>
Colom bia</w>
Che ers</w>
C -
Bu ff
Bo ok</w>
B BC</w>
Asper ger</w>
Ar ts</w>
Am anda</w>
A venue</w>
A us
A re
A long</w>
9 2</w>
8 0,000</w>
5 00,000</w>
4 50</w>
4 0-
1 60</w>
-in- law</w>
y ro
y able</w>
wor ries</w>
war n</w>
vis its</w>
virtu ous</w>
viol in</w>
vie wers</w>
vi ous</w>
v als</w>
us et
uset ts</w>
ur anium</w>
under cover</w>
un ite</w>
tou rism</w>
to- peer</w>
to ast</w>
tim ber</w>
thr ust</w>
thi um</w>
thank fully</w>
tex tile</w>
ten nis</w>
tempor arily</w>
tack ling</w>
t- shirt</w>
synthe size</w>
symp athy</w>
swe pt</w>
sw ir
super computer</w>
stun ts</w>
st en</w>
sp ine</w>
sovere ign</w>
sole mn</w>
sol itary</w>
snea kers</w>
sl am
sing er</w>
simil arity</w>
simil arities</w>
side walks</w>
si es</w>
si cal</w>
sh ire</w>
serv ant</w>
self- driving</w>
self- assembly</w>
se tup</w>
scre w</w>
sch edule</w>
s ounding</w>
s en</w>
s age</w>
ru in</w>
ri gorous</w>
ri ch
rhe tor
retr osp
rel ent
recru it
recor dings</w>
recep tors</w>
re lies</w>
re building</w>
re adily</w>
rane an</w>
radio active</w>
ra mi
r inging</w>
r ank</w>
prot esters</w>
prosec utors</w>
prom otion</w>
proble m-
pro ves</w>
pri stine</w>
pri est</w>
power fully</w>
post- conflict</w>
post cards</w>
poly mer</w>
poli cy
poli cing</w>
polar ization</w>
plac ement</w>
pione ers</w>
pin point</w>
perio dic</w>
pe an
pay load</w>
parti ally</w>
para dise</w>
pack aged</w>
p ins</w>
over l
outrage ous</w>
ou ver</w>
os copy</w>
opho bia</w>
on set</w>
on ies</w>
oblig ation</w>
o zone</w>
o ch
nur turing</w>
nic ity</w>
neur ot
nes see</w>
negoti ating</w>
navi gation</w>
na ils</w>
na il</w>
n on</w>
n ies</w>
mon thly</w>
mon sters</w>
modi fy</w>
mod ular</w>
millen nium</w>
migra ine</w>
mic r
men u</w>
mem bran
mari juana</w>
man tra</w>
mag ician</w>
ma tized</w>
m o</w>
m its</w>
lo ops</w>
liz ation</w>
listen er</w>
ligh twe
liber ation</w>
lec tures</w>
le vers</w>
lam b</w>
la undry</w>
la tions</w>
k it
j um
intr insic</w>
inter -
inst antane
inc i</w>
in fer
in doors</w>
impro ves</w>
immer sed</w>
im plants</w>
im pe
il st</w>
il literate</w>
igh s</w>
i ors</w>
hyper tension</w>
hyper bo
human ities</w>
hom osex
histor ian</w>
hi j
hero in</w>
hea vens</w>
har n
habit able</w>
h n</w>
h ence</w>
h ello</w>
guaran te
gu ts</w>
gri p</w>
gra titude</w>
gr it</w>
glob alized</w>
glo wing</w>
ger ms</w>
g y-
for gi
for bid</w>
for bi
floo ds</w>
floo ding</w>
flo ck</w>
fli pped</w>
fl ames</w>
ff ing</w>
fel lows</w>
fe asi
facil itate</w>
exten ds</w>
exten ding</w>
expedi tions</w>
exha us
excl usively</w>
ex os
evol ves</w>
ev es</w>
es cents</w>
es a
eri als</w>
enzy me</w>
ent y
encyclo pedia</w>
en vy</w>
ema iled</w>
em it
du m</w>
drin ks</w>
dri ed</w>
don ate</w>
do s</w>
do ck</w>
distur bed</w>
dist ress</w>
dis c</w>
dic tator
develop er</w>
desc endants</w>
defin itions</w>
datab ases</w>
d ances</w>
curr ents</w>
cu bic</w>
cr ank</w>
country side</w>
coordin ated</w>
conspir acy</w>
con fin
con cei
comm u
co w
clin icians</w>
clic ks</w>
clear ed</w>
class mates</w>
cigaret tes</w>
chle ar</w>
chap ters</w>
ch er
car ved</w>
car riage</w>
ca sca
c ali
br on
bom bar
bo ot</w>
bir ch</w>
bi osphere</w>
bene f
be dro
bar ber
ban ana</w>
au top
at eral</w>
aspi ration</w>
as y</w>
as er</w>
ar ous
appe ti
anti bodies</w>
anom al
anima tions</w>
ang ular</w>
anesthe sia</w>
anci es</w>
ance stry</w>
anc ouver</w>
anc ement</w>
amate urs</w>
agre es</w>
adverti se
adol escents</w>
ad or</w>
ach usetts</w>
acceler ation</w>
a wards</w>
a mo
a f</w>
Wi de</w>
Venezu ela</w>
V inci</w>
V ancouver</w>
V an</w>
U se</w>
Ten nessee</w>
Sk y
Scot tish</w>
Sam uel</w>
S li
S and
Ro ger</w>
Ro bo
Ric a</w>
R el
Po wer</w>
P lay</w>
Of ten</w>
O reg
O p
O S</w>
Net fli
N ot
N ine</w>
N ev
N L</w>
Mc Donald</w>
Mass achusetts</w>
Ma x</w>
Ma c</w>
M iss</w>
M edit
M a</w>
Lawr ence</w>
LGB T</w>
K elly</w>
Inter viewer</w>
Hu dson</w>
Hon dur
He a
Har lem</w>
H D</w>
Gol d
Go liath</w>
Gal ile
G race</w>
G an
Fo x</w>
Fin anci
F ind</w>
F arm
F ar</w>
F G</w>
Every where</w>
E ver</w>
E ff
E H</w>
Do esn</w>
Diff er
D own</w>
D M</w>
Co de</w>
Chan ge</w>
C s</w>
C lic
C P</w>
C IA</w>
Bu y</w>
Be ar</w>
Austri a</w>
Associ ation</w>
Al -
Ab u</w>
AR S</w>
A i
A ar
6 1</w>
5 -
2 50,000</w>
1 80</w>
yi elds</w>
xt apos
wr ink
whis per</w>
wear able</w>
war d
virtu es</w>
ver tically</w>
vari ed</w>
val ves</w>
v o</w>
v end
ur t</w>
up stream</w>
univers ally</w>
ty po
tw enty
trigg ers</w>
tri ple</w>
tre ats</w>
transforma tional</w>
tra ded</w>
tox ins</w>
ti tan</w>
ti re</w>
thum b
thor oughly</w>
thin kable</w>
tec ton
tap ed</w>
ta h</w>
t sm
t ress</w>
t at</w>
symp tom</w>
sy rin
syrin ge</w>
swal lowed</w>
surpri ses</w>
sur ge</w>
subsi di
sub marine</w>
stu b
stric tly</w>
stri ve</w>
stri pped</w>
streng then</w>
sti t
sti ff</w>
steri le</w>
stere o</w>
stat ue</w>
spon sor</w>
speci alize</w>
space- time</w>
sp y</w>
sp ades</w>
simpli fy</w>
sec u
sc ars</w>
s chem
s cat
room mate</w>
ro de</w>
rich ness</w>
ri fu
revel ations</w>
respon sive</w>
repli cated</w>
rela tional</w>
reg ulating</w>
ref ers</w>
reci pes</w>
re tri
re active</w>
rab bit</w>
rab bi</w>
prom in
pro pri
pro cra
predic ts</w>
predic tive</w>
pre valent</w>
policy makers</w>
poli c
po op</w>
pix el</w>
physi ological</w>
per sever
per cei
per -
penetr ate</w>
peer- to-peer</w>
pe dal</w>
pay off</w>
partis an</w>
p om
p li
p ic</w>
os cope</w>
os aurus</w>
or ded</w>
op tics</w>
op lan
ony mous</w>
on ate</w>
om ers</w>
ol ding</w>
offici ally</w>
octop us</w>
oc k
ob server</w>
o on</w>
o logies</w>
nur sing</w>
neuros ur
negoti ation</w>
n eling</w>
must ache</w>
mun ici
mu tually</w>
mot h</w>
mon d</w>
mo ck
mind- wandering</w>
min orities</w>
min gly</w>
min eral</w>
metr on
memor able</w>
me trics</w>
mat ernal</w>
mas h</w>
marsh mallow</w>
mar ching</w>
manufac turer</w>
mammo graphy</w>
m acr
lo cate</w>
ll as</w>
liter ary</w>
lightwe ight</w>
li thium</w>
lean ed</w>
le ver</w>
le v
labe ls</w>
l ining</w>
k ies</w>
j an</w>
it is</w>
ir y</w>
inv aded</w>
interrup ted</w>
inten sely</w>
ingeni ous</w>
in os</w>
in nate</w>
in forma
in form
in ely</w>
impli cation</w>
imagin ative</w>
im probable</w>
identi fication</w>
hy gi
hus bands</w>
hur ting</w>
hundre d-
histor ians</w>
high- quality</w>
hi ke</w>
he dr
ha mmed</w>
guid elines</w>
gui ding</w>
gr abs</w>
gl u
gi o</w>
gar s</w>
gam ma</w>
g ur
fung us</w>
fund raising</w>
fu tures</w>
fu ri
fre aking</w>
frac tal</w>
fra m</w>
forgi veness</w>
foc uses</w>
flu te</w>
fis cal</w>
fil ing</w>
fi ve
fertiliz ers</w>
feat ured</w>
fa de</w>
f u</w>
f ounding</w>
f laws</w>
exec ute</w>
evol u
est ed</w>
es el
es a</w>
er nity</w>
er ic</w>
ener getic</w>
emplo yers</w>
embarr assment</w>
el essness</w>
effec tiveness</w>
du de</w>
drow ned</w>
dra gging</w>
don ations</w>
domin ate</w>
dis semin
din ing</w>
degra dation</w>
decentr alized</w>
d resses</w>
d econ
cy cli
curi ously</w>
cur ator</w>
cu red</w>
cryp to
crow ds</w>
crocodi le</w>
cri tics</w>
cre epy</w>
crash ed</w>
cour ty
coo kie</w>
conv ul
contain ers</w>
conta ining</w>
consider ation</w>
con gre
commit tee</w>
commerci ally</w>
cl ut
cl apping</w>
cho res</w>
chan ger</w>
champ ions</w>
certifi cate</w>
ce me
cathedr al</w>
carto onist</w>
care givers</w>
car rot</w>
car -
cap turing</w>
cand le</w>
cafe ter
ca ve
ca bin
cabin et</w>
buri al</w>
bur ns</w>
bu m
break down</w>
bon us</w>
bio tic</w>
ber a</w>
belon ged</w>
bas s</w>
ban ker</w>
ban i
bal ancing</w>
b und
b ending</w>
autom obiles</w>
autom ation</w>
audit ory</w>
aud acious</w>
att ach
at orial</w>
at em
assign ments</w>
assem bling</w>
ass ess</w>
as hi
arti fici
are -
ar tery</w>
ar ming</w>
ar ises</w>
apar theid</w>
ap e
anten na</w>
an ch
am ino</w>
am bassa
aliz ations</w>
ag as
after ward</w>
ack ers</w>
achiev ements</w>
accum ulating</w>
a uc
a erial</w>
Zi p
Y a
Wol fram</w>
Wi -Fi</w>
Wal- Mart</w>
W ed
Vi en
Ve gas</w>
Tur n</w>
Tru th</w>
T ype</w>
T on
Stu dents</w>
Ste p</w>
Spe aking</w>
Some how</w>
Se bas
Scr atch</w>
S ound</w>
S ist
S em
R um
R on</w>
Pro duc
Pix ar</w>
Per f
P ent
P I
P .</w>
Oreg on</w>
Oak land</w>
OE CD</w>
O t
Nic hol
Netfli x</w>
Nan op
N either</w>
N ancy</w>
N 1</w>
Mo hammed</w>
Mill en
May or</w>
Mar yland</w>
Mal dives</w>
Maj or</w>
Mag ic</w>
M ess
M em
Lin da</w>
Li ving</w>
L or
L abor
Ki m</w>
Jon athan</w>
Jer ry</w>
IM F</w>
Hou ston</w>
He al
Gu atem
Gir ls</w>
Galile o</w>
G ro
Financi al</w>
Fe deral</w>
Fant astic</w>
Fa ther</w>
Econ om
E ight</w>
E aster</w>
Darwin ian</w>
Dar fur</w>
D ur
D ol
D R
Clu b</w>
Cir cle</w>
Christi anity</w>
C ro
C el
C ass
Bro ad
Be li
B an
Any thing</w>
Ameri cas</w>
Al lah</w>
AI MS</w>
A ch
A S
8 9</w>
2 ,500</w>
198 5</w>
197 6</w>
196 8</w>
zz ly</w>
z oning</w>
yog a</w>
y l</w>
wo od
wh ere
wea ving</w>
wan der</w>
w en</w>
w -up</w>
visu alizing</w>
vibra tion</w>
vibr ant</w>
vac ant</w>
v et</w>
up wards</w>
un pleasant</w>
un limited</w>
un ky</w>
ul ose</w>
ul ed</w>
u k
tur n
tu ary</w>
trigg ered</w>
treas ure</w>
transi stors</w>
trans forms</w>
tra tion</w>
tom atoes</w>
to b
tion ists</w>
tic es</w>
ti sts</w>
ten sions</w>
telec ommunications</w>
te or
ta kers</w>
t ness</w>
t man</w>
t apped</w>
swa p</w>
sur render</w>
superno va</w>
sun ny</w>
summar y</w>
submer sible</w>
sub scri
su itable</w>
str apped</w>
stic ker</w>
stati sti
spaces hip</w>
spa ghet
sp read
sli ces</w>
sk ins</w>
six -year-old</w>
sho w
shat tered</w>
sh iny</w>
seven -
self- organizing</w>
see d
scar city</w>
sc and
sal es
s wo
s no
s day</w>
roc ke
ro yal</w>
ri sed</w>
rhetor ic</w>
revolution ize</w>
respir atory</w>
respec tful</w>
resi dential</w>
repe ti
repe ating</w>
remit tances</w>
rela xed</w>
regi mes</w>
refl ecting</w>
recruit ment</w>
reconci liation</w>
re sting</w>
re gain</w>
re fine</w>
rain y</w>
rain bow</w>
rab bits</w>
r anges</w>
proph et</w>
profes sions</w>
pro xim
pri zes</w>
pres chool</w>
pre vail
pre ference</w>
plan tation</w>
photograph ing</w>
phot ons</w>
ph thal
per me
participat ory</w>
p opping</w>
p itch
p ale</w>
over load</w>
over lap</w>
outra ge</w>
ous es</w>
oun ced</w>
os ter</w>
os copic</w>
orphan age</w>
or ted</w>
or ch
op t</w>
on able</w>
om a</w>
of tentimes</w>
occup ation</w>
o to</w>
o des</w>
not ed</w>
neuros cientists</w>
neuros cientist</w>
n inth</w>
mod eled</w>
mo ist
mi mics</w>
metro politan</w>
mean while</w>
mean ings</w>
margin alized</w>
manuscri pts</w>
main taining</w>
loo m</w>
lon ging</w>
ligh ted</w>
liber ating</w>
li d</w>
le um</w>
le is
las ers</w>
l engths</w>
kill ers</w>
ke eper</w>
ju xtapos
iter ation</w>
is ot
irri gation</w>
intui tively</w>
inter nationally</w>
inten tionally</w>
instinc tively</w>
insi st</w>
insec tici
inqu iry</w>
in expensive</w>
in adequate</w>
in ability</w>
imm unity</w>
im it
im a</w>
ign ment</w>
ign ant</w>
hob by</w>
hi es</w>
head aches</w>
head ache</w>
h ren
h ran</w>
h r
guarante ed</w>
gradu ation</w>
govern or</w>
go -
gi raff
gi g
ger m</w>
genu inely</w>
ge able</w>
gan gs</w>
g le</w>
free -
frag mented</w>
fra u
fluctu ations</w>
fisher men</w>
expos ing</w>
excell ence</w>
ex cav
es y</w>
erec tus</w>
er ranean</w>
equ ator</w>
ep ic</w>
enthusi astic</w>
ent ine</w>
enh anced</w>
ener gy-
end uring</w>
end or
end ment</w>
encryp ted</w>
en sla
en ger</w>
embr yo</w>
em ed</w>
el o
educa tors</w>
eas ed</w>
e di
dys functional</w>
dri lling</w>
dri ft</w>
down stairs</w>
distor ted</w>
distinc tive</w>
di min
di l
deser tification</w>
deman ded</w>
deli cate</w>
decl ined</w>
de x
de va
d der</w>
cust oms</w>
curr encies</w>
cu res</w>
cryst als</w>
crea tic</w>
corr hi
cor respond</w>
contribu tes</w>
con science</w>
comp rised</w>
col der</w>
cli ffs</w>
cl ed</w>
ch in</w>
ch ant</w>
cataly st</w>
car cin
bureauc ratic</w>
bun tu</w>
bul k</w>
buil der</w>
bran ded</w>
bo oth</w>
bo ils</w>
blo ggers</w>
ble ed</w>
bio graphy</w>
bi tions</w>
ber ries</w>
ben ch
bar be
bal let</w>
back pack</w>
b n
ay ed</w>
ax es</w>
aw i</w>
at ra
at able</w>
as sured</w>
as ph
arrang ements</w>
ar c</w>
announ cement</w>
announ ce</w>
ann e</w>
and an</w>
ambigu ity</w>
aliz es</w>
al yp
aesthe tics</w>
adv ancing</w>
adjac ent</w>
ad mission</w>
activ ation</w>
acci dental</w>
ab normal</w>
a un
Zip car</w>
Wit ness</w>
Wed nes
Wal k</w>
Vill age</w>
V enter</w>
U s</w>
Tw enty</w>
T ele
Sus an</w>
Story Corps</w>
Sebas tian</w>
Sa int</w>
S ene
S ear
Re agan</w>
R an
Power Point</w>
Portu gu
Pol and</w>
Plan et</w>
Pan theon</w>
P rou
P ap
On line</w>
No w
Na than</w>
N ine
N ative</w>
Moun tains</w>
Mo reover</w>
Millen nium</w>
Medit erranean</w>
Mal ay
M om
L ap
L angu
Ki bera</w>
Ken yan</w>
K al
Jim my</w>
Jen ni
J ay</w>
J A</w>
Iran ians</w>
In credible</w>
I -
Ho ly</w>
H ot
H ope</w>
H G</w>
Guatem ala</w>
Ge tting</w>
Fri ed
Franc is</w>
Fal con</w>
F air</w>
F ace</w>
Europe ans</w>
En ergy</w>
E lla</w>
E den</w>
D L</w>
Cor por
Contro l</w>
Com mission</w>
Cass ini</w>
C la
C at
Bab bage</w>
B ut
B ag
Arab s</w>
Antarc tic</w>
An dy</w>
Air bn
A ut
A V</w>
A O</w>
8 3</w>
7 7</w>
5 7</w>
197 3</w>
15 th</w>
10 1</w>
1, 100</w>
- free</w>
y elling</w>
wo ven</w>
whi p</w>
wel com
welcom ed</w>
week ly</w>
wal let</w>
vir gin</w>
ver bs</w>
v or
v on</w>
under mine</w>
under ing</w>
un thinkable</w>
un s</w>
um onia</w>
ucle ar</w>
u it</w>
u ber
ty- five</w>
two- way</w>
tun nels</w>
tun as</w>
tribu te</w>
tr i</w>
tr action</w>
tough er</w>
tou rists</w>
tou rist</w>
tin iest</w>
til t</w>
tic ut</w>
ti gh
three -year-old</w>
thi est</w>
ten se</w>
techno logists</w>
te ddy</w>
tac tics</w>
t asking</w>
system ic</w>
swe eping</w>
swe ar</w>
swal low</w>
susta ining</w>
super massive</w>
super ior</w>
sup pos
sugges tions</w>
suffici ently</w>
substanti ally</w>
stun ned</w>
stri ps</w>
stran gely</w>
str and</w>
stimul ated</w>
ste ak</w>
star ving</w>
star tling</w>
spaghet ti</w>
sp otted</w>
sig natures</w>
short cut</w>
sho cks</w>
sh allow</w>
secre tary</w>
se minal</w>
se ize</w>
se at
scaff old</w>
s miles</w>
ru ins</w>
ru ined</w>
ris dic
ri r</w>
resem ble</w>
repli cation</w>
reper to
rel ying</w>
rein force</w>
re x</w>
re tain</w>
r ina</w>
quick er</w>
provi der</w>
prov ince</w>
prosthe tics</w>
pro jecting</w>
preci pit
pre sti
pre mature</w>
pop -up</w>
po ets</w>
plan ners</w>
place bo</w>
pharm ac
persist ent</w>
persist ence</w>
perform er</w>
pen alty</w>
pe ek</w>
par o
pan creatic</w>
p raise</w>
p pers</w>
p ne
pne umonia</w>
p end
out dated</w>
ot er</w>
orb ital</w>
op oli
one- third</w>
on esel
onesel f</w>
old- fashioned</w>
og en</w>
occa sional</w>
o dd
no vels</w>
ne sts</w>
motor cycle</w>
motiv ations</w>
motiv ating</w>
monit ors</w>
mirac ulous</w>
mini -
middle- aged</w>
met ap
mer ge</w>
membran es</w>
me des</w>
master piece</w>
marath on</w>
manipul ating</w>
manife station</w>
main tained</w>
mac ro
ma r</w>
m in</w>
m at</w>
lob s</w>
lit ers</w>
lau re
l ump</w>
l ousy</w>
ju risdic
ja ils</w>
intui tions</w>
inter sections</w>
inspi rational</w>
ins ically</w>
influ ential</w>
incarcer ated</w>
in ha
improvi se</w>
im itate</w>
hur ricane</w>
hun ter-
hum ming
hren he
hrenhe it</w>
holi stic</w>
hi ve</w>
helicop ters</w>
hedr on</w>
ha ul</w>
ha sh
gui des</w>
grand mothers</w>
go dd
glo ves</w>
ght ness</w>
gen omics</w>
gec ko</w>
g ement</w>
g d
g ades</w>
four -year-old</w>
fore head</w>
fore ground</w>
for mats</w>
flo wering</w>
fla wed</w>
fic tional</w>
fi shes</w>
f an
eye bro
eye -
extre mists</w>
extr apol
explo rer</w>
exp licit</w>
exhilar ating</w>
exc es
ex ile</w>
eth nicity</w>
est rogen</w>
est ing</w>
enter taining</w>
end lessly</w>
em ia</w>
el usive</w>
ear nings</w>
e- up</w>
e tic</w>
e e
dun es</w>
dood ling</w>
dom a
doma ins</w>
do x
do omed</w>
disper sed</w>
dis comfort</w>
dis belief</w>
dig it</w>
des cent</w>
dec eased</w>
de vised</w>
dat a-
cu bic
cre di
craf ted</w>
cosmo logy</w>
cos ting</w>
contradic tions</w>
consist ency</w>
concer ts</w>
con gres
con grat
compla ined</w>
compet ence</w>
comp act</w>
commerci als</w>
come dian</w>
com ets</w>
colli sions</w>
co ins</w>
co co
cl it
chore ograp
che wing</w>
champ ion
ch ill</w>
cer am
centi grade</w>
cent rifu
ca b
c ession</w>
byp ass</w>
bu ys</w>
broad casting</w>
brilli ance</w>
brea sts</w>
bra in-
br ink</w>
br and-
bor rowing</w>
bo thered</w>
blood stream</w>
blo b</w>
bl ess</w>
biolumin escent</w>
bb on</w>
back ward</w>
b lobs</w>
associ ations</w>
artifici ally</w>
arith metic</w>
ari ot</w>
argu ably</w>
ar a</w>
appli ances</w>
ap or</w>
amy gd
amp hi
am ents</w>
al ignment</w>
al arming</w>
air -
agre ements</w>
agnos tic</w>
ag a</w>
aff ection</w>
add resses</w>
ad mit
ab ad</w>
a z
a ver
a ura</w>
a e</w>
Y ears</w>
Won der
Wal ter</w>
Vo y
V as
Uni ver
Ukra ine</w>
U N
Th ous
Te hran</w>
Tah rir</w>
TED sters</w>
T radi
T ami
T S</w>
T K</w>
St ay</w>
Sou theast</w>
S ue</w>
S ri</w>
S ony</w>
S on
S co
S -
Ru n</w>
Rep ort</w>
Re al</w>
Radi o</w>
Rac hel</w>
R ule</w>
R al
Prou st</w>
Perf ect</w>
Palestini ans</w>
P H</w>
Or chestr
O dys
O O
N ight</w>
N ar
Mos es</w>
Mo vember</w>
Mil lions</w>
Mc C
Mar shall</w>
L esters</w>
Kat rina</w>
K ri
K han</w>
K S</w>
Jo el</w>
J S</w>
Intellig ence</w>
Inno vation</w>
I van</w>
I g
I P</w>
I P
Hy per
Holo caust</w>
H it
Ga me</w>
G ot</w>
Fried man</w>
Fin ance</w>
Fa hrenheit</w>
F ro
F ree</w>
F es
F L</w>
Eng ine
E van</w>
E qu
Dre am</w>
De ar</w>
Connec ticut</w>
Chan nel</w>
Ch er
C DC</w>
B rea
B lu
B MW</w>
B .C.</w>
An onymous</w>
Am ong</w>
Al ber
Airbn b</w>
Ach illes</w>
A ga
9 1</w>
8 0-
6 0-
6 .
3 -
15 -year-old</w>
ze era</w>
z e-
x it</w>
wor ship</w>
won d
wond rous</w>
wh ilst</w>
wea ve</w>
wea ker</w>
wan a</w>
w ay
vers a</w>
val ve</w>
va il</w>
v il
us er-
understand able</w>
under wear</w>
un natural</w>
un healthy</w>
un cover</w>
ul ls</w>
turb ines</w>
tur tle</w>
tu ce</w>
tre adm
treadm ill</w>
tr act</w>
tob acco</w>
ti tion
ti des</w>
thin ess</w>
therap eu
temp t</w>
teen th</w>
targe ting</w>
t- in</w>
t ucked</w>
t ted</w>
t es
t el
t earing</w>
sy ll
swe at
sustain ably</w>
sub set</w>
str al</w>
ster ing</w>
ste ering</w>
stabili ze</w>
st ap
spar ked</w>
sp ines</w>
sp elling</w>
some things</w>
sol ves</w>
so ils</w>
skep ticism</w>
sis si
sho res</w>
sho ok</w>
sett ling</w>
sett lements</w>
sec rec
secrec y</w>
seas onal</w>
sear ched</w>
se gre
scar es</w>
sc ram
sat ur
s warms</w>
s man</w>
rou ghts</w>
ri p</w>
ri p
rhyth m-
rhythm- etic</w>
rh ino
revel ation</w>
retro viral</w>
ret t</w>
respec ts</w>
res ort</w>
repli cating</w>
reperto ire</w>
reluc tant</w>
regul atory</w>
reg arded</w>
refer ring</w>
refer ences</w>
rede mption</w>
reconci le</w>
recomm ended</w>
reci pro
re imagine</w>
re fin
ran ks</w>
ra ms</w>
r ushing</w>
r ans
question na
qu al
purcha sed</w>
psychiatri st</w>
proto col
prosper ous</w>
propos ing</w>
pro of
prin cess</w>
pri mor
presi dents</w>
pra h</w>
pp i</w>
pot enti
port foli
port al</w>
por n</w>
pol is</w>
po o</w>
plu gged</w>
pit ched</w>
photosyn thesis</w>
pharmaceu ticals</w>
per fu
pe el</w>
path ology</w>
pas sively</w>
pas sionately</w>
paragrap h</w>
pale onto
pa ds</w>
p ies</w>
other mal</w>
osc ale</w>
org asm</w>
orchestr as</w>
op pression</w>
off enders</w>
oc ta
oc alyp
o xide</w>
o live</w>
num ber
not ori
not ation</w>
non y
nick name</w>
ni an</w>
new s
net t</w>
nan o-
n as
mur dered</w>
mot to</w>
moist ure</w>
mo des</w>
milli seconds</w>
migr ant</w>
mid -</w>
mess ing</w>
mer it</w>
men ting</w>
mel ted</w>
mas ks</w>
mand ate</w>
mammo gram</w>
ma scul
lo wered</w>
listen ers</w>
lic a</w>
les ion</w>
law suit</w>
l est</w>
l acking</w>
know -
kn it</w>
k nit
juni or</w>
j ams</w>
investiga tive</w>
intr insically</w>
inter ro
inter f
interf ere</w>
integr al</w>
int ol
inno c
inhabit ants</w>
inf ants</w>
in corporate</w>
impos ing</w>
imp ati
il -
i ves</w>
hur d
humili ated</w>
horri fied</w>
hol low</w>
hand some</w>
h in
h ill
h ed</w>
gri zzly</w>
great- great-
gre ed</w>
grab bing</w>
ge othermal</w>
ge ology</w>
ge ese</w>
ge ek</w>
ga tions</w>
g ar</w>
forbi dden</w>
for aging</w>
fon ts</w>
follo w-up</w>
fle et</w>
flash ing</w>
fla p</w>
fl ush</w>
fire flies</w>
fi erce</w>
fat ty</w>
fac e-to-
fa x</w>
f law</w>
extrac ted</w>
extrac ellular</w>
exter n
exec ution</w>
excer pt</w>
ester day</w>
epis odes</w>
enterpri ses</w>
enlighten ed</w>
enjo yable</w>
en suring</w>
en coded</w>
elimin ating</w>
elec toral</w>
el ve</w>
echan ical</w>
e gos</w>
e ager</w>
dr ums</w>
down loaded</w>
divi des</w>
distr action</w>
dis played</w>
differ ential</w>
di cal</w>
den ed</w>
demon strations</w>
dec e
de grade</w>
dat as
da ho</w>
d roughts</w>
d anced</w>
d able</w>
cur tain</w>
counsel ing</w>
cos tum
cor tical</w>
conver ting</w>
conver gence</w>
contrac ep
contag ious</w>
comp en
co workers</w>
co ali
clit or
clin ically</w>
clari fy</w>
charis matic</w>
char ming</w>
ch unks</w>
ch ord</w>
ch ester</w>
ch arities</w>
centr alized</w>
cent ure</w>
cen sored</w>
casu alties</w>
carb onate</w>
car ve</w>
car cas
butter fly</w>
bru te</w>
bru tality</w>
bron ze</w>
bo ws</w>
blin d
blad der</w>
bl aming</w>
bit ten</w>
biom ol
biolumin escence</w>
bill board</w>
beli ever</w>
bani sha</w>
awar ded</w>
automo tive</w>
attemp ting</w>
atra zine</w>
athe ist</w>
astronom er</w>
ast ounding</w>
assi c</w>
asph alt</w>
asp ir
as ser
arri val</w>
anthropo logy</w>
anthropo logists</w>
announ cing</w>
ang ed</w>
an ist</w>
alle vi
al tar</w>
al be
aim ing</w>
ai res</w>
agas car</w>
after math</w>
adverti se</w>
adop ting</w>
adap ting</w>
adap table</w>
ad hes
acr ony
accompli shment</w>
a x</w>
Y esterday</w>
X L</w>
Wor k</w>
Wester ners</w>
Wednes day</w>
We i
W is
Vien na</w>
UC LA</w>
U m</w>
U .</w>
Tru e</w>
Tami flu</w>
TED x</w>
T um
T B</w>
Sp ec
Sol di
Sh ir
Sene gal</w>
San dy</w>
Sa fe
S tran
S now</w>
S L</w>
Ros etta</w>
Re ady</w>
R N</w>
Pro gress</w>
Prin cess</w>
Portugu ese</w>
Phot os
Philipp ines</w>
Per son
Pan banisha</w>
Pan ama</w>
O prah</w>
Nev ada</w>
Neander thal</w>
Ne il</w>
Nanop atch</w>
N on
Mur ray</w>
Mon go
Mo del</w>
Mel inda</w>
Mari o</w>
Mad agascar</w>
M ir
Lo cal</w>
Le o</w>
Lap top</w>
Labor atory</w>
LE Ds</w>
L ank
Ky oto</w>
Kno wing</w>
K ent
Ju d
Jenni fer</w>
Ja zeera</w>
J ack
Iraq i</w>
I rish</w>
I daho</w>
Hir os
Hind u</w>
Han nah</w>
Had ron</w>
Ha mp
H ad</w>
Guar dian</w>
Grou p</w>
Ge iger</w>
FO X
Ex tre
Es s
Eng li
En lighten
E ur
E dison</w>
Du ke</w>
Doc tors</w>
Di se
Di am
Dar k</w>
D ick</w>
D G</w>
Cur r
Corpor ation</w>
Comm uni
Col lider</w>
Co hen</w>
Ch all
CE RN</w>
C had</w>
Bro w
Be t
Bal k
B ay
Archi medes</w>
Ad d</w>
Ac centure</w>
Aar on</w>
A ur
A qu
A ges</w>
A D
9 ,000</w>
8 1</w>
7 1</w>
7 ,
6 7</w>
2 D</w>
198 6</w>
198 2</w>
12 th</w>
1, 200</w>
1 25</w>
1 1,000</w>
- out</w>
- 2</w>
yog urt</w>
y- based</w>
x ic</w>
wrest ling</w>
wor thiness</w>
wom b</w>
wet lands</w>
weap on
wa kes</w>
w ig
w ears</w>
vit ro</w>
vir ul
ventil ation</w>
ve ts</w>
v ity</w>
v apor</w>
v ague</w>
ush i</w>
up grade</w>
un touched</w>
un folding</w>
un fold</w>
u ts</w>
type face</w>
tw enti
tur tles</w>
tu ition</w>
tri angles</w>
transl ates</w>
tra de
to ddler</w>
tiv als</w>
ti tan
ti res</w>
threat ens</w>
the ft</w>
th u
th ou</w>
ter restrial</w>
tem ples</w>
tap e
ta sted</w>
t- to-
t ours</w>
t len
sy nony
swit ching</w>
susp ects</w>
sul fur</w>
suc ked</w>
standar dized</w>
stag n
sta ke
st acked</w>
squ at
spir itu
specim ens</w>
sp rings</w>
sp or
sol vable</w>
so cks</w>
so cket</w>
sna p</w>
smo oth
sk irts</w>
sk irt</w>
sk in
sissi ppi</w>
sie ge</w>
seri ousness</w>
sear ches</w>
se u
sched uled</w>
scar f</w>
scaff olding</w>
sc is
s op
s lot</w>
s late</w>
s ali
run ner</w>
ru b</w>
rot ation</w>
rot ates</w>
rever ber
restor ation</w>
resour ce
requ iring</w>
represen tations</w>
reli ev
recogn iz
re usable</w>
re generative</w>
re bel</w>
re ar</w>
re acted</w>
rail road</w>
ra v
r ounded</w>
r ots</w>
r enti
qui z</w>
push es</w>
punc ture</w>
pu mping</w>
pu berty</w>
psych ic</w>
psych e</w>
protocol s</w>
proto cells</w>
prop elled</w>
promin ent</w>
profession ally</w>
pro xy</w>
pro files</w>
priori tize</w>
primor dial</w>
prescri be</w>
premi um</w>
predat ory</w>
prac tition
pra yers</w>
pp le</w>
pp ies</w>
por no
pois oning</w>
plausi ble</w>
pl uri
pl otted</w>
pione ered</w>
pestici de</w>
persever ance</w>
perpetr ators</w>
perform ances</w>
pedestri ans</w>
pa ved</w>
pa sted</w>
p opped</w>
p its</w>
p he
ou l</w>
ort al</w>
op o
op e
one- two-
on t</w>
om at
oli thic</w>
oce an
occa sions</w>
o o</w>
o cul
non- profit</w>
no thing
ni k</w>
new born</w>
negl ected</w>
nar cis
nan oscale</w>
nam ese</w>
n ut
mur der
multipli cation</w>
mort al</w>
mit es</w>
mis understood</w>
mind fulness</w>
milli on-
mil est
micro wave</w>
mic ro</w>
mer chan
men stru
memor ize</w>
mechan ically</w>
me tics</w>
me adow</w>
man ure</w>
man gro
mal e-
ma x</w>
ma tics</w>
ma h</w>
m ally</w>
ly ri
lun ch
ligh tly</w>
let tuce</w>
lear ners</w>
la va</w>
kno cking</w>
kis sing</w>
kilo gram</w>
ju mp
isol ate</w>
inv ade</w>
intro verts</w>
interpre ted</w>
inter ference</w>
intell ect</w>
ins ult</w>
infl ate</w>
infin ity</w>
imp acting</w>
imm ortal</w>
imagin ations</w>
ima m</w>
im balance</w>
ignor ing</w>
hunter- gather
hos tility</w>
hor n</w>
hi de
hi d</w>
heart beat</w>
hand writing</w>
hand s-on</w>
h yp
h em
h ap
guerri llas</w>
gu m</w>
gu essing</w>
gu el</w>
great ness</w>
gra ding</w>
gra di
gra ded</w>
geome tric</w>
gener ator</w>
gener alize</w>
gar den
g la
g ator</w>
fri dge</w>
fore most</w>
for wards</w>
for um</w>
foot prints</w>
floo ded</w>
five -year-old</w>
fis sion</w>
fin est</w>
fil tered</w>
fear ful</w>
fea thers</w>
face-to- face</w>
fa cade</w>
f le</w>
extre mist</w>
explo ding</w>
expend it
exam ining</w>
evalu ation</w>
ester land</w>
est -
er otic</w>
epide mi
enri ched</w>
encoun ters</w>
en der</w>
empiri cal</w>
emp ires</w>
em it</w>
ech o
ec o-
du mped</w>
dre ad
don ating</w>
do ve</w>
divor ced</w>
div inity</w>
disc oura
dictator ship</w>
diam ond</w>
desper ation</w>
des irable</w>
deplo yment</w>
dec ode</w>
deb ates</w>
de vi
de fi
d ant</w>
cul t</w>
cul min
cruci ally</w>
craf tsm
cr ush</w>
cr aters</w>
cr abs</w>
counsel or</w>
costum es</w>
cor ds</w>
continu ity</w>
conqu er</w>
confron tation</w>
condem ned</w>
con den
compos er</w>
comp ose</w>
comp ens
communi cates</w>
common place</w>
com ics</w>
colon ial</w>
colli de</w>
coh es
clitor is</w>
clic ked</w>
clas h</w>
cl oned</w>
cl one</w>
ci v
che e
char ts</w>
chal k</w>
ch ment</w>
ce ly</w>
cap tures</w>
calcul ator</w>
ca b</w>
burn t</w>
bum ble
buc ket</w>
brow se</w>
br ac
bon obos</w>
bon acc
bonacc i</w>
bo died</w>
blin king</w>
bl amed</w>
bit es</w>
bin ding</w>
be tra
batt les</w>
b uck
b is
avo id
auti ful</w>
atten ded</w>
at uri
asym me
ast on
assum es</w>
ash ing</w>
as sed</w>
ari anism</w>
archi ves</w>
arch et
ar tis
ar ized</w>
ap ocalyp
anz i</w>
ans on</w>
analy tics</w>
an tha</w>
ama tion</w>
albe it</w>
al igned</w>
ag ne</w>
ag ile</w>
adver s
ac ous
a z</w>
a ka</w>
Wh ole</w>
W ere</w>
Voy ager</w>
Viet namese</w>
U h</w>
U NI
Ty ler</w>
Tit us</w>
Th ough</w>
T un
T ou
T est</w>
T ay
Swe eney</w>
Sub -
Spe ech</w>
Sh ort
Sel f-
Sam antha</w>
S wa
S R</w>
Ro ad</w>
Ra is
RN G</w>
R isen</w>
R ice</w>
R M</w>
R G</w>
Po or</w>
Pent agon</w>
P ost</w>
P ear
Orchestr a</w>
Now adays</w>
No ah</w>
Nichol as</w>
N avy</w>
N P</w>
Mor oc
Mo ving</w>
Mis sissippi</w>
Mi guel</w>
Mat the
Malay sia</w>
Mal awi</w>
M organ</w>
M en
Lu ke</w>
Lat ino</w>
L esterland</w>
L as</w>
L am
K E
Jos h</w>
Jac ques</w>
J ur
Il lin
I II</w>
I DE
I D</w>
I C
Hot el</w>
Hondur as</w>
Hon ey</w>
Hit ler</w>
Hel en</w>
H is
G row
Four th</w>
Fort une</w>
Fore ign</w>
Fi bonacci</w>
Fes tival</w>
F ish</w>
F GM</w>
Ess entially</w>
En ough</w>
E. T.</w>
E nd</w>
E B</w>
Dru gs</w>
Do ing</w>
DI Y</w>
D ro
D a</w>
D J</w>
Con stitution</w>
Co oper</w>
Cap tain</w>
Cap it
C op
Bo oks</w>
Be autiful</w>
B ec
B and-
Aw esome</w>
Al i</w>
Aga inst</w>
A v
A gn
A S</w>
A C</w>
9 9.
8 .
3 60</w>
3 5,000</w>
200 0s</w>
1. 4</w>
1 10</w>
- a-
ó n</w>
é sum
world- class</w>
with stand</w>
wi relessly</w>
whist les</w>
wel coming</w>
warm th</w>
wa ist</w>
w ob
vis or</w>
viol ated</w>
valu ing</w>
val leys</w>
v ices</w>
v ector</w>
unle ash</w>
under estimated</w>
un explored</w>
um ann</w>
u de</w>
u ddin</w>
two- year-old</w>
twist ed</w>
turb ine</w>
tun ing</w>
trans fers</w>
tr aps</w>
tough est</w>
to aster</w>
tic k
ti tled</w>
ti fied</w>
ti ers</w>
ti al</w>
thum bs</w>
the st</w>
te ase</w>
te ap
take -
t- up</w>
t wit
sym bi
sw ings</w>
sur ance</w>
suppos edly</w>
succe eding</w>
suc ces
su mer
su bor
su bli
stu pi
stu ffed</w>
stret ching</w>
stran ded</w>
stra in</w>
str o</w>
stor ing</w>
stand -up</w>
st an</w>
st acks</w>
spo res</w>
spi kes</w>
spi ke</w>
specim en</w>
sp aw
sour i</w>
sou thwest</w>
some place</w>
solu ble</w>
soci o
socio economic</w>
so m</w>
so lic
sne ak</w>
snap shot</w>
sli pped</w>
sle eve</w>
sl augh
skele tons</w>
sk -
simpli fied</w>
side ways</w>
si us</w>
sha ming</w>
seri al</w>
sensa tions</w>
sen su
sel ectively</w>
se diment</w>
se ated</w>
scis sors</w>
sc uba</w>
sav vy</w>
sav anna</w>
sanc tuary</w>
san itary</w>
sal ad</w>
sa me-
s ushi</w>
s nee
s ect</w>
s ari</w>
rul er</w>
ru gu
rugu ay</w>
ru de</w>
ri sk-
recipi ent</w>
re medi
re juven
re ception</w>
ran g</w>
rain water</w>
ra mp
ra ging</w>
r ésum
r ine</w>
r ally</w>
quot ed</w>
quad ri
qu ad</w>
pup pet</w>
pu t
propor tions</w>
progres sively</w>
proce ed</w>
problem- solving</w>
pro pulsion</w>
priv ation</w>
pre domin
pos ting</w>
portfoli o</w>
porno graphy</w>
pollin ators</w>
plum me
pleas ures</w>
pione er</w>
pi geons</w>
ph y</w>
ph ery</w>
pessi mis
pessimis tic</w>
perpe tual</w>
peri phery</w>
pe d
pe ar
par ked</w>
pa ins</w>
p seu
p ace
oy ster</w>
overwhel mingly</w>
over weight</w>
outw ard</w>
oul der</w>
ot y
ot eric</w>
or n</w>
or bits</w>
opa que</w>
on ey</w>
on dri
off ense</w>
od ynam
occu pa
num b</w>
note book</w>
nos tal
neuro logist</w>
net worked</w>
na e</w>
n ine-
mut ant</w>
mon opo
moder ate</w>
miti gate</w>
min ers</w>
mi zing</w>
meta data</w>
men tioning</w>
mel o
medic inal</w>
medi ated</w>
me e</w>
mar gin</w>
manipul ated</w>
manife stations</w>
man tis</w>
ma stered</w>
ma ize</w>
m our
m ite</w>
los er</w>
lick r</w>
le gged</w>
l acks</w>
k u</w>
jun ction</w>
jo ins</w>
j et
iz a</w>
it z
it ative</w>
invent ory</w>
inf lic
incl usion</w>
incenti vi
imp ress</w>
imp licit</w>
ic -
hydro thermal</w>
hom o
high lighted</w>
he av
hat ma</w>
h anding</w>
gu esses</w>
gover ned</w>
gol ese</w>
go ggles</w>
gl as</w>
gi ants</w>
gen omic</w>
ge o-
gard ening</w>
ga me-
g ents</w>
g ators</w>
fru strations</w>
for agers</w>
for age</w>
flou rishing</w>
fla me</w>
finger print</w>
ff y</w>
favel as</w>
fasc ination</w>
fabri cation</w>
f ty</w>
f red</w>
f ences</w>
extr action</w>
extin ctions</w>
excl usion</w>
exces sive</w>
exc uses</w>
exam ined</w>
ex oplan
ex changes</w>
ev an
et t</w>
es e-
eradi cated</w>
er ased</w>
enti a</w>
enh ancing</w>
energi zed</w>
ener gies</w>
en za</w>
en si
en nial</w>
en code</w>
en chan
en as</w>
empath ize</w>
embry onic</w>
embo diment</w>
em body</w>
electro de</w>
el astic</w>
dri fting</w>
divi sions</w>
dis miss</w>
dis closure</w>
dig est</w>
differenti ated</w>
di ver</w>
dev ote</w>
dest ined</w>
desc end</w>
des ks</w>
depos it</w>
dele te</w>
degra ding</w>
decon struc
decl are</w>
de tri
de par
de emed</w>
dar ker</w>
da unting</w>
da ism</w>
d- up</w>
cy nical</w>
custom ization</w>
cubic le</w>
cr ater</w>
cor rup
consum es</w>
consul tant</w>
conf use</w>
conclu ded</w>
concent rations</w>
con firm</w>
compos ite</w>
compen sation</w>
compan ion</w>
comm ute</w>
com press</w>
co res</w>
co chlear</w>
cla ws</w>
ci a</w>
che ated</w>
ch et</w>
cere al</w>
cell o</w>
cc a</w>
cat ches</w>
carb ons</w>
can als</w>
cal li
cafeter ia</w>
ca f
c ans</w>
butter flies</w>
bul l</w>
buff er</w>
bu tter</w>
bu le</w>
brigh test</w>
brigh ter</w>
bom bed</w>
bo arding</w>
bli cal</w>
bl ues</w>
biome dical</w>
bel ls</w>
be ta</w>
be st
be cca</w>
bas ics</w>
barber shop</w>
bar a</w>
ba it</w>
b our
avoi ded</w>
atten dance</w>
att acker</w>
atro cities</w>
athe ists</w>
ath ic</w>
at i</w>
at er
aston ished</w>
as tically</w>
ar mies</w>
ar in</w>
appeti te</w>
app renti
anticip ation</w>
anten nae</w>
anno yed</w>
anecd ote</w>
an te</w>
an ship</w>
an ian</w>
allo cate</w>
ak in</w>
aer odynam
adv ent</w>
adol escent</w>
administ rative</w>
admini str
acknowled ging</w>
Wal mart</w>
W ired</w>
Vir tual</w>
V on</w>
U ruguay</w>
Thous ands</w>
Th us</w>
Th ur
TED ster</w>
TED Talks</w>
T ext</w>
T ech</w>
Sy mp
Su rely</w>
Sto ck
Sil ence</w>
Short ly</w>
Ser gio</w>
Sci ences</w>
Sch war
Rw andan</w>
Ron ald</w>
Rom o</w>
Ro ots</w>
Re becca</w>
Rais uddin</w>
R yan</w>
R ose</w>
R SW</w>
Port land</w>
Pla to</w>
Pi ano</w>
P ope</w>
P ep
O. S.</w>
O z</w>
O liver</w>
O il</w>
Nor mally</w>
Ni k
Ne umann</w>
Mos tly</w>
Mis souri</w>
Mid west</w>
Mar x</w>
Mar tian</w>
Mar t
Man agement</w>
Ma hatma</w>
M t</w>
M I</w>
Lo oks</w>
Lit er
Li ke
Le ft</w>
Le an</w>
Langu age</w>
L y
L ang
Kent ucky</w>
K ab
Ju daism</w>
Joh ns</w>
Jama ica</w>
J on</w>
J obs</w>
J i
Israel is</w>
Illin ois</w>
I. T.</w>
I de
Hur ricane</w>
H P</w>
Grand ma</w>
Gi ant</w>
Gal ax
G len
G ary</w>
Fre ud</w>
Fi elds</w>
Fe ar</w>
F lickr</w>
Enlighten ment</w>
Earth- like</w>
E cu
Dou glas</w>
Dou g</w>
D un
D ays</w>
Cre ative</w>
Cor rec
Con golese</w>
Compu ters</w>
Cl oud</w>
Ci tiz
Cel sius</w>
C ultural</w>
C ar</w>
C ab
C NN</w>
Blu e
Bi o
B om
Ann oun
An th
Al li
Air port</w>
Ai mee</w>
Ac umen</w>
A- rhythm-etic</w>
A ward</w>
A ni
A BC</w>
8 8</w>
7 3</w>
7 0,000</w>
7 .
6 3</w>
5 0th</w>
4 9</w>
24 -hour</w>
2 nd</w>
2 8
198 8</w>
10- year-old</w>
. S.</w>
- D
ze iro</w>
x en
win -
wil derness</w>
whist ling</w>
wh ir
wet suit</w>
wee ds</w>
waste water</w>
warri ors</w>
war ran
war ned</w>
wa ving</w>
vul tures</w>
vol ution</w>
visu als</w>
viol ently</w>
vege tarian</w>
ve tica</w>
ve in</w>
vari ability</w>
vant age</w>
usi e</w>
ush es</w>
up dated</w>
unbeliev ably</w>
un- So
un-So ok</w>
un ra
un locked</w>
um bre
treat y</w>
transpor ting</w>
transcend ence</w>
tr uc
to cr
time- lapse</w>
tic ity</w>
ti um</w>
ti fying</w>
three- four</w>
thou ghtful</w>
thin ner</w>
ten ed</w>
techn icians</w>
tall est</w>
ta d
t- based</w>
synchron ize</w>
syn chr
synchr ony</w>
swe ep</w>
swe ater</w>
sw ol
swol len</w>
surve yed</w>
super heroes</w>
super hero</w>
sun set</w>
su perf
stu di
stret ches</w>
stra w</w>
ste ep</w>
star ter</w>
star k</w>
st resses</w>
st op
st ment</w>
squ irre
spra wl</w>
spon sored</w>
sp it</w>
sour ced</w>
sole ly</w>
so l</w>
sni p
small- scale</w>
simul ator</w>
sho ots</w>
shel ters</w>
sha man</w>
separ ately</w>
sel ecting</w>
see ks</w>
see kers</w>
se me
se man
scre wed</w>
satur ated</w>
sampl ing</w>
same- sex</w>
sa fest</w>
s wana</w>
s m</w>
s lic
s ers</w>
s ank</w>
s ands</w>
ro pes</w>
resi dual</w>
repeti tive</w>
refle x</w>
reco vering</w>
real- world</w>
re jection</w>
rami ds</w>
question able</w>
que ue</w>
publish er</w>
pu b</w>
prosecu tor</w>
prop eller</w>
prolifer ation</w>
projec tor</w>
pri mal</w>
pres ent-
predic tability</w>
pre tending</w>
pre cursor</w>
pre ach</w>
prag matic</w>
post- traumatic</w>
por a</w>
polar ized</w>
plu tocr
pla que</w>
pl ots</w>
pione ering</w>
pic tured</w>
pi st
persi st</w>
pen nies</w>
pe es</w>
par t-
par aph
paraph r
pal p
pa vi
pa thetic</w>
p iled</w>
p hic</w>
p ec
p add
over s</w>
over ished</w>
over coming</w>
ou twe
os ter
oppon ents</w>
op es</w>
one- on-
ogen esis</w>
nam ing</w>
n as</w>
n acle</w>
my corrhi
multip lied</w>
mon th-
mini aturi
mind- blowing</w>
mil k
migr ated</w>
mess ed</w>
mer ging</w>
mel ts</w>
mega watts</w>
medi an</w>
meas les</w>
me mo
marke ted</w>
manu el</w>
main frame</w>
mag ically</w>
ma ze</w>
ma il
m oud</w>
loc als</w>
ll o</w>
liber ated</w>
lever aging</w>
leis ure</w>
legi timacy</w>
le dge</w>
law ns</w>
lap ar
l or</w>
l enti
ket t</w>
ke f
kef eller</w>
k l
k ansas</w>
jo king</w>
j it
j ets</w>
ir man</w>
inter tw
inter dependence</w>
int elli
institu tion
insp ires</w>
innoc ence</w>
inj ecting</w>
influ enza</w>
infl am
inf er</w>
incub ator</w>
inci dents</w>
in trac
in ert</w>
in as</w>
imp overished</w>
imp ort</w>
imp air
im perfect</w>
ign ite</w>
id -
ic ity</w>
i vely</w>
hur ry</w>
humming bird</w>
hos ting</w>
homici de</w>
hol m</w>
ho vering</w>
hip pie</w>
high- risk</w>
head phones</w>
hash tag</w>
harve sted</w>
ha w
h our
h ints</w>
h ically</w>
grand ma</w>
gra zing</w>
gra ds</w>
gra ders</w>
gr in
gover ning</w>
gl ands</w>
ger -
geograp hical</w>
gen it
ge t
ge sted</w>
g aming</w>
fur thermore</w>
fund ers</w>
ful filled</w>
fru gal</w>
fron t-
fresh water</w>
fran ch
fore stry</w>
for war
flu x</w>
fl am
fish ery</w>
figh ter</w>
ff el</w>
fes tivals</w>
fe cal</w>
favel a</w>
fashi onable</w>
facil it
fa ti
f lic
ey n
extrac ting</w>
extra -
expres ses</w>
exp orting</w>
exce ed
exceed ingly</w>
evolu tion
evan ge
ev o
ev a</w>
es i
ende mic</w>
en do
en ce-
emplo yer</w>
em en
el ty</w>
el ect</w>
econ ds</w>
ec tion
ear ly-
e dy</w>
dy sle
du le</w>
dru g-
dri p</w>
dri fted</w>
dra ft</w>
domin ance</w>
do om</w>
do l</w>
divi ding</w>
divi d
diver gence</w>
disp ute</w>
dis crete</w>
dis close</w>
diplom atic</w>
dict ator</w>
di re</w>
di mentary</w>
di ce</w>
deva station</w>
demonstr ating</w>
dem entia</w>
defe ated</w>
de void</w>
de privation</w>
d res
d addy</w>
cur ved</w>
cur se</w>
cu le</w>
crea tively</w>
counter parts</w>
cost- effective</w>
cor related</w>
cor relate</w>
construc tions</w>
constra int</w>
concep tions</w>
con sumer
con sol
con ju
compli cations</w>
comple xi
compla ints</w>
commun ist</w>
comfor tably</w>
col os
cock pit</w>
co ho
co cc
co ated</w>
co aster</w>
co al
co aches</w>
clos e-up</w>
clear -
classi fy</w>
ci ent</w>
chi efs</w>
cheap ly</w>
che er</w>
champ agne</w>
cham bers</w>
ch lor
ch ick</w>
ch i</w>
ce phal
casu ally</w>
ca ution</w>
ca tive</w>
ca des</w>
c coli</w>
bud dy</w>
bu sted</w>
broad band</w>
bri ghtness</w>
bre e
bos sy</w>
blur ry</w>
blin dly</w>
bl ank
blank et</w>
bi polar</w>
beg ging</w>
be ams</w>
batt ling</w>
balcon y</w>
bal d</w>
bab y
ba thro
ba o</w>
b red</w>
b on</w>
b ins</w>
autonom ously</w>
attach ment</w>
assi st</w>
as sign</w>
as pora</w>
arri ves</w>
arg as
ar th
ar che
antidepress ants</w>
anthropo logist</w>
anony mously</w>
and ri
ance stral</w>
analo gies</w>
altru istic</w>
alo is</w>
alli ance</w>
all- time</w>
algorith mic</w>
al ine</w>
al ign</w>
air y</w>
aggres sion</w>
aff lic
advoca cy</w>
adi c</w>
ad verse</w>
ad ren
acqui sition</w>
ach s</w>
accum ulation</w>
access ing</w>
acc us
ac ulture</w>
aby te</w>
ab alone</w>
a ic</w>
Z ambia</w>
Yel low
Y outh</w>
Wor king</w>
Vi ol
V ila</w>
V R</w>
Tom orrow</w>
The ater</w>
T ech
T R</w>
T O</w>
T D</w>
Sur vey</w>
Sub- Saharan</w>
Stu dies</w>
Stock holm</w>
Sho ots</w>
S. O.S.</w>
S usie</w>
S tra
S put
S add
S T</w>
Rou ge</w>
Roc kefeller</w>
Ri ver
Ri ft</w>
Re ed</w>
Ra in
R ot
R ol
R -
Pear l</w>
Par ker</w>
P age</w>
O sa
Net work</w>
Na zi</w>
N O
Mongo lia</w>
Mo bile</w>
Mis sion</w>
Mah moud</w>
Ma p</w>
M et
M BA</w>
Lor na</w>
Lea ve</w>
Le ad
L abs</w>
K h
K anzi</w>
Joh ann
J K</w>
In dependent</w>
IDE O</w>
Hy un-Sook</w>
Hung arian</w>
Hum anity</w>
Hop kins</w>
Hel vetica</w>
Hawai ian</w>
Har old</w>
H us
H ul
H ay
H as
Gra ham</w>
Gor don</w>
G wen</w>
G alois</w>
Fi re
FOX O</w>
F red</w>
F orest</w>
Environ mental</w>
Ele ph
Eigh ty</w>
E. U.</w>
E C
Dre y
Do c</w>
Dise ase</w>
Differ ent</w>
Di ana</w>
Dan ish</w>
D i</w>
D D
Curr ently</w>
Cru zeiro</w>
Conven tion</w>
Con tr
Con servation</w>
Comm on</w>
Che e
Car ol</w>
CM U</w>
C li
C Ds</w>
Broad way</w>
Bot swana</w>
Bon ica</w>
Bo ard</w>
Ber tie</w>
Beli eve</w>
Be au
Bab ylon</w>
Ba gh
B y
B s</w>
B ring</w>
B loo
B L</w>
Au th
Ar kansas</w>
Anth ony</w>
Announ cer</w>
An ton
An n</w>
An as</w>
Ama zing</w>
Am endment</w>
Al fred</w>
Agn es</w>
Ac tor</w>
A stron
A ren</w>
A ha</w>
A cross</w>
8 4</w>
6 6</w>
3 ,
25 th</w>
197 9</w>
1 -
zo diac</w>
z we
y wood</w>
y ell</w>
x- ray</w>
wr on
wr apping</w>
worth less</w>
wit z</w>
wi sh
wat ering</w>
wat ch
wal kable</w>
vic inity</w>
veri fy</w>
ven om</w>
v ani
v ana</w>
up stairs</w>
un to</w>
un ci
ul ted</w>
ul ously</w>
u ph
tw ater</w>
tun neling</w>
trou bling</w>
trans national</w>
trans duc
tran scri
tr ans</w>
tr ance</w>
tox in</w>
to ken</w>
to fu</w>
tic king</w>
thousand th</w>
ther mo
th en
test oster
temper ate</w>
techno logically</w>
techn ician</w>
te amed</w>
tar es</w>
ta ker</w>
t z
t ying</w>
symbi osis</w>
swe ating</w>
sw ine</w>
sw am</w>
suspic ion</w>
supp liers</w>
superno vae</w>
super powers</w>
super conductor</w>
sup press</w>
summ ed</w>
suc cum
subsequ ent</w>
su ited</w>
stra w
str ual</w>
sti r
ster oids</w>
st les</w>
st an
squ are-
spiritu ality</w>
speci alty</w>
spec tral</w>
sp am</w>
sophisti cation</w>
so y</w>
sna il</w>
slam med</w>
sla m</w>
shuff le</w>
short est</w>
shoot ings</w>
serv ic
seren di
separ ates</w>
sem ble</w>
se mic
scre en
scrap ers</w>
sco red</w>
scand al</w>
sampl ed</w>
sal twater</w>
s word</w>
s have</w>
run g</w>
ro cking</w>
rever sed</w>
respon ders</w>
reser vo
requ ested</w>
refriger ators</w>
refriger ation</w>
rea u</w>
re tar
re stored</w>
re discover</w>
re constructed</w>
ran king</w>
rail way</w>
r y
r r
r ated</w>
que ens</w>
puzz ling</w>
puzz led</w>
punc tu
publish ers</w>
pu mped</w>
psycho tic</w>
propor tional</w>
preci p
pper y</w>
pos ter
pos session</w>
pos it
pos ing</w>
pollin ate</w>
poin ter</w>
po ised</w>
pluri potent</w>
pl ywood</w>
pl ague</w>
pir ates</w>
pir acy</w>
pil gri
pherom ones</w>
persuas ive</w>
person nel</w>
person alization</w>
per il</w>
pen ny</w>
pas sport</w>
pac kets</w>
pa jam
pajam as</w>
p ots</w>
p als</w>
out liers</w>
out doors</w>
ot ting</w>
orth ope
ori cal</w>
organiz ers</w>
org es</w>
optim ist</w>
one-on- one</w>
on ary</w>
off- the-
och ondri
occup ying</w>
objec tives</w>
ob itu
o thy</w>
o dox</w>
nu g
nu anced</w>
nothing ness</w>
nos es</w>
no by
nine -year-old</w>
neurot rans
ne phe
nan o</w>
my stical</w>
moun tain
mos ques</w>
mortg age</w>
mon ument</w>
mon aster
mis use</w>
mis sile</w>
milli meters</w>
micros copes</w>
micro phones</w>
micro organisms</w>
mi xes</w>
metron ome</w>
meta st
meta -
mes si
maneu ver
mal ignant</w>
macr o</w>
ma kes
makes hi
makeshi ft</w>
ma gg
ma -
m ons</w>
ly n
lo yal</w>
lo wer
lo vers</w>
lo os
lo gues</w>
liber ate</w>
li p</w>
lex icon</w>
level and</w>
left- handed</w>
le uk
lay ered</w>
la titude</w>
l one</w>
l as</w>
kidn apped</w>
k r
jeal ous</w>
j er
j ack</w>
it ous</w>
is ons</w>
ir regular</w>
ir ability</w>
intr osp
inter sec
inter rupt</w>
inter fer
inter dependent</w>
instruc tor</w>
instr umental</w>
inf eri
indi cated</w>
in timately</w>
in organic</w>
in jec
in ex
in ces</w>
in appropriate</w>
impul ses</w>
imprison ed</w>
impres sions</w>
impli cated</w>
imple mentation</w>
illumin ate</w>
illu strations</w>
ill is</w>
ide ally</w>
ic he
iche ver</w>
hygi ene</w>
hum bling</w>
horri fying</w>
ho o
high lights</w>
high est-
hier arch
heter osex
heli x</w>
hec tares</w>
he m</w>
he im</w>
haz ard</w>
har assment</w>
han gs</w>
ha y</w>
ha unted</w>
ha mas</w>
h ull</w>
gy m
guerri lla</w>
gri ev
grap es</w>
gradu ating</w>
gradu al</w>
gra tification</w>
gos h</w>
gi ous</w>
gener ators</w>
ge ant</w>
gate way</w>
gad gets</w>
fundament alism</w>
ful fill
frac ture</w>
fr ost</w>
for mer
for getting</w>
fool ed</w>
fi xes</w>
ferti le</w>
fea ther</w>
fai ths</w>
fabri cated</w>
exhi bits</w>
exhi bitions</w>
exc ites</w>
ev acu
et as</w>
es oteric</w>
es -
er ve</w>
ent ur
encoura ges</w>
em its</w>
em bed</w>
elev ation</w>
ech o</w>
ec ologist</w>
earthqua kes</w>
e u</w>
e dible</w>
dys function</w>
dy e</w>
du pli
down stream</w>
doctr ine</w>
disproportion ately</w>
disap pointment</w>
disa strous</w>
dis missed</w>
diplom ats</w>
di m</w>
di ly</w>
deri ve</w>
denti st</w>
defin i
def ect</w>
[...]
