#version: 0.2
с т
е н
р а
р о
т о
п о
т о</w>
к о
н а
н о
в а
р е
т ь</w>
в о
н и
л ь
к а
м о
д е
р и
т е
л и</w>
н о</w>
т а
н а</w>
н е
н ы
л е
з а
г о</w>
л о
в е
л и
н е</w>
с я</w>
ч то</w>
п ро
м е
в и
с о
д о
л а
ен и
б о
ч е
д а
д и
м а
т и
г о
р у
с е
ч а
б ы
в ы
м ы</w>
х о
о б
э то</w>
м и</w>
м ен
ст а
д а</w>
п е
п ри
ч и
е т</w>
ст в
ц и
т е</w>
с и
р ы
т ся</w>
м и
ко то
к и
с ь</w>
м у</w>
л а</w>
п а
и з
л ю
ра з
н и</w>
е м</w>
ст о
д у
мо ж
ж е</w>
ка к</w>
и с
ст ь</w>
б ы</w>
н у
л я
л о</w>
ш и
э то
п ре
о т
к и</w>
o t
q u
qu ot
quot ;</w>
& quot;</w>
л у
г и
с а
ж и
с ко
з на
к а</w>
кото ры
н ы</w>
л я</w>
ны е</w>
но й</w>
г да</w>
щ и
ени я</w>
в ы</w>
ю т</w>
ны х</w>
г а
к о</w>
т ы</w>
б у
в с
щ е
те ль
ени е</w>
т и</w>
и з</w>
ст и</w>
т ь
б е
к у
но го</w>
п ра
т а</w>
и н
ве р
Э то</w>
д ля</w>
с ка
де ла
ч то
е тся</w>
с у
в се
ть ся</w>
с ли</w>
та к</w>
ны й</w>
ва ть</w>
о ни</w>
о т</w>
б и
е й</w>
бо ль
о р
с во
н я
д ру
ль ко</w>
з а</w>
ра с
ен ь</w>
ра бо
е го</w>
и х</w>
ж а
м ы
т у
ш е</w>
с ле
с ки
ст ра
п о</w>
л е</w>
М ы</w>
во з
ва ни
пе р
г ра
что бы</w>
Н о</w>
то м</w>
П о
п у
но е</w>
ко гда</w>
ст и
о н</w>
до л
з ы
ж д
р а</w>
з о
р я
б а
и ли</w>
которы е</w>
ш а
пе ре
хо ди
п и
в ре
ц е
ны м</w>
в ля
на я</w>
д е</w>
е сть</w>
ко н
ств о</w>
е те</w>
м а</w>
бы ло</w>
мо г
го во
о д
к у</w>
о ч
по д
ду ма
ст о</w>
т ы
ж е
м у
ни ма
е сли</w>
л ен
пре д
но сти</w>
ю щи
оч ень</w>
то му</w>
с ло
- то</w>
в а</w>
ци и</w>
с по
к е</w>
ф и
д у</w>
д и</w>
на с</w>
з да
р е</w>
но сть</w>
ж но</w>
д о</w>
ска за
а к</w>
ст е
на ш
ств ен
вс е</w>
мож но</w>
мен я</w>
т у</w>
р ы</w>
а ль
ств а</w>
с дела
в у
п ло
ст ви
щ а
ст у
по ль
ь ю</w>
бо ле
ме х</w>
ло ве
р и</w>
на м</w>
но м</w>
м не</w>
ч но</w>
ко м
л ь</w>
са мо
з у
с мо
ле т</w>
ни е</w>
ж из
ф ор
ли сь</w>
С мех</w>
че лове
д ы</w>
со б
зы ва
со зда
п ла
с лу
ш е
ло сь</w>
ю тся</w>
то лько</w>
бы л</w>
ну ю</w>
че ски
т ре
в о</w>
о на</w>
рабо та
вс ё</w>
де й</w>
то го</w>
а р
э ти
ст ро
е к
п ы
ж ен
то в</w>
К о
кото ро
е м
ло ги
в я
с я
на ча
ко й</w>
ви де
ва м</w>
мож ет</w>
л ся</w>
л ы
ни я</w>
по лу
д я
Н а
че м</w>
ро в</w>
з и
ц ен
сто я
е щ
ис поль
а к
бы ть</w>
се б
м ного</w>
е р
по тому</w>
лю дей</w>
ка за
м я</w>
с пе
об раз
гово ри
при ме
бу де
к ра
де й
т ра
э ти</w>
ны ми</w>
по л
б о</w>
тель но</w>
ст во
это го</w>
б ле
т ри
м но
о с
ни х</w>
мен ты</w>
ё м</w>
О ни</w>
не т</w>
боль ше</w>
это м</w>
боле е</w>
к ры
бы ли</w>
н я</w>
ин те
ч у
г ла
а н
про сто</w>
которы й</w>
ме ст
ча с</w>
те м</w>
ко м</w>
ди с
ств у
бы ла</w>
с а</w>
г а</w>
н у</w>
ро ва
во т</w>
д ен
че ско
и сто
вре мя</w>
х а
п ис
пра ви
в л
ко в</w>
О н</w>
ва с</w>
ка ж
и ме
та ки
лю ди</w>
ё т</w>
про бле
ш ь</w>
0 0</w>
й час</w>
к ру
де р
де сь</w>
по мо
ени и</w>
ц а</w>
ещ ё</w>
т ро
ф о
л ли
с ре
в з
г де</w>
те ле
да н
Е сли</w>
о ста
лу ч
р у</w>
ё н
ско лько</w>
дру ги
вре мен
мож ем</w>
т я
го д
это т</w>
буде т</w>
ти в
вани я</w>
это му</w>
ла сь</w>
у т</w>
Т ак</w>
дей стви
В ы</w>
ль но</w>
ви ди
пло дис
плодис менты</w>
е ё</w>
к лю
от ве
чи та
и де
мо й</w>
и м</w>
про из
у же</w>
об ра
е ди
вы е</w>
ро в
ри и</w>
о ди
дол ж
г ля
М о
х но
в то
В от</w>
во й</w>
у ч
ве д
та к
сле до
ни и</w>
об ще
я вля
ст ью</w>
это й</w>
А плодисменты</w>
во про
ци о
ка р
да же</w>
не й</w>
ч у</w>
д ви
я х</w>
бу ду
образ о
ра н
ци я</w>
ши х</w>
сдела ть</w>
ц ь</w>
та м</w>
к то</w>
си сте
дру го
ме р
но в
ра я</w>
с вя
ну жно</w>
ми лли
ш о
су ще
с ле</w>
жиз ни</w>
м е</w>
воз мож
й те</w>
К а
к ла
г ру
ст ре
по ня
пред ста
ени й</w>
ле к
з десь</w>
по ло
вани е</w>
че му</w>
мог ут</w>
с е</w>
те р
К ак</w>
т р
в ра
хо ро
ю ще
все го</w>
о б</w>
исполь зо
об ъ
себ я</w>
з во
б ли
ходи т</w>
вы х</w>
х и
не е</w>
м о</w>
ж да
ва ли</w>
се йчас</w>
ко л
ви ть</w>
г и</w>
че ре
у чи
с о</w>
пер ь</w>
ц е</w>
так же</w>
м ени
эти х</w>
я ми</w>
ра в
т но</w>
хно логи
приме р</w>
сле д
хо те
э та</w>
ц ы</w>
ци ю</w>
ре с
н ь</w>
г ро
ро вать</w>
ь ю
оди н</w>
вы й</w>
кото рая</w>
до б
пре де
у ча
до ста
те хнологи
ор га
во с
пы та
й ти</w>
фор ма
к то
ра з</w>
па си
ени ю</w>
д ы
го ло
чу в
ва я</w>
про ис
паси бо</w>
че го</w>
полу чи
де ле</w>
слу ча
В о
го ро
ли ч
все х</w>
т ру
ст ру
я ть</w>
Ко гда</w>
долж ны</w>
само м</w>
сказа ть</w>
са мы
то ч
че с
Н а</w>
мож ете</w>
э ко
во ди
жд ы
г ен
год ня</w>
би ра
которы х</w>
жен щи
да р
ко не
Ч то</w>
ни й</w>
ф е
сту п
до в</w>
С е
но в</w>
ва ж
ч ь</w>
г у
Б о
сле ду
Т а
ка н
до м</w>
ис следо
мо з
с чита
ре ш
к ро
на за
э ту</w>
хо чу</w>
на зыва
э к
& #
&# 9
т ри</w>
сказа л</w>
с ы</w>
наза д</w>
пис а
гра фи
по нима
по след
ле т
ро м</w>
н ен
с ве
ени ем</w>
по каза
не р
г е
не го</w>
что -то</w>
О на</w>
щ и</w>
раз ви
от кры
ку ю</w>
ни ка
дума ю</w>
ко е</w>
хо дя
л ы</w>
к е
б ра
мог ли</w>
ва ет</w>
ма те
орга ни
Н е
ста но
до ро
по ли
то т</w>
мест е</w>
мен но</w>
по зво
И так</w>
за ме
се р
про ек
д ь</w>
мно ги
жды й</w>
ч ение</w>
с т</w>
чере з</w>
с ни
от но
ин форма
за да
д з
па с
ж ение</w>
ко го</w>
ва л</w>
со в</w>
дела ть</w>
Д а
д но</w>
мен т</w>
исполь зу
п ри</w>
ю сь</w>
З а
себ е</w>
ч и</w>
с лы
ме ри
стра н
исто ри
жд у</w>
ти я</w>
гра м
ств е</w>
ж ения</w>
ти ть</w>
на чи
не сколько</w>
боль ши
о преде
воз можно</w>
ци аль
л ения</w>
па р
жиз нь</w>
сто ро
ре ши
ен но</w>
т во
ки е</w>
го ду</w>
ц а
все м</w>
ми ре</w>
боль шо
е му</w>
в е</w>
ка зыва
спо соб
по д</w>
смо тре
но ми
ча ст
р о</w>
челове к</w>
зна чи
2 0
ме сто</w>
д ень</w>
С пасибо</w>
б ла
И н
ру ю</w>
эти м</w>
явля ется</w>
ни м</w>
виде ть</w>
сто и
ве ли
Т е
смо три
по сле</w>
е е</w>
го да</w>
то чно</w>
бо й</w>
ль та
те й</w>
ш о</w>
ва ют</w>
к ре
види те</w>
из мени
времен и</w>
ем ся</w>
ма с
ком п
чес ки</w>
сре д
об е
из мен
о бы
жи ть</w>
ющи х</w>
ки х</w>
действи тельно</w>
но стью</w>
на ру
ми р</w>
спо со
ж у</w>
э нер
об ходи
зу льта
п ря
ве ро
ющи е</w>
у ди
ме жду</w>
эко номи
1 9
на ль
лен ь
по ч
ком па
в ли
об ла
у да
ва ш
в ле
про це
ва н
ка я</w>
чески е</w>
ло м</w>
ка х</w>
ско й</w>
да ть</w>
се годня</w>
образо м</w>
д ва</w>
ре зульта
щ у
се м
П ро
с ы
же н</w>
про си
в ро
теле й</w>
щ е</w>
полу ча
л ё
которо й</w>
проис ходит</w>
те сь</w>
ки м</w>
ка ждый</w>
. .</w>
во е</w>
С о
я т
к ти
ма лень
про ш
п а</w>
ва ми</w>
вопро с</w>
г у</w>
со вер
1 0</w>
начи на
на ми</w>
Н е</w>
я м</w>
то й</w>
все гда</w>
а вто
ч ен
ству ет</w>
те ли</w>
о бо
на д</w>
не й
у ров
не обходи
проце с
которо е</w>
ма ши
. ..</w>
с ли
фо то
гру п
л і</w>
дру г</w>
чески х</w>
т ен
ф ек
ре б
помо щ
кото рую</w>
комп ью
ма н
мог у</w>
и менно</w>
те х</w>
би о
ви тся</w>
Р а
в ну
ь ше</w>
че ство</w>
м ся</w>
ва йте</w>
О д
бла го
сло ж
челове ка</w>
по чему</w>
к рас
ко р
про грам
М а
ё л</w>
л ение</w>
пра в
к ли
при чи
други х</w>
с си
гро м
ст а</w>
ка ми</w>
вы со
на ходи
те перь</w>
с ла
бе з</w>
ва ться</w>
ре аль
во д
г е</w>
де тей</w>
0 00</w>
к ри
за нима
По этому</w>
наш ей</w>
ф ри
в но</w>
ни когда</w>
инте рес
ты ся
про ти
в месте</w>
ст ы
клю ча
ющи й</w>
ча сть</w>
в ши
м я
л ю</w>
во го</w>
ческо й</w>
к ни
ну ть</w>
це в</w>
но му</w>
не м</w>
буду т</w>
наш и</w>
хо ти
на де
ко ли
луч ше</w>
на х</w>
ь я</w>
и г
з ем
ли бо</w>
цио н
ф ак
до во
ж у
мы ш
ш у
сво ей</w>
го то
ро д
к ту
д ву
ша я</w>
со бира
про дол
у зна
М не</w>
э лек
та кой</w>
энер ги
ф у
с пра
сво ю</w>
ос нов
рас ска
на б
му ж
при нима
вы гля
то гда</w>
ч ё
ст в</w>
таки е</w>
но ст
ш та
ска я</w>
и гра
ро ди
Д а</w>
поли ти
использо вать</w>
г лу
на стоя
Т о
милли о
ство м</w>
э ф
с но
дол ла
з е
по дума
друго й</w>
за й
ски х</w>
на ли
од на</w>
ли шь</w>
на з
го д</w>
ве щи</w>
при ш
стро и
ни ть</w>
В а
ки й</w>
ку ль
ни к</w>
отно ш
чески й</w>
еди н
со зна
ма ти
стои т</w>
е шь</w>
работа ть</w>
мо ей</w>
ла га
в стре
0 -
о гром
д ь
о соб
ве ри
ве ст
эф фек
по ка</w>
з ву
В е
ро й</w>
ву ю</w>
ско го</w>
б е</w>
ща я</w>
ту а
на ших</w>
щ ем</w>
пла не
ме т
про стран
ва ется</w>
по я
соб ствен
ко ло</w>
фото графи
ме ся
ре в
по доб
Ш А</w>
ти е</w>
вл ение</w>
говори ть</w>
ни чего</w>
в нима
пе ра
ми ра</w>
до сти
вер х
по м
пи та
ш то</w>
по -
мы с
С ША</w>
не много</w>
ва жно</w>
хоро шо</w>
зна ю</w>
де ли
жи во
произ о
об нару
по том</w>
за тем</w>
по тре
мо мент</w>
е мы
ци й</w>
бу дь</w>
Те перь</w>
то же</w>
исто рии</w>
на пример</w>
ку с
ни ки</w>
каж до
ческо го</w>
х ва
совер ш
поня ть</w>
таки х</w>
дер жи
слы ша
свя з
л і
за ви
жа ть</w>
гово р
мен я
зна ем</w>
а б
лю бо
вл ения</w>
мате ри
д ра
у спе
лю би
ч ы
по хо
вы м</w>
о кру
сво и</w>
зна ете</w>
гра ни
со м</w>
ну ж
р ь
п ы</w>
о коло</w>
ль ные</w>
2 0</w>
о но</w>
ни ков</w>
наб лю
доста точно</w>
из вест
Д е
С а
ста в
ла н
ос но
од ной</w>
5 0</w>
та кое</w>
компью те
за и
те ль</w>
ч ения</w>
ф ер
ско ль
зна ча
- за</w>
е з
рова н
смотре ть</w>
во й
пра вля
че р
па ра
т ки</w>
ещ е</w>
други е</w>
пере д</w>
ство вать</w>
созда ть</w>
стро й
у м
Х о
ра ст
нача ла</w>
сто лько</w>
по этому</w>
к ва
ц ве
у ни
ва ла</w>
ски й</w>
мо де
б ро
живо т
де мо
1 ;</w>
&#9 1;</w>
л у</w>
сно ва</w>
а д
э н
ц у</w>
ре д
3 ;</w>
&#9 3;</w>
хоте л</w>
А фри
ве сти</w>
за щи
долла ров</w>
н і
и та
ста вля
Д ля</w>
то к</w>
помощ ью</w>
во лю
мо ло
ши м</w>
с пу
р ения</w>
коне чно</w>
на йти</w>
чи ть</w>
свя за
со циаль
на се
о н
ме ди
П ри
дан ные</w>
та ми</w>
дви га
лю дя
ен ы</w>
пробле мы</w>
милли ар
со стоя
та х</w>
само е</w>
не которые</w>
чи с
р но</w>
ня ть</w>
с мер
ди зай
ни з
мо би
сво бо
ми на
ц о
ро да</w>
ста ли</w>
о жи
По тому</w>
В се</w>
н ра
Бо ль
об ре
каж ется</w>
ё тся</w>
возмож ность</w>
объ я
а ли
ва ри
ч ной</w>
вер ну
раз и
в ла
ще й</w>
тру д
рабо ты</w>
вы ра
я зы
раз ме
л ён
к лет
муж чи
г ло
ря т</w>
х ра
инте р
цио наль
фи ль
работа ет</w>
в заи
п ти
ми ну
ш ей</w>
с па
ш ко
мо я</w>
ски е</w>
ни будь</w>
вли я
му зы
З ем
е ха
технологи и</w>
зави си
Се йчас</w>
куль ту
инте ре
ка ко
из -за</w>
к і</w>
По чему</w>
- нибудь</w>
вз гля
случа е</w>
На м</w>
б а</w>
ще е</w>
я сь</w>
р ен
са ми</w>
Л ю
жд ы</w>
я тно</w>
с ме
сво их</w>
позво ля
мери кан
во л
де ся
види м</w>
многи е</w>
кру г</w>
из и
взаи мо
с ё</w>
че ства</w>
с част
Н и
ни ю</w>
вы бо
да ле
ту т</w>
и д
ши е</w>
уди ви
ль ных</w>
дол жен</w>
ь те</w>
у бе
поч ти</w>
ис кус
х а</w>
отве т
н ю</w>
Од на
у видеть</w>
щ ения</w>
говори т</w>
ч е</w>
юще й</w>
те чение</w>
бе с
вер си
о каза
лю б
ку да</w>
ди и</w>
пе ча
Г о
на до</w>
ди а
больши н
органи за
Д ж
прави тель
эк спе
ва ем</w>
ль ной</w>
ди ть</w>
по те
моз га</w>
ле г
на у
ми ро
т вер
рабо ту</w>
ду к
П ер
ш ком</w>
в не
Т о</w>
ф изи
стру кту
пробле ма</w>
значи т</w>
таки м</w>
ста ть</w>
и м
большо й</w>
М у
миллио нов</w>
от ли
жи ли</w>
де ло</w>
дя т</w>
не де
иде я</w>
жд ения</w>
ко ро
на ш</w>
ж ении</w>
бы ст
но во
которо м</w>
ш ло</w>
о знача
ча сти</w>
х у
Э ти</w>
мо г</w>
с проси
систе мы</w>
сво его</w>
людя м</w>
Да вайте</w>
у ме
бе зо
- либо</w>
но гда</w>
вра ща
ста л</w>
ж и</w>
си туа
ци ен
то р
ве з
фу н
ди т</w>
П а
щ ение</w>
кон тро
вед ь</w>
о ке
боле з
а мерикан
мно го
хо д</w>
пре крас
ма я</w>
Во з
сво й</w>
та н
до й</w>
си ли
стоя н
ль ный</w>
все му</w>
те ля
со гла
предста вля
че ты
ству ют</w>
тво р
ри я</w>
м і</w>
о пы
за ко
матери а
ча сто</w>
Д о
по казыва
цен т
ти л</w>
про дук
па д
на н
ин стру
ши й</w>
п ять</w>
вани ем</w>
кар ти
из обра
хо т
со бой</w>
же ла
сту па
заме ча
тя т</w>
безо пас
й д
ходя т</w>
гла в
ч ный</w>
ни ка</w>
ле й</w>
3 0</w>
элек тро
тра н
а т
но к</w>
д ли
бе д
с у</w>
з ы</w>
м ной</w>
име ет</w>
Е сть</w>
по р</w>
со всем</w>
сли шком</w>
ми кро
у г
ь е</w>
пер вые</w>
хо д
тель ные</w>
ц ца</w>
экспе ри
нача ли</w>
при н
п ры
многи х</w>
ен а</w>
од ного</w>
жи в
до ступ
по р
ше е</w>
при ро
Н у</w>
Н ет</w>
соверш енно</w>
ми ру</w>
ств у</w>
по стоян
смотри те</w>
с но</w>
приме рно</w>
коли чество</w>
дер жа
у би
па циен
измени ть</w>
х ся</w>
стра ны</w>
раз лич
бе р
ста ви
но си
но вые</w>
на писа
вз я
со л
дву х</w>
спосо б</w>
к те
к ло
бе ре
не веро
Э тот</w>
ду т</w>
во м</w>
виде ли</w>
сдела ли</w>
по да
ка м</w>
во ды</w>
ж ет</w>
д ве</w>
ци ей</w>
во круг</w>
щи х</w>
за кон
дар я</w>
смо тр
е в</w>
тель ности</w>
оке а
е ся</w>
З десь</w>
од но</w>
мен ьше</w>
пу сти
пра кти
дово льно</w>
О т
М и
по лага
показа ть</w>
дан ных</w>
гово рят</w>
20 0
ско м</w>
сказа ла</w>
ч а</w>
к ле
ло в</w>
мно же
эффек тив
п я
ф а
стви е</w>
на и
информа ции</w>
Э та</w>
энерги и</w>
поя ви
но ва
мо м</w>
ш его</w>
из не
женщи н</w>
ё р
В сё</w>
хоти м</w>
внима ние</w>
да ют</w>
которы м</w>
ден ь
ро бо
мо в</w>
ко ман
щи е</w>
п е</w>
по до
на д
вани и</w>
А н
ста н
ност ей</w>
суще ствует</w>
мо и</w>
ш кол
с ю
рабо т
у сло
са м</w>
пря мо</w>
про цен
ни ми</w>
ви д
быст ро</w>
самы х</w>
кон це</w>
ва ются</w>
наш его</w>
коне ц</w>
ц і</w>
ра ми</w>
хо че
мен та
помо га
юще е</w>
су дар
сторо ны</w>
п ен
реш ения</w>
меди ци
ш и</w>
ст ри
ци ф
н ём</w>
мо сти</w>
окру жа
вро де</w>
по ме
пер вый</w>
кла с
до ма</w>
дела ют</w>
де рев
Одна ко</w>
э та
ч ные</w>
явля ются</w>
р э
пу бли
получи ть</w>
на ше</w>
мо е</w>
П о</w>
вани й</w>
А мери
щи й</w>
б изне
Р е
о созна
уч ё
моз г</w>
за ня
дь ми</w>
на столько</w>
шу ю</w>
то рии</w>
да ль
вну три</w>
1 00</w>
щу ю</w>
сту ден
ма р
T E
сто й
лю дьми</w>
дума ть</w>
ь ё
ру ет</w>
дру з
при ходи
на сколько</w>
потре б
на учи
и ми</w>
п ли
ра б
ко г
рас сказать</w>
систе ма</w>
продол жа
слу ша
означа ет</w>
истори ю</w>
се к
б ло
соб ра
дела ет</w>
М ар
те ля</w>
по па
ни те</w>
зна ть</w>
да ет</w>
ческо е</w>
т ря
слу чи
ти й</w>
мен ь
смотри м</w>
ми ни
во о
су т
един ствен
го судар
ча стью</w>
у строй
раз ных</w>
ген е
ча й
п си
необходи мо</w>
мен ее</w>
ч ём</w>
не чно</w>
от де
вс ю</w>
процес с</w>
Б у
спо р
о щу
усло ви
у жа
ти ли</w>
г ли
Хо ро
с рав
жи л</w>
хот я</w>
де ти</w>
Ч е
ё н</w>
че ская</w>
м н
тыся ч</w>
й ся</w>
з до
Се годня</w>
Б е
объ ек
ль ное</w>
во ду</w>
обе спе
ста ло</w>
ви дно</w>
пред ло
ю щая</w>
позво ли
кол ле
ме ре</w>
х ран
при ня
не ё</w>
компа нии</w>
ре з
од ну</w>
де т
Н ью
ч ных</w>
стано вится</w>
наш а</w>
ме то
з рения</w>
да вно</w>
все й</w>
фи нан
из уча
П ред
проти в</w>
виде л</w>
мет ров</w>
з у</w>
ту да</w>
ст ы</w>
которо го</w>
ста ла</w>
про сто
ль ного</w>
в у</w>
по ис
пе ри
o s
1 5</w>
мо его</w>
те о
го р
вы ми</w>
воз ду
пол ностью</w>
точ ки</w>
гло ба
к і
истори я</w>
виде о</w>
кра ти
ба ты
послед ние</w>
тель ный</w>
ра й
по вед
од но
ле з
у ве
мо их</w>
возмож ности</w>
находи тся</w>
б ри
у ли
си м
помо чь</w>
сло ва</w>
горо да</w>
день ги</w>
кто -то</w>
благо даря</w>
предста вить</w>
мас шта
верси те
со об
стви я</w>
к си
произ води
сдела л</w>
проек т</w>
по мина
В се
ё те</w>
я т</w>
ш а</w>
сто в</w>
по ря
со времен
раз до</w>
да х</w>
буде м</w>
Ко нечно</w>
о ши
говор ю</w>
ст я</w>
су р
a p
с пи
ще го</w>
реш ение</w>
со в
да ли</w>
ш ли</w>
из обре
бо ра
К ита
п ле
обще ства</w>
В и
за боле
Лю ди</w>
ч ки</w>
спо ко
име ть</w>
С у
о те
ж а</w>
та кого</w>
но р
систе му</w>
с фе
со бы
ву т</w>
С и
рабо та</w>
на уч
П е
у вели
нра вится</w>
про води
нача ть</w>
мест а</w>
ги е</w>
со еди
мог ла</w>
био логи
ней ро
называ ется</w>
информа цию</w>
ген о
женщи ны</w>
го раздо</w>
На пример</w>
ни кто</w>
ви д</w>
ющи м</w>
самы й</w>
тель ных</w>
кру п
с можем</w>
о грани
отно си
н ные</w>
мо р
ь и</w>
говори л</w>
спе к
нача л</w>
прин ци
ку н
те ше
ени ях</w>
хо тят</w>
у луч
долж на</w>
большо е</w>
ког да
строи ть</w>
дол жно</w>
Та ким</w>
ш ла</w>
раз у</w>
ден е
дру га</w>
ви ру
ве щей</w>
хоте ли</w>
произ вод
обще ствен
ле кар
то л
рова ли</w>
органи з
ль ным</w>
иде и</w>
поло ви
ме д
бу ду</w>
Нью -
TE D</w>
сер д
клет ки</w>
г эта</w>
вле ка
бе з
це п
се кун
с ь
ва лись</w>
и ногда</w>
большин ство</w>
сре ди</w>
те х
проти во
г на
исследо вания</w>
ско ро
чи е</w>
ре е</w>
чес кую</w>
лен ной</w>
ла бора
пу теше
б я</w>
с цен
поль зо
м па
ка че
до ба
Ч то
стра не</w>
И ли</w>
с пасибо</w>
кра й
з доро
ре ли
помо щи</w>
з я
до би
отве т</w>
ро вания</w>
пер вых</w>
но вый</w>
Мо жно</w>
Й ор
я за
ран ьше</w>
од на
не что</w>
ар хи
особ енно</w>
э волю
пере да
на много</w>
ме ч
стра нах</w>
ре ша
а нали
по кол
кра си
вы я
пу ти</w>
мо сть</w>
е тесь</w>
дела ем</w>
тель ность</w>
ри ть</w>
по смотреть</w>
жу р
жд е</w>
си льно</w>
со труд
пи ть</w>
на ходя
ра х</w>
выгля дит</w>
э ле
с ня
ку р
авто моби
у вер
све т</w>
на с
друго м</w>
цо в</w>
у правля
стра да
ста вить</w>
со лю
н ки</w>
ак тив
ш у</w>
о пас
г рес
лен ы</w>
прав да</w>
вы пол
ви ду</w>
М е
обы чно</w>
сказа ли</w>
пу ска
при ве
наш у</w>
в место</w>
ш ки</w>
при я
на пра
мате мати
o o
про фе
опреде лён
ц ы
счаст ли
с мы
ре сур
множе ство</w>
за ключа
жд ение</w>
е -
де во
4 0</w>
счита ю</w>
постоян но</w>
и л
д ро
ве щ
Хоро шо</w>
мы х</w>
ма три
образ и
те бя</w>
сю да</w>
произо шло</w>
ру ют</w>
м -то</w>
и то
хоти те</w>
ва ю</w>
раз но
про да
не с
вз ять</w>
на р
тель ной</w>
со ставля
измен ения</w>
зна ко
ди н</w>
бо га
смотр я</w>
ня я</w>
но вых</w>
ме та
к ну
говори ли</w>
каждо го</w>
об уч
а л
фор ми
ты х</w>
то р</w>
ри с
исто ч
ве сь</w>
пробле м</w>
вопро сы</w>
которы ми</w>
сво ё</w>
на вер
ко ло
за ции</w>
з дра
говори м</w>
в ключа
об яза
ни ем</w>
в до
меся цев</w>
Н К</w>
Е вро
те к
ка са
т ё
сколь ку</w>
ши ть</w>
га н
бу д
обла сти</w>
ени ями</w>
г но
т ра</w>
реб ён
сво им</w>
юще го</w>
ш ка</w>
ди те</w>
ти чески</w>
За тем</w>
спу стя</w>
при зна
в і
ло й</w>
ра ди
лег ко</w>
Т ы</w>
че к</w>
ствен но</w>
связ и</w>
с мыс
по се
Д ру
те ла</w>
мен та</w>
вя тся</w>
уров ень</w>
вы ступ
по тря
аб солю
ты м</w>
тель ное</w>
те м
лю бой</w>
ком на
та й
т ка</w>
по вто
ен о
от прави
глу бо
тре бу
ц ени
насе ления</w>
наблю да
е сте
Нью- Йор
0- х</w>
ходи ть</w>
мину т</w>
х о</w>
даль ше</w>
га я</w>
ва х</w>
боль шая</w>
де т</w>
вну тр
i n
ра жа
по стро
четы ре</w>
д ня</w>
со т
д ней</w>
отве ча
ль ная</w>
ка ме
ва р
бо р
хи ми
ри ю</w>
живот ных</w>
да ми</w>
ч ёт</w>
реши ли</w>
ре й
о пера
интерес но</w>
Ин тер
н ё
М но
И з
у пра
же р
дз і
действи я</w>
ющи хся</w>
рас про
ме ха
ши н
уча ст
пис ы
на ч
име ют</w>
Е го</w>
сни ть</w>
ба н
чески м</w>
фун к
уни версите
об ще</w>
Воз можно</w>
l e</w>
за ле</w>
ш ен
сер ьё
про тя
кто р</w>
зы вать</w>
Б ы
по верх
па ру</w>
И менно</w>
рели ги
у ро
кла ды
То гда</w>
ко с
ки ло
ви ли</w>
os ;</w>
ap os;</w>
& apos;</w>
щ ен
сло во</w>
ка кой</w>
ма х</w>
ки ми</w>
дене г</w>
стра ни
по з
об су
моде ль</w>
к ров
здо ров
э мо
по каж
го в</w>
архи те
ре н</w>
Л а
Г а
тра ди
с могли</w>
особ ен
обще ство</w>
л ению</w>
ж ду
З а</w>
сто м</w>
мен тов</w>
ми ра
во ло
но -
ль з
де ла</w>
Мо жет</w>
ста ра
мо щ
го ри
ха ра
н ения</w>
лы й</w>
рас ши
ш ёл</w>
ски м</w>
наш ем</w>
льз я</w>
больши е</w>
разви тия</w>
раз ру
по зи
за бо
г ри
В то
ч ка</w>
созда ния</w>
прави льно</w>
в первые</w>
о ру
го м</w>
ве ща
бли з
та кая</w>
т ные</w>
т ной</w>
став ьте</w>
с со
поте ря
в и</w>
По сле</w>
З на
ту аль
теля ми</w>
Ин дии</w>
Д НК</w>
Афри ке</w>
т ю
суще ство
раз ные</w>
работа ют</w>
пе с
како й
дви жения</w>
од ним</w>
ин ди
да вайте</w>
буд то</w>
ты й</w>
ро вание</w>
ко е-
ве т</w>
ра баты
оста но
не му</w>
буду щем</w>
про те
ма г
пре вра
под держи
Что бы</w>
Боль шо
ч ная</w>
спра ши
объ еди
з е</w>
М ен
узна ть</w>
т ных</w>
пу ть</w>
по жа
не ф
на род
тр ё
та р
нуж ны</w>
се ти</w>
мы е</w>
ля р
не сколь
О дин</w>
ль те</w>
и мен
де ля
o r
че й</w>
буду щее</w>
у ста
пре доста
други м</w>
вы бра
с ен
работа ли</w>
прош лом</w>
не которых</w>
миллиар дов</w>
ре ак
о че
ито ге</w>
вещ ь</w>
реши ть</w>
рабо те</w>
реши л</w>
по бе
сло жно</w>
клю чи
де ть</w>
элек три
увели чи
расска зыва
ко му</w>
зна ли</w>
дово ль
хо ло
ста р
со н</w>
си н
по ку
х и</w>
ф ра
пери о
зна ют</w>
до каза
ч ную</w>
сти ту
смы сле</w>
с кую</w>
ру ки</w>
по про
вдо хно
Пред ставьте</w>
Му зы
ско е</w>
с матри
В ы
ж ений</w>
ты е</w>
наи более</w>
демо крати
стра н</w>
ле ку
сто л
й н</w>
за па
встре ча
во обще</w>
ва ш</w>
стой чи
ко ле
б у</w>
те р</w>
со к</w>
ря дом</w>
ре ги
ре а
про во
про ве
Д у
ре волю
о ри
ю щую</w>
н ных</w>
Л е
эти ми</w>
потря са
до ж
го -то</w>
И х</w>
серьё з
л ки
ис ка
сти ть</w>
следу ет</w>
пред ме
од ном</w>
ин ве
дума л</w>
самы м</w>
з м</w>
го ды</w>
я к</w>
тель ным</w>
зна ет</w>
други ми</w>
Д же
созда ли</w>
процен тов</w>
п ро</w>
про сты
му ю</w>
ма ло</w>
бо рь
Ко н
уг ле
по й
медици н
га ми</w>
ча сов</w>
ни ца</w>
маши ны</w>
Ка ждый</w>
ста нет</w>
мо леку
Р и
то н
с разу</w>
печа т
пере ме
К ри
эк с
сте пен
ско рее</w>
приш лось</w>
дер ж
вери ть</w>
теле фо
само й</w>
ка кие</w>
Музы ка</w>
1 2</w>
чув ству
си ль
с ва
ль ю</w>
Не которые</w>
ч ного</w>
созда вать</w>
позволя ет</w>
о казыва
дале ко</w>
Во -
ш ение</w>
ли де
ч ном</w>
тыся чи</w>
со стоит</w>
тель ная</w>
следо ва
поня л</w>
н ение</w>
интере со
Та м</w>
ён ных</w>
самы е</w>
ид ёт</w>
говор я</w>
6 0</w>
со ответ
по проси
ли ть</w>
да ёт</w>
д не
э кра
тель ства</w>
связ ь</w>
раз гово
воо хран
ви дов</w>
си гна
с і
раз ли
лы х</w>
ча сти
под ро
з ер
О но</w>
Мо й</w>
ч ным</w>
технологи й</w>
спе ци
отли ча
абсолю тно</w>
чис ло</w>
фотографи и</w>
у сили
ис че
школ у</w>
неверо ят
ме ста
кли ма
ин нова
жду народ
ж ё
де я
ро ль</w>
результа те</w>
работа л</w>
пол ни
лы е</w>
Н о
у слыша
пробле му</w>
ши ми</w>
ну т</w>
ма ль
за в
г ре
та ть</w>
ответ ствен
Ра з
ци а
у гро
се ль
писа ть</w>
хоче т</w>
уров не</w>
до мой</w>
те бе</w>
жда ть</w>
ма ми</w>
вы ше</w>
хо зя
груп пы</w>
ва лся</w>
Л и
подума л</w>
по пу
не льзя</w>
жи т</w>
хоте ла</w>
теле м</w>
со хра
сем ьи</w>
п у</w>
здра воохран
ти па</w>
ла х</w>
жи м</w>
ра м</w>
на конец</w>
ин жен
заключа ется</w>
з ма</w>
гла за</w>
у твер
у го
o n
фак т</w>
у стойчи
да м</w>
эко логи
стано ви
ру ко
ни к
за дума
ба кте
ь я
ши ро
ша н
протя жении</w>
нача ле</w>
д ка</w>
год но</w>
a r
моло ды
ка пита
в ен
чув ство
покаж у</w>
ви жу</w>
вари ан
т ка
результа т</w>
хо да</w>
воз враща
ще му</w>
чё р
распро стра
по тен
мо ю</w>
Мно гие</w>
1 1</w>
т ный</w>
сол не
вани ю</w>
ческо м</w>
фи ци
уча сти
са й
ожи да
Мо я</w>
плане ты</w>
отнош ения</w>
на ко
мо го</w>
име ю</w>
дол го
д же
у з
ни ком</w>
каче стве</w>
использу я</w>
дви жение</w>
горо д</w>
вой ны</w>
ч ку</w>
ца ми</w>
спосо бо
одна жды</w>
наз ванием</w>
л лек
ста ти</w>
опреде ля
ди я</w>
фор мы</w>
све та</w>
образо вание</w>
г ря
г де
с ро
ре чь</w>
контро ли
жи вут</w>
ве че
ч ное</w>
те ра
пло хо</w>
ф он</w>
ти и</w>
рова л</w>
ка ки
Ва м</w>
ти ла</w>
ст ен
ры н
о цени
ш ения</w>
сь ма</w>
по смотрим</w>
по скольку</w>
о к
ня ш
на циональ
на й
м ки</w>
ко в
зна л</w>
дума ли</w>
хоте лось</w>
ска ж
ма га
дели ться</w>
вл ении</w>
бо р</w>
ь е
зна чение</w>
си х</w>
с ъ
ри й</w>
при вы
клю ч
Мен я</w>
e r
19 9
ло го</w>
дол го</w>
демо н
дела ли</w>
Да же</w>
Б и
у видите</w>
профе сси
у мень
пра ва</w>
на сили
ли и</w>
кое- что</w>
во да</w>
по ра
о чере
емы х</w>
а п
Т ак
ч ень</w>
моде ли</w>
8 0</w>
2 5</w>
ш ту
йд ёт</w>
ва ны</w>
бу ква
т .
инте ллек
бли жа
у ж</w>
р ение</w>
ве ка</w>
бу ма
безопас ности</w>
случа й
с ки</w>
с -
пло ща
плане те</w>
наде юсь</w>
ло е</w>
друго му</w>
образо вания</w>
обнару жили</w>
a c
са х</w>
рав но</w>
опы т</w>
тре ть
по лез
кни ги</w>
ше л</w>
у до
на че</w>
мо ё</w>
де та
год няш
выбо р</w>
во спо
л ки</w>
то е</w>
случи лось</w>
по ро
ли н
компью тер
из бе
иде ю</w>
в лен
ш ы
циф ро
жен ы</w>
П ре
пре ступ
инве сти
ен е
щ ё</w>
чи т</w>
тру дно</w>
тех ни
ря д</w>
раз а</w>
пу с
при сут
пис ь
ше д
су ти</w>
из уч
ж ы
Е щё</w>
ста ти
но вое</w>
вз ро
веро ятно</w>
щи м</w>
уда лось</w>
сем ь</w>
о стро
н ю
я н
па ль
дума ете</w>
дости г
О б
ры х</w>
пре жде</w>
пере жи
ве сьма</w>
успе ш
та ции</w>
са ми
са ма</w>
по сред
пла ни
несколь ких</w>
не возможно</w>
тель ство</w>
со жа
причи на</w>
по пыта
кон цов</w>
ве ще
т ку</w>
исследо ва
чув ство</w>
сту пи
са мая</w>
рай о
практи чески</w>
по говорить</w>
неверо ятно</w>
мыш лен
места х</w>
ти н
организа ции</w>
не смотря</w>
использу ют</w>
д ке</w>
e r</w>
со се
с и</w>
различ ных</w>
ра ка</w>
дале е</w>
в ни
ти ться</w>
се годняш
ри со
ра нее</w>
н і</w>
ка лі</w>
зо в</w>
д ки</w>
само го</w>
при нять</w>
закон чи
ж ной</w>
со держа
ру ем</w>
ро ст</w>
при д
по вы
о пти
ки сло
го й</w>
воз ника
Ф ран
К А</w>
Ве ли
Б а
сотруд ни
разви ва
люб лю</w>
де л</w>
води т</w>
рас простран
про вер
по ве
ли к
есте ствен
сот ни</w>
раз у
Д и
чи к</w>
фер ен
результа ты</w>
помощ ь</w>
ви л</w>
ваш ей</w>
Ду ма
нор ма
ль ном</w>
интер не
иг ры</w>
боль ни
стре е</w>
ны я</w>
но вой</w>
Ве дь</w>
ро т</w>
о цен
во ен
сту п</w>
вы ро
времен но</w>
ваш и</w>
ща ть</w>
чен ы</w>
пера ту
ну жда
на шим</w>
использу ем</w>
друго е</w>
ва ло</w>
та я</w>
извест но</w>
из о
игра ть</w>
чески ми</w>
ст ин
исследо ваний</w>
взгля д</w>
А р
п лы
нен а
С ле
то ра</w>
ти т</w>
с кры
от лич
ис пыта
г э
боль шую</w>
ак ти
оши б
і н
компьюте р</w>
женщи на</w>
т ное</w>
смер ти</w>
хозя й
та кую</w>
следу ющий</w>
нуж на</w>
действи е</w>
вер х</w>
вед ли
боль ших</w>
чита ть</w>
со кра
основ ном</w>
ме р</w>
сво ими</w>
кон ф
ж дан
друго го</w>
ди на
деся ти
воз ра
бы стрее</w>
хара кте
находя тся</w>
ль ную</w>
сте р
зи ден
ан ти
н ный</w>
ужа с
за кры
во сто
О чень</w>
Н у
у мира
те ло</w>
раз о
при гла
лен но</w>
до к</w>
ва ете</w>
По зво
Пе ре
слыша ли</w>
програм мы</w>
под держ
настоя щему</w>
кон кре
и наче</w>
веро ят
Со л
Зем ле</w>
a n
то ры</w>
по пы
на вли
ме ждународ
емы е</w>
вы зыва
ан гли
ющи еся</w>
це ль</w>
п ят
не зависи
ц я
т -
систе ме</w>
си л</w>
ре ди
ко ст
гря з
голо в
Зна ете</w>
шко ле</w>
ти ровать</w>
способ ность</w>
органи зо
ат мо
тю рь
рас поло
при мен
пер со
оте ц</w>
ма н</w>
внутр ен
е й
вто рой</w>
Большо е</w>
уров ня</w>
спра ведли
ма ть</w>
кол лек
кле ток</w>
де ре
ги б
а уди
тем перату
с ви
ра к</w>
ну л</w>
на ло
ме ст</w>
бе споко
раз уме
под ход</w>
ле е</w>
кон стру
груп па</w>
ь ся</w>
технологи я</w>
та ет</w>
си лы</w>
не давно</w>
Од на</w>
школ ы</w>
си в
поверх ности</w>
ла кти
какой -то</w>
тер ро
расска жу</w>
о пу
мы й</w>
ко смо
исследо вание</w>
где -то</w>
То лько</w>
те ги
п ля
гене ти
верну ться</w>
По том</w>
К то</w>
стано вятся</w>
сло вами</w>
от да
обра тно</w>
о то
коли че
д во
бо ро
ху дож
финан со
ста лки
спе циаль
ва лось</w>
я р
ч о
ть ю</w>
специ али
се ть</w>
основ е</w>
ля х</w>
ка та
ени ям</w>
гра жда
во к</w>
архите кту
пред поло
огром ное</w>
і х</w>
спроси л</w>
соверш ен
простран ство</w>
де ми
да я</w>
мага зи
з вез
ге о
a t
ющи ми</w>
х е</w>
степен и</w>
поня ли</w>
по смотрите</w>
лабора тории</w>
каза лось</w>
вы з
ви ться</w>
бе зу
показыва ет</w>
мы м</w>
за ставля
е же
язы к</w>
цио ни
тради цион
приро ды</w>
ника ми</w>
наш ли</w>
л ле
ис пы
инжен е
зи и</w>
с может</w>
милли она</w>
С ко
цен тра
сторо ну</w>
и му
ду мы
де ль
в ся</w>
ш ем</w>
тран спор
правитель ство</w>
похо же</w>
лё г
ле жа
буде те</w>
Ш та
Про сто</w>
Позво льте</w>
ца х</w>
тран с
тер ри
тель ного</w>
сов мест
со р
получи ли</w>
з ри
гра ждан
вер ю</w>
стра теги
смыс л</w>
поку па
го вари
т э
стре ми
н ной</w>
мо им</w>
де тя
вне ш
буква льно</w>
англи й
та ки</w>
зда ния</w>
за я
ге ро
у па
су пер
се ме
ребён ка</w>
р я</w>
ору жи
меха низ
любо в
ло ж
за тра
дума ем</w>
уве рен</w>
у ти
сре ды</w>
с верх
рас сматри
понима ть</w>
но вую</w>
й тесь</w>
в ших</w>
в друг</w>
больши м</w>
хо ды</w>
с ку
Так же</w>
П ра
А ль
G oo
трё х</w>
стати сти
со ба
се кре
конф лик
кла д</w>
к с</w>
ин ду
в ё
g le</w>
чув ствовать</w>
филь м</w>
уни что
р ё
про с</w>
под вер
по рази
н ью</w>
ла ми</w>
десяти ле
5 00</w>
ц о</w>
х е
тро м</w>
ст вами</w>
ситуа ции</w>
об ща
а фри
ш есть</w>
челове ком</w>
подума ть</w>
горо д
2 00</w>
ци ях</w>
су м
приходи тся</w>
мужчи ны</w>
жи ла</w>
вы ступа
воз ь
Р о
e n
пред лага
не сти</w>
ми р
каса ется</w>
Дума ю</w>
В иде
сло вно</w>
сво ём</w>
окружа ющей</w>
не обы
кон ферен
в ёл</w>
Зем ли</w>
Амери ке</w>
сти му
когда -либо</w>
зву к</w>
ап пара
К у
ше му</w>
ч ы</w>
ст вах</w>
состоя нии</w>
начина ет</w>
называ ем</w>
дей ствовать</w>
вы чай
ва ли
Афри ки</w>
ру ку</w>
одно временно</w>
м і
л ении</w>
двига ться</w>
ви де</w>
в ёр
Goo gle</w>
си ть</w>
имен и</w>
жен а</w>
П и
ч рез
то пли
терро ри
приш ли</w>
принима ть</w>
получи л</w>
о суще
малень кие</w>
дума ют</w>
Ч а
П ри</w>
у видел</w>
счита ть</w>
предста ви
пре до
под нима
перио д</w>
ме н</w>
ла я</w>
каждо й</w>
за хва
за интересо
жер т
ваш его</w>
в печат
1 8</w>
фор му</w>
убе ди
по то
мо ему</w>
болез ни</w>
Б ла
цент ре</w>
у доб
тор го
те ря
ся т</w>
ре кла
по- настоящему</w>
по строить</w>
по ез
обра ща
мен а</w>
жур на
до ступ</w>
ва е
афри кан
ше к</w>
ча ть</w>
тя же
теля м</w>
край ней</w>
клима та</w>
жи те</w>
га ть</w>
ва лась</w>
В ер
пом нить</w>
ну жен</w>
ка на
и дей</w>
дру гая</w>
действи тельности</w>
вос прия
В о</w>
ё д</w>
ю ць</w>
ча са</w>
про мышлен
повед ение</w>
л ка</w>
коро т
вос стано
б и</w>
ти те</w>
собира юсь</w>
о де
ма ма</w>
гу ю</w>
Ма й
ре али
мужчи н</w>
зда ние</w>
до ку
дне в
дер жать</w>
вс ём</w>
Се вер
Во- первых</w>
хо м</w>
удиви тельно</w>
таки ми</w>
мог ло</w>
гла за
чу ть</w>
че ст
то ва
стан дар
ра до
вер но</w>
В И
ё нок</w>
це ли</w>
под ня
отве тил</w>
начина ют</w>
зада ча</w>
ва ць</w>
са н
с к
про грес
де ву
дви ж
i c
ти ки</w>
т ного</w>
смо г</w>
кро ме</w>
зна ния</w>
ви ды</w>
ша ть</w>
суще ствуют</w>
си лу</w>
по делиться</w>
мы сли
ль кі</w>
К ро
И ногда</w>
х у</w>
уби й
ко сти</w>
зи ровать</w>
то ров</w>
та ком</w>
проек та</w>
при ят
мени ть</w>
вши е</w>
я дер
обще стве</w>
Виде о</w>
фо н
нача ло</w>
ква р
дизай не
д вер
ру п
пре зиден
о пять</w>
ню ю</w>
б ю
рас преде
пар т
государ ствен
вши й</w>
че м-то</w>
фун да
сожа лению</w>
сек су
с ё
процес се</w>
от правля
иму ще
воз раст
Су ще
ь ями</w>
хо дов</w>
фор ме</w>
у годно</w>
ти м</w>
по в</w>
пе й
от ме
об ита
на ро
л ений</w>
дела л</w>
вни з</w>
Ра с
по смотре
оди нако
н ная</w>
лу й
ка ким</w>
емы й</w>
га ни
Х а
устрой ство</w>
со ве
ри су
послед ний</w>
пла сти
пер ёд</w>
мыс ль</w>
ка жды
демон стри
ва н</w>
че н</w>
способ ны</w>
с начала</w>
с могут</w>
обе з
кто ра</w>
кло н
друз ей</w>
да л</w>
голо ву</w>
По смотрите</w>
х ро
предста в
пользо ва
ме три
ле чения</w>
инди ви
Ка ли
Бла го
учи ть</w>
разви тие</w>
пси хо
ня ет</w>
луй ста</w>
ан та
К ар
э т
шин ство</w>
пред принима
оди но
навер ное</w>
на помина
ми мо</w>
ма ни
ин фра
увер ен
рова ны</w>
реа ги
написа л</w>
ли за
испы ты
Д э
ш ься</w>
ш ку</w>
ца м</w>
су ль
си ла</w>
свобо д
раз говари
пыта емся</w>
поз же</w>
по кры
пер вой</w>
ми сси
ле са</w>
изобра жение</w>
дз е</w>
т ная</w>
сы ла
согла си
с ць</w>
публи ко
при над
под гото
но вая</w>
малень кий</w>
логи и</w>
диа гно
горо де</w>
во обра
ви зу
5 -
чи х</w>
то н</w>
объя снить</w>
мен ы</w>
разно образи
пробле мой</w>
ка к
ин ститу
ил лю
иде аль
дан ный</w>
т ным</w>
суще ству
структу ры</w>
роди тели</w>
ре гу
просто й</w>
неде ль</w>
миллиар да</w>
ла м</w>
от сут
на вы
ли ца</w>
ка м
и мя</w>
занима ться</w>
б і
экспери мент</w>
сте п
ра ди</w>
пре сси
по вер
о з
ни ли</w>
ля ть</w>
компа ния</w>
к ци
ви да</w>
ён ные</w>
сту ю</w>
стра ш
сла й
получа ется</w>
пол не</w>
много е</w>
кос ми
каж дом</w>
использо вали</w>
искус ства</w>
вы да
вла сти</w>
энерги ю</w>
ц ей</w>
фак тически</w>
кни гу</w>
еха ть</w>
дз я
гото вы</w>
вы бира
возмож ностей</w>
ша г</w>
та ко
пом ню</w>
использо вания</w>
индиви ду
до вери
дела ю</w>
я кі
финан си
услови ях</w>
счита ют</w>
при влека
пре ду
голо с</w>
вопро сом</w>
вед ения</w>
Кали фор
Боль шинство</w>
ст е</w>
неде лю</w>
жив ём</w>
в верх</w>
чи я</w>
пусти ть</w>
пра в</w>
компа ни
га лакти
во д</w>
с мех</w>
лю дз
д я</w>
вле чь</w>
экономи ки</w>
уве лич
с можете</w>
предста вление</w>
пла н
лен а</w>
кило метров</w>
зе лё
вы жи
ва на</w>
С М
7 0</w>
ю щем</w>
це лом</w>
пу сты
проек ти
отнош ение</w>
мы сли</w>
ка б</w>
из ба
здравоохран ения</w>
за ставить</w>
да в
д ж</w>
у слу
у ника
по тра
по ступа
пи и</w>
объя с
мо мента</w>
жур нали
дру гую</w>
все ми</w>
вс ю
виде ла</w>
С ан
o u
та нии</w>
сим во
рав ен
по следова
пациен тов</w>
ко сть</w>
информа ция</w>
жиз нен
дизай н</w>
всю ду</w>
включа я</w>
стви и</w>
прид ётся</w>
нар ко
ми те</w>
детя м</w>
ве да
бе спо
К и
i t
я ны</w>
ша ет</w>
ру ется</w>
рас стоя
обуч ения</w>
маши ну</w>
зем ли</w>
внима ния</w>
Л он
ю ще</w>
ска жу</w>
ру р
приме ру</w>
пре дела
мож ешь</w>
ли чно</w>
ле н</w>
к ем</w>
доб ро
вы бро
вши сь</w>
во в</w>
Пер вый</w>
це р
ст ей</w>
раз мыш
лы м</w>
П у
экс пер
чё т
у стано
пу т
професси о
пра во</w>
пер вую</w>
мас со
изобре т
вер ши
ве ло
В место</w>
э пи
ц і
состоя ние</w>
ри н
причи н</w>
воз ник
спу т
опти ми
оказа лось</w>
об щем</w>
начина ется</w>
исче з
е -то</w>
виде о
це лью</w>
сред ства</w>
сло в</w>
реаль ность</w>
различ ные</w>
поль зу
но вого</w>
м би
ле та
д рев
времен а</w>
в перёд</w>
бо вать</w>
ста я</w>
помога ет</w>
п і
зависи т</w>
ва ше</w>
в ки</w>
а на
А ф
фотографи я</w>
серд це</w>
ры е</w>
при водит</w>
пар ень</w>
п ин
не большой</w>
лен ная</w>
жела ние</w>
еха л</w>
ду ю</w>
Ф и
П ар
Ну жно</w>
чи ты
те н</w>
су щ
ре з</w>
от куда</w>
кли ни
э й
ти п</w>
су б
слу ж
реб ёнок</w>
пре враща
не доста
ез жа
ц ем</w>
ри сти
работа ю</w>
океа на</w>
на й</w>
мо ра
ку пить</w>
дости чь</w>
влия ние</w>
в полне</w>
Интер нет</w>
И с
, 5</w>
се ст
раз работ
работа ла</w>
производ ства</w>
по является</w>
называ ют</w>
здоро во</w>
д ва
го лу
глу б
ба бу
Интер не
стра и
про то
оче видно</w>
из мер
влия ет</w>
o n</w>
1 4</w>
понима ете</w>
не ц</w>
ку со
ж ей</w>
ча ще</w>
стра на</w>
ствен ные</w>
сво й
ре й</w>
пре имуще
материа л</w>
ле жит</w>
ка мпа
гори т
бра ть</w>
фунда мента
с нима
с ке
нра ви
мо л
миллио ны</w>
маль чи
ком му
и гро
ди ли</w>
де н</w>
вл ением</w>
бес пла
Кри с</w>
сфе ре</w>
ро е</w>
понима ние</w>
о м</w>
кра со
име ем</w>
ид ти</w>
еха ли</w>
дз е
Во сто
слу жи
опреде лить</w>
ва й</w>
Т и
ходи ли</w>
рас кры
правитель ства</w>
по йти</w>
об щи
ло к</w>
л л</w>
доби ться</w>
боль шей</w>
бе ско
9 0</w>
ч ными</w>
фо то</w>
учи ться</w>
срав н
связа ны</w>
прави ла</w>
по свя
ки тай
все ленной</w>
цо м</w>
у видели</w>
студен тов</w>
сре до
при ло
пи ра
п то
нау ки</w>
меся ца</w>
любо м</w>
а спек
хи рур
ф анта
у че
о й</w>
наблю д
н к
маг ни
культу ры</w>
измен я
вз ры
буду щего</w>
у доволь
тво ри
способ ности</w>
ре за
работа ем</w>
понима ю</w>
которо му</w>
бо я
бизне с</w>
а ле</w>
СМ И</w>
челове чества</w>
созда ние</w>
со м
с виде
ры й</w>
под твер
об и
карти н
за пис
ди м</w>
вед ёт</w>
ваш а</w>
Кита й</w>
ф а</w>
реш ений</w>
ра сту
пу ль
прекрас но</w>
пер вое</w>
о кон
ни л</w>
неде ли</w>
ло со
га х</w>
выра щи
ва кци
чрез вычай
фо ку
утвер жда
пре о
н ное</w>
зи рован
е н</w>
ближа й
ры нок</w>
предо т
пре пода
пло хо
до ма
ё ж
ту ю</w>
смо т
сексу аль
продол жать</w>
про вести</w>
п ра</w>
компа ний</w>
ен ь
е мой</w>
времен ем</w>
боль ш</w>
ь ер
ц у
х уже</w>
т вёр
созда л</w>
секун д</w>
ро ста</w>
пред полага
по- другому</w>
по ле
о писа
мен ять</w>
маши на</w>
зна я</w>
дру гу</w>
га ет</w>
г не
вос хи
ал горит
ВИ Ч</w>
ху д
тя б
рова ться</w>
ре сто
очере дь</w>
ня х</w>
мн ение</w>
й н
зо м</w>
жив ёт</w>
бли же</w>
эволю ции</w>
чу де
уста нов
си пе
ра чи
о публико
называ ю</w>
ку п
кон ца</w>
бо к</w>
Амери ки</w>
ща ет</w>
челове ческого</w>
ф е</w>
услови я</w>
су ть</w>
рабо тки</w>
про я
по вре
п но</w>
н ца</w>
как -то</w>
зем ле</w>
за пре
дизай на</w>
дву мя</w>
вля ет</w>
важ ное</w>
И з</w>
1 6</w>
эффек т</w>
хо де</w>
се н</w>
с прави
реаль ности</w>
про гно
попу ляр
пи сь</w>
но ч
мо к</w>
ли цо</w>
ле д
ви н
ти ю</w>
ст у</w>
спра ва</w>
раз де
програм му</w>
ком мер
инстру менты</w>
- го</w>
щ у</w>
ч ении</w>
позволи ть</w>
меня ется</w>
кра т
ды ха
во сти</w>
во де</w>
ва ясь</w>
Кро ме</w>
1 8
т ности</w>
подоб ные</w>
от ра
о ф
на пря
горо дов</w>
вс я
воз ь</w>
вело сипе
важ ны</w>
щ а</w>
ту р
тель ную</w>
сто й</w>
приме ров</w>
обра з</w>
но ги</w>
к нов
г і
Вто рой</w>
теле фон</w>
с ла</w>
приро де</w>
пре ж
пом ните</w>
опу хо
обяза тельно</w>
наблю дать</w>
же сто
возраст е</w>
ве т
чув ства</w>
хоро шие</w>
х ло
удо в
теле ви
програм ми
потре би
насе ко
лан д
лабора то
кри ти
высо ко
простран ства</w>
приш ёл</w>
пер вая</w>
м -
культу р
искус ство</w>
зо н
за стави
бле ма</w>
a l
19 8
ци ями</w>
не достаточно</w>
му -то</w>
ля ции</w>
взро слы
Нью-Йор ке</w>
И ра
Бы ло</w>
ч лен
тель ными</w>
ситуа цию</w>
ново сти</w>
ло г</w>
кон ти
глав ное</w>
во доро
Евро пе</w>
ч ности</w>
син те
ресур сов</w>
реди не</w>
пя ти</w>
прави ло</w>
получа ют</w>
подро ст
подоб ных</w>
пла н</w>
жи ву
ди ре
в не</w>
На ша</w>
o m
э ро
фор ма</w>
ти ем</w>
структу ру</w>
со средо
ни ко
м пи
кре п
вя за
акти ви
Сле ду
цент р</w>
участи е</w>
тео рии</w>
ствен ный</w>
ста би
созда ют</w>
рас по
представ ьте</w>
м ём</w>
любов ь</w>
иска ть</w>
за вер
ен ы
ди но
б рас
а ку
Че рез</w>
Р у
1 3</w>
ско ро</w>
ру до
пре с
ко ра
к м</w>
изуча ть</w>
з ра
дума ла</w>
ци к
раз ум
ра м
по й</w>
ме ры</w>
ля ми</w>
ла ся</w>
ла м
а то
і м</w>
у ско
си ст
сво ему</w>
р туаль
ня ка</w>
ност ями</w>
но чь</w>
музы ку</w>
интере су
и сти
единствен ный</w>
до ле
до бы
Л у
ту и
со страда
распростра ня
произ во
потен циа
не ожи
научи ться</w>
люб ви</w>
лю бы
ло в
коли чества</w>
зна ком
ва ших</w>
бо в</w>
К то
Г ер
Г де</w>
Б ер
ё м
пере се
не уда
жиз нью</w>
С та
Е ё</w>
Г эта</w>
я сно</w>
ти лись</w>
способо м</w>
социаль ных</w>
появи лась</w>
поря дке</w>
повто ря
по все
о фи
ли нии</w>
кан чи
голо ве</w>
Т ут</w>
И м</w>
чи й</w>
тр о</w>
сами х</w>
с ці</w>
подоб ное</w>
по стави
обо рудо
лекар ства</w>
край не</w>
казыва ется</w>
здоров ья</w>
выгля деть</w>
вопро сов</w>
Лон до
ци ви
тр э
раз рабаты
об уча
на мер
л ением</w>
значи тельно</w>
д жа
бу к
хо в
реги о
при соеди
ни цу</w>
к стати</w>
измен ение</w>
гани ста
вер нуть</w>
устрой ства</w>
упра вления</w>
от ража
ль ными</w>
ли зации</w>
знако ми
зависи мости</w>
за пад
друз ья</w>
дина ми
д ни</w>
гра н
буду чи</w>
Ни кто</w>
Аф ганиста
э по
управля ть</w>
ствен ной</w>
следу ющее</w>
появи лись</w>
луч ший</w>
коне чном</w>
кон цеп
зи ть</w>
з вё
г эта
во сть</w>
На ши</w>
хоро ший</w>
ходи ло</w>
сре ду</w>
пси хи
при бли
поло жи
обще -то</w>
обез ья
лен ные</w>
здоров ье</w>
М ак
И де
Г ар
чи на</w>
хо ть</w>
успе ха</w>
у по
стол кну
са м
с пас
обе ща
констру к
зо вут</w>
ди н
де пресси
ви дят</w>
Д о</w>
- таки</w>
тив ные</w>
ти в</w>
сле ва</w>
раз обра
раб і
предот вра
по на
по ле</w>
относи тельно</w>
обеспе чи
кли ен
де ть
глу би
энер ге
челове ку</w>
счита ем</w>
сре де</w>
случа ев</w>
с чёт</w>
с фер
прави ть</w>
музы ка</w>
живот ные</w>
доб ра
до полни
д ку</w>
ви а
верну лся</w>
М ан
те й
ст ях</w>
ро ждения</w>
пер вого</w>
настоя щее</w>
ко па
каж дую</w>
деть ми</w>
голо со
ва емся</w>
По ка</w>
3 00</w>
хоче тся</w>
спосо бы</w>
собра ть</w>
сдела но</w>
сдела ла</w>
пут ём</w>
при вести</w>
пра во
получа ем</w>
показа л</w>
ощу щение</w>
бо м
Одна жды</w>
т ную</w>
ситуа ция</w>
сист ем</w>
серд ца</w>
реб ен
подума ли</w>
по ки
по всюду</w>
о писы
конти нен
коман да</w>
клю че
ка те
вели коле
- лет
со общества</w>
послед них</w>
покол ение</w>
па ле
напра влении</w>
ли я</w>
л ку</w>
коро б
каж дая</w>
изобра жения</w>
за ба
гла з</w>
взя ли</w>
брас ы
Ж ен
Вели ко
ф ро
ули це</w>
тр ени
слы ши
представля ет</w>
по гру
не ш
клю чить</w>
зна ла</w>
дома ш
вос принима
За па
Велико бри
щ ении</w>
учё ные</w>
уч ени
т ность</w>
прове ли</w>
при обре
покол ения</w>
малень ких</w>
ма м</w>
лу ча
ком по
действи й</w>
ве й
бу ю</w>
ба ми</w>
Мо ж
Дж о
я ся</w>
фи лосо
учи ты
узна ли</w>
ресур сы</w>
похо жи
поня тия</w>
по воду</w>
пла тить</w>
па м
об но
ни цы</w>
говори ла</w>
вто рых</w>
ви ртуаль
бро са
Х от
Про блема</w>
В з
ты ми</w>
т ке</w>
ск возь</w>
обо рот</w>
мо н
ко го-то</w>
за ка
го ся</w>
ве ке</w>
бе се
я с
це лый</w>
тер ми
случа й</w>
роди телей</w>
реб я
процес са</w>
при род
послед ствия</w>
персо на
па мя
о свобо
материа лы</w>
ле м</w>
компьюте ры</w>
ка д
использу ет</w>
за бы
Я по
По след
цве т</w>
случа ях</w>
ру я</w>
поло жение</w>
оче вид
образ у
ен о</w>
вы с
вл ению</w>
ба лан
Че лове
Ц ен
цве та</w>
с частью</w>
р ю
поня ла</w>
лет во
ква дра
в ме
e s</w>
язы ке</w>
сте р</w>
ста нов
слуша ть</w>
сем ья</w>
секун ду</w>
с са
рав но
пер во
мя не</w>
му рав
ми ром</w>
ль ше</w>
л ла</w>
кон тек
за гряз
ги ган
беспоко и
Хот я</w>
О казывается</w>
четы рё
те му</w>
ско ре</w>
се вер
програм ма</w>
ограни чен
кон ку
использо вание</w>
га до
вля ть</w>
в стра
ше б
сай т</w>
пер вым</w>
носи т</w>
мужчи на</w>
миро вой</w>
зна чения</w>
зву чит</w>
жа н
выбо ра</w>
взя л</w>
болез нь</w>
биологи и</w>
а стро
Э н
Пер вая</w>
что -нибудь</w>
ч ность</w>
удов летво
стоя ть</w>
спи сок</w>
со держи
ру ках</w>
получи лось</w>
по ка
от каза
океа н</w>
не до
нас чёт</w>
меся ц</w>
ма ля
ма кси
й м
ис ключи
ж ением</w>
дви ну
во дой</w>
большо го</w>
Бо лее</w>
А ле</w>
э й</w>
созда ёт</w>
рас су
про вод
неф ти</w>
кар ту</w>
дели ть</w>
воспо мина
бу р
ю ся</w>
чрезвычай но</w>
те ми</w>
ски ми</w>
рис к</w>
при ходит</w>
пре кра
оста ётся</w>
об ма
на хо
любо пы
луч ших</w>
лен ных</w>
кор пора
ко пи
за пу
з ре
до ме</w>
вол ну
ваш у</w>
а да
Бо г</w>
ён ный</w>
у мер
ствен ных</w>
с могу</w>
пол но
за канчи
дума йте</w>
га м</w>
тель ны</w>
ста ми</w>
сем ье</w>
показыва ют</w>
по сла
ника ких</w>
мед ленно</w>
кон так
ко раб
интер нет</w>
ви на</w>
r e
фи ка
ф ар
ствен ное</w>
со един
скаж ем</w>
связа но</w>
показа ли</w>
пла т
па н
настоя щий</w>
индивиду аль
и но
зо ло
же ли</w>
дан ном</w>
а н</w>
Жен щи
энерги я</w>
фи гу
тер на
срав ни
ро д</w>
ра и
проис ходя
получи тся</w>
объя сня
луч шее</w>
ла в
комму ника
з ло
жи д
а ми</w>
а м</w>
О бы
Ка ж
экспери мен
шо у</w>
че т</w>
стре м
стра х</w>
составля ет</w>
скоро стью</w>
с с</w>
пу нк
продол жи
приш ла</w>
понима ем</w>
обще го</w>
обсу жда
обнару жил</w>
не види
маши н</w>
захва ты
за д
жа ет</w>
д жи
говори те</w>
возника ет</w>
Не сколько</w>
ро ли
раз ница</w>
оказыва ется</w>
мате ри</w>
ля ет</w>
комп лек
ка мен
горо дах</w>
выступ ление</w>
у видим</w>
технологи ю</w>
сдела ем</w>
са мо</w>
с чё
наде ж
на бор</w>
кро ше
инстру мент</w>
е ду</w>
взгля нуть</w>
ве н</w>
З ву
х ле
су дь
ро жда
продук т</w>
причи ны</w>
прео доле
полити ки</w>
по может</w>
ос ве
ни же</w>
мо ём</w>
ль зо
конферен ции</w>
ка чества</w>
выя сни
возду х</w>
Ви дите</w>
эмо циональ
у р
ти пи
та му</w>
реаль но</w>
произо йдёт</w>
про па
му суль
молоды х</w>
лу ю</w>
зако но
до вер
дино зав
д ной</w>
го ря
га зе
ве ль
ве к</w>
Л о
че сть</w>
с ка</w>
пользо ваться</w>
отве тить</w>
начина ем</w>
насили я</w>
н це</w>
мо ти
ми и</w>
ле чение</w>
ди ю</w>
внутр ь</w>
в ше
Воз ь
e b
шан с</w>
ш ё
чувству ю</w>
х мер
тя жё
простран стве</w>
обла сть</w>
нё мся</w>
ня ют</w>
ня ми</w>
мн ению</w>
ме ра</w>
кор ми
й дет</w>
звё з
за клю
ж де
д ный</w>
грани цы</w>
во ро
види т</w>
а ути
О О
19 7
ющи йся</w>
тре бо
пу га
послед нее</w>
пи ш
парт нё
л ло
ку пи
жен о</w>
выступ ления</w>
американ цев</w>
Ч ем</w>
a l</w>
які я</w>
фе й
у каза
ть я</w>
сте к
ради ка
нау ка</w>
кар ты</w>
изобре та
задума ться</w>
з ис
де вя
гено в</w>
ваш ем</w>
аль терна
С то
С начала</w>
Б рази
че го-то</w>
у ма</w>
точ ку</w>
те ле</w>
способо в</w>
с бо
ру ются</w>
рова н</w>
поль зу</w>
полу чен
одна ко</w>
мы ми</w>
измен ений</w>
гра ду
глубо ко</w>
бе жен
Т ре
По м
Б ан
я з
че твер
цен ности</w>
улуч шить</w>
сфер у</w>
стра ну</w>
сер де
семе й
ро жд
при бы
понима ния</w>
оста льные</w>
навер няка</w>
ли зо
компо нен
и дут</w>
е ды</w>
да т
визу аль
ви ла</w>
Суще ствует</w>
Кита е</w>
- м</w>
эпи деми
та ция</w>
структу ра</w>
спа сти</w>
смотре ли</w>
сигна л</w>
ро ли</w>
реша ть</w>
пре пят
пре пара
пи ло
обуч ение</w>
ну ли</w>
на е</w>
мар ке
контроли ровать</w>
комна те</w>
ко ль
ката стро
е цца</w>
дела ете</w>
важ на</w>
К стати</w>
челове ческой</w>
ч ны</w>
у т
социаль ные</w>
се л</w>
само стоя
разме ра</w>
пыта лся</w>
прош у</w>
пол нен
он ла
ника кого</w>
м ла
кур с</w>
ка кая</w>
г ер
во до
б ре
а д</w>
Де ло</w>
ь ев</w>
ф ы</w>
узна л</w>
скоро сть</w>
само лё
попро бовать</w>
повед ения</w>
по м</w>
ответствен ность</w>
наз вать</w>
мо мен
кни г</w>
зи с</w>
защи ты</w>
жи телей</w>
д вое</w>
ОО Н</w>
ц ц
с пис
ру т</w>
религи оз
предела ми</w>
п лю
носи ть</w>
не у
ма ги
за ция</w>
выгля дят</w>
Мо и</w>
1 7</w>
чис ла</w>
у м</w>
тро пи
сто к</w>
следу ющие</w>
си ли</w>
ры бы</w>
разме ром</w>
пыта юсь</w>
появи лся</w>
огром ные</w>
иг ры
жд ений</w>
ауди тории</w>
Сан -
2 4</w>
спо н
п ру
отнош ении</w>
отли чно</w>
об стоя
ноч ью</w>
но во</w>
мето ды</w>
круп ней
за пно</w>
ги п
в ью</w>
e c
F ac
цен три
у тром</w>
си т</w>
рова ла</w>
робо тов</w>
пыта лись</w>
путеше ствие</w>
пе ще
нейро нов</w>
наш ёл</w>
на правля
мето д</w>
когда -нибудь</w>
ки н
е мого</w>
д ж
выя снить</w>
авто мати
Пер вое</w>
Дж ор
ў ля
ю ри
сво е</w>
ры м</w>
прош лого</w>
профе ссо
проис ходят</w>
подро б
поверх ность</w>
от сле
огром ный</w>
обеспе чить</w>
к та
де ли</w>
га за</w>
возра ста</w>
вне д
вл ю</w>
вез де</w>
Р ос
Б ри
фанта сти
сторо не</w>
сторо н
сравн ению</w>
ра сти</w>
о логи
но вым</w>
ни ями</w>
му ж</w>
луч шие</w>
ле с</w>
ко д</w>
к рес
заме тить</w>
за гля
ж ные</w>
демократи и</w>
во рачи
вед ение</w>
Та кие</w>
С П
o l
т бо
сту пить</w>
ско му</w>
реши ла</w>
разме р</w>
пыта ются</w>
пусти ли</w>
при меня
позволя ют</w>
по гло
ни ях</w>
музы ка
любо го</w>
ло ги</w>
ле вой</w>
зако н</w>
за ча
д э
ве ду
аб ри
Все ленной</w>
ш ка
спра вля
слож ные</w>
силь нее</w>
пыта ясь</w>
окон ча
объ ё
ност ях</w>
ни ж
на но
каждо е</w>
жа ют</w>
ген ы</w>
ге н</w>
вол шеб
На циональ
В В
ходи л</w>
требу ет</w>
ста нут</w>
ры в</w>
рован ных</w>
револю ции</w>
пыта ется</w>
понима ют</w>
пожа луйста</w>
ори ен
н ного</w>
де м</w>
гиган т
вы йти</w>
вле ч
а х</w>
Великобри тании</w>
собствен ные</w>
ско н
ров ки</w>
ро к</w>
ра к
под ходя
особен ности</w>
опы та</w>
к ли</w>
использу ется</w>
з ор
возмож ным</w>
боро ться</w>
бед ных</w>
бе н</w>
Зем ля</w>
экра не</w>
хоро шая</w>
ф ено
тив ной</w>
ри ца
раз работа
приве ло</w>
помога ют</w>
о чи
о хра
на стро
людя х</w>
кла д
зна ний</w>
ва но</w>
М э
чувство вал</w>
хра ни
па ра</w>
от вер
неожи дан
на шими</w>
н ную</w>
мпа н
м г
люб ят</w>
кре ди
кла сси
зако ны</w>
Во прос</w>
4 00</w>
ь ез
уче б
упо мя
терри тории</w>
согла сно</w>
следу ющем</w>
регу ли
про йти</w>
пона доби
оф ис
кри зис
зна ешь</w>
дей ству
гене ра
вы рази
вла сть</w>
ван ных</w>
боль шее</w>
я го</w>
ща ют</w>
чи ки</w>
ча р
уч ре
тен ден
су мас
ствен ного</w>
сохра нить</w>
смотри т</w>
развива ющихся</w>
потен циаль
откры ть</w>
об о</w>
мет ра</w>
карти ну</w>
име ли</w>
до жд
Иде я</w>
oo k</w>
щи ми</w>
чи м</w>
у лы
требу ется</w>
стои мость</w>
собира емся</w>
проис ходило</w>
про зра
пред ска
по ступ
на га</w>
ко жи
ка чество</w>
к но
зем лю</w>
голо са</w>
го ры</w>
бли оте
По д
чи сли
ф ран
ту ры</w>
сто ль</w>
сол да
разу м</w>
проек ты</w>
получа ет</w>
отли чие</w>
остано ви
нов ь</w>
низ у</w>
ле й
ин фек
зна мени
заставля ет</w>
за ключ
О т</w>
i s
це ли
у ще
тяже ло</w>
сы гра
со су
слож нее</w>
ресто ра
ре цеп
раст ения</w>
рас сказал</w>
пред по
получа ть</w>
по знакоми
по гиб
пла не</w>
пита ния</w>
об а</w>
заболе ваний</w>
за рабаты
до сто
вли ять</w>
ван ные</w>
важ ный</w>
важ нее</w>
Ю ж
Т е</w>
Ан гли
i P
эле менты</w>
уч ены
тра в
тив ный</w>
сред ств</w>
руко вод
продук тов</w>
при ходят</w>
писа л</w>
пациен та</w>
о в</w>
нау ке</w>
мо ре</w>
интер вью</w>
име л</w>
из мери
ду ше
го с
возду ха</w>
бе ра
а ген
Ю жной</w>
Ин те
фотографи ю</w>
ф абри
стви й</w>
стви ем</w>
ри а
по жи
осуще ств
оказа лся</w>
контро ля</w>
ко ми
за ди</w>
вызыва ет</w>
ве с</w>
бизне са</w>
ба я</w>
ход я</w>
три лли
тив ных</w>
т ном</w>
слыша л</w>
сер ьез
с клон
про цве
поме сти
под ви
объек т</w>
ни ке</w>
находи мся</w>
на сла
му ль
ма т</w>
лы ми</w>
ли ш
ис пол
информа цион
ин туи
зву ки</w>
дея тельности</w>
груп пу</w>
вы чис
важ ных</w>
анали з</w>
Дж он</w>
че ра</w>
филь ма</w>
успе х</w>
у помина
тив но</w>
собы тий</w>
рабо чих</w>
пред ы
попа сть</w>
полови ной</w>
п ки</w>
оста лось</w>
начи ная</w>
многи м</w>
мер но</w>
кров и</w>
исследо вать</w>
инду ст
игра ет</w>
за р
да вать</w>
вероят ность</w>
в новь</w>
Со един
СП И
М ек
це й
та цию</w>
сфе ры</w>
созна ние</w>
си лой</w>
раст ений</w>
проек тов</w>
от ца</w>
нача лось</w>
музы ки</w>
материа лов</w>
малень кая</w>
ло м
друз ьями</w>
г .</w>
бы стро
беско не
собы тия</w>
сен тяб
с не
рам ках</w>
представля ют</w>
од ному</w>
не о
мет р</w>
мг нов
лекар ство</w>
конку рен
коман ды</w>
и стин
зада ть</w>
д .</w>
выбра ть</w>
вы пус
бу ты
б лю
Ф ак
Т ем</w>
Ка на
До л
Fac eb
шин г
счаст ье</w>
сто ле
ство вали</w>
споко й
спа са
со на</w>
про жи
по тер
наз вание</w>
на йд
мыш ления</w>
кост ю
источ ник</w>
из ме
зо ны</w>
дель фи
воо ру
ва й
бога т
ба та
У ни
Нью-Йор к</w>
З начи
ша ют</w>
ци ям</w>
то ром</w>
со общество</w>
смотр ю</w>
раз би
прош лое</w>
пись мо</w>
па дает</w>
об щения</w>
ника м</w>
запис и</w>
за писы
ж ных</w>
ен ные</w>
д ные</w>
бере мен
бакте рии</w>
Калифор нии</w>
Faceb ook</w>
20 00</w>
хва тает</w>
учи теля</w>
учи ли</w>
ужа сно</w>
сред нем</w>
ря ть</w>
руко води
разобра ться</w>
профессио наль
противо ре
причи не</w>
по са
по вез
относи тся</w>
оста льных</w>
но г</w>
мину ту</w>
м л
за ново</w>
г ну
вопро са</w>
ва ющие</w>
бума ги</w>
Л ос
Гер ма
Б ил
то лькі</w>
тка ни</w>
тео рия</w>
счита ли</w>
социаль ной</w>
со че
реаль ном</w>
раст ёт</w>
ра ко
причи ной</w>
поддержи вать</w>
пере дать</w>
му м</w>
кни га</w>
за чем</w>
ен ных</w>
диагно сти
д ю
груп пе</w>
га р
во все</w>
во -
виру с</w>
вариан т</w>
большин ства</w>
бо ль</w>
ба х</w>
Ц е
Обы чно</w>
К е
Ва шинг
ч на</w>
спроси ть</w>
собствен ной</w>
с форми
ри ей</w>
продук ты</w>
от рица
остано вить</w>
оста вить</w>
обнару жи
не равен
не посред
милли он</w>
квар ти
в ло
Лос -
ши мпан
усили я</w>
терри то
сцен е</w>
сме ш
противо поло
пробле ме</w>
пла ка
оста навли
не тся</w>
не при
насе ление</w>
на оборот</w>
меня ет</w>
й -
ис полни
интеллек туаль
иг ра</w>
восприя тие</w>
взаимо действия</w>
веща х</w>
важ ным</w>
бере ж
авто бу
По жа
Е му</w>
Д ар
h e</w>
e s
язы ка</w>
шимпан зе</w>
ш ке</w>
ческо му</w>
увели чить</w>
те мно
ст ся</w>
ребя та</w>
посред ством</w>
попыта ться</w>
по являются</w>
мн ения</w>
меч та
ле чить</w>
ле те
истори й</w>
и гру
заболе вания</w>
ди л</w>
деся тки</w>
ви н</w>
благо твори
Ско лько</w>
Мек си
ВВ П</w>
энерге ти
щи хся</w>
учё ных</w>
торго в
то на</w>
теле ско
та лан
сы н</w>
сте ро
ст но</w>
со обще
се редине</w>
ри ф
производ ство</w>
постро или</w>
по став
не ве
ме л
кон тра
зе лен
защи тить</w>
е мое</w>
доба вить</w>
ди о
графи к</w>
государ ства</w>
у н
следу ющих</w>
скоро сти</w>
с ной</w>
про вёл</w>
полови на</w>
моз ге</w>
компа нию</w>
исче за
иг р</w>
зву ча
за гру
ж ён
ден ти
де ше
гри п
вы деля
бы ць</w>
борь бе</w>
По думайте</w>
Го во
А встра
N e
эмо ции</w>
ъ ек
щ ён
ст вам</w>
сегодняш ний</w>
с куль
ри т
ре жи
рас строй
производи ть</w>
проводи ть</w>
про ходит</w>
приходи лось</w>
преж нему</w>
по ставить</w>
памя ти</w>
па ча
па да
обща ться</w>
не правильно</w>
не дав
кон цу</w>
информа цией</w>
зада чи</w>
же ле
ж ны</w>
до га
важ ные</w>
Д жу
Д жи
Ан дже
7 5</w>
1 50</w>
юще йся</w>
шта т</w>
четырё х</w>
цен ность</w>
х ла
у важ
т ными</w>
се т
ро з
ради о
пробле мами</w>
про ста</w>
при менить</w>
не пре
мини ст
лен о</w>
ко ри
зо р</w>
в ку
Пра ви
О р
19 6
студен ты</w>
с вер
при йти</w>
поис ках</w>
отнош ений</w>
лі ся</w>
ко н</w>
к нуть</w>
иннова ции</w>
ин вали
игра ют</w>
и денти
з ен
дево чка</w>
во семь</w>
ч т
топли ва</w>
ство ло
спроси ла</w>
случай но</w>
сим метри
с читы
с ны</w>
ри ско
прибли зи
преды ду
ли н</w>
ко го
исследо вани
изуч ения</w>
за думы
з мом</w>
е ц</w>
вы став
вши еся</w>
ви т
веще ства</w>
За чем</w>
1 0
ча сто
циф ры</w>
хи е</w>
услыша ть</w>
убе дить</w>
те ку
спроси ли</w>
справи ться</w>
сверх у</w>
све то
роди лся</w>
результа тов</w>
ре чи</w>
ня т</w>
ль ник</w>
кор руп
каме ры</w>
каждо му</w>
до льше</w>
вля ют</w>
вель мі</w>
ве р</w>
ва ющих</w>
б я
Ч ар
Де й
ша ется</w>
фоку си
точ ка</w>
све т
рован ные</w>
разгово р</w>
ра д</w>
при рода</w>
подума ла</w>
по н
пи щи</w>
опера ции</w>
о к</w>
ну жд
матери аль
долго сро
ван ной</w>
а эро
Г е
чы ць</w>
те ра</w>
сумас шед
ступи л</w>
смот рят</w>
свя зыва
райо не</w>
разли чия</w>
р эн
причи нам</w>
о хва
о пла
ни т</w>
наблюда ем</w>
му со
ма лы
ма е</w>
м ные</w>
ка кое</w>
к -
замеча тельно</w>
ж ки</w>
еха ла</w>
е мая</w>
доро ги</w>
гру ди</w>
в клад</w>
Уни версите
Значи т</w>
чер но
предста вления</w>
попроси ли</w>
па х</w>
океа не</w>
наш ему</w>
на ва
механиз м</w>
малень кой</w>
ко ма
интерес ное</w>
д ца
глаза ми</w>
ги ми</w>
воз вра
Ч и
По скольку</w>
3 5</w>
2 -
ща яся</w>
чен а</w>
фи р
фи о
ту ра</w>
степ енно</w>
ст я
ру к</w>
расска зывать</w>
про бу
пре образо
отлича ется</w>
ль ности</w>
лу й</w>
кри зис</w>
зву ко
е шься</w>
да ния</w>
близ ко</w>
Н ор
Ка лі</w>
4 5</w>
чест но</w>
хо в</w>
уро к</w>
сооб щение</w>
созда нии</w>
серьёз но</w>
психо логи
пре вос
осуще стви
од ни</w>
ново сть</w>
ни ться</w>
н ным</w>
мя г
м э
кажды е</w>
иде ей</w>
иде е</w>
зер ка
заме тил</w>
е вро
дей ствуют</w>
да ла</w>
верх у</w>
Север ной</w>
С мо
у кра
со проти
ска ни
свобо ды</w>
с ко</w>
потенциа л</w>
поня тие</w>
поли цей
позво льте</w>
ни как</w>
маши не</w>
колле д
инстру мен
ж ению</w>
е це</w>
великоле п
би блиоте
Инте рес
2 1</w>
тре тий</w>
сте н</w>
ствен ная</w>
скуль п
робо т</w>
ри й
процен т</w>
про ще</w>
принци п</w>
похо жи</w>
потреб ля
поня тно</w>
пер ен
организ м</w>
объек ты</w>
обнару жить</w>
жда ет</w>
дево чек</w>
вя т</w>
вели чай
Ни ге
Н и</w>
Ин дия</w>
Г и
Во- вторых</w>
А т
1 0-
уда стся</w>
тру да</w>
те ст</w>
те ат
со хран
слыши те</w>
си и</w>
ри к</w>
религи и</w>
просты х</w>
про вед
предме т</w>
позволи т</w>
по сыла
о со
необходи мости</w>
не деле</w>
му з
карти на</w>
дя тся</w>
ге й
воспо льзо
вне запно</w>
Му ж
экономи ка</w>
ща ется</w>
част ности</w>
университе те</w>
у казыва
тив ного</w>
ста ту
созна ния</w>
со ста
сни м
смер ть</w>
случи тся</w>
систе мой</w>
ре да
откры тия</w>
нарко ти
микро ско
кар ье
иг ру</w>
за во
до стой
га ют</w>
во пло
а раб
Ри чар
На ш</w>
Кита я</w>
И спо
Вто рая</w>
яз ви
чи ков</w>
ты я</w>
сы па
сте ре
со тен</w>
сле дить</w>
све те</w>
са мую</w>
рь е
приня ли</w>
преду пре
пере мен
пер спек
огром ная</w>
ни ку</w>
наз вал</w>
мо менты</w>
лег че</w>
компьюте ра</w>
з рение</w>
дости жения</w>
до ли
дан ными</w>
гру зо
в ной</w>
в низу</w>
челове ческих</w>
ч ь
цион ные</w>
функ циони
собствен ный</w>
си деть</w>
раз работали</w>
пор тре
под ходит</w>
организа ций</w>
организ мы</w>
ну ться</w>
но чи</w>
ника кой</w>
наде я
кни ге</w>
инди й
занима ются</w>
до ктор</w>
вя з
болез ней</w>
безопас ность</w>
аб стра
Ра бо
Кто -то</w>
З е
я на</w>
фор му
фор м</w>
у ль
счаст ья</w>
следо вать</w>
сер ва
ребён ком</w>
пу зы
просты е</w>
приме ры</w>
полови ну</w>
отсле жи
о ти
но мер</w>
независи мо</w>
на прав
м ных</w>
лекар ств</w>
ко жи</w>
закон чить</w>
доста точ
голов ного</w>
вы числи
бы вает</w>
Пере д</w>
Афри ка</w>
хоро шее</w>
университе та</w>
ся тся</w>
сооб щи
си я</w>
разнообрази е</w>
раз деля
потреб ления</w>
обо ро
масшта б
м ёр
интерне те</w>
зо й</w>
деся ть</w>
дерев ьев</w>
дар ю</w>
го спо
га ран
вс пы
вер са
ве ли</w>
б -
автомоби ль</w>
С ер
На де
Ла дно</w>
К ор
Го ло
Ан дер
S t
экономи ку</w>
у тра</w>
у ва
тре во
съ е
состоя ния</w>
с че
рова я</w>
робо та</w>
ро го</w>
работа ло</w>
пол ной</w>
отве ты</w>
отве тила</w>
ну три</w>
иг но
жа я</w>
а й
О к
e l
экономи ке</w>
ч ением</w>
устано вить</w>
тя ги
т ли
смотре л</w>
сем ью</w>
р ь</w>
просто е</w>
проек том</w>
проек те</w>
про верить</w>
поря дка</w>
по- прежнему</w>
пис ан
пам ять</w>
па ми</w>
отнош ению</w>
не извест
написа ть</w>
на ции</w>
моз гу</w>
культу ра</w>
измени лось</w>
за пол
е .</w>
дол ь</w>
д ных</w>
вы ходит</w>
а но
По нима
u r
чен о</w>
част ей</w>
ча ми</w>
убе жд
у рав
сущ ности</w>
ствен ным</w>
род ствен
пол ё
па ро
но сят</w>
наз вали</w>
мысли ть</w>
ми ся</w>
ме ло
лен ный</w>
кто ров</w>
капита ли
к ем
использо вал</w>
игно ри
е два</w>
де шё
вши хся</w>
возду ш
вла де
Мо н
Е ще</w>
Благо даря</w>
А й
u b
чув стви
ходи м</w>
хо ду</w>
тив ное</w>
стан ции</w>
с хе
молоды е</w>
ма стер
ма ло
лю сь</w>
кто -нибудь</w>
комна ту</w>
зача стую</w>
дь те</w>
дерев ья</w>
дви жу
гра ви
го тов</w>
в клады
ба р
а ссо
Са мое</w>
Кон грес
Из раи
т т</w>
сторо на</w>
сим пто
се й</w>
самостоя тельно</w>
са жи
распо зна
разру ши
раз ными</w>
похо ж</w>
полага ю</w>
оч ень
ор би
н -
молеку лы</w>
ма й
людз ей</w>
л ке</w>
каж у
исследова тель
им пуль
избе жать</w>
заме тили</w>
жда я</w>
ж ка</w>
дума ет</w>
до чь</w>
демо кра
вос ь
возду хе</w>
води ть</w>
важ ная</w>
боль шего</w>
О че
К ан
Дру гой</w>
Г лав
ц ар
уме р</w>
у язви
те сти
т. д.</w>
сцен а
слож ности</w>
рова на</w>
предло жение</w>
пред поч
поте п
по э
по шли</w>
па ри
онла йн</w>
ника х</w>
лиде ров</w>
каме ру</w>
инстру ментов</w>
зи я</w>
зада ч</w>
де те</w>
г ка</w>
вы нужд
большин стве</w>
Э йн
Фран ци
Мар с</w>
Зем лю</w>
r i
1 9</w>
щ ений</w>
чо к</w>
чи сле</w>
ча м</w>
фотографи й</w>
ф ла
ти тся</w>
стран но</w>
стиму ли
сами м</w>
ро де</w>
прош ли</w>
пред прия
поме стить</w>
получи ла</w>
полу чения</w>
по ток</w>
по береж
плане та</w>
пере гово
ошиб ки</w>
откры тие</w>
оружи е</w>
ня ется</w>
неф ть</w>
на гра
меч ты</w>
мест ных</w>
когда -то</w>
кажды м</w>
зар пла
за пуска
за ли
з рабі
дет стве</w>
дан ным</w>
вы зов</w>
вос ста
вл ений</w>
Эйн ш
Шта тах</w>
Дж он
А зии</w>
a s
я д
х ак
уча ствовать</w>
т р</w>
созда ём</w>
со ю
сле гка</w>
семе й</w>
свобо ду</w>
с се
раз бира
повез ло</w>
по говорим</w>
пе р</w>
оцени ть</w>
от ча
мест ности</w>
контро ль</w>
компьюте ров</w>
иде т</w>
игра л</w>
занима юсь</w>
ж ный</w>
добра ться</w>
ги поте
вид ение</w>
бо е
П рав
За пад
1 ,
ў сё</w>
чита л</w>
ули цы</w>
у тро</w>
стеро и
собствен ного</w>
сни мок</w>
ри л</w>
про двину
приро ду</w>
па у
осно вы
оказа лись</w>
ограни чи
нрави лось</w>
не га
миро вого</w>
л ёт</w>
ком -то</w>
кле точ
интере с</w>
им му
занима ет</w>
до му</w>
дей ствует</w>
в скоре</w>
бизне с-
Т вит
Бо же</w>
чуде с
фар ма
ти лся</w>
стра ха</w>
слыша ть</w>
ско р
рас полага
разо ча
при ближа
пре зен
попроси л</w>
повер хно
опреде ли
об у
не которое</w>
наде жды</w>
ме тро
ли ния</w>
ино стран
из учить</w>
и ть</w>
жа ло
дере во</w>
груп пой</w>
гори зон
ве се
абстра к
Франци ско</w>
С ло
Лос- Андже
я бло
щ ены</w>
ча я</w>
хоче шь</w>
филь мы</w>
фер ме
ф она</w>
ти ка</w>
счита ет</w>
сво ем</w>
рисо вать</w>
ред ко</w>
про стая</w>
прави л</w>
па тен
об ер
на льно</w>
ли тера
ле том</w>
ка кую</w>
ка з
жер тво
ди тся</w>
д ре
ги и</w>
вой на</w>
вече ром</w>
ва шим</w>
Оче видно</w>
Е дин
эффектив но</w>
ч ке</w>
ц уз
ходи ла</w>
физи ки</w>
уни верса
та го</w>
суще ства</w>
сти ра
ство вал</w>
сигна лы</w>
рын ка</w>
ри ка
рас смотреть</w>
рабо той</w>
при мени
под ъ
отве та</w>
от ры
оружи я</w>
медици ны</w>
ле чи
кто ром</w>
евро пей
ди ться</w>
де б
ве й</w>
в ста
борь бы</w>
Та кое</w>
Д об
19 5
я й
тюрь ме</w>
стар ше</w>
сооб щения</w>
рын ке</w>
распростран ения</w>
работ ников</w>
ра ста
провер я
приш ло</w>
прекрас ный</w>
посмотре л</w>
поис ка</w>
поис к</w>
повсе днев
пере мены</w>
п раз
п ку</w>
отве тили</w>
нен но</w>
не прави
не избе
насили е</w>
мо ли
ка ры
и ю
з он</w>
з и</w>
жив у</w>
доступ а</w>
д ё
выро с</w>
ве дут</w>
в доль</w>
би ть</w>
атмо сферу</w>
а та
а плодисменты</w>
Япо нии</w>
ь ям</w>
чув ствуют</w>
ха я</w>
ти ка
спосо бен</w>
с ло</w>
ра ке
по степенно</w>
пар ня</w>
отвеча ет</w>
основ ных</w>
ори ги
обла да
ну ла</w>
над ёж
ме тра
масшта бе</w>
ля ция</w>
люби мых</w>
лю бую</w>
ль зу
лич ности</w>
ле в
из нача
и щ
занима ется</w>
ди пло
вс помина
во ль
в шего</w>
бра ли</w>
Все мир
a m
щи к</w>
ше сти</w>
ша ф
что -либо</w>
ци та
у жи
тре х</w>
те ма</w>
ста дии</w>
сов ме
сентяб ря</w>
при з
по верить</w>
оказа ться</w>
о су
ло ша
ле ко
л ли</w>
кар та</w>
ка п
ис ключ
за га
воз гла
ве м</w>
бакте рий</w>
анти био
Прав да</w>
На конец</w>
Д ва</w>
ш кой</w>
це лей</w>
хо л
хо жу</w>
увер ены</w>
ть е</w>
то кси
те п
следу ющей</w>
свя щен
с нять</w>
с ми
рас т</w>
присут ству
по явля
объя сни
ни кому</w>
на ка
малень кую</w>
люби м</w>
леко пита
лан дии</w>
ком фор
ком би
клас са</w>
карти ны</w>
изба виться</w>
звез ды</w>
движ ется</w>
груп п</w>
г еди
вой не</w>
ва юсь</w>
бы лі</w>
б ки</w>
Фак тически</w>
Ка ко
Де ти</w>
i r
эк спо
ча ла
ч ению</w>
хо дом</w>
характе ристи
стол кнов
ст ены</w>
сосе д
сло м</w>
сло й</w>
с кри
с клады
с жи
с да
привы кли</w>
по влия
ориен ти
о про
ново му</w>
нен ы</w>
материа ла</w>
лен ную</w>
ле ст
культу ре</w>
количе ством</w>
ис копа
заня ться</w>
живот ное</w>
доказа ть</w>
де ду
д ным</w>
графи и</w>
гено м</w>
во обще-то</w>
в чера</w>
бед ности</w>
б ран
От лично</w>
Ко м
Дру гими</w>
Г у
Бо га</w>
Англи и</w>
d i
0- е</w>
цион ных</w>
фра г
тель ств</w>
сре да</w>
реак ция</w>
пти ц</w>
про демонстри
прав ду</w>
плане ту</w>
от вра
ня ются</w>
мас са</w>
м но</w>
ку сси
како е-то</w>
интер фей
занима лся</w>
единствен ная</w>
десятиле тия</w>
гражда н</w>
го дах</w>
ги ба
вме ша
бо ра</w>
ауди то
Брази лии</w>
Благо дарю</w>
Б ру
Андер сон</w>
шта та</w>
цы і</w>
ходи те</w>
сосредо то
слы шу</w>
слож ная</w>
с х
р ных</w>
произ вести</w>
при нес
предло жить</w>
пра з</w>
организа ция</w>
о ло
о г
ны неш
нра вятся</w>
н г</w>
мо ем</w>
ль я</w>
ль да</w>
клас с
к лу
йм с</w>
ин тен
измени ли</w>
из бира
зда ний</w>
жа ли</w>
до но
дея тельность</w>
гу мани
гадо ў</w>
высо кой</w>
вы брасы
больши ми</w>
благо да
а -
Со гла
С ти
Ни чего</w>
Бе з</w>
шко л</w>
части цы</w>
собира ется</w>
сло ва
ска з
ре ки</w>
разно образ
ра циональ
при думать</w>
получа ете</w>
полити ке</w>
по ля</w>
пло хие</w>
пи щу</w>
не ле
не большие</w>
наде емся</w>
му дро
молеку ляр
меха ни
ло ка
ле та</w>
ланд шаф
ко ла
клас се</w>
за ра
жа р
емы м</w>
доро ге</w>
до ви
дета ли</w>
дву х
восто р
в ру
Не смотря</w>
Л уч
И сто
on e</w>
ю чы</w>
ш ы</w>
ш ч
у стро
у видела</w>
та н</w>
стра ции</w>
рова но</w>
размыш ля
процес сы</w>
продолжа ет</w>
по о
пер ено
опас ности</w>
о по
нов ения</w>
ней ших</w>
напомина ет</w>
ме ж
макси ма
ма на</w>
м ное</w>
м лекопита
индуст рии</w>
ду шу</w>
го дами</w>
глаза х</w>
б рен
С тра
Мож ете</w>
i l
a n</w>
ы х</w>
удоволь ствие</w>
точ нее</w>
тель ном</w>
т ны</w>
стоя т</w>
собира ть</w>
смыс ла</w>
с ну
роди лась</w>
при гото
пре успе
полити ка</w>
по л</w>
писа ли</w>
не те</w>
мини мум</w>
ми ю</w>
любо е</w>
корми ть</w>
кли мати
ки но</w>
име ется</w>
игра ли</w>
за пись</w>
з і
жы цц
жан чы
ем ле
ду хов
досто ин
достиг ли</w>
го н
вле н</w>
Р ан
Пре жде</w>
Из -за</w>
Г ан
Афри ку</w>
ё сць</w>
я кі</w>
цион ной</w>
фи кси
ут бу
умира ют</w>
угле рода</w>
тра геди
тив ным</w>
те лю</w>
сдела ю</w>
ребен ка</w>
про доволь
при влечь</w>
предме ты</w>
праз д
потре бу
показа тели</w>
по к</w>
организ мов</w>
обще й</w>
обще е</w>
обла дает</w>
об е</w>
норма льно</w>
мину ты</w>
ми я</w>
кате го
кар те</w>
из гото
и ни
ж ность</w>
довери е</w>
г нуть</w>
выбра ли</w>
во вле
верну лись</w>
Т ри</w>
П ла
Ва с</w>
Б ра
А п
r o
ў ся</w>
ё й</w>
я вление</w>
юще му</w>
чувство вали</w>
чи сты
у про
тя тся</w>
та щи
спраши вают</w>
слож ных</w>
ро вании</w>
рис ка</w>
процве та
при зем
предотвра тить</w>
потряса юще</w>
по стара
пере йти</w>
оч у</w>
от сюда</w>
обно вля
не жели</w>
музы кан
ли бера
кар ьер
к рова
использу ю</w>
исключи тельно</w>
за су
за се
в лек
Х очу</w>
На с</w>
Интерес но</w>
4 -
ющи мся</w>
э р
член ов</w>
фак ты</w>
увер ена</w>
у то
тель на</w>
соче та
солне чной</w>
следу ющего</w>
с мен
про гу
при знать</w>
предпо чита
пра вы</w>
показа ться</w>
под разуме
по могли</w>
переда чи</w>
обла дают</w>
об ви
о сторо
не котором</w>
нач нём</w>
насеко мых</w>
на ту
на зна
ль ность</w>
каки е-то</w>
заме д
да па
да лё
да вление</w>
граду сов</w>
гля ды
га з</w>
вши м</w>
вопро су</w>
вери м</w>
бы ў</w>
бежен цев</w>
Э й</w>
У о
От вет</w>
6 00</w>
ю цца</w>
что б</w>
справедли вости</w>
сни мки</w>
с кло
р ные</w>
принима ют</w>
пере ста
пер ене
ми н
ма не</w>
инду стри
из ве
знако мы</w>
зада чу</w>
дне вно</w>
дис кусси
ди е</w>
дево чки</w>
двер ь</w>
ак ку
Не давно</w>
Н А
Б ли
э м
щ ением</w>
ти ями</w>
тех ники</w>
сы на</w>
счита л</w>
сто л</w>
специаль но</w>
с проекти
с могла</w>
просты м</w>
проис хо
преде лы</w>
подо зре
под держа
под вод
пись ма</w>
пи ще
пи ты
пес ню</w>
основ ные</w>
объек тов</w>
о гро
мор ской</w>
ми гран
культу ру</w>
к ван
жи тели</w>
есте ственно</w>
вы жить</w>
вол ны</w>
ван ный</w>
боль ных</w>
а м
То ма
Со еди
По ч
П от
Вз гля
А лек
ю щаяся</w>
экспери менты</w>
циви лиза
хоро шего</w>
фу тбо
узна ла</w>
тон н</w>
со стави
секун ды</w>
револю ция</w>
рабо т</w>
принци пы</w>
принад лежа
появи лось</w>
потре бо
поддерж ки</w>
переме н</w>
ощу щения</w>
ото бра
опреде ление</w>
оказа лась</w>
о нов</w>
не р</w>
л ка
коман ду</w>
ко фе</w>
клас с</w>
каки м-то</w>
ка ких</w>
интерес ный</w>
зна ние</w>
жиз ней</w>
ен ный</w>
е л</w>
дела ется</w>
де ра
двер и</w>
грам ма</w>
голо вы</w>
га л
вы ска
бри тан
благо дар
а стерои
Раз ве</w>
Ка кой</w>
Герма нии</w>
Боль ше</w>
Б ар
юще гося</w>
чувство вала</w>
цифро вой</w>
уг лу</w>
у йти</w>
существо вания</w>
сред него</w>
случа ется</w>
ри ли</w>
расши ря
про явля
полити ческих</w>
пес ня</w>
перио да</w>
орга ны</w>
ни ла</w>
мож а</w>
миллиар д</w>
мас сы</w>
ли ст
контек сте</w>
квар та
ис к
име я</w>
звёз д</w>
жи вых</w>
единствен ное</w>
де тся</w>
го е</w>
ве е</w>
би р
аппара т</w>
Ра й
Пом ните</w>
Ко ро
ў ні
широ ко</w>
че му-то</w>
трэ ба</w>
с кла
рей тин
по лю
о прав
научи ть</w>
наблюд ения</w>
ка б
к т</w>
иннова ций</w>
из да
за цию</w>
за пустить</w>
ви т</w>
вдохно в
ада пти
а ни
Ф ор
i m
e t
Y ou
2 2</w>
чис лен
фо в</w>
т эн
ста рые</w>
совер ши
слу ши
са йте</w>
реш ением</w>
расска з</w>
превра тить</w>
подоб ного</w>
пло ть</w>
перспек тив
па не
па ла
п -
отнош ениях</w>
основ ной</w>
нач н
наде жду</w>
на ву
муль ти
му зе
мор я</w>
меч та</w>
л лы</w>
кров ь</w>
клю чения</w>
ки но
использо вании</w>
измени т</w>
за м</w>
де лом</w>
возмож ное</w>
вне сти</w>
вер тика
в ные</w>
в ку</w>
беспла тно</w>
ар гу
автомоби лей</w>
Х и
Пожа луйста</w>
О дно</w>
Афганиста не</w>
a r</w>
20 10</w>
экра н</w>
цен а</w>
технологи ями</w>
та лки
раз работки</w>
процен та</w>
попро бу
пози ции</w>
по зади</w>
по бо
пла нет</w>
оста льное</w>
организа цию</w>
на сле
н ений</w>
ме стом</w>
ме га
ль ны</w>
л ла
использу ются</w>
з ме
ди да
дан ной</w>
д ри
д вой
вы мира
восстано вить</w>
вели чи
ва жен</w>
анали зи
а ка
П ор
Наде юсь</w>
Май к
Лондо не</w>
Каж ется</w>
Гар вар
p p
юще еся</w>
ща ем</w>
челове ческий</w>
ча ли</w>
функ ции</w>
фран цуз
фор миро
ф і
усили й</w>
убеди ться</w>
това ров</w>
спе кти
собра ли</w>
собира ются</w>
слож ный</w>
слай д</w>
си ло
президен т</w>
понима ет</w>
по чувствовать</w>
пале ц</w>
оцен ки</w>
оста ются</w>
оста ваться</w>
о собы
но утбу
написа но</w>
мыш и</w>
луч шим</w>
ле сов</w>
кризис а</w>
кон серва
компани ей</w>
ки ста
ка го</w>
источ ников</w>
жа л</w>
ено к</w>
доступ ны</w>
голо вой</w>
вя лі
вы шел</w>
воспользо ваться</w>
во му</w>
во дят</w>
Соедин ённых</w>
На ч
Мо ё</w>
Ж из
Б ен
at i
я пон
щ ена</w>
ч ёл</w>
цы я
тро ну
тр ен
то вой</w>
т ща
суще ству</w>
социаль ного</w>
скаж ут</w>
ска жет</w>
сер ви
с наб
расту т</w>
получи те</w>
пере ди</w>
п че
не по
нас ць</w>
мо ими</w>
мест ные</w>
малень ким</w>
ле п
ку х
интересу ет</w>
и н</w>
дела ла</w>
ва е</w>
б ен
ана логи
Евро пы</w>
Бу ду
9 9</w>
200 8</w>
ша х
чы м</w>
участи я</w>
уверен ность</w>
у с</w>
степ ень</w>
с са</w>
с пер
ру ками</w>
ру ка</w>
рован ный</w>
разви вается</w>
рабо чие</w>
при ё
при думали</w>
пре вы
по ста
от туда</w>
от ка
осозна л</w>
образо ва
не бо</w>
находи ться</w>
нас ці</w>
масшта б</w>
ку ри
колле ги</w>
ка ком-то</w>
ка ка
истори ей</w>
исследо вании</w>
зо на</w>
зи ю</w>
за служи
е да</w>
грузо ви
вы ру
вече р</w>
би т
американ ских</w>
Поч ти</w>
Ж и
in g</w>
эта пе</w>
че твёр
ч кой</w>
хро ни
филь мов</w>
у влека
три те</w>
т кой</w>
суб ъек
страш но</w>
собствен ных</w>
сдела ны</w>
связ ей</w>
с хо
раз мно
потреб ление</w>
поо щ
пол ный</w>
по шёл</w>
отлича ются</w>
основ у</w>
о писать</w>
насла жда
надеж да</w>
м ён</w>
м ная</w>
ля ется</w>
ли мпи
ком мента
кем -то</w>
ис править</w>
ин у</w>
за ла</w>
жд ении</w>
до ход</w>
до ктора</w>
верну лась</w>
важ ную</w>
в перед</w>
в -
Сан- Франциско</w>
Па ри
О ба
r a
20 -
1 7
шко лах</w>
хозяй ства</w>
ту ру</w>
ти н</w>
стратеги и</w>
со чув
с сы
с пин
ру кой</w>
ре ть</w>
примен ения</w>
при ми
похо жа</w>
полити ческой</w>
оста вля
обществен ных</w>
обра титься</w>
оборудо вание</w>
обита ния</w>
ново м</w>
навы ки</w>
лли ву
ку сок</w>
космо с</w>
колле г</w>
ко л</w>
каме ра</w>
ка ў</w>
измер ения</w>
из ви
занима емся</w>
женщи нам</w>
го дов</w>
глав ным</w>
возмож ных</w>
вла дель
ва лі</w>
бо ли
беспо ря
американ цы</w>
а дзі
Мар се</w>
TE D
я е</w>
щи еся</w>
шко ла</w>
цели ком</w>
умень шить</w>
увелич ение</w>
телефо ны</w>
суще ствовать</w>
су д
строи л</w>
ста тью</w>
сред ство</w>
созда вая</w>
собы тие</w>
смер тности</w>
ре и</w>
рас па
проце ду
приме ре</w>
получи м</w>
п лу
образи ть</w>
обеспе чения</w>
ны мі</w>
ни це</w>
не н</w>
находи ть</w>
науч ных</w>
н ными</w>
много м</w>
кор ре
изнача льно</w>
измери ть</w>
зав тра</w>
за ло
доро гу</w>
да ст</w>
глав ный</w>
все ленная</w>
вс пом
возмож ные</w>
виру са</w>
взаимо действие</w>
вер ят</w>
вер нёмся</w>
ва лен
Ш е
Что -то</w>
Соеди нен
t er</w>
h one</w>
2 3</w>
эволю циони
че ству</w>
цион ный</w>
цент ра</w>
хло п
учи телей</w>
участ ников</w>
удиви тельное</w>
те ри
составля ют</w>
се тей</w>
ря ду</w>
ро ў
ра ком</w>
про бе
поддерж ку</w>
подвер га
па ві
определя ет</w>
необходи мые</w>
на всегда</w>
ми нима
исключ ением</w>
ис следу
иде ями</w>
жу сь</w>
женщи ну</w>
довери я</w>
ди ви
гумани тар
вто рая</w>
ва ў</w>
бро сить</w>
бли зо
ба зо
Сол не
С ре
С А</w>
К ении</w>
А ма
c o
1 000</w>
ща ться</w>
части чно</w>
ча сы</w>
цен ы</w>
филь ме</w>
трё хмер
та ли</w>
т ство</w>
т ков</w>
сцен у</w>
сторо н</w>
спу ска
сострада ние</w>
сом ненно</w>
с на</w>
приме ра</w>
по жертво
офи циаль
отме тить</w>
не вер
мол ча
миллиар ды</w>
л -
ко ш
ка ть</w>
ка ль
йд ём</w>
инте рак
зо не</w>
зи а
за ря
д ное</w>
вы я</w>
восприя тия</w>
воз раст</w>
влия ют</w>
взрослы х</w>
в стро
бо м</w>
бо ли</w>
бло ки
ба ра
б лі
а грес
Т оч
Ё н</w>
ён ным</w>
шч э</w>
четы ре
услу ги</w>
упра ж
тр ю
точ ности</w>
тан це
та бли
т вой</w>
стои мости</w>
спосо бами</w>
совмест но</w>
сме я
ры ба</w>
рас сказала</w>
разви тии</w>
про читать</w>
про ви
подума йте</w>
оста нов
орга нов</w>
обла стях</w>
ност ям</w>
ни ще
нача лась</w>
моло дой</w>
мо ди
математи ки</w>
м ный</w>
ла гер
ис ход
ини циа
и т</w>
захваты ва
жа ется</w>
д ная</w>
гру з
во льно</w>
Те хнологи
Ниге рии</w>
Ка ждая</w>
Д жа
В первые</w>
iP hone</w>
электри чество</w>
че стве</w>
успеш но</w>
удиви тельные</w>
угле кисло
тель ностью</w>
та ра
т ры
суще ств</w>
совер ша
си дит</w>
само му</w>
с ку</w>
ро дом</w>
програм м</w>
при ви
предло жил</w>
поя вится</w>
пер спекти
пер вом</w>
оши бок</w>
отсут ствие</w>
откры ли</w>
откры л</w>
ожи дать</w>
объ един
о ча
ня ли</w>
напра вление</w>
миро вых</w>
ме ро
кров ен
клет ку</w>
клет ка</w>
капита ла</w>
изо ли
изме ря
зада ние</w>
жё л
женщи нами</w>
ж ным</w>
вос пита
ве б-
аэро пор
Понима ете</w>
По з
Л ин
Возь мём</w>
Ве ро
ub e</w>
3 -
200 9</w>
ё шь</w>
ю мо
энер го
эле мент</w>
экспери ментов</w>
ч ений</w>
це лое</w>
ц э
хоро шим</w>
упра вление</w>
то чек</w>
тив ная</w>
ти лась</w>
со рев
слож ной</w>
сле й</w>
секре т</w>
сдела на</w>
рен т
рассматри вать</w>
ради о</w>
произо йти</w>
при носит</w>
потеря ли</w>
по мимо</w>
по меня
пин г
отправи ть</w>
опухо ль</w>
о хла
не знаком
ми ло
мар т
м .</w>
кан дида
иг ре</w>
зву ка</w>
забо титься</w>
за менить</w>
живу щих</w>
еже дневно</w>
ду х</w>
де р</w>
грани ц</w>
галакти ки</w>
вырази ть</w>
вто р
вариан тов</w>
б ь
О ста
Дру гие</w>
Вто рое</w>
Ат лан
эпо ху</w>
щу юся</w>
ша га</w>
то сть</w>
ти вы</w>
температу ры</w>
существо вание</w>
стра хо
стен у</w>
ствен ную</w>
ре ж
рас ходы</w>
поря док</w>
полити ческие</w>
поли ции</w>
подоб но</w>
подо би
оста нется</w>
обы чные</w>
ни кого</w>
не большое</w>
наш ла</w>
ме м</w>
люби ть</w>
лиде ры</w>
ле ту
интерес ная</w>
интен сив
ин фици
з мя
жела ния</w>
ж ности</w>
дерев не</w>
го ль
га ло
вы ход
встре чи</w>
вра ч</w>
воспомина ния</w>
во ка
включа ет</w>
больни це</w>
ближай шие</w>
бе рут</w>
ад мини
а ва
Э ко
При мерно</w>
При вет</w>
Па киста
НА СА</w>
Муж чина</w>
You T
T he</w>
2 7</w>
электри чества</w>
черно кожи
части ц</w>
це поч
ху до
у деля
соответ ству
сол нце</w>
современ ных</w>
си ю</w>
си дя
с бере
ру ете</w>
разви ваться</w>
проводи м</w>
про ника
предска зу
помога ть</w>
особ о</w>
окружа ющую</w>
не прият
настоя щая</w>
на ста
на рода</w>
на зо
мо стью</w>
мо ду
мла д
ми е
масшта ба</w>
люби т</w>
ль ному</w>
коман де</w>
ко ор
ка рика
ка кими</w>
интерне та</w>
и ми
и е
зада чей</w>
до хода</w>
дере ва</w>
ден а</w>
вой ну</w>
ви м</w>
ат ры
актив ность</w>
С но
Ре чь</w>
По хо
На вер
Г ей
Все го</w>
В ся</w>
YouT ube</w>
19 4
0 ,
ь ях</w>
челове ческие</w>
ци пли
хоро ших</w>
хи щ
фон д</w>
у ра
тру до
тер пе
твор ение</w>
су ме
ста м</w>
ст ря
сред ний</w>
специ фи
сотруд ников</w>
сосредото чи
сдела ет</w>
ра сти
пу стя</w>
пу сть</w>
производи т</w>
произ ведения</w>
прогрес с</w>
при ятно</w>
по влиять</w>
обы чных</w>
обеспе чение</w>
об служи
непосред ственно</w>
нейро ны</w>
не вро
моде лей</w>
мета фор
медици не</w>
ка й</w>
ка ет</w>
законо да
доро г</w>
доказа тельства</w>
до м
депресси и</w>
г ени
вы игры
встре тил</w>
в двое</w>
О казалось</w>
Нью-Йор ка</w>
Ва жно</w>
Амери ка</w>
Австра лии</w>
А мерикан
G P
3 0-
худо же
хак е
учи лся</w>
ту ре</w>
способ а</w>
содержа ние</w>
слу жа
с пря
с кро
с к</w>
пыта ться</w>
про долж
пра ў
пациен ты</w>
па ло
оши ба
обра тить</w>
обо их</w>
ни ям</w>
науч ной</w>
нару жи</w>
нали чие</w>
на пол
мо ро
мисси и</w>
магази н</w>
ма то
комна ты</w>
колле дж</w>
из у
за ми</w>
е вре
ду ши</w>
до ля</w>
дис ципли
го сти
вы шла</w>
вра чи</w>
бес провод
ад ре
а фро
С пустя</w>
С ин
По луча
Ми р</w>
К рас
6 5</w>
экономи ческого</w>
э р</w>
э ли
ш ению</w>
чувству ете</w>
учиты вая</w>
услу г</w>
топли во</w>
те т</w>
т ры</w>
созда нию</w>
современ ной</w>
ско пи
связа нных</w>
райо нах</w>
раз работать</w>
раз ному</w>
путеше ствия</w>
пус к</w>
произво дят</w>
принци пе</w>
приме ром</w>
пле мен
па то
от казыва
остано виться</w>
не большая</w>
мыш ление</w>
ли цом</w>
ли ней
кто ры</w>
ко вые</w>
како во</w>
за л</w>
де лы
высо ким</w>
вре мён</w>
ве ж
в шая</w>
в ле</w>
бер ём</w>
а виа
Челове к</w>
Та кой</w>
Сре ди</w>
С ред
Ричар д</w>
Ран ьше</w>
П М</w>
На до</w>
Ка кие</w>
Г ор
A pp
язы ком</w>
я шчэ</w>
циви лизации</w>
хоро шей</w>
хара к
х ристи
уча сток</w>
уста навли
университе т</w>
ти пы</w>
содержи т</w>
сест ра</w>
с март
рас се
произ вед
при способ
пра ца
послед ней</w>
попы тки</w>
полови ны</w>
показа тель</w>
плохо й</w>
осно ва
огром ной</w>
обы чной</w>
объ ём</w>
о па
не заме
нату ра
наблю дали</w>
на пи
на ла
на зывать</w>
н ны</w>
ля цию</w>
людз і</w>
ли дер
ле тать</w>
каки х
еди ни
доба вля
глоба льного</w>
га н</w>
выпол нять</w>
визу али
веще ств</w>
вери ли</w>
ве тра</w>
в шей</w>
Цен тра
У же</w>
Смо трите</w>
Си сте
При чина</w>
Од ним</w>
О коло</w>
Дей стви
челове чество</w>
ча т</w>
фа й
уров нем</w>
то бой</w>
счита ется</w>
су деб
собствен ную</w>
сни зить</w>
сан ти
са ха
ры я</w>
ри ях</w>
результа том</w>
при вяза
преодоле ть</w>
предоста вить</w>
поя вления</w>
пользова телей</w>
по ра</w>
по бу
площа ди</w>
пес ни</w>
огром ным</w>
обы чный</w>
непре ры
му д
мо ни
мо му</w>
ме ется</w>
лаборато рию</w>
круп ных</w>
кре пля
инжен ер
жи вой</w>
ж ного</w>
ду м
до че
до мов</w>
вы вать</w>
вс ё
впечат ление</w>
веща ми</w>
бу дьте</w>
бе ль</w>
Женщи ны</w>
Действи тельно</w>
I n
ё р</w>
щи ков</w>
ш ении</w>
цер к
углекисло го</w>
тив ном</w>
ти ях</w>
те йн</w>
сфе ра</w>
сти ле</w>
со пережи
се ми</w>
самы ми</w>
робо ты</w>
реак ции</w>
разви тию</w>
ра мки</w>
пы ль
пусти л</w>
прогрес са</w>
пред стоит</w>
под нять</w>
по- разному</w>
образ цы</w>
о ст
ня ў</w>
не су
ле ты</w>
ко мен
интеллек т</w>
ен ным</w>
долго е</w>
деше вле</w>
дет ства</w>
дерев ни</w>
действи ю</w>
гра мо
глуб же</w>
вы й
во дя
ви дом</w>
ар ен
Чи каго</w>
Фран ции</w>
Та й
Т от</w>
Ко лу
Бли ж
i f
чи сто
цион ная</w>
ци и
телеви зор
теле фона</w>
те пло
тар кти
сни зи
с ража
ро с</w>
ри те</w>
реш ении</w>
разгово ры</w>
пси холо
про фи
про ме
посмотре ли</w>
понадоби тся</w>
пожа луй</w>
пере ход</w>
пере ос
па ры</w>
ня м</w>
ни мите</w>
необходи мы</w>
не сли</w>
не ры</w>
научи лись</w>
моти ва
мие ли
маг чы
ле ги
констру и
ко стью</w>
й ский</w>
им план
защи те</w>
жа ю</w>
дол ги
дела ешь</w>
да ние</w>
высо те</w>
восста навли
ве ду</w>
в виду</w>
безу словно</w>
бе лых</w>
Ф ло
Об ъ
На сколько</w>
М ного</w>
Интерне те</w>
В месте</w>
Бо сто
e n</w>
эффектив ность</w>
эле ментов</w>
чув ствует</w>
це ло
у те
т. е.</w>
сти тут</w>
спроси те</w>
сокра тить</w>
созда ны</w>
склон ны</w>
си ле</w>
с ных</w>
ро ман
расстоя нии</w>
распро страни
раз да
работа я</w>
про ходят</w>
при ведёт</w>
предло жения</w>
поте ри</w>
последова тельность</w>
под чи
по шла</w>
пере до
ответствен ности</w>
от ходов</w>
от кро
ор ке
науч ные</w>
настоя щие</w>
н ка</w>
мо дели
меня ют</w>
ла дно</w>
крас ный</w>
кон цер
ко му-то</w>
ко вых</w>
кило грам
имен а</w>
извест ный</w>
из влечь</w>
занима лись</w>
жиз не
женщи ной</w>
же лез
ж ное</w>
до нести</w>
девя ть</w>
д нём</w>
гэта га</w>
вы пуска
воло н
ве тер</w>
вдохно вля
ван ная</w>
бра ть
борь ба</w>
бо е</w>
Э к
Ру ан
На й
К ен
Жиз нь</w>
Е й</w>
Во обще-то</w>
ё мся</w>
эта п</w>
хле б</w>
ф аль
услыша л</w>
ули цах</w>
угро зой</w>
у тра
у ло
ту ри
ту р</w>
труд ности</w>
ти ши
ти ческие</w>
счастли в</w>
ство вала</w>
ста ть
созда ла</w>
реаль ного</w>
ре комен
рас поря
раз ры
ра со
р ю</w>
промышлен ности</w>
програм ме</w>
предста влен
полити ку</w>
поз дно</w>
пар к</w>
обра баты
о ре
о ку
неожидан но</w>
напря мую</w>
ля ют</w>
лет ний</w>
кур се</w>
ка ком</w>
к ні
использо ванием</w>
и ной</w>
живот ного</w>
ен ной</w>
довер я
дела я</w>
де в
д жа</w>
вя р
выз вать</w>
вол нова
воз обновля
ва ющий</w>
ва лю
больни цы</w>
актив ности</w>
ад чу
С о</w>
Ра зу
К ей
Дру гая</w>
Г ра
В ре
Ан таркти
I S
200 7</w>
шта те</w>
ша ри
чи и</w>
ч ьи</w>
харак тер
х то</w>
фото гра
у н</w>
сти те</w>
сти ли</w>
ста ре
сред ней</w>
спа ть</w>
сни зу</w>
служ бы</w>
си дел</w>
сель ского</w>
с наружи</w>
ры бу</w>
реги стри
раз ве</w>
про ник
принад ле
поли о
осуществи ть</w>
опреде ления</w>
объеди нить</w>
не от
на ция</w>
на коне
на гре
на бира
луч шего</w>
колле гами</w>
кисло рода</w>
ка то
изобра жений</w>
за ранее</w>
за муж</w>
жда ют</w>
графи я</w>
государ ство</w>
гово й</w>
выро сла</w>
вынужд ены</w>
всё -таки</w>
возника ют</w>
в ь</w>
в ступа
в лены</w>
б ка</w>
анали за</w>
Э й
П ря
v e</w>
3 2</w>
экологи чески</w>
ша й</w>
чи ка</w>
увеличи вается</w>
у держи
транс форма
то сти</w>
тка нь</w>
терми н</w>
т на</w>
съ ё
сти хо
сорев но
следу ющим</w>
следо вание</w>
связа на</w>
ря с
рова лись</w>
реали зо
распростран ение</w>
различ ными</w>
разви вать</w>
произо йдет</w>
послед него</w>
по со
отно сятся</w>
образ ец</w>
о са
написа ла</w>
н рав
многи ми</w>
ме сто
ме ль
ма ли</w>
ло га</w>
компьюте ром</w>
ког ни
карьер у</w>
картин ку</w>
защи ту</w>
единствен ным</w>
дви жении</w>
д нее</w>
говори тся</w>
га м
вши йся</w>
вра чей</w>
вери л</w>
ван не</w>
в плоть</w>
б лу
Э М</w>
Ч у
Ле о
Кон го</w>
Ап плодисменты</w>
- очень</w>
ў се</w>
ющи мися</w>
ч ками</w>
цик л</w>
фак торов</w>
тре мя</w>
те мы</w>
твор чество</w>
сцен ы</w>
су д</w>
страни цы</w>
сто лом</w>
скаж ете</w>
с му
с ке</w>
ре пу
ре зо
располо жен
р ением</w>
продолжа ется</w>
програм миро
прове ла</w>
при кос
при держи
при были</w>
преимуще ство</w>
постави ли</w>
попа дает</w>
понима ли</w>
покупа ть</w>
по строй
по следо
пар нико
отправи лся</w>
опухо ли</w>
опреде лен
обществен ного</w>
о хо
но выми</w>
нау ку</w>
моло до
молеку л</w>
мас су</w>
лич ность</w>
купи л</w>
ка би
к се
интеллек та</w>
име ла</w>
зако на</w>
загля нуть</w>
деся ти</w>
двига ется</w>
да -то</w>
грип па</w>
г і</w>
выра баты
выпол нить</w>
вто рое</w>
вос принимать</w>
вообра жение</w>
внима тельно</w>
ви и</w>
в ная</w>
бе й
актив но</w>
Согла сно</w>
П О</w>
К ла
Женщи на</w>
А .</w>
3 D</w>
экспери мента</w>
це лая</w>
х ар
функ циональ
уча т</w>
ум ные</w>
у ходит</w>
тыся че
твор чества</w>
тво ря
сро к</w>
соеди нить</w>
современ ного</w>
со прово
слы шим</w>
случи ться</w>
ска жите</w>
реб енок</w>
реаль ностью</w>
разу ма</w>
приро дой</w>
пользу ются</w>
по ко
пи к</w>
пе в
п э
организ ма</w>
орга н</w>
одинако во</w>
об ши
невероят ное</w>
на печа
на ме
лич ной</w>
кусо чек</w>
краси во</w>
кар то
кака я
зи ру
здравоохран ение</w>
ж ная</w>
демокра тия</w>
го -либо</w>
ги дро
гено ма</w>
высо кого</w>
вле чения</w>
верси я</w>
в переди</w>
бра л</w>
бле стя
балан с</w>
бабу шка</w>
ба ш
англий ском</w>
ак тё
авто ри
Чар ль
Сол нце</w>
С лу
Ме ждународ
Дже ф
Голо с</w>
2 50</w>
ён ной</w>
я н</w>
шту ка</w>
чи стой</w>
ча со
хро мо
хо дзі
х во
температу ра</w>
строи тельство</w>
се риа
связа нные</w>
само лёт</w>
реб ят</w>
раст ение</w>
рас считы
раз ма
равно ве
пусти м</w>
пти цы</w>
прекрас ная</w>
полио миели
очень -очень</w>
основ ная</w>
организо вать</w>
об лег
но с</w>
ни что</w>
не во
на в
ли ст</w>
лете ть</w>
лет ряс
ку чу</w>
ко да</w>
интерес ные</w>
им прови
зада вать</w>
журна ла</w>
довер ять</w>
ди ен
действи и</w>
деву шка</w>
гово ря
го -
воз действие</w>
вз ор
вери те</w>
вели ких</w>
ве чно</w>
в ключи
От куда</w>
О гром
О бра
Ни когда</w>
Д ан
экспе ди
экономи ческой</w>
щ ению</w>
ше н</w>
част ях</w>
це лую</w>
физи чески</w>
тя ну
те ре</w>
ст ва
сом не
сло вом</w>
ско в</w>
раз дра
р ный</w>
р ной</w>
проме жу
продолжи тельность</w>
прибы ль</w>
приблизи тельно</w>
при зыва
при бо
прекрас ные</w>
потреб ность</w>
показа но</w>
повре жд
по ража
по менять</w>
плю с</w>
о доб
ни лись</w>
не плохо</w>
на писан
мёр т
маль чик</w>
ль на</w>
ле су</w>
ле вс
компьюте ре</w>
й ского</w>
интер пре
закончи л</w>
зако нов</w>
динозав ров</w>
ден ы</w>
д ного</w>
госпо да</w>
высо кий</w>
выбира ть</w>
вы воду</w>
вс помнить</w>
воз бу
влия ния</w>
верси ю</w>
ва шему</w>
в кус
а б</w>
Ш ве
Ш а
Х у
Ф он
Т у
Про ек
По доб
П ен
О с
Да лее</w>
Да вай</w>
App le</w>
юри ди
ш риф
ш ля
филосо фи
тру щ
ти ческой</w>
сталки ваемся</w>
ст ки</w>
сосредо точ
случа и</w>
следо вания</w>
само убий
ро н
рассказыва л</w>
рас хо
разнообрази я</w>
раз решения</w>
ра ство
проводи ли</w>
прило жение</w>
пригла сили</w>
препода ва
па м</w>
отлич ный</w>
от прав
опы том</w>
ок на</w>
объяс нение</w>
о го
ня ться</w>
необходи ма</w>
нен у
не счаст
начина ете</w>
нава т</w>
на каза
меся цы</w>
медицин ской</w>
ме с
люби л</w>
коло сса
ко лен
кажу тся</w>
инфра структуры</w>
зна к</w>
з разуме
з му</w>
е ю</w>
гэ ты</w>
гор мо
ву лка
впечат ля
восхи ти
веще ство</w>
бо и
бе лые</w>
У диви
Сол нца</w>
М ис
За ме
Вер но</w>
Амери ку</w>
А л
c h
a g
Ne w</w>
A m
ц гей
худож ник</w>
устрой ств</w>
улуч ши
уда р</w>
уби ть</w>
тра тить</w>
тра ек
та ре
стра дают</w>
сто ли
специали стов</w>
согла сны</w>
симпто мы</w>
рез ер
раз ницу</w>
ра но</w>
ра ду
продолжа ют</w>
при ехал</w>
практи ке</w>
поло жении</w>
полно цен
повсе мест
пла на</w>
пере воз
оч ки</w>
о пира
не ме
нау кой</w>
на сило
на -
ми ль</w>
люби мый</w>
и щем</w>
и ро
защи щать</w>
еже годно</w>
дви жений</w>
д ёж
вы ход</w>
вы де
воо душе
бю дже
благо прият
бес пило
аспек т</w>
Ф ер
Та кая</w>
Т ор
Суще ствуют</w>
Мар са</w>
я тся</w>
экономи ческий</w>
щи ки</w>
шу м</w>
цио нально</w>
участ ки</w>
уча тся</w>
ту зиа
тре ть</w>
счё те</w>
счастли вы</w>
срав нить</w>
соответ ствует</w>
современ ные</w>
сказа но</w>
раз га
пу тем</w>
приня тия</w>
предполо жить</w>
предела х</w>
превраща ется</w>
порази тельно</w>
по сте
по могут</w>
по бы
пи шу</w>
персо наль
пара лле
об работки</w>
неф тя
множе ства</w>
м ёт</w>
лич ные</w>
ли нию</w>
ле с
ку ли
карти нки</w>
капита л</w>
извест ных</w>
зем летряс
заклю чение</w>
жи вые</w>
жи вет</w>
жи вем</w>
жа ться</w>
ж ку</w>
двига ть</w>
даль ней
взаимо действовать</w>
ван ня</w>
важ ной</w>
большо м</w>
архитекту ра</w>
автомоби ли</w>
Уо л
Су ть</w>
С тэн
С каж
С во
Ми ни
Кто -нибудь</w>
Ко мпа
Испо льзу
Ира ке</w>
Дэ вид</w>
Г ре
эк ви
учи тель</w>
у станови
тео ре
теле вид
т ва</w>
со ору
со во
слуша йте</w>
слож ность</w>
систе мати
свой ства</w>
с фокуси
ро зо
реш ению</w>
режи ме</w>
прово дят</w>
пробле мах</w>
про сь
приве ду</w>
при езжа
при дется</w>
пред сказать</w>
пор та
пока зывать</w>
позволи ли</w>
по могло</w>
пиш ет</w>
пе чен
отве тов</w>
от ходы</w>
осозна ть</w>
ограни чения</w>
обяза н
об щий</w>
необходи мость</w>
настоя щего</w>
называ ли</w>
на ступ
мог у
мен е
ма ла</w>
луч шему</w>
луч шей</w>
ло гов</w>
компьютер ной</w>
ке р</w>
какой -либо</w>
к ции</w>
к ля
й ских</w>
источ ником</w>
иск рен
ис ходит</w>
замеча тельный</w>
е мую</w>
ду хе</w>
доку мента
доку мен
д р</w>
ге р</w>
г ра</w>
вру чную</w>
вер ы</w>
богат ства</w>
а в
Э того</w>
Э тим</w>
По ли
Интерне та</w>
Е гип
Все ленная</w>
Аль цгей
я вления</w>
эффектив ности</w>
эволю ция</w>
цен ностей</w>
ц -то</w>
фика ции</w>
уро жа
тыся чу</w>
тео рию</w>
тель стве</w>
тако ва</w>
су пру
стен е</w>
ст ные</w>
спу сти
се тя
с фотографи
ро ванием</w>
ри туа
ре кор
расши рить</w>
работа ющих</w>
проис ходить</w>
при думы
представля ю</w>
понима л</w>
по хоро
пло х
пас сажи
откры то</w>
отде льные</w>
от ста
от кло
огром ную</w>
о ше
о держи
нена ви
не которыми</w>
не в
нача лся</w>
настоя щим</w>
наро д</w>
на гля
на бо
ми н</w>
мани пу
м ёте</w>
лю бая</w>
ли п
ла з
л лов</w>
кур са</w>
кон центра
клю чение</w>
ки бер
из луч
заболе вание</w>
жё ст
жа х</w>
десятиле тий</w>
два дца
д ную</w>
гра ни</w>
го мо
го до
глав ная</w>
гене ри
выра жение</w>
выбро сов</w>
выбра л</w>
вы шли</w>
встре чу</w>
возь мём</w>
ви зи
ван ную</w>
ана то
американ ской</w>
авто р
Эйнш тейн</w>
Пря мо</w>
П ло
О б</w>
Не обходи
Й е
И та
Г ос
А ри
D -
C h
1 -
эн тузиа
экви вален
ще н</w>
шо кола
цен тов</w>
цве том</w>
уда ётся</w>
ти пов</w>
ти ло</w>
тек ст</w>
та р</w>
та бле
т ками</w>
страни ц</w>
с хва
с бор
ры но
ров ка</w>
реаль ной</w>
рассказыва ю</w>
радо сть</w>
ра диа
прош лой</w>
прош ло</w>
при шел</w>
предпоч т
пред назна
похожи е</w>
потеря л</w>
пей за
пациен т</w>
оши бо
от части</w>
означа ло</w>
обнару жила</w>
о ран
о ка
на л</w>
медицин ских</w>
математи ке</w>
мар ш
коле ба
к .</w>
исследовани ях</w>
из нутри</w>
за явля
за йти</w>
жда ли</w>
до ходов</w>
до к
ди е
га з
воз ле</w>
воен ных</w>
во- первых</w>
в ка</w>
болез нью</w>
бес пре
бе ли</w>
бе га
ба ни
антибио ти
а спи
С ка
С .
О соб
ó ль
GP S</w>
9 5</w>
200 5</w>
я вно</w>
шан сы</w>
ш мат</w>
чув ств</w>
уще р
у страи
у га
трилли онов</w>
ся бе</w>
су льта
способ на</w>
рес публи
рез ко</w>
расши ф
про чим</w>
при ори
при думал</w>
предоста вля
прав де</w>
потребу ется</w>
потеря ть</w>
попроси ть</w>
поло жения</w>
подоби е</w>
подня ться</w>
ок но</w>
обма ны
об щие</w>
о кажется</w>
низ м</w>
не закон
националь ной</w>
на рисо
на пад
н ном</w>
му т</w>
му ля
мо но
ми гра
меня ются</w>
ля м</w>
кі х</w>
кру то</w>
коммуника ции</w>
интерес ным</w>
измени л</w>
извест ны</w>
запа х</w>
ж о</w>
доче ри</w>
доро го</w>
дизай не</w>
вы зо
вку с</w>
ви ны</w>
бе жать</w>
б ку</w>
а са
Э д
Поз же</w>
По д</w>
По -
О пять</w>
На ше</w>
ён ное</w>
я кая</w>
эк стра
ь ем</w>
щи ка</w>
ши ф
чувству ем</w>
чита ли</w>
че е</w>
хо й</w>
улы ба
у дво
то рия</w>
то рами</w>
ти ва</w>
технологи ях</w>
технологи ей</w>
теле н</w>
тво рить</w>
сі м</w>
слу жить</w>
следу ют</w>
сдела н</w>
све ту</w>
реж ис
реак цию</w>
пя ти
процес сов</w>
просто го</w>
продол жить</w>
про сматри
про ни
принад лежит</w>
предлага ю</w>
показа ла</w>
под да
пло хая</w>
пиш ут</w>
перспектив е</w>
п чёл</w>
отвер сти
от клады
оста лись</w>
о п
ну жды</w>
нова тор
не мся</w>
нач нут</w>
нало го
меро прия
лё й</w>
ло жить</w>
ли це
кі я</w>
круп ные</w>
кре ст
к ет</w>
й на</w>
источ ники</w>
инжене ров</w>
изобрет ение</w>
из бы
и на</w>
за бира
еже днев
ди ла</w>
да ло</w>
д жет</w>
глоба льной</w>
галакти к</w>
г ли</w>
восстано вления</w>
воло к
вол но
вл ениях</w>
в ных</w>
бу дзе</w>
бра т</w>
бизне се</w>
бе ру
а мби
Х ар
Со зда
Са ха
Получа ется</w>
К .
А Н
s t
i k
a z
ы м</w>
церк ви</w>
х нуть</w>
фор мой</w>
у мно
тюрь му</w>
треть их</w>
то ци
сь ці</w>
счита ете</w>
сте й
стара юсь</w>
ры ба
роди телями</w>
ро вой</w>
ран них</w>
разме ров</w>
раз дели
по ла</w>
пе ти
пар ни</w>
ощу ща
откры том</w>
отказа ться</w>
отвеча ют</w>
остро ва</w>
оста ться</w>
обществен ные</w>
обществен ной</w>
об мени
о хот
нужда ется</w>
не за
находи м</w>
мож на</w>
масшта бах</w>
лён ных</w>
любы е</w>
ле р</w>
кон центри
ки пе
и ду
за м
дизайне ры</w>
гео графи
больни цу</w>
ар мии</w>
ад вока
а три
Я ны</w>
Я к</w>
Э фио
Ф е
У и
Мож ем</w>
М аль
К ин
До ктор</w>
Б рай
f t</w>
T im
1 5-
ін шы
щен о</w>
шо ки
ш ений</w>
чен ных</w>
хозяй ство</w>
характе р</w>
фе дера
ф ло
уго л</w>
тюрь мы</w>
тра тим</w>
ти рует</w>
т ках</w>
стра нам</w>
ст ра</w>
сотрудни чества</w>
совершен ство
сла бы
с пло
ро ванию</w>
располо жены</w>
разговари вать</w>
примен ять</w>
приве т
представля ть</w>
понима нию</w>
понима нии</w>
помо г</w>
получа ли</w>
пол тора</w>
покол ений</w>
под хода</w>
по среди</w>
пар ке</w>
ос и</w>
огро много</w>
обяза ны</w>
не бе</w>
на сы
на жи
н ётся</w>
мо ст</w>
математи ка</w>
магази не</w>
лёг ких</w>
ла й
количе стве</w>
карье ры</w>
инте гри
за рази
за пустили</w>
живот ными</w>
жи ли
желе зы</w>
же ство</w>
до мини
до кто
д кой</w>
го ра
гне з
гля дя</w>
выясни ли</w>
вопро сами</w>
в ключить</w>
бе лый</w>
атмо сферы</w>
ассо ции
У ров
Р обер
Ком п
Ка и
Д зя
Д Х</w>
В ене
А б
I T</w>
эмо ций</w>
чен ные</w>
ч эн
уро ки</w>
упа ков
тысяче ле
тща тельно</w>
тан цу
т ко
суще ство</w>
страда ния</w>
стоя л</w>
ст ры</w>
сол нца</w>
слай де</w>
се веро
с работало</w>
с ные</w>
ры нки</w>
расстоя ние</w>
рас смотрим</w>
ра ды</w>
про ми
приня л</w>
принима ем</w>
показыва ю</w>
пира ми
пере ключа
паль цев</w>
па трэ
органи зу
оптими сти
определён ные</w>
обсу дить</w>
о во
не ви
мусуль ман
мо нии</w>
марке тин
ма сте
лё д</w>
ли ли</w>
ку ю
корот кий</w>
кон сульта
клет ками</w>
ка кого</w>
использу ете</w>
и ти</w>
замеча тельные</w>
зад нем</w>
ж ён</w>
долла р</w>
двига ются</w>
д на</w>
д ков</w>
глав ных</w>
выбо ры</w>
выбо ров</w>
вер а</w>
бу н
ан тро
С ек
С Р</w>
Похо же</w>
По ня
Мо ло
e t</w>
ю щуюся</w>
экспери мента
ы ска
ш ены</w>
ча л</w>
це ден
холо ди
х -
ф ру
убе ждения</w>
тё мной</w>
ть -
тру д</w>
тра ги
ти на</w>
тель ством</w>
т ства</w>
сен сор
се ктор</w>
связа н</w>
са бе</w>
ри ться</w>
раст я
распростра нен
рас чё
раз ъ
раз решение</w>
раз вед
принима ет</w>
прави льный</w>
пол ное</w>
отча я
опас но</w>
обо сно
обо знача
о пуска
не сомненно</w>
н но</w>
муз ей</w>
мор ских</w>
ли на</w>
ле се</w>
кусо чки</w>
й ской</w>
затра ги
же лу
ж о
дума я</w>
дога да
до е</w>
дву м</w>
государ ств</w>
гео метри
г ры
встре титься</w>
ви ден
веща м</w>
бога тых</w>
благо получи
ба чы
ада п
автомоби ля</w>
Следу ющий</w>
С ен
Н ью</w>
Колу мби
Зву чит</w>
Д ви
Взгля ните</w>
Буду чи</w>
Альцгей мера</w>
r os
C O
5 0-
1 6
я ўля
экс плу
ьё й</w>
ша е</w>
чер ты</w>
че т
фено мен</w>
учи л</w>
услови й</w>
умира ет</w>
уме реть</w>
улуч шения</w>
у вле
точ ке</w>
то не</w>
тер пи
сущ ность</w>
столкну лись</w>
способ ствует</w>
спокой но</w>
солне чный</w>
сово куп
серьёз ные</w>
се м</w>
рован ная</w>
ребён ку</w>
ре м</w>
ре к</w>
разгово ра</w>
работ ники</w>
ра ско
про шед
про сыпа
про игры
поступа ть</w>
показыва л</w>
подрост ков</w>
плохо го</w>
ос ла
ожида ния</w>
объясня ет</w>
обсу ждать</w>
о пере
ня ем</w>
неме ц
не кий</w>
не важно</w>
научи ли</w>
на ў</w>
мусо ра</w>
мно ю</w>
мед лен
мате рии</w>
кораб ль</w>
ки -
ква ли
ка -
интерес ы</w>
инве сто
ин стин
измени лась</w>
зав тра
за ў
за помина
доста вить</w>
до пол
да вали</w>
гэ тыя</w>
гла му
ги м</w>
высо кие</w>
возник ла</w>
ва етесь</w>
алгорит м</w>
автомати чески</w>
Шта тов</w>
Те ха
С ми
Ре зульта
Навер ное</w>
Майк л</w>
М ор
i g
20 11</w>
ён ная</w>
экспо нен
ша р</w>
ша гом</w>
ша бло
челове ке</w>
ча ет</w>
хими ческие</w>
у сво
транспор та</w>
тради ции</w>
те ры</w>
та ль
т. к.</w>
строи тельства</w>
стать и</w>
сотрудни чество</w>
созда ет</w>
со крати
слож ное</w>
сле пы
ры б</w>
ру ющих</w>
ру ке</w>
ри н</w>
ра н</w>
прош ёл</w>
произ ведение</w>
приве ли</w>
при год
предме тов</w>
пред сказа
послед няя</w>
посе редине</w>
попа дают</w>
попа да
позволи ло</w>
площа дь</w>
отправи ли</w>
образ ы</w>
обе споко
о кра
ну ля</w>
но гу</w>
на ход
на править</w>
мл н</w>
мето дов</w>
ме т</w>
м ра
ла ге
ку й</w>
костю м</w>
конфлик т</w>
кон чи
картин ка</w>
како ва</w>
ка кую
ищ ут</w>
испыта ния</w>
изу ми
из влека
и р
же л
жа ла</w>
доступ но</w>
до казыва
глав ной</w>
вы шло</w>
вы пу
вы год
вы вод</w>
встреча ются</w>
встре тились</w>
возвраща ется</w>
вид ны</w>
ва ешь</w>
бла го</w>
бер ёт</w>
ак туаль
агрес сив
Ф а
У чё
Пу сть</w>
Большо й</w>
Ама зо
en t
C A</w>
8 00</w>
явля емся</w>
эффек ты</w>
эпидеми и</w>
энерги ей</w>
ш ками</w>
ш ением</w>
це лые</w>
у стра
торгов ли</w>
то ро
телефо нов</w>
ступи ла</w>
стра сть</w>
совер шить</w>
смер тей</w>
ры бо
род ной</w>
ро ско
рис ку
ри т</w>
пыта лась</w>
при ехали</w>
преимуще ства</w>
превос ход
потреб ности</w>
па па</w>
па дают</w>
отде льных</w>
об станов
ни цей</w>
не хва
надея ться</w>
мень шей</w>
мед ве
ме тро</w>
ля ться</w>
л ко
кра ю</w>
космо се</w>
корруп ции</w>
контак т</w>
катего рии</w>
кампа нию</w>
жен ные</w>
дан ного</w>
голо да</w>
га ле
г ек
выро сли</w>
выра жения</w>
вы хода</w>
ви лось</w>
в ени
беспо лез
анали зировать</w>
а ў
Я на</w>
При н
Не льзя</w>
Запа де</w>
Бил л</w>
АН Б</w>
o c
Y or
B l
20 12</w>
ё с</w>
эле мен
чёт ко</w>
чы нам</w>
чу до</w>
цеп и</w>
це в
худож ников</w>
фо не</w>
устано вили</w>
у ла
тол кну
теля х</w>
т боль
суще ственно</w>
способ ностью</w>
слу жит</w>
слож ную</w>
си льные</w>
си льное</w>
сем ьёй</w>
с фор
религи я</w>
раст ет</w>
распреде ление</w>
раз ным</w>
путеше ству
пу сто
профессио на
проводи л</w>
при бор</w>
послед ствий</w>
под держать</w>
по сти
по работать</w>
пере д
офи с</w>
отправи лись</w>
ориги наль
об щая</w>
об работ
о ны</w>
о кси
ня л</w>
неравен ство</w>
необы чай
не ров</w>
находи лись</w>
на став
мы шь</w>
моз гом</w>
мо ги
ля рно</w>
лич ных</w>
культу р</w>
кри мина
ка ло
исследова тели</w>
за пла
за печат
е ру
е дят</w>
дости га
диагно з</w>
де фици
двига тель</w>
г са</w>
выращи вать</w>
вре д</w>
взгля нем</w>
ван ное</w>
бю джет</w>
бо го</w>
Стэн фор
По смотрим</w>
О лимпи
Комп ью
Га ити</w>
Ве сь</w>
i n</w>
a y</w>
7 00</w>
ён ными</w>
я и
чув ством</w>
челове ческое</w>
ца ў</w>
х эт
фун тов</w>
форму ли
ф у</w>
учё ный</w>
ули цу</w>
у худ
у ме</w>
тре ти</w>
тив ную</w>
тив ность</w>
тер п
те лом</w>
стволо вые</w>
ст ями</w>
сло вар
сло вам</w>
се кто
свобо дно</w>
свобо да</w>
сви н
са д</w>
с дви
реша ют</w>
реша ет</w>
ре я</w>
произо шла</w>
продемонстри ровать</w>
про вали
про бо
примен ение</w>
пото м
попы тка</w>
пове ден
п ени
охва ты
офис е</w>
оте ра
от цом</w>
огром ных</w>
объек та</w>
обла ка</w>
об мена</w>
не просто</w>
не легко</w>
не значи
начина ли</w>
нач ну</w>
навы ков</w>
мы слей</w>
мурав ьё
ма т
лё н</w>
ле тов</w>
космо са</w>
ком пози
ко ла</w>
кар т</w>
какой -нибудь</w>
ка лен
к г</w>
й т</w>
из оби
из о</w>
из насило
иде ологи
зем ля</w>
зе р</w>
замеча тельная</w>
за х</w>
за дей
же е</w>
е р</w>
е к</w>
долла ра</w>
демократи ю</w>
действи ем</w>
глуби не</w>
ги пер
г ут</w>
высо ко</w>
вы реза
вы ключа
вопро се</w>
воло сы</w>
возра ста
виру сов</w>
взры в</w>
вече рин
в ный</w>
би ться</w>
беспоко й
бакте ри
Э бо
Та му</w>
Со ю
Р ы
Н ем
М С</w>
К ру
И ме
Зву к</w>
Джор дж</w>
В скоре</w>
А уди
200 6</w>
- ка</w>
ён ного</w>
экспер тов</w>
э сте
ше ль
ша ются</w>
ш то
четыре х</w>
че ством</w>
цен е</w>
форми ровать</w>
физи ческие</w>
у бор
треть я</w>
требу ют</w>
традицион ных</w>
тера пии</w>
те чении</w>
та ў</w>
та ри
стои ло</w>
справедли вость</w>
созда нием</w>
собра лись</w>
си дели</w>
сен со
с ход
с кі</w>
рэ ч</w>
ро сла</w>
ро бі
рис ки</w>
регио не</w>
реаги ровать</w>
расстоя ния</w>
разуме ется</w>
разно вид
присутству ющих</w>
преступ ления</w>
прекрас ное</w>
представи тели</w>
полё та</w>
полити ков</w>
по строил</w>
по ни
по йдёт</w>
по дру
отража ет</w>
от чё
осно вана</w>
опла чи
опас ность</w>
одно зна
о скор
о с</w>
о -
нужда ются</w>
ново стей</w>
но гами</w>
ни н</w>
не которым</w>
не коммер
находи тесь</w>
наркоти ков</w>
над ца
на ходят</w>
на кло
молоды м</w>
моби льный</w>
ми не
меди а</w>
м с</w>
м ным</w>
луч шая</w>
ко -
клима т</w>
кле й
кампа нии</w>
какая -то</w>
ис ла
изуч ение</w>
изобрет ения</w>
зыва ет</w>
заболе вани
за писа
за ве
з вали</w>
журна л</w>
ж дут</w>
дума ешь</w>
ду ш
дожд ь</w>
дет ской</w>
два жды</w>
гражда не</w>
го дом</w>
выгля дел</w>
вы пла
вообра жения</w>
волну ет</w>
во рот</w>
верши не</w>
верси и</w>
верну сь</w>
вариан ты</w>
астро номи
а нима
Т ру
Проек т</w>
Дж она</w>
Д жен
Вре мя</w>
Ви кипе
Б Д</w>
a b
M IT</w>
2 9</w>
і дэ
экономи ческие</w>
эк зо
э го
чё м-то</w>
хоро шую</w>
фер меры</w>
фа на
уско ря
умень ши
сты е</w>
стратеги ю</w>
страни цу</w>
сто ю</w>
сти ль</w>
сле д</w>
се те
са праў
преду бе
пре м
пересе ка
отлич ная</w>
откры тий</w>
откры вает</w>
отвеча ю</w>
отвеча ть</w>
от дать</w>
определён но</w>
обстоя тель
образо вании</w>
несколь кими</w>
не удоб
научи лся</w>
найд ёте</w>
мест у</w>
лю д
ли ться</w>
лета ют</w>
кре а
коми к
ко жу</w>
из -
зо ну</w>
заканчи вается</w>
за быть</w>
журна ле</w>
женщи не</w>
ж ок</w>
ж ени
единствен ной</w>
дли ной</w>
д ра</w>
выступа ть</w>
вы ходят</w>
вы стре
вось ми</w>
возмож ностями</w>
взя ла</w>
бы вают</w>
бук вы</w>
англий ский</w>
Тома с</w>
Соединен ных</w>
По л</w>
П ан
Необходи мо</w>
Дже ймс</w>
Ва ш</w>
А д
o w
1 4
ю ж
эк стреми
ье т
ча ют</w>
циф ра</w>
фак тор</w>
ужа са
точ ные</w>
ти мся</w>
та на</w>
та кому</w>
сталки ваются</w>
спо рить</w>
сотрудни чать</w>
сострада ния</w>
сооб щений</w>
соедин ения</w>
со цио
со мнения</w>
сме ши
сло жи
ситуа циях</w>
систе мах</w>
симво ли
сек с</w>
сдела ют</w>
рован ной</w>
реаль ные</w>
ре т</w>
рай он</w>
разви тых</w>
процес со
профессо р</w>
прода вать</w>
про ры
предста вили</w>
пред ки</w>
послед стви
попа л</w>
поло жить</w>
подоб ным</w>
по сту
плохо е</w>
паль цы</w>
ошиб ка</w>
остро ве</w>
об лож
об ли
не ра</w>
не мало</w>
наш ел</w>
находя щихся</w>
наконе ц-то</w>
на це
мыш цы</w>
мо ментов</w>
микро бов</w>
меня ться</w>
м ную</w>
лек ции</w>
кро во
ком проми
инфра структуру</w>
инвести ции</w>
инвести ровать</w>
изуча л</w>
зда нии</w>
заключа лась</w>
за пи
жерт в</w>
доро гой</w>
до мах</w>
диа па
да ём</w>
д не</w>
графи ка</w>
гото в
ген а</w>
вычис ления</w>
выска зы
выбро сы</w>
види шь</w>
важ ней
бед ные</w>
Ш ан
Т ур
Т ита
С О
Нач нём</w>
Ман хэт
Г он
9 0-х</w>
2 8</w>
я ві
экспонен циаль
ща ются</w>
ч лены</w>
ч ков</w>
цион ного</w>
хоро ши</w>
х руп
х ан
уста ре
управля ет</w>
у бира
това ры</w>
ти к</w>
теат р</w>
структу ре</w>
столе тия</w>
ста рых</w>
спраши вать</w>
спис ке</w>
социаль ную</w>
солда т</w>
созна нии</w>
созда н</w>
слыша ла</w>
ско хозяй
симво л</w>
си дят</w>
с экономи
с де
ру с
рован ного</w>
режис сё
разработ ке</w>
пі са
пря мой</w>
пропа ган
продолжа л</w>
при им
поря до
пове ство
побе ди
по ш
пере са
пе т
пар ла
очере ди</w>
отвра ти
ок тяб
мыш ей</w>
мужчи нами</w>
мощ ный</w>
ми -
мер т
малень кого</w>
ма л</w>
ль ника</w>
ло го
ло б
ле га
кры ль
коор дина
ин гре
ингре диен
им мигран
изуча ли</w>
изобре ли</w>
измени ло</w>
измен ять</w>
из дели
и ное</w>
затра т</w>
заня тия</w>
зависи мость</w>
за мы
за блу
жизнен но</w>
дру же
диа лог</w>
горо ду</w>
высо ту</w>
высо ких</w>
выпус кни
вра ча</w>
важ ность</w>
бо й
бен зи
безопас но</w>
бан к</w>
аспи ран
ар ти
ано ни
ал кого
Э лек
Ф рэн
Ма лень
В спо
Бы ли</w>
Б Р</w>
А га</w>
А вто
u n
i c</w>
e d
8 0-х</w>
2 ,5</w>
1 ,5</w>
ё к</w>
электро нной</w>
э п
шту ки</w>
ше сти
чита ю</w>
цы ю</w>
це ре
фо м</w>
участ ники</w>
увелич ения</w>
то мо
те сно</w>
т я</w>
стратеги я</w>
стра дает</w>
стере оти
ствен ными</w>
справедли во</w>
спор т</w>
собира етесь</w>
со чи
ске пти
се сть</w>
сдела ло</w>
рису н
рассказыва ет</w>
распространя ется</w>
радо сти</w>
ра ска
пэ ў
публи ка
производ стве</w>
про пор
присут ствует</w>
приня то</w>
пра ця
потреби телей</w>
поез дки</w>
поддержи вают</w>
повседнев ной</w>
по благода
пло до
пис и</w>
пар ней</w>
па ке
относи ться</w>
осозна ли</w>
оке ан
ого нь</w>
обла стей</w>
обе д</w>
об щение</w>
низ кой</w>
невероят ные</w>
нача лу</w>
написа ли</w>
на т
на ступа
множе ством</w>
мисси я</w>
ми на</w>
ме ду
ку ку
ку би
конфлик та</w>
коллед же</w>
ко ж
ки ше
исти не</w>
ис пан
инфра структура</w>
интерне т-
изве стен</w>
застави ло</w>
заинтересо ваны</w>
заи м
ды ры</w>
дости гает</w>
дизайне ров</w>
диа грам
диа бе
де ба
движ ением</w>
гэ тым</w>
га ра
г -
выгля дело</w>
вы ходить</w>
вы те
вто рого</w>
ве тря
ва юць</w>
боя тся</w>
би ли
бер г</w>
ба рье
б óль
архитекту ры</w>
ар те
аль но</w>
алгорит мы</w>
ака деми
а ресто
а вари
Ф у
У чи
Ок сфор
Ме жду</w>
Ма ма</w>
Лю бо
З оло
До м</w>
До вольно</w>
Г ен
Бу дет</w>
Алек сан
i d
e m
7 0-х</w>
200 4</w>
1 20</w>
э н</w>
цен у</w>
це н</w>
цве тов</w>
хромо со
характе ри
у брать</w>
тро е</w>
ти ческий</w>
та ют</w>
т ров</w>
сто ле</w>
созда на</w>
собствен ное</w>
рован ным</w>
ров ку</w>
р ёл</w>
программи ровать</w>
приходи ли</w>
при з</w>
пред взя
пол ную</w>
пол ная</w>
пода рок</w>
под чер
по- новому</w>
по ставля
пла ны</w>
перво нача
пер выми</w>
пад ение</w>
па ў
па рази
откры тый</w>
оста ется</w>
определён ный</w>
объеди няет</w>
не раз
не возмож
науч ный</w>
называ емый</w>
на против</w>
на верху</w>
муз ее</w>
момен ту</w>
млекопита ющих</w>
механиз мы</w>
маля рии</w>
ма ла
любы х</w>
ль ян
лет них</w>
л ениях</w>
красо ту</w>
крас ные</w>
коман дой</w>
ко ди
ко вой</w>
клю ч</w>
й дут</w>
из- под</w>
зада ния</w>
ж да</w>
доби лись</w>
дис кримина
ден о</w>
гу б
гро ма
гото ва</w>
высо ты</w>
выжи вания</w>
выгля дела</w>
вы па
ви в</w>
вен ти
ве ла</w>
вае цца</w>
в ём</w>
бо юсь</w>
бе зна
ар хе
адзі н</w>
Ч ер
Ф ри
У ган
Систе ма</w>
СПИ Да</w>
Разу меется</w>
П ять</w>
Не у
Н обе
М еди
Исто рия</w>
Гос под
Вашинг тон</w>
В ен
u s</w>
o ft</w>
e l</w>
a d
3 3</w>
ў з
ща ли</w>
чо м</w>
цер ков
ферме ров</w>
фе р</w>
фарма цев
удиви тельный</w>
тра тят</w>
тка ней</w>
ти ческих</w>
теп ло</w>
телеви зор</w>
так сама</w>
та -
существу ющих</w>
су да</w>
стрем ление</w>
ствен ность</w>
ста рый</w>
ста ро
сравн ении</w>
соответ ствии</w>
снима ть</w>
случа я</w>
ска н
сель скохозяй
сво е
све це</w>
рова ло</w>
рит м</w>
ра р
р пи
пыта н
прош ла</w>
противо стоять</w>
продолжа ем</w>
потра тили</w>
полез но</w>
под ража
по ст
по рой</w>
по нравилось</w>
по могла</w>
пе ше
па х
п и</w>
от кли
от зы
осно вы</w>
опера ций</w>
обо зна
об рёл</w>
о го</w>
не мно
нача лом</w>
наблюда л</w>
на м
н .</w>
мя са</w>
мн ений</w>
мла ден
луч шими</w>
ло ву
ли ю</w>
ли а
лет него</w>
краси вые</w>
количе ству</w>
кисло род</w>
камен ь</w>
источ ника</w>
исследова телей</w>
инжене ры</w>
зрабі ць</w>
змя ні
затра ты</w>
за про
жен ный</w>
же мся</w>
емы ми</w>
ез дить</w>
доро га</w>
до мом</w>
да р</w>
голо ва</w>
га зов</w>
выра стить</w>
вы вести</w>
все -таки</w>
во зна
взгля ды</w>
весе ло</w>
бо л
бед ность</w>
ад но
а з
Че ты
Т ан
Об ще
Но вой</w>
Мэ ри</w>
Дэ н</w>
Г э
В -
Б ро
t h
ic ros
200 1</w>
2 6</w>
. co
яй ца</w>
экономи ческих</w>
эко системы</w>
ша ги</w>
част ной</w>
ча х</w>
ча с
узна ем</w>
ужас ные</w>
у ха
ту н
точ ный</w>
те та</w>
те л</w>
тво рения</w>
та ков</w>
т с</w>
стран ным</w>
социаль ная</w>
соба ки</w>
со то
слож ным</w>
си лах</w>
ру бе
реаги рует</w>
ре м
рассказыва ют</w>
раз рыв</w>
работа ете</w>
пунк т</w>
пры клад</w>
происходя щее</w>
при чём</w>
при тя
прекра тить</w>
правитель ством</w>
пра вой</w>
последова тельности</w>
пол у</w>
повто рить</w>
по нрави
пе ть</w>
па р</w>
отправи ться</w>
откры тым</w>
определён ных</w>
обы чным</w>
об мен</w>
начина ть</w>
нали чии</w>
на нима
на груз
муравьё в</w>
музы ке</w>
мог уще
меч тать</w>
метра х</w>
малень ком</w>
ма ри
ма р</w>
любы м</w>
короб ку</w>
конструк ции</w>
компьютер ные</w>
кно пку</w>
клиен тов</w>
кван то
кате гори
како вы</w>
интерес ных</w>
институ ты</w>
из би
зна ком</w>
зе ме
зая вление</w>
ж на</w>
ж ем</w>
ен ная</w>
ем о</w>
ди ле
день гами</w>
де ло
груп пами</w>
графи ке</w>
гра ф</w>
гор до
говори лось</w>
ги я</w>
гено ци
ге рой</w>
вы делить</w>
вой н</w>
вакци ны</w>
бо ре
бе й</w>
админи стра
Шта ты</w>
Ча сто</w>
Ц и
Са тур
Ре й
Ор гани
На у
Д ве</w>
o b
M icros
CO 2</w>
ч не
ци кло
физи ческой</w>
физи ческих</w>
уничто жить</w>
уме ют</w>
ум р
ум ение</w>
трущ об
тер мо
темно те</w>
те ме</w>
твор ческие</w>
сыгра ть</w>
сум мой</w>
стра ной</w>
ст р</w>
спут нико
современ ном</w>
собира лся</w>
сет ча
сек сом</w>
с на
с бу
ро стом</w>
ро ма
раз ы</w>
публи ку
проси ли</w>
происхо ждения</w>
програм мное</w>
про ка
предлага ет</w>
пред принять</w>
пол ном</w>
показа лось</w>
побе дить</w>
по страда
пи ро
пере двигаться</w>
пациен там</w>
пас ля</w>
оста льным</w>
осно вой</w>
об щую</w>
о пер
ни ей</w>
нер вни
не с</w>
нахо жу</w>
мо шен
маши ной</w>
ма мы</w>
лич ный</w>
ле ген
л кой</w>
куку ру
кру чи
крова ти</w>
красо та</w>
испыта ть</w>
иска л</w>
ис кор
инстин к
иде а
зна й
за регистри
за повед
за мен
з ме</w>
жыцц ё</w>
жи й</w>
жд ёт</w>
е вой</w>
дума йтесь</w>
дол ю</w>
дире ктор</w>
ди ри
дета лей</w>
де кс</w>
дви жи
да -
воен ные</w>
ви я</w>
ве ков</w>
ва емые</w>
в стать</w>
в ряд</w>
в клю
борь бу</w>
аль ной</w>
ава рии</w>
а с
Учё ные</w>
Солне чной</w>
Рос сии</w>
Ос нов
К э
К ем
Вспо м
Бы л</w>
Бри тан
Боль шая</w>
А К</w>
Micros oft</w>
ён ности</w>
язы ков</w>
ядер ной</w>
ч ья</w>
цент ры</w>
це лях</w>
це лых</w>
фро н
финанси рование</w>
услыша ли</w>
ум нее</w>
уваж ение</w>
точ ностью</w>
тех ника</w>
те лу</w>
та нец</w>
та л</w>
студен т</w>
ст рэ
сообщи ть</w>
соба ка</w>
скри п
си ний</w>
сест ры</w>
с работает</w>
ры ць</w>
ру ющие</w>
ру ши
ру ба
реаль ный</w>
реали сти
раз делить</w>
ра да</w>
пу тей</w>
проте сти
произо шед
присоеди ни
пре зер
презер ва
потряса ющий</w>
потряса ющие</w>
потребо валось</w>
потра тить</w>
попа ли</w>
подо шёл</w>
подо йти</w>
поднима ется</w>
по ехать</w>
по ворачи
пи я</w>
пере стали</w>
пере движения</w>
от того</w>
от рас
одино чку</w>
общи ны</w>
обще ству</w>
обо б
находя сь</w>
находи лся</w>
наблюд ение</w>
моди фици
моби льные</w>
максима льно</w>
лет ней</w>
лест нице</w>
ле ц</w>
крас ным</w>
кост ей</w>
ки тов</w>
ки рпи
кары ста
инте гра
ин ститут</w>
иллю стри
зло у
ен ное</w>
еди но</w>
еди но
е дой</w>
доступ ной</w>
доку менты</w>
до кла
до ве
ди й</w>
демон стра
гос пита
гово р</w>
гене тически</w>
газе ты</w>
вы свобо
все мир
вели кие</w>
ве тера
ве л</w>
беспокои ться</w>
бабу шки</w>
авто р</w>
а у
Х иг
Х ан
Фло ри
Точ но</w>
Те ле
Т ер
Р Т</w>
Особ енно</w>
Неу жели</w>
И спа
И сла
Д жер
Д аль
2 ,
.co m</w>
я ро
э ры</w>
э ра</w>
ша яся</w>
ш при
ш изо
фи ден
фиден циаль
фак торы</w>
фак тов</w>
учени ков</w>
устойчи вость</w>
у слышите</w>
у си
у виде
ть те</w>
туа лет</w>
ти ровали</w>
сса чу
спо са
согла со
совмест ного</w>
смо тра</w>
си льный</w>
си дела</w>
се ро
с про
ро сту</w>
ре жим</w>
разви тием</w>
пря мо
проек тировать</w>
про тив
про дать</w>
присоеди ниться</w>
призна ться</w>
при ма
поч ву</w>
послед ствии</w>
посла ние</w>
попыта лся</w>
поис ки</w>
пласти ка</w>
перегово ры</w>
пере стать</w>
пар тии</w>
п ш
п .</w>
осно вании</w>
обы чного</w>
обще ством</w>
обще ствах</w>
обра тной</w>
обезья ны</w>
об щих</w>
не лов
не знако
не большую</w>
не больших</w>
нау к</w>
нака пли
называ ет</w>
наблюда ется</w>
моби льных</w>
мест ной</w>
мене дже
мгнов енно</w>
м м</w>
ль ні
ли цен
кровен ос
коло нии</w>
ка ра
ка нец</w>
й ны</w>
исчеза ет</w>
искус стве</w>
иллю стра
и вать</w>
заме дли
за слу
за мени
жи в</w>
жен ных</w>
дя м</w>
доступ ным</w>
доказа тельство</w>
дз ень</w>
деся тков</w>
да н</w>
голосо вать</w>
выя вить</w>
воз действия</w>
вз волнова
вер ьте</w>
ба ссе
авто но
Э рик</w>
Сле ва</w>
Послед ний</w>
По л
К -
Гово ря</w>
I I</w>
8 5</w>
3 D-
эпо хи</w>
эле мента
щ ён</w>
ч о</w>
цы я</w>
це лого</w>
ц ь
ф ос
угро зу</w>
уби вают</w>
тре уго
те а
та ния</w>
съ ём
сх ему</w>
стра нами</w>
ста рой</w>
ссачу сет
сре дой</w>
спраши вали</w>
со вет</w>
сла бо
ску чно</w>
сегодняш него</w>
свиде тель
с прос</w>
ры б
ро ждение</w>
рент гено
револю цию</w>
ре зи
раскры ть</w>
про ститу
при зы
при влек
пра вом</w>
попроси ла</w>
попробу ем</w>
получа ю</w>
пожи лых</w>
подоб ной</w>
подгото вки</w>
под ключи
повто р
по- моему</w>
по шел</w>
по ступил</w>
по е
по дели
пись мен
пере жить</w>
патрэ б
пар ков
п чё
п лен
оста вили</w>
осозна вать</w>
организ ме</w>
определя ть</w>
окружа ющих</w>
од ы</w>
ну в</w>
ново стях</w>
но ви
необходи мых</w>
наз вания</w>
на пуга
на прави
на пом
н на</w>
н ением</w>
мето ди
мест ного</w>
малень кими</w>
ля ются</w>
любо му</w>
ло н</w>
лич ное</w>
ли ц</w>
лен д</w>
куп или</w>
ку па
кри ста
кори чне
кори до
ко ры</w>
интерфей с</w>
инструмен том</w>
изуча ем</w>
измени ла</w>
и л</w>
защи т
заня ты</w>
законо мер
за работать</w>
за платить</w>
за писать</w>
за был</w>
з ла</w>
жен ой</w>
жда л</w>
естествен ным</w>
доступ ными</w>
дерев ню</w>
деду шка</w>
волон тё
воз му
во едино</w>
ви лись</w>
вз ло
вели кий</w>
ва ющее</w>
в ного</w>
в зо
американ ского</w>
ак цен
Эко номи
Ч -
Са мый</w>
С ту
Огром ное</w>
Ма ссачусет
К. А.</w>
Запад ной</w>
Г уг
Восто чной</w>
Веро ятно</w>
Б Ф</w>
А х</w>
A r
19 3
ьер -
ы я</w>
шо к</w>
ше р
чита ла</w>
чи ком</w>
ча й</w>
ці ка
це ле
хими ка
учены х</w>
утвержда ю</w>
ти зирован
стро им</w>
сто им</w>
статисти ку</w>
ста ри
способ ные</w>
соб лаз
ско п
сель ское</w>
северо -
са ди
ро сли</w>
результа та</w>
ре ка</w>
рар хи
пры г
професси и</w>
произо шли</w>
прогно з</w>
про следить</w>
при води
представля л</w>
представля ем</w>
пре бы
прави льном</w>
прави лам</w>
попы тке</w>
поддержи вает</w>
поддерж ка</w>
от влека
ос вещ
обсужда ли</w>
обсу ждения</w>
оборудо вания</w>
ну тся</w>
настоя щем</w>
му чи
ма тер
лич ная</w>
ли цу</w>
лагер ь</w>
ла н</w>
кре пи
корпора ции</w>
концеп ции</w>
кол і</w>
изуча ю</w>
измени ться</w>
ид ём</w>
игра ем</w>
за голов
жа ем</w>
ем е</w>
е мы</w>
е мости</w>
ды шать</w>
ду ра
дол г</w>
до вать</w>
ди стан
десятиле тие</w>
демо графи
де те
де каб
го дам</w>
глоба лизации</w>
вы йдет</w>
взрослы е</w>
взаимо связи</w>
вели кой</w>
ве ц</w>
большо му</w>
бе здо
бан ка</w>
ба чыць</w>
ан дер
американ ские</w>
аль тру
Удиви тельно</w>
Ско рее</w>
С от
Нор ве
На чи
Каж дое</w>
К ли
Ис кус
Аль бер
А -
c h</w>
эффектив ные</w>
экра на</w>
ы й</w>
щ ё
шту ку</w>
чёр ный</w>
цен тром</w>
хими и</w>
финансо вой</w>
ур бани
указыва ет</w>
удиви тельных</w>
у шло</w>
у -
треть его</w>
ти ра
технологи ям</w>
т та</w>
сю р
страни це</w>
стран ное</w>
стави м</w>
спраши ваю</w>
способ ностей</w>
соста в</w>
собствен ным</w>
собствен но</w>
собра л</w>
собира лись</w>
смеш но</w>
слуша ли</w>
следова ло</w>
сле по
секто ре</w>
са му</w>
са ма
с жа
ры ми</w>
роли к</w>
рова лся</w>
реги она</w>
реаль ных</w>
реа били
рас смотр
ран ние</w>
разде ление</w>
про ста
про ли
принци пов</w>
при вез
пре мии</w>
поя вление</w>
поч ки</w>
похо жее</w>
полити ческого</w>
поку пки</w>
по гиба
пара ди
па д</w>
п лён
остро в</w>
осно ва</w>
описа л</w>
ожи дали</w>
ограни чений</w>
необы кнов
не определён
не бе
наб ро
могу ць</w>
мета боли
ме м
ли ши
ли це</w>
лен ным</w>
л ках</w>
красо ты</w>
конфлик тов</w>
коло ни
ко ме
ко вать</w>
кла виа
ка фе</w>
ита льян
импуль с</w>
измени лись</w>
из учили</w>
зада ют</w>
жи е</w>
жа ль</w>
долж ное</w>
дизай ном</w>
да йте</w>
граждан ской</w>
го ре
геро ев</w>
г ле
выгля дели</w>
вы тащи
вы р
вы воды</w>
вше гося</w>
ва ющая</w>
в люб
беспре цеден
атмо сфере</w>
Эфио пии</w>
Э ту</w>
Хиг гса</w>
Ф ей
Университе те</w>
То м</w>
Оба ма</w>
Ма ши
Ма те
Лос-Андже лесе</w>
Кем бри
Кана де</w>
Ин дию</w>
Запа да</w>
Евро пей
ВИ Ч-
Бри тании</w>
Аль -
t h</w>
o g
a b</w>
R IS
6 0-х</w>
0 0
эффектив ны</w>
чи во</w>
ч кам</w>
цион ным</w>
хва та
ха це
фено мен
фе вра
ф и</w>
уч у</w>
упомя нул</w>
умер ла</w>
удоволь ствия</w>
удо сто
угро зы</w>
угле род</w>
у ши</w>
ты ў
тран зи
точ ное</w>
тво я</w>
студен там</w>
стре мя
сто я</w>
стихо творение</w>
стек ля
социаль ный</w>
согла сен</w>
сним ков</w>
след ствие</w>
ска ми</w>
с держи
рын ков</w>
рестора н</w>
рай она</w>
раз ор
радика льно</w>
психо логии</w>
про слуши
прило жения</w>
президен та</w>
презен тации</w>
предпринима телей</w>
пра цы</w>
позволя т</w>
под ходят</w>
побереж ье</w>
плы ть</w>
пита ние</w>
печа ти</w>
паради г
оцен ку</w>
от кров
остро вов</w>
ос веща
ори гами</w>
обществен ное</w>
образо в</w>
обра тились</w>
обезья н</w>
ни куда</w>
на ра
на полнен
на нес
мя ч</w>
муж чы
мо дер
микро бы</w>
ми ли</w>
международ ной</w>
мальчи ков</w>
ма -
ля гу
логи я</w>
лиза ция</w>
ли хо
лен ного</w>
л ков</w>
кру гу</w>
контроли ру
кон тей
колле га</w>
кам пу
кад ры</w>
й о
име ло</w>
измени тся</w>
из раи
зем ле
звез да</w>
заставля ют</w>
замеча тельное</w>
задей ство
за строй
ж ными</w>
дь я
дь бы</w>
доступ на</w>
дости жение</w>
до не
дли нные</w>
детя х</w>
да ў</w>
да вления</w>
д рав
гу ля
глуби ны</w>
гла сит</w>
гла де
ги х</w>
вызыва ют</w>
вши ми</w>
влен а</w>
взаимо действуют</w>
вери т</w>
вер у</w>
вари а
буква льном</w>
больши й</w>
аути зма</w>
аппара та</w>
Хо ло
Х е
Ф БР</w>
Со всем</w>
Ре б
Ку да</w>
Ди зай
Дзя куй</w>
Де ся
Го лливу
i p
S p
A n
200 3</w>
1 -го</w>
я кую</w>
эт ни
экологи и</w>
эк стре
челове ческую</w>
ч ках</w>
характеристи ки</w>
финансо вых</w>
фе сти
уль тра
у шли</w>
тэ х
транс план
тив ными</w>
тель ному</w>
сы но
стоя ли</w>
стволо вых</w>
станови мся</w>
сою з
соеди ня
со пер
следу ющему</w>
си му
с эн
ры ча
расши рение</w>
расска за</w>
распо знать</w>
райо ны</w>
ра си
продук та</w>
прода жи</w>
про пуска
причи ну</w>
приори те
принци пу</w>
при це
при су
при сла
при вёл</w>
предполо жение</w>
право су
пра вления</w>
портре т</w>
попыта лись</w>
помести ли</w>
под лин
под ключа
погиб ли</w>
поблагода рить</w>
побереж ья</w>
оста вил</w>
обще м-то</w>
обеспечи вает</w>
о гра
о гля
ни ровать</w>
несу т</w>
не правитель
нас чет</w>
на ходит</w>
на помнить</w>
на па
му сор
марш ру
малень кое</w>
ма шы
м бу
лю ци
ль я
ло сти</w>
ле те</w>
кон фиденциаль
компонен ты</w>
комплек с
компани ями</w>
компани ям</w>
ки слы
истори ями</w>
исти ны</w>
иска ли</w>
ис лам
израи ль
измен ению</w>
зу бы</w>
зе ра</w>
задума лся</w>
ж ениями</w>
друз ьям</w>
долгосро чной</w>
долги й</w>
дизай нер
дела йте</w>
дво ре</w>
д рэ
голо сов</w>
глуб ин
глоба льное</w>
выбо рах</w>
вы носи
вы мер
вопро сам</w>
возна гра
во р
виру сы</w>
ви те</w>
ви ну</w>
ви нова
вед ём</w>
ве сом</w>
ве са</w>
ва ющей</w>
ва ку
в жи
бю ро
бро шен
бизне сом</w>
беско нечно</w>
бере гу</w>
бе ру</w>
бе лка</w>
ба нки</w>
а на</w>
а мери
Э м
Ч его</w>
С тив</w>
С тив
Р НК</w>
Р .</w>
По ло
Мо гу</w>
Мини стер
Из ви
Вер нёмся</w>
Бан гладе
А ра
am p
3 ,
я ко
ю р
эксплу а
чернокожи х</w>
чала ве
ча н
цио з
цен зу
христи ан
финанси рования</w>
урожа й</w>
у споко
у слож
ту бер
тубер ку
тенден ция</w>
тен и</w>
тель нее</w>
телеско п</w>
стро м</w>
ст э
ст ной</w>
сочув ствие</w>
сочета ние</w>
сни жение</w>
смер тность</w>
сказа в</w>
серьё зная</w>
се рии</w>
сво я</w>
све том</w>
роман ти
ребен ком</w>
ре мон
разви ваются</w>
раз влека
ра год
пусты не</w>
произо шёл</w>
прода в
про ва
прави льное</w>
попро бо
пользу емся</w>
позво нил</w>
по ехали</w>
по ехал</w>
пла тят</w>
пере вести</w>
оше лом
от мет
опы те</w>
опублико вали</w>
определён ной</w>
необходи м</w>
нево образи
не медленно</w>
националь ных</w>
называ емой</w>
н ку</w>
н ении</w>
мя со</w>
мурав ьи</w>
момен том</w>
мо ман
меся це</w>
мас сив
любов ью</w>
ли ко
ле чении</w>
ле дя
ку ча</w>
короб ки</w>
кораб ля</w>
кор ни</w>
ко жа</w>
ки ды
кар мане</w>
кана л</w>
ка пе
измени лся</w>
измен ении</w>
и ду</w>
заня ло</w>
жерт вы</w>
же шь</w>
е де</w>
дыха ние</w>
до пуска
деля тся</w>
да ць</w>
глу по
ген дер
га л</w>
г реб
высо кая</w>
вре да</w>
вос питы
вопло тить</w>
во йти</w>
вели ка</w>
в шее</w>
биологи ческих</w>
бес смыс
аку сти
Четы ре</w>
Университе та</w>
С пи
Пари же</w>
Па у
На ча
На и
Луч ше</w>
И И</w>
Евро па</w>
Д ень</w>
Бру но</w>
Би бли
Афганиста н</w>
u l
5 5</w>
я б
ы е</w>
шизо ф
ша л</w>
ч ному</w>
цу нами</w>
ци р
хва тит</w>
характе ра</w>
фу тов</w>
утвер ждение</w>
угле род
у шёл</w>
у стрем
у мо
ты ка
транспор т</w>
тив ности</w>
ти сь</w>
террито рию</w>
тенден ции</w>
телефо ну</w>
тво и</w>
съ есть</w>
счита ла</w>
схе мы</w>
станови ться</w>
станови лись</w>
спон со
сосе дей</w>
сопроти вля
со отношение</w>
сле ды</w>
север ной</w>
се мена</w>
с кре
ру ющий</w>
рожда ется</w>
роди лись</w>
ри с</w>
регу лярно</w>
распреде ления</w>
раз гля
р д</w>
путеше ствовать</w>
про щения</w>
про чего</w>
приходи ть</w>
призна ки</w>
приве ла</w>
при нести</w>
препара ты</w>
прекрас ным</w>
представля ете</w>
представ лены</w>
пре крати
поло жим</w>
полно мо
поли ция</w>
пол ного</w>
пой мёте</w>
поис ке</w>
по что
по ступить</w>
по го
пинг ви
переда вать</w>
па ти
п ье
оцени вать</w>
откры того</w>
от клон
осозна ние</w>
осно вания</w>
осве дом
ор ди
од них</w>
образо ванием</w>
ні колі</w>
нов ение</w>
низ ким</w>
ни на</w>
неш та</w>
неравен ства</w>
необходи мое</w>
ней тра
не ка
не измен
начина ются</w>
нач нем</w>
напра вления</w>
на след
мыш ленной</w>
моде лью</w>
мо на
ми ф</w>
ма ну
лич ного</w>
ла до
кора лло
континен т</w>
катастро фы</w>
каме рой</w>
кам ни</w>
й ду</w>
интере сах</w>
име ются</w>
извест ные</w>
зри телей</w>
зву ков</w>
з рели
з но
жда ется</w>
ду ше</w>
доро го
до мо
да ю</w>
графи ки</w>
гра ф
голу бы
го н</w>
вше йся</w>
возмож ностью</w>
во- вторых</w>
взаимо действу
буде шь</w>
богат ство</w>
ба р</w>
атры ма
американ ский</w>
Ш вей
Че стно</w>
Тре тий</w>
Т ри
Т ем
СО 2</w>
Пре зиден
Обра тите</w>
Не ль
Лю бой</w>
Й о
З ри
Дже й
Г ло
Во обще</w>
Ва ша</w>
Большо го</w>
u t
T w
20 15</w>
ў жо</w>
эффектив ным</w>
шан сов</w>
ша ра</w>
ча сами</w>
ч ью</w>
ч ник</w>
цион ное</w>
ц ю</w>
хими ческих</w>
форми руют</w>
фе минист
ф разу</w>
утвер ждать</w>
ужа с</w>
уди вля
тру дом</w>
треть е</w>
тен а</w>
т. п.</w>
ству йте</w>
срав нения</w>
спор т
спис ка</w>
сохран ения</w>
сол н
созда ётся</w>
соедин ение</w>
собствен ными</w>
смо три</w>
сер ти
се рию</w>
сво дится</w>
с чет</w>
с п
ря да</w>
ро н</w>
реш ё
реаль ным</w>
разгово ров</w>
раз ло
р ная</w>
р ении</w>
пя ть
пус ка</w>
про б
приви леги
прем ьер-
представи телей</w>
предло жили</w>
пред вари
пре образу
получа л</w>
под де
повре ждения</w>
по ми
по больше</w>
перспекти вы</w>
пере шли</w>
пара лизо
пад ения</w>
паві нны</w>
па ути
ошиб ку</w>
откры тые</w>
оста лся</w>
особен ность</w>
основ ным</w>
оран же
описы вает</w>
окси тоци
оказыва ются</w>
обуча ть</w>
обе их</w>
о сво
ня тся</w>
нес ёт</w>
начина л</w>
нало гов</w>
му ра
мета лли
мас си
картин ке</w>
ка с
ка ран
к лі
из ъ
игнори ровать</w>
зе н</w>
закончи ли</w>
задума лись</w>
е мом</w>
депресси я</w>
д жу
голо воло
го ла
геро и</w>
ге ра</w>
га ли</w>
вы ступить</w>
вы ло
водоро да</w>
вла д
верх ней</w>
вероят ности</w>
ве дет</w>
близ ких</w>
бере м</w>
бе лки</w>
акку муля
Саха ры</w>
Са мая</w>
Ра з</w>
Ка роли
К ак
Ин ститу
Г де
В ра
Ар хи
h o
Tim es</w>
S c
-лет ний</w>
ё в</w>
язы ках</w>
электри ческий</w>
э л</w>
че мпи
ц эн
хло па
ха ми</w>
фу тболь
учё том</w>
учре ждения</w>
упа л</w>
угро за</w>
труд нее</w>
тан цо
т т
т ре</w>
съё мки</w>
счастли вым</w>
существо вало</w>
сум ма</w>
стави ли</w>
ста тья</w>
ста рая</w>
ст ный</w>
ст ена</w>
содержи тся</w>
совме сти
собствен ности</w>
соба к</w>
со обществе</w>
смотре ла</w>
следу ющая</w>
се тки</w>
се реди
се ли</w>
сай ты</w>
рожда ются</w>
реализо вать</w>
размыш лять</w>
разли чи
раз решить</w>
прото тип</w>
про ходя
про хо
про двига
про вин
потенциаль но</w>
получи т</w>
полови не</w>
поверхно стью</w>
по хи
пле скі</w>
пи ани
перегово ров</w>
пе да
отры вок</w>
от тен
от а</w>
опреде лению</w>
оконча ния</w>
оде жды</w>
ограни чены</w>
обла ко</w>
не далеко</w>
научи лась</w>
найд ём</w>
наблюда я</w>
на значения</w>
муж а</w>
мудро сть</w>
моти ви
мож а
ми но
мен а
международ ных</w>
матер ью</w>
ма ты
м мо
логи ю</w>
кух не</w>
кру г
кос ро
комна та</w>
квадра тных</w>
к са</w>
искус ственного</w>
ис пор
интерес нее</w>
инвали д
ин ста
ие рархи
зем лёй</w>
зарабаты вать</w>
заня тий</w>
заме тила</w>
ж он
е ли</w>
дру ж
доступ ных</w>
доступ ные</w>
дополни тельные</w>
доказа тельств</w>
ди кой</w>
дета ль</w>
гото вить</w>
горизон та
гла д
гени аль
гаран ти
встре тила</w>
ви до
ва емых</w>
в ходит</w>
в ное</w>
бла га</w>
ба м</w>
англий ского</w>
Ш то</w>
Ц і</w>
Про це
Пар у</w>
На стоя
Ми ровой</w>
Ко ли
Ка м
Ка кое</w>
Ка кая</w>
Использу я</w>
Запа д</w>
Евро пу</w>
Д оста
Д .
Г .</w>
Все м</w>
Во плескі</w>
Ва ши</w>
В нутри</w>
В ин
Бе зу
А дам</w>
t er
G l
3 6</w>
19 0
ян вар
экономи кой</w>
э ль</w>
ь ко</w>
ъ емле
шу ма</w>
ши ре</w>
ш ной</w>
ш ена</w>
чен ным</w>
ча ю</w>
цик ла</w>
ф -
устойчи вости</w>
ужас ное</w>
уби вает</w>
убе жи
ту нца</w>
сю же
схе ма</w>
существо вании</w>
стро ят</w>
стран ные</w>
сте ри
сте ра</w>
справля ться</w>
спор та</w>
спон ден
спи ра
спек тр</w>
социаль ными</w>
созда ем</w>
созда вали</w>
согласи лись</w>
со ставить</w>
синте з</w>
сдела ете</w>
свой ство</w>
свое образ
рыбо лов
рису нок</w>
ресур с</w>
резо нан
реда кти
реаги руют</w>
рас пла
райо нов</w>
раз реза
рабо чий</w>
ра ў</w>
пти ца</w>
прове л</w>
про делать</w>
приня тие</w>
принес ла</w>
приме ча
при ехала</w>
при водят</w>
президен том</w>
предпочита ют</w>
практи ки</w>
пра ши
потеп ление</w>
попу ляции</w>
понадоби лось</w>
пози цию</w>
под ряд</w>
племен и</w>
пласти к</w>
пара ш
пане ли</w>
оста лась</w>
основы ваясь</w>
опера цию</w>
окру жение</w>
обстоятель ствах</w>
образ цов</w>
о прос</w>
носи ли</w>
невероят ной</w>
не чего</w>
не совершен
не движи
насе лением</w>
нару шения</w>
напра влениях</w>
музы кой</w>
мем бра
массо вого</w>
манипу ли
ля тор</w>
ль -
луч шую</w>
луч шем</w>
лен а
крат косро
кор не</w>
кон ди
ко му
ключе вых</w>
клас сни
ка мі</w>
йн -
й тись</w>
й ские</w>
инста л
извест на</w>
игра ю</w>
за хотите</w>
за хотели</w>
за фикси
за то
за были</w>
жу т
еди м</w>
доста ть</w>
доро гие</w>
ди кта
дет ских</w>
да ма</w>
гу л</w>
голу бой</w>
го р</w>
глу пы
вя зыва
выясни лось</w>
вше еся</w>
встре тить</w>
востор ге</w>
вос создать</w>
вос крес
ви ло</w>
взаимо связь</w>
ва ющего</w>
ва тт</w>
бук в</w>
бра ться</w>
боя ться</w>
бо ло
би ли</w>
беспокои т</w>
балан си
Ш ек
Твит тере</w>
Та ймс</w>
Т они</w>
Ро жде
Пом ню</w>
По лу
Мар тин</w>
М РТ</w>
Лу ну</w>
Л Т</w>
Ка за
И ис
За думайтесь</w>
Ж е
Егип те</w>
Восто ке</w>
Во л
H e
A l
20 50</w>
ю ге</w>
эффек тов</w>
эволю цию</w>
э фи
ш но</w>
чрез мер
ци али
ходя тся</w>
хо дами</w>
ха м
фон да</w>
фак та</w>
уча ству
урав нение</w>
управля ют</w>
узна ете</w>
уг ля</w>
тре хмер
теря ем</w>
температу ру</w>
те чением</w>
сцена рий</w>
сум му</w>
сты й</w>
сту дии</w>
статисти ка</w>
ста ди
ста вят</w>
спи не</w>
социаль ным</w>
составля ющие</w>
содержа т</w>
собствен ном</w>
со ли
скон центри
си льным</w>
си вно</w>
сек вени
сам рэч</w>
роди телям</w>
рису нки</w>
реги он</w>
распоря жении</w>
разрабаты вать</w>
разме ры</w>
ра й</w>
про сну
про ведения</w>
при тяги
предприя тия</w>
поч вы</w>
постро ения</w>
послед нюю</w>
получен ные</w>
полез ны</w>
позволи ла</w>
повлия ло</w>
по ляр
по истине</w>
пло ди
перен а
пере смотреть</w>
пе ли</w>
парнико вых</w>
пар ка</w>
пам ят
отча ян
отправля ть</w>
отда лён
организо вали</w>
опера ция</w>
ожида л</w>
обо жаю</w>
неле га
не большим</w>
начн ёт</w>
нарко тики</w>
нало гі
на половину</w>
на дз
мощ ь</w>
моли т
мгнов ение</w>
м лі
лле р</w>
ле о
ла ти
кі м</w>
кого -нибудь</w>
исполни лось</w>
искус ств</w>
инфек ции</w>
интере сов</w>
ино плане
идеаль но</w>
звез д</w>
заня тие</w>
заме н</w>
зака з</w>
за раз</w>
за пом
за жи
з ды
жид кость</w>
живот ным</w>
жи ться</w>
жи вое</w>
жде б
е дет</w>
до ли</w>
деву шки</w>
д ны</w>
гэта й</w>
вы дели
вся кий</w>
влен о</w>
ви бра
верх у
в шаяся</w>
в да
в вести</w>
боль но</w>
близ не
би л</w>
ассо циа
аку л</w>
ав гу
Ч или</w>
Хо тите</w>
Х ью
С пе
С .</w>
При веду</w>
Послед ние</w>
Од ной</w>
На та
Му з
Мар к</w>
Ита лии</w>
Ин форма
Даль ше</w>
Д ис
Го то
Ган ди</w>
Г ла
Возь мите</w>
Б ал
o r</w>
i on</w>
di a</w>
L if
6 -
4 0
эффек та</w>
шу юся</w>
ша ться</w>
чи ли</w>
ча су</w>
ча ем</w>
хра нить</w>
уха жи
у ходят</w>
у се</w>
у влеч
ти лось</w>
техни ческих</w>
террори сти
террори зма</w>
те с
тво ей</w>
талан тли
та цией</w>
сфе рах</w>
ступи т</w>
студен тами</w>
стру и
стре сс</w>
стави т</w>
состоя т</w>
солда ты</w>
современ ный</w>
служ бу</w>
сказа ў</w>
си на
си дя</w>
связа ть</w>
с мены</w>
ры і</w>
рован ными</w>
рован ное</w>
ре ю</w>
ре тро
разно гла
разме стить</w>
разма ўля
разли чий</w>
раз вить</w>
ра -
про ходить</w>
при вле
пред ше
пред ков</w>
правитель ству</w>
пра цу
посмотре ла</w>
получа т</w>
полу ч
показыва ли</w>
подума ем</w>
по чи
по ру
по де
пла ты</w>
откры тых</w>
оста вляет</w>
осно вано</w>
объяс нения</w>
о чер
ну лся</w>
нов ше
неот ъемле
неизбе жно</w>
наль ные</w>
нако п
на со
на подобие</w>
мусуль ман</w>
мудро сти</w>
му же
моло дёж
мо не
мо н</w>
мето да</w>
мета лла</w>
мест ным</w>
лі ч
ля т</w>
лиде ром</w>
ли лся</w>
ли во</w>
лен ное</w>
лев ской</w>
ле то
л э
л к</w>
л ениями</w>
косми ческого</w>
концеп ция</w>
кома ров</w>
исследо вали</w>
использо ваться</w>
интерес ны</w>
институ та</w>
измен ением</w>
извест ная</w>
игра х</w>
зем ной</w>
зелё ный</w>
зарпла ты</w>
зада л</w>
за хотел</w>
ж ом</w>
дости жений</w>
до ход
до ми
дли н
деву шек</w>
да влением</w>
да вай</w>
д ью</w>
государствен ных</w>
вычис лений</w>
выступ лений</w>
вра ждеб
восстано вление</w>
вол н</w>
возвраща ться</w>
внутрен ний</w>
ви дами</w>
взры ва</w>
вер то
ван ными</w>
быст рый</w>
буду щих</w>
бу х
болез нен
бое ви
бога тые</w>
беремен ности</w>
ба зу</w>
ато мов</w>
Эйнш тей
Фи лип
Т .
СПИ Д</w>
Рабо та</w>
О К</w>
Нем ного</w>
Не возможно</w>
М ы
К ни
Зна ешь</w>
Е е</w>
Где -то</w>
Вашинг тоне</w>
Бу д
in d
i v
e p
Am az
5 000</w>
4 8</w>
ён ность</w>
эпидеми я</w>
электро нные</w>
эле ган
экономи ческую</w>
щи йся</w>
чт ения</w>
чи л</w>
чер то
ча ла</w>
ци н
ц тва</w>
храни ли
хоро ш</w>
хо го</w>
фоку с</w>
ущер б</w>
утвержда ет</w>
уров нях</w>
уме ет</w>
у строи
трё х
тор мо
техни ческие</w>
те стов</w>
твор ческий</w>
так си</w>
та туи
существо вали</w>
стро в</w>
стреми ться</w>
столкнов ения</w>
стои мостью</w>
ство вало</w>
ста ну</w>
социаль ное</w>
солне чных</w>
син хрони
си га
сест ёр</w>
с ю</w>
ря х</w>
рас сла
разру шить</w>
разработ ку</w>
ра жи
пусты ни</w>
пу гает</w>
пря мом</w>
производи тельность</w>
проводи т</w>
провер ки</w>
про цент
про жить</w>
про дают</w>
предполага ет</w>
потря с
поступа ют</w>
поступ ки</w>
послед ним</w>
получ ше</w>
поддержа ния</w>
повы сить</w>
переда чу</w>
па т
п чо
п ка</w>
отра сли</w>
океа ны</w>
объяс ню</w>
обществен ности</w>
образо ванию</w>
ні я</w>
нор мы</w>
но гах</w>
низ ма</w>
ни чество</w>
ни ц</w>
нека лькі</w>
не к
начина ю</w>
нача лись</w>
настоя щей</w>
нару жу</w>
намер енно</w>
наде жде</w>
мож ам</w>
микро фон</w>
ми ры</w>
международ ные</w>
ма ммо
логи чно</w>
лете л</w>
ландшаф т</w>
контро лем</w>
ка ют</w>
ищ ет</w>
инвести ций</w>
ин су
за пя
за брать</w>
жизнен ный</w>
жд ению</w>
ен ного</w>
дья во
держ ки</w>
дере вя
демонстри рует</w>
де лу</w>
государствен ной</w>
горо дом</w>
высо кое</w>
вы явля
вы ле
вол на</w>
возвраща ются</w>
во н</w>
во дов</w>
виде н</w>
велосипе д</w>
вдохнов ение</w>
ван ного</w>
важ ности</w>
в ным</w>
беспило т
бе лого</w>
архитекту ре</w>
акку ра
аб сур
Эн д
Э л
Швей ца
Твит тер</w>
Руан де</w>
От кры
Лео нар
Ла тин
Конгрес са</w>
Ка ким</w>
Де ли</w>
Бу дь</w>
А к
om o</w>
e d</w>
amp ;</w>
2 .
& amp;</w>
явля юсь</w>
ша ем</w>
чё н</w>
чи ны</w>
чер т</w>
ч но-
ч ком</w>
цифро вых</w>
цифро вые</w>
цита та</w>
хирур ги
ха ос</w>
ха ос
фру к
фести ва
ф лу
учи м</w>
учены е</w>
ужи н</w>
у пуска
у во
тр ене
тель ница</w>
теа тра
те ров</w>
танце вать</w>
та ра</w>
та ли
т ва
стру н</w>
ста рения</w>
ст ям</w>
ст ным</w>
спут ников</w>
сове то
соб ран
сня ли</w>
следо вали</w>
скон струи
сигна лов</w>
сем ян</w>
сель ской</w>
се ла</w>
сдела нные</w>
сбо ра</w>
раке ты</w>
рав ни
ра зам</w>
р та</w>
противо стоя
произ ве
продук тами</w>
про является</w>
про читал</w>
про ст</w>
про делы
приим чи
преступ ности</w>
пра вление</w>
пото ка</w>
посе ти
попро сту</w>
поме ша
пользо вались</w>
показа телей</w>
подроб ности</w>
под ни
погру зи
пло т
плат форму</w>
пи сем</w>
пере чис
пере вод
пар та
пале стин
оцен ка</w>
откры вается</w>
от ды
осно вал</w>
организа цией</w>
определя ют</w>
оде жду</w>
нер вной</w>
нен а</w>
не большого</w>
не ба</w>
не андер
насеко мые</w>
наркоти ками</w>
называ емая</w>
н ь
мы ше
мусо р</w>
моло дая</w>
много чис
миро вом</w>
минист р</w>
мето дом</w>
мень шин
массо вой</w>
мальчи ка</w>
ля ри
люби мая</w>
лихо ра
ли ф
ле сах</w>
крес ло</w>
краси вый</w>
кра я</w>
коро ле
консульта н
кон тен
компьютер ных</w>
ко вод
каких -то</w>
ка л</w>
к ен
испыта ний</w>
из лечи
игру шки</w>
игра ла</w>
запу тан
зам кну
закончи лось</w>
заключ ённых</w>
за хочет</w>
журнали ст</w>
жен ной</w>
достиг ну
добро де
доба вок</w>
до ходит</w>
дире ктора</w>
дизай ну</w>
дет ские</w>
держа ться</w>
голо су
голо д</w>
глоба льный</w>
глоба льном</w>
глав ные</w>
гла ва</w>
гигант ский</w>
ги бри
гал люци
га пу
га ла
га дзі
выпол нения</w>
вы сказа
вы ні
вто рую</w>
вспомина ю</w>
возра стом</w>
во ли</w>
верну ли</w>
вер блю
в ке</w>
брен д</w>
брать ев</w>
бере т</w>
бей сбо
безу мно</w>
астро но
ар га
ан г
аль ная</w>
Ю пи
Э С</w>
Та ко
Сто ит</w>
Си эт
Си ти</w>
Са н</w>
Прави льно</w>
Под нимите</w>
Пи тер</w>
К лин
Ин доне
Ин ди
Дже йн</w>
Бы ть</w>
А на
k er</w>
W or
Tw it
S ec
R B</w>
L e
щен ные</w>
чер та</w>
чен ной</w>
челове ческим</w>
част ные</w>
ч нее</w>
циф р</w>
цве ты</w>
хоте ть</w>
филосо ф
учи тся</w>
учи т</w>
участи ем</w>
ура га
уда лён
уг лом</w>
уверен ности</w>
уваж ения</w>
у шла</w>
тэ р
техни ку</w>
твор ческих</w>
счастли выми</w>
сцен а</w>
статисти ке</w>
стара ются</w>
стара емся</w>
спраши вает</w>
спи ной</w>
сооб ща</w>
со бесе
смарт фо
слуша л</w>
сло ма
следова тельно</w>
се дь
свобо де</w>
саха ра</w>
са ду</w>
с пя
руковод ство</w>
республи кан
рекла мы</w>
рас сказали</w>
разум но</w>
разрабаты ваем</w>
раз влеч
проси ть</w>
продолжа ться</w>
прогно зы</w>
прово да</w>
про чих</w>
про смот
про ле
препят ствия</w>
преобразо вать</w>
представи м</w>
порази ло</w>
поража ет</w>
полез ным</w>
показа ло</w>
под счё
под бира
по чувствовал</w>
по станов
по зна
пи ксе
пере работ
пас сив
партнё ров</w>
па чу
п ь
очень -то</w>
очевид ным</w>
отде льно</w>
ос на
определя ется</w>
описа ние</w>
окру жении</w>
оказыва ет</w>
образ а</w>
обо ло
но яб
но шу</w>
недоста ток</w>
не сте
не верно</w>
националь ного</w>
насле дие</w>
на т</w>
мыс ленно</w>
моло дё
молеку ла</w>
можа це</w>
мине ра
меч ту</w>
ме че
материа лом</w>
ма ме</w>
люби ла</w>
логи ческие</w>
ло сть</w>
ло дки</w>
ли чи
лежа т</w>
кто -либо</w>
кри вой</w>
коллед жа</w>
кислы й</w>
квали фици
ка над
к м.</w>
исчез ли</w>
испыты вают</w>
испы ту
искрен не</w>
ис ходя</w>
ин форми
из ма</w>
из бран
и ным</w>
зна ниями</w>
запечат ле
за стря
за п
за мер
за гадо
з ва
жив ёте</w>
жи вого</w>
жанчы н</w>
е мость</w>
дро ж
достиг нуть</w>
дополни тельных</w>
долго го</w>
дли нный</w>
дизайне р</w>
дз ь</w>
два -
да мы</w>
д эн
д же</w>
грани цу</w>
граждан ских</w>
вы году</w>
ву а
вла стью</w>
виру сом</w>
ви нов
ви лся</w>
взгля ните</w>
верши ны</w>
величай ших</w>
ван ным</w>
важ ными</w>
в ную</w>
бро сили</w>
бра к</w>
бо та
бо но
бе гу
ба зе</w>
аппара ты</w>
а зи
Шве ции</w>
Чарль з</w>
Уров ень</w>
Т ы
Са й
С тар
С ид
Ри о</w>
Р обо
Пре крас
По мимо</w>
Пар кин
О й</w>
Но вый</w>
М ер
Л ор
И р
И ными</w>
Дар вина</w>
o d
e y</w>
c e</w>
ў на</w>
ядер ного</w>
юще мся</w>
эффектив нее</w>
эп изо
экспер ты</w>
э т</w>
ши те</w>
ши ри
чу ю</w>
чу дови
чи нов
част ных</w>
ци ти
церков ь</w>
худож ника</w>
хо ле
хирур г</w>
хими отера
фир мы</w>
фер мер
учени ки</w>
умер ли</w>
улуч шение</w>
узна вать</w>
удоволь ствием</w>
удиви тельная</w>
уди влению</w>
ть- чуть</w>
трагеди и</w>
точ кой</w>
тол щи
то ри
тив у</w>
структу р</w>
стро или</w>
стре сса</w>
сто ла</w>
сти ка</w>
ствен ности</w>
сред не
спут ник</w>
сосредоточи ться</w>
созда ю</w>
собира ют</w>
сня л</w>
си лами</w>
си д
серде чный</w>
се ми
са ла
с ра
ро с
регио нах</w>
рас ходов</w>
раз ницы</w>
работа ющие</w>
рабо чего</w>
противоре чи
проси л</w>
прово ци
про рыв</w>
привлека ет</w>
при носят</w>
при бе
предполо жения</w>
пре ки</w>
празд но
появля ться</w>
поя вятся</w>
похожи х</w>
потра тил</w>
потеп ления</w>
пол но</w>
подчер кнуть</w>
подоб ра
подо шла</w>
повы шен
повер нуть</w>
повед ении</w>
по прошу</w>
по нравится</w>
по играть</w>
по ближе</w>
плох их</w>
пи ть
пи о
пере до</w>
пе сок</w>
пар ти
откры вать</w>
о забо
о в
нё с</w>
нуж ден</w>
ново рожд
но ся
нище ты</w>
невероят ный</w>
не многие</w>
на кормить</w>
на жать</w>
на ви
молодё жи</w>
метафор а</w>
медици на</w>
масшта би
ма х
любопы тно</w>
лиде рами</w>
ле со
ле вом</w>
ку ро
ку ра
крат це</w>
конфлик ты</w>
клини ческих</w>
како го-либо</w>
каки е
й ском</w>
использо ванию</w>
из луча
идеаль ный</w>
и ди
значи ть</w>
зем ного</w>
запол нить</w>
заме тно</w>
заво е
за хотят</w>
за стре
за ле
за буду</w>
з вычай
живу щие</w>
ж ко</w>
ж ке</w>
естествен ной</w>
е ма</w>
древ ние</w>
доли не</w>
добро воль
до ходы</w>
до сту
до бира
диле м
дан ное</w>
да й</w>
д жен
груп пи
глубо кие</w>
глоба льных</w>
восхи ща
вос произвести</w>
воло с</w>
внутрен ней</w>
виртуаль ной</w>
ви та
ви но</w>
вед я</w>
ва емый</w>
в люби
бума ге</w>
бом бы</w>
бога че</w>
бло г</w>
близ ки</w>
би рая</w>
бер га</w>
африкан ских</w>
англий ски</w>
ан тен
а ф
а встра
Хоро шая</w>
У ай
У .</w>
Са мые</w>
С ем
По слушайте</w>
По пробу
П Т
Но вая</w>
Н К-
Мо з
Лондо на</w>
Изви ните</w>
Ж а
Дже йм
Де мо
Де во
Го судар
Г аб
Вы гля
Во сь</w>
В ьет
В у
Бру кли
ur e</w>
ati on</w>
Twit ter</w>
F or
4 7</w>
4 2</w>
энерге тики</w>
эм бри
экстре ма
эксперимен тировать</w>
эксперимен те</w>
шта тов</w>
чи стая</w>
челове честву</w>
ци лин
цент ров</w>
це ся</w>
це лой</w>
ха чу</w>
финансо вые</w>
финан сов</w>
ф раза</w>
учё ным</w>
ум ных</w>
удиви тельным</w>
треть ем</w>
тре й
традицион ные</w>
точ ной</w>
ти ку</w>
теря ют</w>
тво ё</w>
т ком</w>
существу ющие</w>
судь ба</w>
сты х</w>
стри т</w>
стра сти</w>
столкну лся</w>
сти л</w>
ста х</w>
ст ных</w>
собира ем</w>
со мнений</w>
сме сь</w>
сло и</w>
ска й</w>
систе мами</w>
серьез но</w>
свобод ного</w>
с м</w>
с зади</w>
робо тизирован
реша ем</w>
расска зы</w>
ран ней</w>
разме ре</w>
разгля деть</w>
раз ворачи
рав ных</w>
пш ени
просты ми</w>
промышлен ность</w>
пробле мам</w>
про све
про анализи
приобре т
принима ли</w>
призна ние</w>
при спосо
преступ ление</w>
предоста вляет</w>
потер ь</w>
поступа ет</w>
постави л</w>
помога ли</w>
получа ются</w>
пол ным</w>
под ска
по слушать</w>
по ва
пло тность</w>
печен и</w>
пен си
паль ца</w>
па й
отслежи вать</w>
отлич ные</w>
отли чи
откры ла</w>
осозна ла</w>
осо бое</w>
объясни л</w>
объеди ня
образу ют</w>
о хран
о гляды
но ты</w>
ниж ней</w>
ни ти</w>
неандер таль
не подви
националь ный</w>
науч ного</w>
нару ши
называ ются</w>
мыс лями</w>
мощ ность</w>
мо р</w>
математи ку</w>
маг лі</w>
ль ники</w>
лож ь</w>
лек си
л д</w>
крупней ших</w>
кро ется</w>
концеп цию</w>
конструк ция</w>
компонен т</w>
ко же</w>
каме р</w>
какую -то</w>
к ер
исчеза ют</w>
искус ственный</w>
ис ку
ис к</w>
изобра жении</w>
измен ениям</w>
изме рять</w>
из м</w>
зу б
зелё ные</w>
запа де</w>
замеча ть</w>
жи ны</w>
же к</w>
жа ются</w>
ж ную</w>
ж ном</w>
ж ениях</w>
естествен ный</w>
дож де
доба вили</w>
доба вил</w>
дзі ць</w>
дзя цей</w>
город ских</w>
голосо вания</w>
го вые</w>
го в
выпол няют</w>
выбира ем</w>
вы ш
вы пи
вы нужден</w>
вы ка
вос т</w>
вопро сах</w>
водоро сли</w>
вовле чены</w>
во время</w>
внутрен него</w>
вмеша тельства</w>
ва ре</w>
ва ль
бло к</w>
благотвори тельность</w>
биологи ю</w>
биологи ческие</w>
био логи</w>
бер ёте</w>
ад бы
Ты ся
Тан за
Сно ва</w>
Син гапу
С об
С ли
Р оди
Р од
Пер вые</w>
Ми лли
М ин
М К</w>
Кана ды</w>
Калифор ния</w>
Калифор ни
Како ва</w>
Как -то</w>
Ира н</w>
За да
Един ственное</w>
Ген ри</w>
Все гда</w>
В ос
Бе т
Бангладе ш</w>
Б э
Б рэ
Б ре
Ари сто
ati on
8 -
і ць</w>
і сну
я щик</w>
электри ческие</w>
экспеди ции</w>
шен о</w>
чёр ная</w>
чита ют</w>
чи ми</w>
че б
х вост</w>
физи ке</w>
физи ка</w>
фигу ра
фер мы</w>
учиты вать</w>
услыша ла</w>
у совершенство
транзи сто
ти ям</w>
тара ка
т ному</w>
т ви
супер -
ступ ен
сту л</w>
стои ть</w>
сти ки</w>
стек ло</w>
стаби льности</w>
ст -
сред няя</w>
способ ных</w>
способ но</w>
спек тра</w>
сохра нять</w>
соверши л</w>
случа лось</w>
сло вах</w>
сим фо
се г
све тя
ря ет</w>
роди ть</w>
ров ке</w>
ро ду</w>
реши т</w>
рас сказа
разру шения</w>
р ное</w>
пыта етесь</w>
пу та
профи лакти
производи телей</w>
производ ству</w>
продолжа ли</w>
присут ствие</w>
приня ла</w>
принци пи
при ём
при лага
прави льные</w>
прав ды</w>
пра д
последо к</w>
поло в</w>
полити ческая</w>
полиомиели та</w>
пол ёт</w>
пой мать</w>
под ходе</w>
по- своему</w>
по считать</w>
по следующие</w>
по ду
по воро
плани ровать</w>
план кто
писа ла</w>
перене сти</w>
пен сию</w>
пад ёт</w>
откры ты</w>
отде ление</w>
онла йн-
океа нов</w>
объё ма</w>
обраща ться</w>
обеспечи вают</w>
ни что
ни где</w>
неф те
немно жко</w>
недав него</w>
невероят ным</w>
не предсказу
не кая</w>
наш ых</w>
навер но</w>
на ве
мощ ности</w>
много образи
мину с</w>
мило сер
мечта л</w>
малы ш</w>
ля ем</w>
ле д</w>
лаборато рия</w>
ку да-то</w>
кроше чные</w>
крас ного</w>
косми ческий</w>
контроли рует</w>
конкре тного</w>
конкре тно</w>
кон ститу
ко вый</w>
каких -либо</w>
ка бе
исчез новения</w>
использо вала</w>
ис ключения</w>
ин ф
изуча я</w>
измен ениями</w>
извест ной</w>
изба вля
из я
и ще
и ном</w>
зерка ло</w>
защи ща
записы вать</w>
запа сы</w>
замеча тельных</w>
за тро
за вод</w>
жи вым</w>
жен у</w>
жд ением</w>
достиг ла</w>
до клад</w>
джу н
держи т</w>
да е</w>
глубо кое</w>
га ем</w>
г лю
вы страи
встре че</w>
все возможные</w>
вс кры
взгля дом</w>
взаимо отношения</w>
ве та</w>
в последствии</w>
бра тья</w>
бло к
близо сти</w>
библиоте ки</w>
бед ным</w>
ба ске
ба на
ан ге
автобу с</w>
а тако
а плоди
Ч ёр
Та кого</w>
Сту ден
Си лико
Прави тельство</w>
Пе ки
Паркин сона</w>
О го</w>
Мон те
Ко г
Е сте
До ро
Да мы</w>
Г руп
В не
В ла
Ар кти
u s
o p
ik e</w>
c om
a d</w>
N A
Lif e</w>
L in
A R
9 00</w>
3 7</w>
200 2</w>
юмо ра</w>
эффектив ный</w>
эко но
э ру</w>
ша гов</w>
чу ть-чуть</w>
цион ную</w>
функ ция</w>
функ цию</w>
фигу ры</w>
устойчи вого</w>
уме ть</w>
ум ный</w>
тра тит</w>
това р</w>
ти хо
те ром</w>
те мой</w>
т ль
сі х</w>
сё стры</w>
ся за
существо вала</w>
судь бы</w>
су тки</w>
стро ение</w>
стоя ла</w>
ствен ном</w>
стар ших</w>
спря та
сотруд ники</w>
солне чные</w>
созна тельно</w>
слепы х</w>
синте за</w>
си ден
си г
се ктора</w>
сапраў ды</w>
с выше</w>
с бы
с би
ря ется</w>
ры ва</w>
робо то
ри м</w>
ре формы</w>
рас ы</w>
рас стро
раз ного</w>
раз мо
рабо ток</w>
про чие</w>
про чем</w>
про стую</w>
про мышленной</w>
при ступ</w>
поме щение</w>
повсемест но</w>
по- английски</w>
по счастли
пли ка
плане тар
пингви нов</w>
персо нали
перен ос
пер ви
пари к
пара ли
пара док
пан деми
п ья
ошелом ля
откры тость</w>
от пуск</w>
особен ного</w>
ог ня</w>
обы чная</w>
объ ем
обстоя тельства</w>
обо га
обла дать</w>
об думы
о хоти
ни ло</w>
необходи мым</w>
ней ший</w>
наступа ет</w>
настоя щую</w>
наль ной</w>
называ емых</w>
над ё
мужчи ну</w>
мет ры</w>
мель чай
мел ких</w>
медицин ского</w>
ме ц</w>
мате рей</w>
любопы тство</w>
ли тров</w>
ли не</w>
лет ние</w>
ла зер
л ени
кры ше</w>
кван товой</w>
каза ться</w>
испыты вать</w>
институ тов</w>
институ те</w>
индуст рия</w>
измени м</w>
из образить</w>
зи рует</w>
зи мой</w>
зво нок</w>
зая вил</w>
замеча ем</w>
зада вали</w>
з ин
жи выми</w>
ж ённых</w>
ды с
дости г</w>
до говори
дис к</w>
дви нуть</w>
граждан ского</w>
гра ма
голо сом</w>
го рах</w>
глуб ину</w>
где -нибудь</w>
га зо
высо кую</w>
выра шы
выжи вание</w>
вто ром</w>
встреча л</w>
встреча ется</w>
вс помните</w>
вс ки</w>
восто чной</w>
во лю</w>
влия нием</w>
вер ё
великоле пно</w>
ва в</w>
в щи
в води
бро сил</w>
бере те</w>
аути зм</w>
аспек ты</w>
а таки</w>
Чар ли</w>
Ха й
Х э
Ф ото
Т ро
Т В</w>
Сти вен</w>
Сми т</w>
Проце сс</w>
Пред положим</w>
Поня тно</w>
По- моему</w>
Май к</w>
Лондо н</w>
Л и</w>
И м
Де тро
Гло ба
Г рен
Бо гу</w>
Ближ нем</w>
Б рю
Архи те
Ар ген
Аль- Каи
ou n
it y</w>
i a</w>
G e
C om
199 8</w>
ён ня</w>
ян варе</w>
экономи чески</w>
ш вей
чёр ные</w>
чувству ешь</w>
чи слом</w>
чи вать</w>
четвер ть</w>
чен ный</w>
че лю
центра льной</w>
хирур гии</w>
фо ру
физи ческого</w>
учи телем</w>
учи лись</w>
уча ствуют</w>
успе хом</w>
упраж нения</w>
упа ко
университе т
угле кислый</w>
у са</w>
ти ческого</w>
страни ца</w>
стра хом</w>
стол к
стек ла</w>
спраши вал</w>
справля ются</w>
сосе ди</w>
сообще ств</w>
содержа ния</w>
согласи лся</w>
сни жения</w>
случа ются</w>
ска х</w>
симметри и</w>
север е</w>
се т</w>
се рия</w>
сва е</w>
самолё та</w>
само лет</w>
са до
с ный</w>
с ная</w>
ря ды</w>
ри са</w>
рен е
рез ю
реаль ная</w>
реали зации</w>
расстрой ства</w>
расска з
разли чие</w>
раз работал</w>
раз вали
рабо чей</w>
рабо то
ра на</w>
р ению</w>
процес сом</w>
профессо ра</w>
проте з</w>
проника ет</w>
прово жу</w>
приобре сти</w>
прило жений</w>
при ну
при дут</w>
представля ли</w>
предоста влять</w>
предлага ют</w>
пре мию</w>
потряса ющее</w>
потряса ющая</w>
постро ена</w>
попы ток</w>
пользу ется</w>
поло н</w>
поки нуть</w>
позволя я</w>
подроб нее</w>
поддерж ке</w>
повторя ть</w>
повер ьте</w>
по обеща
по кро
плат формы</w>
пери оди
переме ща
охра ны</w>
отра жение</w>
относи лись</w>
от реза
от ло
особ и</w>
осно ваны</w>
опы ту</w>
обы кнов
о пери
о логии</w>
ня ла</w>
ни ку
не которой</w>
не известно</w>
науч но-
наста и
най ден
называ емые</w>
навер х</w>
на к</w>
на ду
музе я</w>
много го</w>
миллио нами</w>
мест ный</w>
мел кие</w>
маши нами</w>
ма мон
люби ли</w>
ль ныя</w>
луч и</w>
лиде ра</w>
ли сты</w>
ла у
л ём</w>
крат ко</w>
кра тно</w>
конструк цию</w>
конкре тной</w>
кол ы</w>
ко зы</w>
ко вого</w>
ключе вой</w>
клини ку</w>
й -то</w>
искус ством</w>
ис це
ин тро
име ющих</w>
изуча ют</w>
зи руется</w>
защи та</w>
застави л</w>
заслужи вают</w>
заме тите</w>
загряз нения</w>
за хотелось</w>
за ходит</w>
за труд
за ключи
з вер
жи х</w>
жен ная</w>
желу до
же чь</w>
доро же</w>
дожд я</w>
доб ра</w>
джи ха
дерев нях</w>
движу тся</w>
дат чики</w>
да ем</w>
д ром</w>
гі сто
графи ю</w>
гла ве</w>
геро я</w>
г лы
выступа л</w>
выстав ки</w>
выз вало</w>
вы ву
вто ро
все ленную</w>
вс лу
вра чу</w>
воспринима ют</w>
воспринима ем</w>
возгла вля
во сь</w>
вме ши
вели ким</w>
веда ем</w>
ва цца</w>
в шуюся</w>
в па
в начале</w>
бі ра
быстро го</w>
боно бо</w>
биологи ческого</w>
бе лок</w>
бан ки
ба бо
б ры</w>
б рази
б ин
Эд вар
Фи ла
Рас смотрим</w>
Рас скажите</w>
Пу бли
При рода</w>
Па ле
Нау ка</w>
Л ан
Ко то
К лю
За л</w>
Доста точно</w>
Дж о</w>
Де рек</w>
Го л
Габ би</w>
Га вай
Ауди тория</w>
Аб солю
u c
ation al</w>
Yor k</w>
W al
M a
Amaz on</w>
1 5
0- м</w>
. or
які м</w>
ябло ко</w>
я ния</w>
я влений</w>
эн не</w>
шу тка</w>
шта м
ши т</w>
чисты й</w>
чала век</w>
худож ники</w>
холо дно</w>
х і
формиро вания</w>
форми рует</w>
философи и</w>
физи ологи
фак том</w>
ф ин
установ ки</w>
услови и</w>
урав нения</w>
удоб но</w>
увиде в</w>
уби вать</w>
террори стов</w>
телевизор а</w>
тек ста</w>
те ть</w>
ся м</w>
суб си
су ро
строи т</w>
сти сь</w>
стандар ты</w>
став ки</w>
сред ством</w>
спо ры</w>
специаль ные</w>
спе ц
сопроти вление</w>
сокра щения</w>
созда дим</w>
со зи
сне г</w>
син хро
син дро
си льной</w>
си льная</w>
си дите</w>
сжи ма
секре ты</w>
сек с-
се тью</w>
санти метров</w>
сай та</w>
рован ную</w>
ро гли
рецеп т</w>
религиоз ных</w>
религиоз ные</w>
ре ку</w>
ре ке</w>
рассматри ваем</w>
ран него</w>
разме ру</w>
равен ство</w>
публи ке</w>
проек ту</w>
продол жим</w>
прода ж</w>
провер ять</w>
про стей
про даже</w>
пригла сил</w>
прибо ры</w>
при вер
прекрас ную</w>
похожи й</w>
потреб ностей</w>
послед нем</w>
посла ть</w>
поро ды</w>
поро ге</w>
понима ешь</w>
полу ша
поез д</w>
по чувствовали</w>
по тол
по спе
пло ско
пере рабаты
пер шы
пе шком</w>
пе сти
откры той</w>
оста н
оста валось</w>
особы й</w>
оскор б
орга на</w>
ор ы</w>
опу сто
окру ге</w>
обра щать</w>
о рес
о камен
нужда емся</w>
нену левой</w>
не обязательно</w>
не ди</w>
не выноси
над пись</w>
на сто
на ряду</w>
н га</w>
мест ность</w>
меня ем</w>
медицин ские</w>
ме й
матери я</w>
магчы ма</w>
магази на</w>
лоша дь</w>
лист ья</w>
лиде р</w>
лаге ре</w>
лаборато риях</w>
лабора тор
кро с
краси вой</w>
краси вое</w>
краси вая</w>
корот кое</w>
корот кие</w>
кол ла
клет ке</w>
кварти ры</w>
кар дио
капитали зм</w>
кана лы</w>
ка ва
ис ключа
инжене р</w>
ин три
изменя ется</w>
из обрёл</w>
ид ёте</w>
и стре
здоро вой</w>
застави ли</w>
за цией</w>
за программи
за моро
ено м</w>
дра й
дипло мати
динозав ры</w>
ди оз
девя ти</w>
движ ению</w>
да дим</w>
д с</w>
граждан ские</w>
город ской</w>
го ру</w>
выра ста
встре тили</w>
времен ной</w>
волок на</w>
воз ник</w>
вля ется</w>
верх нем</w>
вероят ностью</w>
вер е</w>
вез де
вариан та</w>
ва ющим</w>
ва шими</w>
бюро крати
бло ки</w>
благо сло
благо полу
биологи я</w>
атмо сфера</w>
аль ный</w>
а не</w>
Энд рю</w>
Элек тро
Те бе</w>
Та ли
Т -
Су пер
Сно у
Скаж ем</w>
Си рии</w>
Си ль
Про стите</w>
По рази
Пер у</w>
О бла
Конгрес с</w>
Компа нии</w>
Ке вин</w>
Ис следования</w>
Зри тели</w>
Дол жен</w>
Д ен
Гарвар д
Г ене
Вспом ните</w>
В ан
Бе й
Афганиста на</w>
i t</w>
e B
S h
M e
20 14</w>
20 13</w>
1 .
. Г.</w>
январ я</w>
я ние</w>
я му</w>
я ка
шка ле</w>
ша ю</w>
ша ли</w>
чи п</w>
ча ць</w>
цикло пе
функ ций</w>
форма х</w>
уча ствовали</w>
устрой стве</w>
успеш ных</w>
уничто жения</w>
узна ют</w>
у сё</w>
у голов
тэх налогі
тря с
три дца
транспор ти
трагеди я</w>
точ ность</w>
ти ровал</w>
сі стэ
счастли вее</w>
сформи ровать</w>
стремя тся</w>
стреми тся</w>
стреми мся</w>
стре с
сто лет</w>
сти хи
сти пен
ста нем</w>
ст ное</w>
ст ная</w>
споса бли
специали сты</w>
спа ри
сопроти вления</w>
сове ты</w>
со держать</w>
сним ке</w>
смо дели
смея ться</w>
смер т
сло ёв</w>
са ли
са л
с проектировать</w>
ру ющая</w>
рова лась</w>
ров но</w>
риско вать</w>
ри ев</w>
результа тами</w>
расстрой ство</w>
распозна вания</w>
развива ющиеся</w>
пузы рь</w>
проек тах</w>
проек тами</w>
продолжа ла</w>
про ше
про ходили</w>
про ду
при креп
при ехать</w>
при дума
пред стоя
посе ща
поня тным</w>
пол ны</w>
показа на</w>
подо шли</w>
по шло</w>
писа тель</w>
пи ща</w>
пи столет</w>
пере хода</w>
отвеча л</w>
от чёт
особен ное</w>
опреде ленные</w>
опас ных</w>
обы чное</w>
обуч ении</w>
обнару жения</w>
обма на</w>
о тор
о лице
носи л</w>
но га</w>
неуда чу</w>
находи лась</w>
наслажда ться</w>
напря жён
нали чия</w>
на рисовать</w>
мя н
му ни
моман т</w>
мест ном</w>
ме шает</w>
ма му</w>
м ка</w>
ль ё</w>
ль ников</w>
ло дку</w>
ли ний</w>
кру га</w>
кре пить</w>
контро лю</w>
компонен тов</w>
ки не
кало рий</w>
кад ров</w>
ка ссе
ка ков</w>
ка з</w>
йд я</w>
исследовани ями</w>
инструмен тами</w>
и щу</w>
и ться</w>
значи ло</w>
земе ль</w>
заслужи вает</w>
занима лась</w>
зако нам</w>
загля ды
за нять</w>
жен ное</w>
жела нием</w>
дыха ния</w>
дра го
достоин ства</w>
дости гают</w>
доказыва ет</w>
де д</w>
д ном</w>
гран диоз
грави тации</w>
город ского</w>
город ские</w>
гово го</w>
гля дзе
глубо кий</w>
глоба льные</w>
га ль
га ды</w>
г мати
вяр ну
выбо ре</w>
вы годы</w>
вро жд
возь ми</w>
во т-
внеш ний</w>
вани ях</w>
вакци н</w>
ва не</w>
ва вших</w>
в ёт</w>
буду ць</w>
бесе ды</w>
бер ётся</w>
бата рей
ба ць
ба мбу
б би</w>
африкан ские</w>
арга ні
ано ма
американ ская</w>
амби циоз
аку лы</w>
акти виру
ай с
авто ма
австра ли
а пре
а ба
Фила дельфи
У х</w>
Технологи я</w>
Со циаль
Со мали</w>
С э
С ью
С тран
Раз ница</w>
Па циен
Му хам
Ме д
Ли бо</w>
Испа нии</w>
Ис следова
Ира на</w>
И гра
Зе лё
Дан ные</w>
Глав ное</w>
Гар ри</w>
Выгля дит</w>
Бы ла</w>
Б об</w>
Амазо нки</w>
А бе
t o</w>
X X
S k
S E
S A</w>
P R</w>
ён ную</w>
ё з</w>
я дови
эн ня</w>
электро энергии</w>
ша ми</w>
ш тра
член ом</w>
чере па</w>
чер те
худож ником</w>
хоро ша</w>
ходзі ць</w>
фио лето
утвержда ют</w>
упомина л</w>
уверен ностью</w>
убий ств</w>
у пор
туберку лё
тропи ческих</w>
торго вый</w>
тель ству</w>
теле видение</w>
те ро
тво ю</w>
т рас
т ень</w>
сэкономи ть</w>
сто н</w>
сти хи</w>
спут ника</w>
спу бли
спа ль
сосу дов</w>
сосу ди
созда нные</w>
совер шают</w>
со став
случи лся</w>
сла д
скульп туры</w>
серви с</w>
се зон</w>
ру д
роди тель
ри ан
рекла му</w>
рекла ма</w>
ре спонден
расши рения</w>
раз реш
раз лага
радиа ции</w>
равен ства</w>
р ным</w>
пять -таки</w>
прош лым</w>
прони ца
прозра чность</w>
прин ёс</w>
при ста
при спосабли
правитель стве</w>
пом нит</w>
полити ческую</w>
полити ческий</w>
показа н</w>
позволя ющие</w>
позволи л</w>
пожа ло
поднима ет</w>
по сы
по слуша
по влияет</w>
пла дыс
пи ц
переос мыслить</w>
пер фо
пе тен
пе сен</w>
па три
па ру
па роли</w>
па ли
па кет</w>
отлич ное</w>
отвеча ли</w>
отве том</w>
осу жд
осо бей</w>
осве щения</w>
оса дков</w>
ос се</w>
ос ен
оре л</w>
обща ются</w>
обра тном</w>
ни чем</w>
неуда чи</w>
независи мости</w>
не устойчи
нахо жусь</w>
науч ное</w>
науч ная</w>
нало ги</w>
на вод
молодо го</w>
мисси ю</w>
ми ло</w>
мета фо
ма лого</w>
ли сто
лати но
кус ки</w>
кур сы</w>
ку ль</w>
кро хот
кора ллов</w>
кон фигура
компьютер ная</w>
комби на
коллек ции</w>
ко шки</w>
ко на</w>
ко ля
кни гах</w>
клини ческие</w>
килограм м</w>
ище те</w>
ито г</w>
истин у</w>
инфици рованных</w>
инстру мента</w>
иностран ных</w>
изуч ению</w>
изуч ении</w>
извест ным</w>
из ги
ие рогли
иде али
значи тельные</w>
зна ки</w>
здравоохран ении</w>
здоров ьем</w>
запи сей</w>
закры ть</w>
загряз нение</w>
завер шить</w>
забы вать</w>
заба вно</w>
за полнен
жыцц я</w>
журнали стов</w>
жид кости</w>
жи лья</w>
естествен ных</w>
ен ными</w>
еди ной</w>
ды ра</w>
ду ша</w>
доста вки</w>
дискусси и</w>
дире кторов</w>
динозав ра</w>
джен тль
дет ство</w>
держа ли</w>
дево чку</w>
д ными</w>
д жи</w>
д -
государствен ного</w>
глу по</w>
глоба льным</w>
генети ческой</w>
г воз
выс шее</w>
вы ставля
вы играть</w>
времен ные</w>
вот- вот</w>
во образить</w>
во влеч
ви но
ви лась</w>
ви бри
взгля дов</w>
вз ят
вдохно вляет</w>
буду чы
бра та</w>
бор ту</w>
би лет</w>
бара ба
антибио тики</w>
адре с</w>
аген т
а пош
У ил
Т ен
Со вер
Ре спубли
Пен силь
Не вероятно</w>
Националь ной</w>
Ми стер</w>
Ми л
М эт
Коли чество</w>
Како вы</w>
Каза лось</w>
З доро
Дар вин</w>
Д жим</w>
Д ер
Воз враща
Брай ан</w>
Бра ун</w>
Б ор
А раб
А пол
l i
B C</w>
A c
9 -
199 9</w>
я кое</w>
я д</w>
ю но
экономи сты</w>
шту к</w>
ше лка</w>
ша м</w>
чёр ной</w>
четырё х
чер па
че го-либо</w>
цивилиза ция</w>
центра лизо
хоро шими</w>
фундамента льных</w>
фици ровать</w>
фа куль
учё ными</w>
уди вление</w>
ти ческая</w>
ти ке</w>
техни ке</w>
террори зм</w>
тен ы
температу ре</w>
тай ны</w>
табле тки</w>
та вли
сю жет</w>
сы ном</w>
суще ствами</w>
сум мы</w>
сты дно</w>
студен том</w>
сти на</w>
стату с</w>
стан ций</w>
ста рей
способ ствовать</w>
созда нный</w>
собира ет</w>
сло нов</w>
сколь з
си жу</w>
с су
с пы
с бур
с бор</w>
рин г</w>
ри ла</w>
рассказыва ли</w>
рассказыва ем</w>
распространя ются</w>
ран нем</w>
разде ления</w>
раз ву
рабі ць</w>
р ного</w>
р ений</w>
р -
прямо уго
произво дя
про стира
про пове
природ ного</w>
призыва ю</w>
прид ёт</w>
при чу
при ко
при го
при бре
при ба
превы шает</w>
пре взо
пра цэ
потеря ла</w>
потенциа ла</w>
посчастли вилось</w>
постро ены</w>
посте ли</w>
посе тить</w>
попа ла</w>
помога л</w>
показа ны</w>
поз днее</w>
пладыс менты</w>
пар нем</w>
па мі
п или</w>
отсут ствия</w>
отда вать</w>
от талки
от бора</w>
осно ван</w>
оружи ем</w>
орди нар
определён ного</w>
описа ния</w>
окружа ет</w>
оказыва ют</w>
ожида ем</w>
обнару жите</w>
об щим</w>
об ман
о крест
ні і</w>
ны -
норма льной</w>
необычай но</w>
ненави сти</w>
неве рагод
не трону
не благоприят
намер ения</w>
называ емое</w>
на силь
на знача
н ность</w>
н ности</w>
мощ ные</w>
моло де
мо тор
мо то
мно му</w>
миро вую</w>
микро организмов</w>
мен те</w>
медицин скую</w>
ма ю</w>
ма ра
ло ма
лидер ства</w>
л ками</w>
кро вя
коро ль</w>
конферен цию</w>
континен та</w>
контек ст</w>
конку ри
конкре тных</w>
кон фе
компьюте ру</w>
компьюте рами</w>
ком петен
ко ў</w>
ко фей
ко вс
кар ма
капитали зма</w>
ис па
интуи тивно</w>
измер ение</w>
излуч ение</w>
избе гать</w>
и ран
зо о
зи т</w>
зем ных</w>
здоро вого</w>
звёз ды</w>
занима ют</w>
зали ва</w>
зада ли</w>
зави сят</w>
жы ц
же ст
естествен ного</w>
еди ного</w>
ду ха</w>
ду ет</w>
до е
диагности ки</w>
ди лись</w>
дела й</w>
да ющие</w>
гос под
го тавли
го ре</w>
гна ть</w>
генети ческие</w>
газ ет</w>
выпол няет</w>
выбира ют</w>
вы зывать</w>
вой ной</w>
во стью</w>
во площа
включа ют</w>
вид ения</w>
взро сле
вер немся</w>
ве те</w>
в шую</w>
бюдже та</w>
бро си
боя лись</w>
биологи ческой</w>
био лог</w>
без грани
ба б
б ь</w>
б ра</w>
аудито рия</w>
аудито рию</w>
араб ском</w>
антро по
амери канец</w>
а ре
а де
Шан ха
Це ль</w>
Хоро ший</w>
Хоро шие</w>
Технологи и</w>
Т э
Т а</w>
С ьер
С тро
С ла
Робер т</w>
От сюда</w>
Норве гии</w>
Ни что</w>
Лин коль
Леонар до</w>
Л есте
К ем</w>
Джер си</w>
Г рей
Афри кан
А пладысменты</w>
on d</w>
ic k
a y
I B
3 50</w>
3 1</w>
- бы</w>
ў лен
яд ра</w>
я кой</w>
экономи ческая</w>
щи те</w>
шко льного</w>
широ ком</w>
ш учу</w>
черто вски</w>
челове ческом</w>
челове ческая</w>
че сти</w>
цифро вого</w>
це лым</w>
ф оби
учре ждений</w>
учи мся</w>
учи лась</w>
уче сть</w>
успеш ным</w>
успе хи</w>
уров ню</w>
упра влении</w>
ужас ная</w>
уда валось</w>
у род
у потребля
у порядо
у ехать</w>
тру бку</w>
традицион ной</w>
точ ным</w>
телевизор у</w>
те хно
те ста</w>
т разву
т нее</w>
сче та</w>
стреми тельно</w>
станови тесь</w>
сталки вались</w>
спон тан
специали ст</w>
спас ение</w>
соответ ствуют</w>
сове т
собствен ность</w>
снима л</w>
смотри шь</w>
смея лись</w>
се реб
се вер</w>
свиде телем</w>
сва іх</w>
сва й
са р
с рабаты
с ваю</w>
реш ка</w>
реак тор</w>
располо жен</w>
раз ве
путеше ствии</w>
проя вления</w>
проник нуть</w>
про чее</w>
про смотра</w>
про ро
пригла сить</w>
привер жен
при ступ
при несли</w>
при ли
препара тов</w>
превраща ет</w>
пре гра
пра бле
постро ен</w>
понима ла</w>
полю са</w>
пользова теля</w>
поль зы</w>
поло жил</w>
полити ческим</w>
позво нили</w>
подоб ный</w>
повы шение</w>
повто рно</w>
повед ением</w>
по чек</w>
по дар
площа дки</w>
пла вать</w>
пиани но</w>
пи ке</w>
пеще ры</w>
пен га
па чы
па ды
п сы</w>
п рене
отлича ться</w>
откры тыми</w>
отде л</w>
отверсти е</w>
остро вах</w>
оста нутся</w>
оста вляют</w>
осно во
осве щение</w>
организа циями</w>
октяб ре</w>
окамен е
объ ем</w>
обнару жим</w>
о провер
ни тесь</w>
нейро н</w>
нат кну
нала дить</w>
награ ду</w>
на ле
мора ли</w>
модер ни
микроско пом</w>
мигра ции</w>
ми гри
мето дами</w>
маши нах</w>
лы жах</w>
ло па
ли й</w>
ле то</w>
лау реа
кро ли
крас ной</w>
комфор тно</w>
клет ках</w>
квадра т</w>
като рыя</w>
кар дина
кампа ния</w>
каза ть</w>
каж у</w>
кад р</w>
ка ун
ка нали
к ций</w>
й о</w>
й ных</w>
й ный</w>
й ку</w>
использо ваны</w>
ис ключение</w>
имму ни
и с</w>
золо то</w>
значи мость</w>
зи он
звуча ло</w>
запад ной</w>
закончи лась</w>
за те
за ста
за блоки
жен ного</w>
жа т</w>
ен ность</w>
еже год
ды е</w>
древ них</w>
драв ствуйте</w>
дога ды
доволь ны</w>
добра лись</w>
до ктором</w>
дли ну</w>
дета лях</w>
демон страции</w>
де тены
дви жемся</w>
да ся
гэ тую</w>
груп пах</w>
генети ческого</w>
ген е</w>
газ ете</w>
выя сня
выступа ю</w>
выпол ня
выда ющихся</w>
выбра ться</w>
вы мі</w>
вто рым</w>
вре мен</w>
вра чом</w>
востор г</w>
воспомина ние</w>
вос приимчи
вообра жении</w>
возник ли</w>
воз вы
во влека
внеш него</w>
види мому</w>
вид на</w>
вер ный</w>
вели кого</w>
вели кая</w>
ве сит</w>
ва ющую</w>
ва т
в писы
в вели</w>
бума гу</w>
бои мся</w>
бес смер
бере га</w>
бер на
бе гать</w>
африкан ской</w>
а знача
Э тому</w>
Шек спи
Ш ар
Ча сть</w>
У читы
Т им</w>
Следу ющее</w>
Ска жите</w>
С им
Реб ёнок</w>
Пожа луй</w>
Пер вым</w>
Пакиста не</w>
От ве
Но мер</w>
Не й
Н И
Кен неди</w>
Индоне зии</w>
Из вест
И рак</w>
И наче</w>
И зу
За кон</w>
З им
З ак
Во круг</w>
Ви р
Бил ла</w>
Бен джа
Безу словно</w>
А в
in e</w>
ic a</w>
i s</w>
i d</w>
IB M</w>
G r
іншы х</w>
экспер т</w>
ще д
щ ённых</w>
ша х</w>
ш оссе</w>
ш енно</w>
чуде са</w>
чи сел</w>
чи в</w>
цеп ь</w>
хва тило</w>
ха м</w>
фраг менты</w>
формиро вание</w>
фор м
финанси ровать</w>
ф разы</w>
устрой ством</w>
успеш ной</w>
уничто жение</w>
у мов</w>
тун не
тро туа
то рию</w>
типи чный</w>
ти ческое</w>
теря ет</w>
та ций</w>
та ры</w>
су дить</w>
сты м</w>
стра хи</w>
стра ми</w>
станови лось</w>
став ку</w>
ста рого</w>
сро ки</w>
соответ ствие</w>
сооб ща
сом ни
собира лась</w>
соб лю
со обра
смотре ться</w>
скон ча
ско рой</w>
ске лет</w>
си е</w>
серти фика
с си</w>
с можешь</w>
с мени
рь ёз</w>
руковод ства</w>
ро до
рин га</w>
ри ка</w>
ресур сами</w>
рес т</w>
рекор д</w>
р ки</w>
психи атри
происходя щего</w>
про честь</w>
про дли
про воло
природ ные</w>
призна к</w>
при каса
при дать</w>
преступ лений</w>
предпо сы
превра тились</w>
пре старе
прави льным</w>
прав лен
похожи ми</w>
посе тил</w>
попро бую</w>
поме щении</w>
полез ных</w>
полага ется</w>
пол на</w>
подразуме вает</w>
подня ли</w>
под клю
повы си
по чему-то</w>
по степен
по друга</w>
плани рования</w>
пла ту</w>
пирами ды</w>
пи ю</w>
пи ка</w>
пи а
печа тать</w>
пести ци
пере стал</w>
пере ворачи
пациен тами</w>
отчаян но</w>
отража ют</w>
осно вали</w>
ос мыс
одинако вые</w>
объек том</w>
обра тился</w>
об руши
об зор
о ки
о зада
нуж ное</w>
ну с</w>
но вей
ней шие</w>
независи мость</w>
не одно
не обычно</w>
нас читы
на мі</w>
на бора</w>
н ёр
н дии</w>
мужчи нам</w>
моло ко</w>
мо ды</w>
международ ного</w>
мар си
маля рией</w>
логи ка</w>
лове ро
ло те
литера туре</w>
ли ны</w>
ли л</w>
лагер я</w>
кру гло
кри те
кора ллы</w>
кор пу
компа к
ко меди
кно пки</w>
клас сах</w>
каран да
кана лов</w>
ка ска
й ки</w>
исследу ем</w>
ис ходя
интере сен</w>
извест ного</w>
из ум
игро ков</w>
зно ў</w>
значи тельной</w>
зи ей</w>
земле дели
зда роў
звуко вой</w>
закончи тся</w>
за плы
жив ших</w>
женщи нах</w>
жен ным</w>
жда ла</w>
долж ность</w>
добы чи</w>
доб ро</w>
до ва
дз і</w>
дан ную</w>
да во
д ках</w>
граждан ское</w>
гото во</w>
говори шь</w>
го ра</w>
го л
гла го
г ла</w>
выро сло</w>
вы пустили</w>
вы бран
встреча ться</w>
вслу х</w>
все рьёз</w>
враща ется</w>
воспомина ний</w>
возмож ностях</w>
воен ной</w>
взгля да</w>
ве сё
вае мости</w>
в ступ
в ставля
буты лки</w>
буду щим</w>
бу да
бра ка</w>
боя лся</w>
бо я</w>
би т</w>
ато мной</w>
астерои д</w>
ас фаль
архитекту ру</w>
ар мию</w>
аль пи
активи стов</w>
а те
а ст
а ма
Я сно</w>
Фей сбу
Сво бо
С права</w>
С вя
Р эй</w>
Р об
Пра кти
Послед нее</w>
По я
Па с
ПТ СР</w>
П МС</w>
О те
Националь ный</w>
Му ра</w>
Моз г</w>
Мекси ке</w>
К ер
Здоро во</w>
Заме ча
Д ы
Д ж</w>
Д НК-
Го р</w>
Г ру
Бе зо
А ла
o d</w>
i en
XX I</w>
Sec ond</w>
L ab</w>
C RIS
9 8</w>
7 2</w>
6 0-
4 4</w>
4 3</w>
20 30</w>
199 0</w>
1 30</w>
ядер ный</w>
эффектив ных</w>
электро нных</w>
экономи ческое</w>
эк зем
экзем пля
эго исти
ь ей</w>
широ кого</w>
шах ма
ш тор
чы цца</w>
чи ками</w>
четвер ти</w>
ця ж
хле ба</w>
форми руется</w>
фе ка
участ ке</w>
уча ствовал</w>
умень шается</w>
улы б
уго ль</w>
у хода</w>
у на</w>
у глуб
тыся чами</w>
точ ных</w>
тол пы</w>
то ре</w>
то вари
ти руют</w>
ти ви
тести рования</w>
террито рия</w>
телевид ении</w>
тек сто
теат ра</w>
та ды</w>
су ши</w>
су пра
су де</w>
стра хе</w>
сто ло
ста ка
ст ка</w>
сси ми
сред них</w>
сред нее</w>
способ ностями</w>
спин ного</w>
сочув ствия</w>
сокра щение</w>
созна нием</w>
согла шение</w>
совер шать</w>
сни жается</w>
си ним</w>
си льных</w>
сем ьях</w>
сек са</w>
рэ ш
ру чку</w>
род ных</w>
ре ци
ре пети
распростра нить</w>
рас ще
раз реша
пы ли</w>
про сят</w>
про плы
про езжа
прин тер</w>
при внести</w>
препара т</w>
предотвра щения</w>
преде л</w>
правитель ств</w>
пра вах</w>
потреби тель
помести л</w>
пом нят</w>
полу чение</w>
полицей ских</w>
пой мём</w>
поез да</w>
под нимите</w>
повы шения</w>
пла тье</w>
пита тельные</w>
персона жа</w>
пере стала</w>
пере полнен
пере двига
педа го
п нев
отсут ствует</w>
орби ты</w>
опти ма
определи ли</w>
опа са
оказа ть</w>
ока зывать</w>
обы чную</w>
обы ден
объё мы</w>
о форм
о за
ну лись</w>
но ль</w>
недоста тка</w>
не мысли
не возможным</w>
начина ешь</w>
насы щен
мо ста</w>
мо ния</w>
микроско п</w>
механиз мов</w>
мар со
мальчи ки</w>
ма не
м ном</w>
ля тся</w>
люб я
лю ми
ль шую</w>
ло гом</w>
лич ную</w>
лич ност
ли лись</w>
ли вый</w>
лет няя</w>
лед ствие</w>
ле ра</w>
лам поч
л кам</w>
л жи</w>
культур ной</w>
культу рой</w>
кри ми
кри вая</w>
кре ве
кор тек
копи ю</w>
кон суль
коло ния</w>
ков -
ко ви
клас сы</w>
кардина льно</w>
како го-то</w>
каза ць</w>
изя щ
из ыска
иде ям</w>
и сте
зри тели</w>
знаком о</w>
зая вить</w>
защи щает</w>
заня т</w>
заня лся</w>
закон у</w>
зай мёт</w>
зада вал</w>
жизнен ного</w>
жерт вой</w>
жерт вами</w>
жа м</w>
еди ницу</w>
дя дя</w>
до вал</w>
держа л</w>
дельфи ны</w>
дельфи нов</w>
гу берна
грип п</w>
гне в</w>
генети ческих</w>
г рен
г ей</w>
высо той</w>
выбо ром</w>
вы играл</w>
вс ледствие</w>
восто ке</w>
возь му</w>
води тель</w>
вну ки</w>
внеш ней</w>
взя ться</w>
вз бира
велосипе де</w>
веду щих</w>
вдохно вить</w>
вакци на</w>
блок че
бе лая</w>
ба зы</w>
б ет</w>
аса блі
альтерна тивы</w>
ак т</w>
а ду
Уол л-
Тре тья</w>
Танза нии</w>
Тали ба
Так ім</w>
Север ном</w>
С. У.</w>
С по
Президен т</w>
Оте ц</w>
Ок ей</w>
Лос-Андже леса</w>
Л а</w>
Компью тер</w>
Ко ло
И рака</w>
З дравствуйте</w>
Восто ка</w>
Вне запно</w>
Ва ше</w>
В друг</w>
Брази лия</w>
Б ак
c ar</w>
ar d</w>
a v
Wor l
W i
T I</w>
S -
CRIS PR</w>
4- х</w>
3 4</w>
3 ,5</w>
2 5-
199 0-х</w>
198 4</w>
ё тесь</w>
яр лы
я ю</w>
я сни
широ кий</w>
чу сь</w>
член ами</w>
чи сто</w>
четы рь
четырь мя</w>
че л</w>
ч эй</w>
цио нали
цепоч ки</w>
хран ения</w>
хими ческий</w>
фран цу
финансо вого</w>
фи лан
ф ан
учре жд
успе хов</w>
уско рить</w>
упомя нуть</w>
уника льный</w>
уль тразву
удовлетво р
убий ство</w>
у сер
у ка
у виден
тя ми</w>
тю ар
трю к</w>
то по
ти ков</w>
твёр до</w>
твор ческого</w>
та ла</w>
т но-
сы ну</w>
счастли ва</w>
сфокуси роваться</w>
стимули ровать</w>
стара лся</w>
ста рым</w>
ста рую</w>
срав ним</w>
составля ющих</w>
созда ются</w>
собра ние</w>
соба ку</w>
смер тью</w>
словар ь</w>
сло ву</w>
сетя х</w>
серьёз ных</w>
сдела в</w>
свай го</w>
са цыя
с вед
рожд ении</w>
ро б
рисо вал</w>
рекла ме</w>
разру шает</w>
раз решением</w>
рав ной</w>
пуль с</w>
публика ции</w>
пря мая</w>
прыг нул</w>
пры ги
проста ты</w>
проис ходили</w>
производи тельности</w>
производи м</w>
продук ции</w>
програм много</w>
про движения</w>
принадлежа т</w>
применя ем</w>
при носить</w>
при ле
при ключ
прекрас ных</w>
презен тацию</w>
предпринима тели</w>
предме та</w>
практи ку
правосу дия</w>
пра дук
потреби тели</w>
пото ки</w>
посту пок</w>
построй ки</w>
постара ться</w>
популяр ных</w>
попу ля
поль за</w>
поли цией</w>
полез ные</w>
пол года</w>
позволя ющий</w>
пода льше</w>
пода вля
под ходы</w>
под ключить</w>
по чувствовала</w>
по ст</w>
по жела
по ехала</w>
по вод</w>
пле мян
плани рование</w>
пла тили</w>
пис ью</w>
переме щения</w>
пере ходит</w>
пере езжа
пере дают</w>
пере вод</w>
парт нёр
отправи л</w>
откры тости</w>
откры тием</w>
отказа лся</w>
останови лся</w>
оста льного</w>
осно ваний</w>
опублико вал</w>
он ко
окружа ющим</w>
окружа ющие</w>
об усло
о сле
о се
нуж ную</w>
ну ле
но ж</w>
низ ко
нес частью</w>
нена силь
не пода
не кое</w>
националь ном</w>
находи ли</w>
нау ш
насили ю</w>
наро дов</w>
называ лась</w>
наблюда ла</w>
на піса
муж ем</w>
му ся</w>
миро воз
меди а
ме д</w>
матери н
ма ловеро
лё ку</w>
люби те</w>
лео пар
лен ными</w>
лен де</w>
кі ра
кры ши</w>
космо нав
косми ческой</w>
корпора ций</w>
компьютер ную</w>
коллек тивного</w>
кол ё
кни гой</w>
кар ка
йд ёте</w>
й це</w>
исчез ла</w>
информацион ных</w>
индивидуаль ность</w>
изуч ением</w>
изобрет ений</w>
и не</w>
знако мых</w>
здоро вых</w>
защи щён
зара жения</w>
запя ст
занима етесь</w>
заканчи вая</w>
забо тятся</w>
за держи
за верши
з рением</w>
жи ра</w>
жен е</w>
ж ы</w>
едини ц</w>
е гип
егип тя
драго цен
добро во
дискримина ции</w>
ди ло</w>
де ль</w>
дви ч</w>
да след
да вая</w>
гру н
грам мы</w>
грави та
генети ческий</w>
га ции</w>
ві та</w>
высо ком</w>
выра жать</w>
вы вает</w>
встре ча</w>
вре доно
водоро д</w>
во влечь</w>
вну ков</w>
вл ён</w>
визуали зации</w>
видео игры</w>
взро сло
ве сной</w>
ва зи
бя та</w>
бра ла</w>
бо же
бо га</w>
беспокой ство</w>
бед ня
бе ло
бар ре
бакте рия</w>
ба га
аль ных</w>
ак каун
ази ат
аде ква
Э ли
Швейца рии</w>
Ш есть</w>
Центра льной</w>
Це ль
Т уни
Север ная</w>
С тюар
Ре бята</w>
Про из
П я
П ы
Олимпи а
На се
М Р</w>
Ли шь</w>
Ле й
Испо льзо
Искус ство</w>
Израи ле</w>
Зим баб
Зе ландии</w>
Ж ур
Е же
Гуг л</w>
Гон кон
Вер хов
k s</w>
in g
ec t
e e
an g
SE TI</w>
D V
D E
20 20</w>
20 -го</w>
. С.</w>
, 000</w>
язы ки</w>
явля етесь</w>
юмо р</w>
ю жной</w>
эффектив ной</w>
экологи ческие</w>
щ ённый</w>
ши ли</w>
чудови щ
чита ете</w>
чере па
че мо
че м
ч ныя</w>
цо ў
цифро вую</w>
характери зу
ха оти
фрон та
фор а</w>
финансо вый</w>
филь мах</w>
фабри ке</w>
ф лей
учё ного</w>
учи ла</w>
упомя ну
уда лить</w>
уг не
ува жать</w>
уби л</w>
уби вали</w>
у строить</w>
у на
у держать</w>
ту да-
тро пии</w>
трансформа ции</w>
траек тории</w>
торгов ля</w>
тон ны</w>
тера пев
темно кожи
телеви зион
ся го</w>
суб бо
су ста
студен та</w>
стиму л</w>
стар ение</w>
стан ция</w>
сро ка</w>
сравни вать</w>
спут ники</w>
спо р</w>
спаса ть</w>
сосу ды</w>
солне чного</w>
созда но</w>
согласи я</w>
совмест ной</w>
собствен ная</w>
собира ли</w>
со ло
сем ьями</w>
сек се</w>
сай тов</w>
с кле
рэ чы</w>
роз нен
родствен ников</w>
родствен ники</w>
ре порта
располо жена</w>
раз ы
публи чно</w>
проси т</w>
продоволь ствия</w>
про сла
про мы
про дю
природ ных</w>
призы в</w>
пригла шение</w>
при ю
прене бре
предло жений</w>
пребы вания</w>
пра вя
потреб лять</w>
постара юсь</w>
поро ждает</w>
поло жили</w>
полез ное</w>
покупа ют</w>
поку п
позво нить</w>
под талки
по це
по хва
печа ть</w>
переда ёт</w>
пере ход
пере жили</w>
партнё ра</w>
пар ко
паль цами</w>
па но
оцен кам</w>
отсле дить</w>
от печа
осуществ лять</w>
осла б
организа циях</w>
ор а</w>
окру жения</w>
означа ть</w>
обще приня
обсу ждение</w>
о ро
о зву
ня ма</w>
ну левой</w>
носи тся</w>
норма льным</w>
нор маль
нор веж
ниж нем</w>
недо оцени
на самрэч</w>
на ми
на жа
мыс лью</w>
му тации</w>
моз го
много -
миро вые</w>
мину тку</w>
ми ров</w>
ми ми
мет ре</w>
мест ными</w>
мест но</w>
мен и</w>
мас ло</w>
маля рия</w>
ма ёй</w>
любо зна
ль ду</w>
лу ны</w>
лен ность</w>
л ле</w>
купи ла</w>
кри чать</w>
крас ки</w>
кра й</w>
континен те</w>
комплек с</w>
ко ров</w>
клини ке</w>
клад би
катастро фи
кап су
к в
й ного</w>
ию не</w>
исчез нет</w>
использу емых</w>
ис пуга
инстру кции</w>
ин суль
изменя ет</w>
и ны</w>
зи й</w>
зе ви
захваты вает</w>
замеча тельной</w>
зали ве</w>
за шёл</w>
за то</w>
за т
за плани
за мены</w>
за долго</w>
за брошен
за би
з вен
ж ден</w>
естествен ные</w>
еру сали
ен ную</w>
еди ное</w>
дра мати
достоин ство</w>
дорого стоя
доку ментов</w>
до шли</w>
дизайне ра</w>
дет ка</w>
дерев ьями</w>
дела м</w>
да ста
гэта я</w>
грама д
грам мати
государ ством</w>
голо вок</w>
го -нибудь</w>
гла зом</w>
гало ў
г ва
выс шего</w>
выращи вания</w>
вымира ния</w>
вы ве
вспы шки</w>
вспом нил</w>
впечат ления</w>
возвраща ясь</w>
во шли</w>
во преки</w>
вз до
вече ра</w>
веда ю</w>
ве рен</w>
ве б
вдохнов ения</w>
вани ям</w>
вае мой</w>
ва ющиеся</w>
в ходят</w>
в кратце</w>
бума га</w>
боро лись</w>
больни цах</w>
боль шему</w>
биологи ческий</w>
беспоря до
без рассу
бан ковс
б рю
африкан цев</w>
архите кторов</w>
аль бо
актив ных</w>
ад на
ад кры
а пе
а бо</w>
а а</w>
Э ве
Шта зи</w>
Чу в
Х ил
Ф рей
Сьер ра-
Сот ни</w>
Си ла</w>
С три
С ак
Порази тельно</w>
П ры
Об разо
О ке
О ба</w>
Лю дям</w>
Лео не</w>
Ко пенга
Израи ль</w>
И ерусали
Зимбаб ве</w>
Джи н</w>
Де ла
Дви жение</w>
Г ран
В чера</w>
Библи и</w>
Бер кли</w>
o w</w>
i b
ac k</w>
X X</w>
I X</w>
I P
5 4</w>
5 2</w>
19 60</w>
1 80</w>
- не
ю гу</w>
электро магни
экономи и</w>
э го</w>
щ ённые</w>
шту ко
шта тах</w>
швей цар
ша рик</w>
что й</w>
чере п</w>
част ный</w>
ча му</w>
ч ностью</w>
цы й
хвата ло</w>
фу р
форми руются</w>
фла г</w>
фе ми
уча ствует</w>
устро ен</w>
ула вли
ужас ный</w>
убежд ён</w>
тё мная</w>
тю ре
трилли она</w>
то вые</w>
ти ру
ти нки</w>
тен ы</w>
те сты</w>
талан т</w>
счита лось</w>
стро й</w>
стен ах</w>
средне статисти
способ ствуют</w>
сохра ни
сотрудни честве</w>
состави л</w>
сосе д</w>
созда вал</w>
согласи е</w>
слож ными</w>
сле жки</w>
скры вать</w>
склон ность</w>
сказа ць</w>
ска чок</w>
сдела нных</w>
самолё ты</w>
самолё те</w>
с эр
с ці
с формули
реши м</w>
реш ена</w>
рентгено вс
режи ма</w>
распозна вать</w>
рас а</w>
разработ ка</w>
развлеч ений</w>
развива ющейся</w>
раз раста
раз ду
рав на</w>
ра ш
пыль цы</w>
пры жок</w>
профессо ром</w>
проси те</w>
производи тся</w>
проекти рования</w>
про чь</w>
про стите</w>
про анализировать</w>
принци па</w>
при ём</w>
прес сан
предска зыва
превра тилась</w>
поч те</w>
потер я</w>
полу тора</w>
пой дут</w>
подвер жены</w>
под сказ
побе ды</w>
по п-
по ляри
пла те
пи г
пес ча
пес ка</w>
персона ж</w>
пе чень</w>
па рой</w>
па з
охра не</w>
отража ется</w>
откры т</w>
от чёт</w>
ориги на
опреде ленно</w>
обы чном</w>
объё ме</w>
объеди нились</w>
обо йти</w>
обезья на</w>
обе да</w>
об работа
о пусти
нра виться</w>
но й
ни ге
нео кортек
невероят ная</w>
не ром</w>
не правда</w>
начн ётся</w>
наро ды</w>
наро ду</w>
напомина ют</w>
нале во</w>
наи менее</w>
музыкан тов</w>
му хи</w>
мощ ным</w>
молодёж ь</w>
мо ски
ме чтой</w>
ме ров</w>
ме кси
ман да</w>
макси мум</w>
магчы мас
магази нов</w>
ма мой</w>
ма лю
ма лая</w>
м ми</w>
лёг костью</w>
ля ли</w>
ло дке</w>
ле чению</w>
ле тия</w>
круп ный</w>
крес ла</w>
крас ная</w>
косми ческих</w>
короб ке</w>
контра кт</w>
кон курс</w>
кон вер
комп ен
коммуника ций</w>
ки ты</w>
ка р</w>
к ла</w>
использо вались</w>
ископа емого</w>
ис лам</w>
инди ка
имму нной</w>
измер ений</w>
издели я</w>
из ло
игро й</w>
зо нах</w>
значи тельное</w>
здоро выми</w>
звез дой</w>
зарабаты вают</w>
завер шение</w>
за пас
з ли</w>
жы ць</w>
журнали сты</w>
единствен ные</w>
е в
дю й
допол нение</w>
доказа ли</w>
догада ться</w>
до ў
до кс</w>
диа лога</w>
диа грамма</w>
ди ра
дела ми</w>
дево чкой</w>
де прессан
да ции</w>
да к</w>
да веда
государствен ные</w>
ге ев</w>
гар монии</w>
газе тах</w>
г да
вы во
воору жён
воздуш ных</w>
вод я</w>
внутрен ние</w>
вле чение</w>
вл ениям</w>
включа ть</w>
ви дах</w>
верши ну</w>
верто лё
ван ні</w>
в стал</w>
буд ди
благо состояния</w>
беру тся</w>
баш ни</w>
аргу мент</w>
ама ль</w>
ал ле
аду ка
а ра
Япо ния</w>
Я зы
Юж ном</w>
Ч ис
Цен тр</w>
Ф о
Учиты вая</w>
Тру дно</w>
Сьерра- Леоне</w>
Совер шенно</w>
Со вет
Следу ющая</w>
Силико новой</w>
С ю
С мыс
Рас ска
Раз ви
Пе с
Наи более</w>
Мо цар
Ми ке
Мекси кан
Ко рее</w>
Израи ля</w>
Д Ф</w>
Гре ции</w>
Г Г</w>
Вьет на
Бу дьте</w>
Босто не</w>
Арген ти
А ля
o x</w>
an d
Sk y
C or
6 4</w>
3 8</w>
1 2-
1 2
ў ва
ін фарма
і м
яр кие</w>
яй це
яд ро</w>
электро нную</w>
эк спор
э ки
ще йся</w>
шо ў</w>
шко льных</w>
ше дев
ш лі</w>
чисто го</w>
цион но</w>
цело ст
ц .</w>
ху т
хоро шен
хи й</w>
хаос а</w>
хаке ров</w>
фи ни
фаль ши
усер дно</w>
университе тов</w>
умира ли</w>
ули ц</w>
удовлетво рить</w>
угро жает</w>
у мы</w>
у зе
у видит</w>
тя нуть</w>
тюрь мах</w>
тысячеле тия</w>
труд ные</w>
тру бы</w>
треть ей</w>
трав мы</w>
ти руем</w>
теп ла</w>
та ски
та ин
т ёр
счастли вой</w>
супер марке
строи тельстве</w>
стра я</w>
сти н</w>
статисти ки</w>
стара лись</w>
стан цию</w>
стаби льность</w>
состоя ла</w>
сообще ствах</w>
солне чную</w>
созда ёте</w>
соедин ений</w>
соеди няет</w>
современ ным</w>
сове та</w>
со ро
со мнение</w>
слыша т</w>
слу жил</w>
системати чески</w>
сигна ла</w>
серд цу</w>
связыва ет</w>
са да</w>
с се</w>
ро вок</w>
рестора не</w>
реак цией</w>
распростра нены</w>
распреде лён
рако вых</w>
размыш ления</w>
радо стью</w>
работ ник</w>
рабо ти
р ную</w>
пусты ню</w>
пус к
пунк тов</w>
пу стой</w>
проя вить</w>
противополо жность</w>
простран ством</w>
программиро вания</w>
про вал</w>
принима ете</w>
прео дол
прекрас ной</w>
представля ется</w>
превра тили</w>
пра цу</w>
поч ту</w>
похо жей</w>
посе щать</w>
пор т</w>
получа лось</w>
полити ческое</w>
познакоми лась</w>
поез док</w>
подума ете</w>
подоб ными</w>
подгото вить</w>
подвер г
под водит</w>
погру жа
повто ри
по следующих</w>
по сле
по роди
плох им</w>
пла в
пище вой</w>
пера д</w>
пе н</w>
пациен ту</w>
патен т</w>
отде льности</w>
от цу</w>
останови лись</w>
осново полага
осно вание</w>
определён ное</w>
обязан ности</w>
объем лю
общи не</w>
обу ви</w>
обсужда ем</w>
обра тите</w>
обмени ваться</w>
о зер
ня лись</w>
ну сь</w>
но чной</w>
но сом</w>
несколь ким</w>
нес ла</w>
непода лёку</w>
не терп
наш ыя</w>
нача льной</w>
нахо ждения</w>
нахо ждение</w>
настоя щих</w>
направ лены</w>
написа на</w>
нако пи
наблю дают</w>
мэ р</w>
моз ги</w>
миллио нам</w>
мета н</w>
меди ка
медве дей</w>
ме ры
ме ром</w>
ману скрип
маги стра
магази нах</w>
ма тэ
ма кро
ма гу</w>
лоша ди</w>
логи чески</w>
ли т</w>
ли ста</w>
ли м
лек цию</w>
левс кую</w>
ку са
кто рами</w>
креп ко</w>
корруп ция</w>
корре к
контроли руют</w>
кому -нибудь</w>
компьюте рах</w>
компани ях</w>
кое- какие</w>
ко жны</w>
клады вать</w>
кише ч
ки о</w>
кам ня</w>
ка фе
ка е</w>
й цы</w>
й ка</w>
ископа емых</w>
ис пуска
информацион ной</w>
интерес ную</w>
интеллектуаль ной</w>
ин дей
ин вази
име ющие</w>
излуч ения</w>
зу бов</w>
знай сці</w>
зна ков</w>
землетряс ения</w>
зелё ным</w>
затраги вает</w>
зака з
заинтересо вался</w>
загру зить</w>
за ража
за пуска</w>
жу ю</w>
жесто кости</w>
жен ской</w>
ж ностью</w>
еру н
е дут</w>
до ске</w>
дире ктором</w>
ди лся</w>
ди ких</w>
ди ем</w>
дер жу</w>
демонстри руют</w>
двадца ть</w>
да ро
да м
гу ман
гром ко</w>
грани цей</w>
горо дке</w>
глоба льную</w>
гам бур
выясни л</w>
высо та</w>
вы пустить</w>
вы ли
вы лечить</w>
вспы шка</w>
вс пле
воро та</w>
волшеб ство</w>
возмож ны</w>
воен ный</w>
во шёл</w>
виртуаль ный</w>
вери ла</w>
ве ге
ван ность</w>
в кла
бух гал
бу ль
б ры
б ла</w>
астро нав
архите кторы</w>
антибиоти ков</w>
аль ные</w>
админи страции</w>
а ван
а бо
Ча му</w>
Фрэн к</w>
Ф -
У э
У правление</w>
Тома са</w>
Смыс л</w>
СПИ Дом</w>
С ме
Про шло</w>
Пот ря
П ин
П .</w>
Нель сон</w>
Националь ного</w>
Ма ла
М ум
Ли чно</w>
Ли бе
Компа ния</w>
Ког да-то</w>
Ко лле
Ди а
Джор джа</w>
Джеф ф</w>
Го рода</w>
Г ри
Все ленную</w>
Абсолю тно</w>
u m</w>
u m
ic s</w>
iP od</w>
ac e</w>
R e
P ro
M ar
9 7</w>
8 0-
19 80</w>
0 0-
0 .
ідэ я</w>
ё ны
эффектив ными</w>
эк ва
ь тесь</w>
щи мся</w>
щен ных</w>
шы я</w>
шу а</w>
шен ных</w>
шен ные</w>
чэн не</w>
чт ение</w>
чо га</w>
четвёр тый</w>
часто ты</w>
цион ными</w>
храни тся</w>
холо дной</w>
ходи шь</w>
хищ ников</w>
хак ер
футбо л</w>
форма т</w>
физи ческое</w>
фер ме</w>
фак тором</w>
фай л</w>
учи телям</w>
участ ков</w>
устойчи вое</w>
ум рут</w>
ум ения</w>
ули цам</w>
у хо</w>
у крепля
три -
тре щи
точ ного</w>
тол ку</w>
ти хо</w>
ти г
те сто
те -ка</w>
тан ца</w>
т. н.</w>
т кі</w>
сфе р</w>
стран ных</w>
страда ний</w>
стра то
стра стью</w>
ству ющие</w>
станови лся</w>
ст ят</w>
спо ров</w>
спас ения</w>
сопрово жда
созда ст</w>
соверши ли</w>
сме ша
слыши т</w>
слу хо
слу х</w>
сло ем</w>
сла ва</w>
симво лы</w>
си с</w>
сжи га
сви ней</w>
са ни
с эр</w>
с сыла
с ного</w>
с брасы
ру х
ру ка
род ного</w>
рова лось</w>
рейтин г</w>
результа тах</w>
реак ций</w>
ре чью</w>
рассчиты вать</w>
рассказыва ла</w>
рас писа
разгово ре</w>
разговари вали</w>
разговари вал</w>
раз обла
работа ющий</w>
пры га
процвета ния</w>
проте ста</w>
прозра чности</w>
продол жил</w>
проводи тся</w>
про куро
прин це
примен ении</w>
при шель
при творя
при емле
при ем
преуспе ли</w>
преступ ников</w>
предыду щих</w>
предста влении</w>
пре под
прав дой</w>
поч ва</w>
посвя тить</w>
помога я</w>
поми до
познакоми лся</w>
пожало вать</w>
подрост ком</w>
под писа
побе да</w>
по эти
по ступи
по клон
по знания</w>
по говорили</w>
плани руем</w>
пла нов</w>
переме сти
пере ходим</w>
пе т</w>
пара докс</w>
отказа лись</w>
от рази
от ключа
осторо жно</w>
осозна ют</w>
он то
окружа ющий</w>
ожида я</w>
оде жда</w>
огром ными</w>
ограни ч
обы чными</w>
объеди няются</w>
обознача ет</w>
обно вить</w>
об щении</w>
о сяза
ны не</w>
носи м</w>
нор мой</w>
но са</w>
но мера</w>
низ кие</w>
не удивительно</w>
не ров
не пред
националь ные</w>
настро ение</w>
напра во</w>
называ л</w>
наз вала</w>
надея лись</w>
наде ть</w>
на стойчи
на значение</w>
на дое
мусуль мане</w>
мура вей</w>
мор ские</w>
мини стер
ми ровая</w>
мень шего</w>
мекси кан
медицин ский</w>
май го</w>
ма лы</w>
ма лей
м ными</w>
люби мое</w>
ле тит</w>
л з</w>
л .</w>
культур ных</w>
кре дит</w>
краси вых</w>
концентра ция</w>
контра бан
конкурен ции</w>
кон грес
коль цо</w>
коло н
колеба ния</w>
ко т
ко рей
ко ем</w>
климати ческих</w>
кли п</w>
клас сов</w>
кам ней</w>
к за
исследо ванию</w>
индустри ю</w>
иммигран тов</w>
имен ем</w>
изо ляции</w>
извест ное</w>
и вается</w>
и -
зо вём</w>
зелё ной</w>
зво нки</w>
застави т</w>
запад ных</w>
заинтересо вать</w>
забы ваем</w>
забо ты</w>
за хочется</w>
за пустил</w>
за вести</w>
за бе
з ло</w>
жела нию</w>
е дете</w>
е де
ды ру</w>
домаш них</w>
домаш него</w>
до чер
дипло ма
дже ло</w>
дея тельностью</w>
дет ёны
дерев ен
деву шку</w>
де фек
дво ю
дат чик</w>
дале ки</w>
да в</w>
гор жусь</w>
геро ем</w>
выступ лении</w>
воспо льзу
вос кли
возмож ного</w>
вне зап
ви ще</w>
взросло го</w>
верну л</w>
вели ки</w>
веда еце</w>
в ходя
в вед
бы тия</w>
брать ями</w>
бор ются</w>
бом бо
боле н</w>
бла город
безопас нее</w>
бе лым</w>
бан ке</w>
балан са</w>
ба й
аэропор ту</w>
афро -
аса бі
аргу менты</w>
ар мия</w>
ал фа
азнача е</w>
автори те
Фон д</w>
Тыся чи</w>
Ти хого</w>
Т ради
Сле дова
Са м</w>
С ы
Результа ты</w>
Ре шение</w>
Р э
Про ш
Объ един
О кла
Нью- Джерси</w>
На д
Мно жество</w>
М В</w>
Л ар
Кри сто
Ис следование</w>
Из мен
Един ственный</w>
Дру гое</w>
Джо шуа</w>
Дево чка</w>
Го лу
Г ля
Вра чи</w>
Во да</w>
Википе дии</w>
Би р
Бе с
Б ос
Б л
А м
t he</w>
l a</w>
es s</w>
d u
P h
E x
7 -
5 0-х</w>
3 000</w>
20 16</w>
2 1-го</w>
199 7</w>
195 0-х</w>
10 0-
1 60</w>
ў шы</w>
і мі</w>
ядер ная</w>
ю го-
энер гі
электро моби
экологи ческой</w>
эко систем</w>
эволюциони ровали</w>
ще дро
щ ениях</w>
шриф т</w>
ш ра
чёр ных</w>
чёр ки
цент ру</w>
цени ть</w>
ц -
хра б
ха х</w>
функциони рует</w>
фра кта
физи ческую</w>
участ никами</w>
участ ка</w>
уро ков</w>
упра влением</w>
упо рно</w>
упа ла</w>
университе ты</w>
удиви тельной</w>
уби ли</w>
у ку
у кры
у два
у вижу</w>
тыся чам</w>
туда- сюда</w>
ту ф
трущоб ах</w>
труд ностей</w>
тон не
то ном</w>
то но
теря ть</w>
т .</w>
сё ды</w>
счастли вый</w>
сх еме</w>
существо вал</w>
сумасшед ший</w>
суд ья</w>
стро ения</w>
стран ная</w>
стра дать</w>
сторо ной</w>
столкну лась</w>
столкнов ение</w>
ста тье</w>
сред ним</w>
срав нение</w>
спо ка
созда нных</w>
созда нная</w>
совершен ствовать</w>
собесе д
со й</w>
смен у</w>
служа т</w>
сли зеви
следу ющую</w>
сим пати
си ровать</w>
си льного</w>
сетча тки</w>
серд цем</w>
сем ьям</w>
сель ских</w>
секре тар
се сси
се да
сдела нный</w>
свобод ной</w>
свиде телями</w>
свиде тельство</w>
свиде тельства</w>
сва ім</w>
с ведения</w>
ру ющим</w>
ро к-
ро ды</w>
ро дов</w>
репу тация</w>
регули ровать</w>
ре пор
рас пы
разру шение</w>
равнове сие</w>
р ка</w>
р ени
психо па
психи ат
прожи вания</w>
продю се
прогрес сив
про ч
про кормить</w>
присут ствия</w>
приме м</w>
придумы вать</w>
при сыла
при стра
при ман
препара та</w>
предполага ют</w>
пред рассу
превраща ются</w>
превра тился</w>
праца ваць</w>
правля ть</w>
постоян ное</w>
поста вок</w>
посвя щён
поса дить</w>
портре ты</w>
понима я</w>
пользова тели</w>
поки нул</w>
покаж ем</w>
познакоми ться</w>
пози ция</w>
подходя щий</w>
подо ж
поддержи вали</w>
под желудо
по- видимому</w>
по совето
по лях</w>
плат форма</w>
пи л</w>
перено си
переда ча</w>
пере йдём</w>
пе ссими
парла мента</w>
паль цем</w>
паві нна</w>
па -
очере дной</w>
отправля ются</w>
откры тое</w>
оте ле</w>
ответ ственно</w>
от пу
останавли ваться</w>
оста вались</w>
ос фе
определён ным</w>
окружа ющая</w>
океа ном</w>
одинако вы</w>
объек тами</w>
обу вь</w>
обра щения</w>
обо йтись</w>
о ско
о ра
о плодо
о зера</w>
о е</w>
ноутбу к</w>
но ни
непри емле
необходи мой</w>
неде я
не форма
не бо
находя щиеся</w>
науч ную</w>
насеко мое</w>
наблюд ений</w>
на та</w>
н ью
мі ль
мы ть</w>
муни ци
моло чной</w>
мо мента
мл рд</w>
минист ра</w>
микроско пи
ми стер</w>
медици ну</w>
ля я</w>
люби телей</w>
ло на</w>
ло дка</w>
лич ным</w>
лич ном</w>
ли зи
лет ним</w>
лес би
леп ш</w>
лен ном</w>
лен да</w>
ле вую</w>
лан джело</w>
культур ные</w>
кте й
кры шу</w>
кры лья</w>
круп ным</w>
кри зи
кош мар</w>
короб ка</w>
коро вы</w>
коор ди
ко ров
кла па
карто фе
кандида тов</w>
ка ле
й е
ис кри
интерне том</w>
интересо ваться</w>
интерес ной</w>
интерес на</w>
инте рье
ин декс</w>
име ете</w>
им пе
иллю страции</w>
изуча ет</w>
из вне</w>
зри тельный</w>
золо та</w>
зем ные</w>
звуча т</w>
зво нит</w>
зако ном</w>
задума йтесь</w>
зави сеть</w>
забо та</w>
за писали</w>
за меня
жыц ці</w>
жи телями</w>
жи тельно</w>
жа л
дё ше
ды м</w>
ду ют</w>
дре ве
достиг нем</w>
дол га</w>
до н
до лей</w>
дли тся</w>
дзя ў
деба ты</w>
дав ности</w>
да дз
гэ тых</w>
граду са</w>
гото вых</w>
горо дами</w>
гну ць</w>
глубо ковод
геро и
га й</w>
вычисли ть</w>
выстав ке</w>
выс шей</w>
выпус к
вы ходя
вы ста
вы играли</w>
встре тился</w>
вре за
вось ми
вой ска</w>
возь мите</w>
возраста ет</w>
води тели</w>
внутрен нее</w>
вло жения</w>
влен ные</w>
взя тые</w>
вещ ью</w>
вече ри
вели кое</w>
в правду</w>
бра том</w>
бор т</w>
бо г</w>
благо состояние</w>
без работи
бед ностью</w>
бе р</w>
бе лой</w>
бар ди
аў ты
африкан цы</w>
аути змом</w>
архите ктор</w>
антро поло
альпи ни
аль ное</w>
аз ота</w>
аб ет</w>
Эйнштей на</w>
Филадельфи и</w>
У ор
У Ф-
Сли шком</w>
Следова тельно</w>
Си туа
Сатур на</w>
С мер
С С</w>
Про шу</w>
Про исходит</w>
Потря са
О преде
О л
Но вые</w>
Мике ланджело</w>
Мекси ки</w>
Л ью
Ку ль
Ко му</w>
Кар л</w>
Ка ков</w>
К рей
Есте ственно</w>
Джеф фер
Д он
Гей тс</w>
Г рин
Г лу
Возвраща ясь</w>
Вашинг тона</w>
В я
В начале</w>
Бо н
Б о</w>
А Р</w>
u x</w>
ap h
al l
a f
T h
NA SA</w>
N ational</w>
Bl u
5 6</w>
19 00</w>
1 40</w>
0 х</w>
ў сім</w>
яўля ецца</w>
язы ку</w>
ю г</w>
эф фи
эффи циен
эта па</w>
электро ды</w>
э мпа
щи ками</w>
ще гося</w>
широ кой</w>
ше ствие</w>
ш от
ш лось</w>
ча сам</w>
ч ников</w>
ци лли
цен ой</w>
цве ток</w>
худ шее</w>
фі зі
фо р</w>
фе ро
фабри ки</w>
ф лек
установ ка</w>
умира ть</w>
ува жа
у креп
у езжа
тран за
то ру</w>
то ка</w>
тиши на</w>
ти ческую</w>
технологи ческих</w>
тео рией</w>
тем п</w>
тек сту
та ны</w>
ся рэ
сюр при
сы нов
су дя</w>
стро го</w>
стре ко
стран ный</w>
столкну ться</w>
сто ль
стиму лы</w>
сти к</w>
сред нюю</w>
сред неве
специаль ный</w>
спа д</w>
сосед ству</w>
сопережи вания</w>
сожа ле
со ц
со тряс
смы слом</w>
смарт фон</w>
слож на</w>
сло жить</w>
сла х</w>
склады вается</w>
скани рования</w>
симво лом</w>
серьёз ный</w>
серд це
сек вой
свин ьи</w>
самолё тов</w>
са мки</w>
с род
с ную</w>
ря ми</w>
руковод ством</w>
ру ющей</w>
роско ш
род ном</w>
ро би</w>
реши те</w>
реабили тации</w>
ре ми
ре генера
расстрой ств</w>
распространя ться</w>
рас страи
различ ным</w>
раз ной</w>
рабо чем</w>
ра ми
пят ницу</w>
пытан не</w>
пче лы</w>
пусти ла</w>
проду кто
про сле
про йдёт</w>
при хо
при влечения</w>
преступ ники</w>
предпочт ения</w>
предоста вляют</w>
пра вую</w>
пра ве</w>
похо жим</w>
посыла ют</w>
поступ или</w>
постро ено</w>
постоян ной</w>
попы тках</w>
поме щения</w>
полу шари
поло тен
поли цию</w>
полага ться</w>
покол ением</w>
показыва ем</w>
покаж ет</w>
пой мите</w>
позволи те</w>
подходя щее</w>
подрост ки</w>
подража ния</w>
поддерж кой</w>
под ходили</w>
погиб ших</w>
по чита
по чер
по прав
по кон
по здра
площа дью</w>
плане той</w>
пи ва</w>
персона жи</w>
передо вой</w>
пере лом
пере ехала</w>
пере воды</w>
пача лі</w>
па дзя
п с</w>
отли чить</w>
отклон ениями</w>
отде лении</w>
от пуска
от кровен
от бор</w>
оста льной</w>
оста вшиеся</w>
освобо ждения</w>
объяс нять</w>
объя вил</w>
объедин ения</w>
обществен ный</w>
обуч ению</w>
обра тную</w>
о ли
о дея
ню ха
нуж ный</w>
нуж ные</w>
носи ла</w>
норма льные</w>
но чам</w>
но ж
не сет</w>
не однозна
не и
нача ль
науч ным</w>
нарисо вал</w>
напра влению</w>
наль ных</w>
нагля дно</w>
навы ками</w>
на ций</w>
на встречу</w>
муль т
мпи ри
мошен ни
мо нию</w>
мл н.</w>
мень шее</w>
мен ю</w>
ме те</w>
ме бель</w>
математи ческие</w>
ма лых</w>
лу ч</w>
ли ц.</w>
лету чие</w>
лаборато рий</w>
л лю
куп ю
кры с</w>
кров ью</w>
корот ко</w>
концентра ции</w>
конкре тные</w>
коммента рии</w>
коман д</w>
количе ствах</w>
ко ктей
кло ни
кило метрах</w>
кварти ре</w>
като ли
катастро фа</w>
каса тельно</w>
каж а</w>
й дите</w>
исследова тель</w>
испыты вает</w>
искор ен
интерне ту</w>
им пери
измен чи
из вер
иде ях</w>
игру шек</w>
значи тельный</w>
значи мости</w>
зи ра
землетряс ение</w>
здоров ью</w>
зарпла ту</w>
запуска ть</w>
запис ан
замеча тельную</w>
заме ша
заклю чения</w>
заинтересо ван</w>
зада ний</w>
заголов ки</w>
заболевани ями</w>
за сты
за полни
за ма
з или</w>
з ве
жиз недея
еди ницы</w>
европей ских</w>
е ла</w>
дя ми</w>
доступ е</w>
достаточ ной</w>
доро гое</w>
доли ны</w>
долги х</w>
доку мент</w>
дове лось</w>
до пу
дли нная</w>
ди шь</w>
депресси ю</w>
действи ях</w>
действи ями</w>
деву шкой</w>
дево чкам</w>
де ц</w>
да нии</w>
д жу</w>
гу ль
гру з</w>
гру дь</w>
грам м</w>
гражда нами</w>
гол ланд
глубо кой</w>
глубо кая</w>
гаран тировать</w>
газе ту</w>
г ви
вы са
вы кары
вся ких</w>
все объемлю
вол ни
возмож ной</w>
возду хом</w>
во е
вну три
вл ёк</w>
взаимо связаны</w>
вер сі
ва ции</w>
ва ло
в питы
бы вших</w>
броса ют</w>
бом барди
большин ству</w>
бо ю</w>
благополучи я</w>
би я</w>
бата реи</w>
барье ры</w>
аргані за
анти депрессан
американ ским</w>
адбы ваецца</w>
аген тства</w>
а э
а х
а сси
а несте
Юж ная</w>
Ш и
Ф ени
Спо соб
Публи ка</w>
Практи чески</w>
Послед няя</w>
Подоб ные</w>
Пер вой</w>
Па три
П си
Окла хо
Ни кола
Начи на
Най роби</w>
На против</w>
Мум ба
Муж чины</w>
Лу ны</w>
Латин ской</w>
Л .</w>
Коро че</w>
Коро лев
Колумби я</w>
Ка ра
Ира не</w>
Зада ча</w>
До пустим</w>
Д ю
Грен ландии</w>
Господ ь</w>
Го спо
Го д</w>
Вир джи
В- третьих</w>
Бро нк
Безо пас
Ба ли</w>
Б рен
Алексан др</w>
Алек с</w>
А С</w>
r aph
og raph
o t</w>
ar th</w>
an d</w>
I Q</w>
C ol
8 6</w>
5 9</w>
199 4</w>
-лет него</w>
эн циклопе
эмоциональ ное</w>
электро ники</w>
ыска ть</w>
щи ком</w>
ша т</w>
ш ли
чёр т</w>
чи вает</w>
чен ного</w>
ча ется</w>
ход ные</w>
хо дах</w>
хи тро
характеристи к</w>
характери зо
физи ческий</w>
фи ти</w>
ф т</w>
ф ри</w>
уч реди
установи л</w>
установ ку</w>
упра влению</w>
ум ру</w>
удовлетво рения</w>
удоб рения</w>
угро жа
увеличи вать</w>
увеличи вает</w>
убий ства</w>
у ход</w>
у спока
у кор
тро гать</w>
тра вы</w>
точ ках</w>
тив е</w>
технологи ческие</w>
телефо не</w>
та ць</w>
т кам</w>
т ение</w>
счита я</w>
су хой</w>
ству ем</w>
стави л</w>
ста ць</w>
ста тей</w>
сред ствами</w>
сража ться</w>
справи лись</w>
спра ве</w>
способ ный</w>
специали зирован
спа чу
сот ню</w>
соответ ствовать</w>
соеди ни
собра ла</w>
со пут
со постави
со ном</w>
со ль</w>
со ж
снима ли</w>
сме лость</w>
случай ные</w>
случай ность</w>
сло ман
сло жив
ско п</w>
симво лов</w>
сентяб ре</w>
сегодняш ней</w>
связа ться</w>
свер хно
сбере жений</w>
саха р</w>
са хар
с ма
с лё
руководи телей</w>
робо том</w>
ри сто
религи ю</w>
резю ме</w>
ре ль
различ ны</w>
разви вались</w>
раз ное</w>
равно прави
рабо в</w>
ра ку</w>
публи ка</w>
проя вление</w>
процес су</w>
процеду ры</w>
просто та</w>
продолж ение</w>
пробле мати
про чита
про тивном</w>
про би
про б</w>
причу дли
приня тии</w>
принципи ально</w>
принадле жности</w>
приз му</w>
привлека ют</w>
при слуши
при даёт</w>
престаре лых</w>
прес се</w>
прес са</w>
представля ла</w>
предста вил</w>
предприя тие</w>
предло жила</w>
преде льно</w>
пре ле
пра ек
пра вами</w>
постоян ного</w>
понима нием</w>
получи ться</w>
положи тельный</w>
поис ком</w>
поис кать</w>
поз д
подоб ную</w>
по тым</w>
по т</w>
по ступила</w>
по пол
по гу
площа дку</w>
пласти ковых</w>
плака т</w>
пла тим</w>
пла тель
пить евой</w>
печа льно</w>
персона жей</w>
перене с
пере ло
пере ехали</w>
пере ехал</w>
пере ве
паралле льно</w>
пад тры
п рэ
офи це
отправи лась</w>
отме тил</w>
отли чия</w>
отде льного</w>
ответствен ны</w>
от дыха
от делить</w>
оставля я</w>
оста влять</w>
ост ро</w>
ос матри
организа циям</w>
орби те</w>
ор то
опас ный</w>
олице творя
ограничен ными</w>
общи н</w>
об на
об мен
о собой</w>
о слож
о лимпи
ні чога</w>
ну лю</w>
нехва тка</w>
нер вы</w>
необы чное</w>
невро логи
не поня
написа ния</w>
надеж дой</w>
на шай</w>
на ступит</w>
на строй
на нять</w>
мыс лях</w>
муж ского</w>
мпа ми</w>
мощ ная</w>
мотива ция</w>
моби льного</w>
мо ре
много- много</w>
много му</w>
млекопита ющие</w>
ми фо
места м</w>
мен ш</w>
ме тео
материа лами</w>
марси ан
маги я</w>
маг чы</w>
ма лые</w>
лі ць</w>
лі ва
лён ные</w>
лёг кий</w>
люби мым</w>
лож ные</w>
ло н
лич ными</w>
лед ников</w>
лед нико
лед ник</w>
лег ких</w>
лам пы</w>
ла па
ла йн</w>
ла й</w>
ла д</w>
кі мі</w>
культу рах</w>
круп нее</w>
кроше чный</w>
крас ную</w>
кра і
костю мы</w>
концер т</w>
конферен ция</w>
контра к
конструи ровать</w>
коме ты</w>
колле гам</w>
колен и</w>
ко лю
кну л</w>
килограм мов</w>
кварти ру</w>
каса ются</w>
карти нок</w>
к во
й ные</w>
истори ческий</w>
испыта ли</w>
ис пове
иноплане тя
инжене рии</w>
изобра жением</w>
изгото вления</w>
и ная</w>
зыва ется</w>
зо к</w>
зна нием</w>
зме й</w>
здоро вый</w>
замы слова
замедли ть</w>
закон чу</w>
зада лись</w>
заво ражи
за пуск</w>
за действовать</w>
з біра
жи телям</w>
жен ские</w>
е ци
е ра</w>
дура ц
ду хом</w>
доступ ности</w>
до пусти
дзя чы</w>
дет ский</w>
деся т</w>
демократи ческих</w>
де к
де ви
дан но</w>
да на</w>
да дут</w>
да вал</w>
грани це</w>
гомо сексу
гола с</w>
глав у</w>
гла з
гипоте зы</w>
гео логи
геноци да</w>
выход ные</w>
высо ка</w>
выра жа
вы учить</w>
вы растет</w>
вс плы
воз действию</w>
во ле</w>
владе лец</w>
визуаль ные</w>
вер ным</w>
ве сти
вае мого</w>
в ена</w>
бу дзь</w>
брази ль
боль ша
болез нями</w>
бога тым</w>
бо же</w>
близ кие</w>
благотвори тельности</w>
благодар на</w>
би и</w>
беспровод ной</w>
бензи на</w>
бе г
б рэн
алгорит мов</w>
ак ции</w>
адно сі
а пы
а ви
Ш от
Ц я
Фор д</w>
Уи лья
Уган де</w>
То кио</w>
Теха с</w>
Т. е.</w>
Ситуа ция</w>
С уда
С те
Рабо тая</w>
Про дол
Прин ци
Попробу йте</w>
Полу чи
Пакиста н</w>
О х</w>
О сно
О бо
Не зависи
На уч
Мо ей</w>
Мо е</w>
Ми чи
Ман дела</w>
Маль чик</w>
Ма ха
Любо вь</w>
Лос-Андже лес</w>
Клин тон</w>
Интерне ту</w>
Глав ная</w>
Вз ять</w>
В .</w>
Бо гом</w>
А ген
s h
ograph ic</w>
o s</w>
h a</w>
X IX</w>
O n
In ter
G O</w>
E arth</w>
A ir
9 6</w>
і я</w>
ён ном</w>
яр ко</w>
які х</w>
я -
эн ди</w>
электро станции</w>
эко систему</w>
шту р
ш три
ш ле
числен ности</w>
чи пе</w>
чи вают</w>
част ного</w>
ч ники</w>
ч най</w>
цион ном</w>
цивилиза ций</w>
цен ные</w>
ц удо
хоро шем</w>
фундамента льные</w>
фундамента ли
форма те</w>
филосо ф</w>
физи ку</w>
ферме рам</w>
фа х</w>
ф фек
уме ем</w>
указыва ют</w>
ужас ным</w>
удиви ло</w>
уда ра</w>
уг ла</w>
увер енно</w>
увеличи тся</w>
у тро
у стран
у ехал</w>
у глуби
тя ж
ту рой</w>
ту пик</w>
тру бо
тран сли
траек торию</w>
тор же
тол ко
то ле
техни ческой</w>
тен ти
телеви зо
так -то</w>
т ти</w>
сэн двич</w>
сыно вей</w>
сфе рой</w>
су ше</w>
су ди
стро я</w>
стро к</w>
стра хов
столе тие</w>
стви ю</w>
спек тро
состави т</w>
сообщи ли</w>
сообще ством</w>
современ ное</w>
собра ния</w>
со веща
сня то</w>
слуша ют</w>
слуша ю</w>
слу ха
следу я</w>
ско т</w>
син дром</w>
симпто мов</w>
силь ны</w>
сига ре
сериа л</w>
середи ны</w>
се тку</w>
сдви г</w>
свобод ное</w>
сва ё</w>
сбор ки</w>
сбере жения</w>
с ным</w>
рю кза
ры лі</w>
ро сте</w>
ро жде
ри лся</w>
религи ей</w>
рекла ми
реа нима
размыш лений</w>
раз работок</w>
раз броса
работ ка</w>
раб ства</w>
ра вен</w>
р ём</w>
р ку</w>
пры гнуть</w>
процве тать</w>
профи ль</w>
протести ровать</w>
просну лся</w>
програм мой</w>
пробо вали</w>
про шел</w>
про ходя</w>
про пуск
про игра
про бы</w>
приходи л</w>
привы чки</w>
приближа ется</w>
при сматри
при кры
при крепля
прес с-
препят ствие</w>
преимуще ственно</w>
президен т
преду га
представлен а</w>
праця гу</w>
прав до
поя влением</w>
поч ве</w>
потряса ющей</w>
пото лок</w>
потер ю</w>
поса дили</w>
попыта юсь</w>
полити кой</w>
полага ем</w>
поко я</w>
поез дку</w>
подня лись</w>
побо чные</w>
по кажется</w>
по ворот</w>
пло доро
плака ть</w>
пита ются</w>
писа телей</w>
пи шем</w>
пи то
пеще ре</w>
пере кры
пере ключи
пе чь</w>
пах нет</w>
пассажи ров</w>
пар тию</w>
па ре</w>
па л</w>
п сов</w>
п ры</w>
ощу ти
ошибо чно</w>
отлича ет</w>
откли к</w>
от ступа
оста вался</w>
осо бого</w>
освобо дить</w>
опреде ленный</w>
окситоци н</w>
оконча тельно</w>
ожи дают</w>
оде жде</w>
огром ном</w>
объя вили</w>
объедин ение</w>
объеди ни
обще ств</w>
обходи тся</w>
обсужда ют</w>
обре сти</w>
образу ется</w>
оборо ны</w>
обеспоко ены</w>
об ман</w>
ня ю</w>
ну лась</w>
низ кого</w>
низ кий</w>
ниге рий
нейро биологии</w>
не многих</w>
не м
не изве
не возможное</w>
нару шение</w>
направля ть</w>
наву чан
на ступил</w>
на последок</w>
на воз
на во
мя т</w>
молодо сти</w>
моло же</w>
много обеща
микро б
места ми</w>
мест ное</w>
мес ца</w>
мах ер
м ля
ль ям</w>
лли н
лету чих</w>
лен ты</w>
ле тя
ла зе
крыль ев</w>
косми ческие</w>
контак та</w>
конкурен ция</w>
кон вей
ко п
ко ка
ко де</w>
кли ники</w>
кла ви
ки та</w>
карье ре</w>
карти не</w>
како е
к рю
й ной</w>
истори ях</w>
исти на</w>
исследовани ям</w>
исследо ванием</w>
искус ству</w>
ис т</w>
интере са</w>
инвесто ров</w>
изобре тать</w>
идеаль ной</w>
и ные</w>
и бо</w>
зрели ще</w>
зразуме ць</w>
значи ли</w>
знамени то
зву ком</w>
зая вления</w>
запре щено</w>
запре т</w>
запа ха</w>
запа с</w>
задумы вались</w>
зага дка</w>
заболе ванием</w>
забо тится</w>
за ха
за та
за помнить</w>
жи р</w>
жерт ву
жела я</w>
жд ём</w>
жа ми</w>
ж дет</w>
ду ш</w>
ду хо
друже люб
достаточ ное</w>
домаш нее</w>
добавля ем</w>
до пустить</w>
до нор
до йти</w>
до быть</w>
дли тельного</w>
дис сер
ди на</w>
ди абет</w>
джи н
дере вом</w>
да но</w>
да вала</w>
да бы</w>
д ря
д ность</w>
гу р
грузови к</w>
горо жа
гомосексу али
гнез до</w>
глав ного</w>
вытащи ть</w>
вымер ли</w>
встреча лись</w>
враща ются</w>
вра чам</w>
вра г</w>
волю ция</w>
водоро слей</w>
внеш ним</w>
внед ря
влия нию</w>
вла деть</w>
взгля нул</w>
вен чу
величи не</w>
великолеп ный</w>
веж ли
ве б</w>
ва рь
ва мі</w>
в тра</w>
в дыха
бя спе
быстро е</w>
боре мся</w>
боль ного</w>
бли ж
благополучи е</w>
бла г</w>
бе рите</w>
ба ти</w>
астрономи и</w>
астерои ды</w>
аспек тов</w>
архите ктора</w>
акцен т</w>
ак ва
автобу се</w>
а- гра</w>
Э ффек
Э Г</w>
Ч Р</w>
Ф ин
Тур ции</w>
Тре тье</w>
Те о
Т ран
Стэнфор де</w>
Студен ты</w>
Спе циаль
Сер ьё
Са удов
Са м
С част
Прекрас но</w>
О га
Над пись</w>
М Т</w>
Ло с</w>
Ку р
Конгрес се</w>
Кон ститу
Колумби и</w>
Ко сми
Кар не
К ре
Информа ция</w>
Ин ститут</w>
Зна ю</w>
Ди его</w>
Джон сон</w>
Джон с</w>
Д рей
Гово рят</w>
Га лапа
Ви дно</w>
В сю</w>
Б Г</w>
А ка
s on</w>
p er
en t</w>
Yor ker</w>
W ar
P o
N ike</w>
Ge ographic</w>
DV D</w>
D is
5 8</w>
199 5</w>
0, 000</w>
.or g</w>
. S
ў яві
ў сяго</w>
яр кий</w>
яи ц</w>
я но</w>
ю чы
эфи ре</w>
эпи ле
эмо ционально</w>
экономи стов</w>
щен ный</w>
шу сь</w>
што сьці</w>
ш ет</w>
чь его</w>
чисты е</w>
чер ту</w>
чер ных</w>
чемпи о
част а</w>
часо вой</w>
ч лен</w>
ця пер</w>
цити рую</w>
ху ю</w>
хра бро
хо ждение</w>
хи ми</w>
х то
фу а-гра</w>
фор те
флу орес
физи к</w>
устра нить</w>
установ лены</w>
успе ху</w>
уро жая</w>
умень шение</w>
указа ть</w>
узна ём</w>
узна в</w>
ужас ных</w>
удосто вери
удоб рений</w>
уда чно</w>
угро з</w>
у ю</w>
у точ
у правлен
у мом</w>
требо вания</w>
тив ны</w>
ти ческим</w>
техни чески</w>
терпе ть</w>
тео рий</w>
телеско па</w>
тво их</w>
тан цы</w>
так і</w>
тай не</w>
т ник</w>
сфотографи ровать</w>
супер мар
сту дию</w>
структу рой</w>
страш ное</w>
стоя щих</w>
сторо нам</w>
сти ческой</w>
стара ясь</w>
ста н</w>
ст яза
собствен ному</w>
собра ны</w>
со т</w>
случай ности</w>
слу ха</w>
сло я</w>
сло на</w>
слай ды</w>
слай дов</w>
слабы е</w>
ситуа цией</w>
си ро
си ние</w>
сен а
семей ные</w>
связа нная</w>
све сти</w>
сва дьбы</w>
са б
с це
с клад</w>
ро сло</w>
ро га
ритуа лы</w>
религи й</w>
результа там</w>
регу ляр
регио ны</w>
ребен ку</w>
реаль ную</w>
рассказыва я</w>
размышля л</w>
разли чить</w>
разбира ться</w>
раз ві
ра до</w>
пчо л</w>
психоло ги</w>
пры й
прош ло
пропа сть</w>
прогно зи
про ща
про сту
про лета
про бир
принци пах</w>
принима л</w>
прикос новения</w>
пригото вления</w>
при ся
при смотри
препода вать</w>
препода вания</w>
предубе ждения</w>
предприя тий</w>
предот враща
превра тилось</w>
пре да
прави льного</w>
пра й
появи ться</w>
посети телей</w>
пора жения</w>
поощ ря
пользо вания</w>
получа ла</w>
поло сы</w>
показыва я</w>
подро сток</w>
подо р
подня лся</w>
подня лась</w>
подня л</w>
подгото вку</w>
под ходить</w>
погло щает</w>
погиба ют</w>
по спорить</w>
по вернулся</w>
площа дке</w>
плане тах</w>
пла тит</w>
пла ву
пиа но</w>
пи во</w>
перспектив у</w>
пережи вания</w>
пере ехать</w>
пени цилли
патен тов</w>
партнё р</w>
парик махер
памі ж</w>
па я</w>
па роль</w>
п пи</w>
ощу тить</w>
оча рова
отсут ствии</w>
отно ся
откло нения</w>
останов ки</w>
осозна ния</w>
основ ное</w>
оптими зации</w>
определён ную</w>
означа ют</w>
озер о</w>
ожи дает</w>
одино честве</w>
[...]
