#version: 0.2
t h
i n
a n
th e</w>
e r
o s
o u
a t</w>
a p
in g</w>
t o</w>
a r
e n
an d</w>
t i
r e
o f</w>
o n
i s</w>
ap os
& apos
&apos ;
a l
o r
e r</w>
e d</w>
th at</w>
o n</w>
i n</w>
e s</w>
o t
q u
i t
s t
th e
w h
l y</w>
qu ot
quot ;</w>
& quot;</w>
o m
c a
a c
l i
v e</w>
o u</w>
i t</w>
a s</w>
a t
r o
y ou</w>
w e</w>
u s
l e</w>
o r</w>
e n</w>
&apos; s</w>
b e
er e</w>
n d</w>
e l
n o
h a
d i
m a
r i
e c
e s
a b
l o
T h
i l
th is</w>
A nd</w>
a s
g h
l d</w>
u r
ou t</w>
v er
ti on</w>
i c
m e</w>
o p
a n</w>
a l</w>
ar e</w>
l e
s i
u t</w>
en t</w>
k e</w>
w as</w>
f or</w>
u n
a y</w>
c h
ou r</w>
ha ve</w>
n e
s e
d e
al ly</w>
c om
s e</w>
the y</w>
w it
r a
s h
w or
ca n</w>
t s</w>
wit h</w>
on e</w>
g o
b e</w>
o l
p e
al l</w>
t er</w>
us e</w>
o w</w>
e x
c e</w>
p l
&apos; t</w>
a g
s o</w>
ou ld</w>
wh at</w>
S o</w>
th er</w>
ab out</w>
p ro
c on
gh t</w>
i r
no t</w>
s a
u l
m y</w>
e t</w>
d s</w>
th in
t o
p er
u c
t er
s om
t r
op le</w>
or e</w>
no w</w>
r e</w>
m e
d o
pe ople</w>
v i
c i
ver y</w>
ro m</w>
it y</w>
ti on
d o</w>
s p
us t</w>
f rom</w>
li ke</w>
a r</w>
th ere</w>
th ing</w>
s t</w>
&apos; re</w>
m p
t u
a u
f f
b ut</w>
v er</w>
k ing</w>
t a
e ar
er s</w>
I t</w>
i r</w>
an t</w>
s u
m i
ca use</w>
t ed</w>
d e</w>
j ust</w>
b y</w>
at e</w>
i f</w>
B ut</w>
u s</w>
ur e</w>
m o
the se</w>
W e</w>
h e</w>
el l</w>
p o
m ore</w>
g s</w>
a d
wh en</w>
Th e</w>
g e</w>
o o
the m</w>
ou n
g i
the ir</w>
h i
f or
p ar
u p</w>
be cause</w>
ha d</w>
wh o</w>
lo o
es s</w>
a tion</w>
w ay</w>
p re
f e
w ere</w>
o ther</w>
W h
in d</w>
w ould</w>
tion s</w>
go ing</w>
se e</w>
os e</w>
h ow</w>
f i
an y</w>
som e
k now</w>
ou nd</w>
e v
w n</w>
y our</w>
ic h</w>
au gh
t h</w>
t w
t ing</w>
e y</w>
g h</w>
thin k</w>
ti me</w>
t e
wh ich</w>
g et</w>
augh ter</w>
il l</w>
en ce</w>
i d</w>
c re
ou r
in e</w>
wh ere</w>
com p
b o
L aughter</w>
os t</w>
m ent</w>
re ally</w>
wor ld</w>
a y
ab le</w>
g e
&apos; ve</w>
d ay</w>
un d
f u
k s</w>
tu ally</w>
y ear
h as</w>
a d</w>
r ou
l l</w>
st r
i s
the n</w>
ca l</w>
s el
&apos; m</w>
ac k</w>
ap p
in to</w>
en ts</w>
ac e</w>
al l
b i
a m
h ere</w>
w ill</w>
b u
som e</w>
c l
c o
year s</w>
d ing</w>
d on</w>
u m
ac tually</w>
c ould</w>
uc h</w>
ag e</w>
en t
st e
h e
st ar
v es</w>
f a
be en</w>
N ow</w>
Th is</w>
g o</w>
s o
Y ou</w>
di ff
p h
g u
as t</w>
ch an
f ir
thin gs</w>
w ant</w>
es t</w>
m s</w>
f e</w>
g re
m ost</w>
k ed</w>
ma ke</w>
v e
th ose</w>
l it
d y</w>
en ti
i z
ec t</w>
v ing</w>
ti ve</w>
th an</w>
d u
s ti
h app
com e</w>
t ri
p r
st or
l a
sa id</w>
i es</w>
t y</w>
w e
t ure</w>
ou s</w>
Th ey</w>
t le</w>
on g</w>
g r
on s</w>
pl a
ri ght</w>
al so</w>
c h</w>
ma n</w>
wor k</w>
ne w</w>
in ter
m uch</w>
t al
some thing</w>
fir st</w>
s y
an s</w>
i mp
i c</w>
diff er
th ou
w i
ay s</w>
g en
ev en</w>
n o</w>
on ly</w>
y ing</w>
c e
tw o</w>
ac t</w>
d ed</w>
b le</w>
h is</w>
it e</w>
b ack</w>
i m
t ra
o ver</w>
ti c
li fe</w>
en d</w>
m any</w>
s c
o d</w>
pro b
loo k</w>
es s
at ed</w>
c oun
m on
g y</w>
p os
h u
I n</w>
i g
ne ed</w>
A p
0 0</w>
fu l</w>
com m
re e</w>
lit tle</w>
ta ke</w>
h er</w>
sh e</w>
st u
it s</w>
ver y
p a
und er
d es
d n</w>
i de
ac h</w>
go t</w>
d er</w>
or t
si on</w>
pla use</w>
Wh at</w>
r u
ar d</w>
Ap plause</w>
th rou
m il
s ay</w>
ar ound</w>
m in
t ur
m ar
lo t</w>
c ol
k e
f ri
ic e</w>
di s
bo dy</w>
ec on
bu il
n ing</w>
m at
ti es</w>
i ma
el l
ec h
e very
at er</w>
le ar
p ri
ec i
re d</w>
throu gh</w>
un i
e very</w>
f in
a f
Th at</w>
n i
v ed</w>
s ur
o f
d re
differ ent</w>
di d</w>
tr y</w>
w r
m er
re c
al s</w>
c ar
b er</w>
ti c</w>
an ce</w>
w s</w>
sel f</w>
be ing</w>
y e
sa me</w>
an d
con t
so ci
a m</w>
pre s
b l
c all
st s</w>
il l
Th ere</w>
k ind</w>
do wn</w>
or s</w>
at ing</w>
si de</w>
ch il
in g
w er</w>
mp le</w>
c ent</w>
stor y</w>
s ci
an s
v el
b ra
o b
e l</w>
go od</w>
or t</w>
prob le
b r
w ays</w>
s on</w>
an k</w>
ti m
p u
g ra
n a
s ol
happ en
o wn</w>
ar y</w>
under st
I f</w>
h el
t e</w>
sy ste
om e</w>
per cent</w>
n ed</w>
&apos; ll</w>
ex per
W ell</w>
l ar
ca me</w>
hu man</w>
en c
w om
t ly</w>
chan ge</w>
b as
call ed</w>
s er
I n
t ech
d uc
u e</w>
o ld</w>
ac h
g a
f ore</w>
t ell</w>
e st
li on</w>
qu es
tion al</w>
ma de</w>
us ed</w>
f ind</w>
H e</w>
ye ar</w>
an y
do ing</w>
oo d</w>
e ver</w>
t ter</w>
ag a
lo gy</w>
&apos; d</w>
af ter</w>
th ree</w>
s ch
p ut</w>
in gs</w>
d er
to day</w>
& #
&# 9
imp ort
f o
g er</w>
in t</w>
t re
re s</w>
le t</w>
p i
at es</w>
lo w</w>
w ell</w>
pl an
sh o
star ted</w>
wh y</w>
ge ther</w>
en g
mi ght</w>
me di
c ul
v en</w>
an c
al iz
re s
be li
wi th
f act</w>
to gether</w>
tim es</w>
di dn</w>
k es</w>
tech no
be fore</w>
oo l</w>
c r
ima g
t en
B e
i l</w>
c our
k no
be tter</w>
ide a</w>
ne ver</w>
w ing</w>
ter s</w>
sti ll</w>
p ic
bra in</w>
sh i
se e
2 0
e ly</w>
l ess</w>
s en
pl ace</w>
y s</w>
po li
p s</w>
ca tion</w>
s m
il ity</w>
tw e
c ri
C h
j o
e ach</w>
as e</w>
lo gi
me m
tal k</w>
f l
an other</w>
exper i
ou s
Wh en</w>
f t</w>
sh ould</w>
thou ght</w>
an ds</w>
in s</w>
w an
l ast</w>
import ant</w>
k i
e ff
h ear
syste m</w>
v ir
, 0
g ro
fe w</w>
a tions</w>
p p
ex p
f ound</w>
par t</w>
w ent</w>
gre at</w>
hi m</w>
t ting</w>
str uc
o m</w>
in v
ag o</w>
de vel
re ad
ar i
c or
d at
,0 00</w>
twe en</w>
si ble</w>
fa mi
proble m</w>
gi ve</w>
comp le
Th ank</w>
w a
c ess</w>
b it</w>
be tween</w>
n um
f ac
cour se</w>
b oo
of f</w>
dre n</w>
t en</w>
it ed</w>
for ma
wom en</w>
n ess</w>
s ec
to o</w>
al ity</w>
ne x
des ig
star t</w>
d d
m an
be g
al i
in cre
l ong</w>
e w</w>
w ater</w>
nex t</w>
underst and</w>
s pe
A mer
beli e
us ing</w>
e p</w>
&apos ;</w>
com es</w>
chil dren</w>
c u
j ect</w>
re sp
o le</w>
c er
n s</w>
bi g</w>
d eci
w ar
b ot
1 9
po int</w>
chan g
aga in</w>
dat a</w>
c ou
os s</w>
do es</w>
he al
sel ves</w>
ic ally</w>
n ec
a mple</w>
es e</w>
ex ample</w>
m ents</w>
ce p
c ap
econ om
b li
to o
s es</w>
pro duc
f ul
forma tion</w>
n at
ques tion</w>
loo king</w>
i ght</w>
gen er
per son</w>
re as
hel p</w>
ch o
O n
sh ow</w>
s h</w>
un ity</w>
techno logy</w>
b re
li ve</w>
S t
devel op
th er
sch ool</w>
st a
or g
ma y</w>
inter est
ic i
a way</w>
coun try</w>
l an
pu bli
c k</w>
tr ans
fe el</w>
d ri
comp u
me an</w>
pr ot
en ds</w>
ti cal</w>
li ght</w>
al ways</w>
th s</w>
re al</w>
v o
se ar
d one</w>
belie ve</w>
sp ec
m om
c all</w>
ul ar</w>
s econ
or y</w>
me ans</w>
b or
es n</w>
e p
d es</w>
p as
wan ted</w>
ma y
do esn</w>
s k
c ur
Be cause</w>
H ow</w>
u m</w>
ou gh</w>
f ace</w>
1 0</w>
s ing</w>
lo ve</w>
w er
si g
z e</w>
l ine</w>
ul t</w>
go ver
in formation</w>
ro om</w>
every thing</w>
lo b
w al
mi s
may be</w>
ell s</w>
li m
for m</w>
ch e
as k</w>
er i
cre ate</w>
le a
op e</w>
ec ts</w>
o ff
at h</w>
re e
ou t
y p
A fri
m y
ent ly</w>
soci al</w>
mil lion</w>
h ome</w>
h um
g g
thin king</w>
sp ace</w>
resp on
o p</w>
wor king</w>
tr ying</w>
f r
in t
ab ly</w>
wh i
col l
su b
sol u
en er
gover n
com ing</w>
al e</w>
ve l</w>
on es</w>
l dn</w>
el e
sm all</w>
s it
ph y
we e
m us
stu d
mon ey</w>
g rou
op p
be come</w>
too k</w>
fu ture</w>
wh ole</w>
ki ds</w>
ti v
pl ac
s ure</w>
read y</w>
ne e
l es</w>
st ri
st er</w>
s on
c ity</w>
s ing
with out</w>
to ld</w>
b il
M y</w>
y oun
li ves</w>
gr ap
ab ility</w>
a k</w>
d ol
r y</w>
a ma
wh e
org an
s ed</w>
ac r
it ing</w>
h ar
el ec
e du
be st</w>
U n
ot s</w>
num ber</w>
m ed</w>
e qu
it al</w>
v al
c are</w>
en d
l ed</w>
h al
tri es</w>
te ly</w>
On e</w>
in ed</w>
lo w
d ge</w>
b us
re aliz
l on
en ough</w>
whi le</w>
hi gh
an g
s uch</w>
tic s</w>
po wer</w>
ma king</w>
fami ly</w>
b er
t or</w>
g lob
f our</w>
w at
th ers</w>
secon d</w>
c an
cont ro
tr u
m en</w>
in di
p le</w>
uni ver
b ro
ar t</w>
h ard</w>
b ac
acr oss</w>
wor ds</w>
se t</w>
1 ;</w>
&#9 1;</w>
mom ent</w>
s ort</w>
z ing</w>
3 ;</w>
&#9 3;</w>
i d
re ad</w>
le ft</w>
fo re
comm uni
d ays</w>
coun tries</w>
e y
tal king</w>
c ha
ous ly</w>
ic s</w>
ener gy</w>
S he</w>
boo k</w>
ent al</w>
soci e
c en
par tic
ge tting</w>
en e
F or</w>
sci ence</w>
n or
fi ve</w>
f ol
as ked</w>
n er</w>
di se
pa ti
in ess</w>
u t
lear n</w>
con nec
in es</w>
youn g</w>
m or
v a
sen se</w>
k en</w>
happen ed</w>
h and</w>
re sear
Th ese</w>
sci enti
ca se</w>
p op
bi o
lan gu
v en
w as
l and</w>
re la
f ood</w>
e as
A s</w>
vir on
li ving</w>
i a</w>
au ti
sa w</w>
r an
mem ber</w>
shi p</w>
c le
heal th</w>
gh ts</w>
d in
u ro
enc es</w>
thou gh</w>
s uc
en viron
e mp
m ul
buil d</w>
a ff
ot e</w>
L et</w>
w on
sp eci
si mple</w>
pre t
ar e
al most</w>
A n
el s</w>
cl u
l ater</w>
ta in</w>
s s</w>
m en
wor ks</w>
dis co
w ard</w>
qu ite</w>
om e
d ra
buil ding</w>
thou s
ol s</w>
ma kes</w>
ch ar
interest ing</w>
ic es</w>
happ en</w>
ec ted</w>
ag es</w>
pi ec
Amer ic
si ons</w>
ol u
ha ving</w>
experi ence</w>
su pp
in ce</w>
cl as
mo ve</w>
ti l</w>
f f</w>
si ve</w>
publi c</w>
or i
ne t</w>
m ing</w>
2 0</w>
prob ably</w>
glob al</w>
ap s</w>
si on
ch all
ac y</w>
l ing</w>
of ten</w>
my self</w>
f ar</w>
5 0</w>
p or
ou se</w>
c ells</w>
hal f</w>
di c
an ding</w>
some one</w>
m ic
o ver
m ind</w>
do c
d ru
se en</w>
E ar
reas on</w>
en s</w>
Wh y</w>
pret ty</w>
o t</w>
in side</w>
c a</w>
any thing</w>
k in
is m</w>
ex i
comm unity</w>
or der</w>
e m
he ad</w>
g ir
at ely</w>
pl ay</w>
loo ked</w>
ur al</w>
ste ad</w>
el se</w>
dol lar
compu ter</w>
ti ci
chil d</w>
b ri
tur n</w>
sing le</w>
ur ing</w>
imag ine</w>
hi gh</w>
happen s</w>
dollar s</w>
c es</w>
sa ys</w>
mon ths</w>
ca r</w>
at t
s ity</w>
fri ends</w>
desig n</w>
H ere</w>
pro ject</w>
k ers</w>
vi de
c ent
un til</w>
pro cess</w>
fr on
N ew</w>
os p
h und
ke ep</w>
ti ce</w>
h ope</w>
govern ment</w>
bot h</w>
u p
st ing</w>
d ro
A ll</w>
wr ong</w>
i gh
bil lion</w>
st ed</w>
c ra
A l
tu res</w>
In ter
t ors</w>
cont in
al ready</w>
our s</w>
b ers</w>
ur y</w>
no thing</w>
go es</w>
y et</w>
whe ther</w>
mat ter</w>
langu age</w>
ar ti
Ear th</w>
ve ly</w>
f un
edu cation</w>
M us
lear ned</w>
on ce</w>
to p</w>
c anc
l s</w>
wor d</w>
pos sible</w>
in e
sa ying</w>
mar k
und er</w>
in f
e d
de p
o c
jo b</w>
er ing</w>
di rec
N o</w>
mo ther</w>
li es</w>
k new</w>
ge ts</w>
Afri ca</w>
vi du
stor ies</w>
p at
k ay</w>
ans wer</w>
f el
plac es</w>
st op</w>
indi vidu
ac tion</w>
proble ms</w>
b ly</w>
b ad</w>
op en</w>
m ach
contro l</w>
per son
a h</w>
stu ff</w>
pro f
organ iz
with in</w>
ir d</w>
incre di
in ing</w>
hi story</w>
was n</w>
Un ited</w>
20 0
sti tu
re member</w>
pic ture</w>
g n
be came</w>
vi ol
re co
ta king</w>
li c
be auti
resear ch</w>
A r
t in
ni ght</w>
ec tion</w>
ch ed</w>
is su
hear d</w>
E n
the m
mat eri
k er</w>
e t
ac tly</w>
ser v
o s</w>
fi c</w>
pro gra
ex c
canc er</w>
b lo
le vel</w>
i on</w>
grou p</w>
col le
c ess
pop ul
ne t
g l
do m</w>
te ach
socie ty</w>
o thers</w>
li ons</w>
h er
b ar
plan et</w>
ful ly</w>
er y</w>
deci ded</w>
str y</w>
p ast</w>
them selves</w>
di es</w>
con f
ap pro
op er
lear ning</w>
ir e</w>
ama zing</w>
sh are</w>
sh ed</w>
ph ot
le ad
ex actly</w>
bus iness</w>
sh ar
ri s
gr ound</w>
be ha
ta tion</w>
na me</w>
con ver
t able</w>
ques tions</w>
stu dy</w>
in du
u r</w>
po wer
oun ds</w>
li st
vide o</w>
our selves</w>
ec tive</w>
. .</w>
comp any</w>
cul ture</w>
br ing</w>
St ates</w>
. ..</w>
buil t</w>
wom an</w>
ver ed</w>
stud ents</w>
p er</w>
m er</w>
fi el
ca ted</w>
bl ack</w>
ar ly</w>
st re
dise ase</w>
pos i
pl ay
h y
m ust</w>
j u
tr ue</w>
beha vi
E uro
0 s</w>
t on</w>
j our
3 0</w>
won der
comple tely</w>
kno wn</w>
vi ew</w>
beauti ful</w>
b ab
re qu
f lo
a w
Ch in
n er
in st</w>
dd le</w>
an im
t om
a tive</w>
univer se</w>
st ra
ide as</w>
i se</w>
bas ically</w>
logi cal</w>
d ar
re si
every one</w>
nat ure</w>
ch ing</w>
bas ed</w>
ru n</w>
opp ort
me as
ap e</w>
aga inst</w>
is n</w>
ear ly</w>
d ec
comp an
chang ed</w>
Amer i
s ince</w>
piec e</w>
en ing</w>
L i
tiv ity</w>
ne ur
lit er
0 ,000</w>
st ance</w>
ph one</w>
cl os
fi g
con si
in stead</w>
ell ing</w>
de v
tu al</w>
thous ands</w>
s ound</w>
h or
h aps</w>
diff ic
f ar
s is</w>
pl es</w>
par ents</w>
ac c
us es</w>
tr an
some body</w>
a i
Inter net</w>
re ality</w>
h ouse</w>
tur ns</w>
si x</w>
r un
m ess
c lim
t yp
ro w</w>
p ol
Americ a</w>
ou th</w>
fron t</w>
p ul
enti re</w>
b ed</w>
re li
enti al</w>
P e
si mp
p e</w>
mi c</w>
Ameri can</w>
w in
th y</w>
du ce</w>
cent ury</w>
kin ds</w>
fe el
ap er</w>
is h</w>
some times</w>
it self</w>
R e
e -
he ar</w>
f -
an ti
ic k
gu y</w>
an i
o grap
d ent</w>
T E
m ental</w>
loo ks</w>
f il
ca te</w>
u es</w>
t -
mus ic</w>
hear t</w>
econom ic</w>
ad v
a ir</w>
compan ies</w>
pri v
fa ther</w>
cou ldn</w>
tur ned</w>
pr in
phy s
cre ated</w>
c ell</w>
1 00</w>
w ar</w>
lar ge</w>
j ects</w>
in k</w>
i ve</w>
t est</w>
ol ec
cou ple</w>
as es</w>
pro vi
b loo
spec ies</w>
power ful</w>
na tional</w>
in i
id enti
ex t</w>
anim als</w>
wor ked</w>
ap pe
A f
nat ural</w>
k ey</w>
happen ing</w>
h ours</w>
cep t</w>
struc ture</w>
re st</w>
partic ular</w>
gi ven</w>
environ ment</w>
M ar
i ther</w>
f ree</w>
c ir
1 5</w>
v ari
ma l</w>
de mo
de l</w>
Y or
si ze</w>
kno w
ra ther</w>
ga ve</w>
ou ldn</w>
in clu
rec or
fo c
f und
es p
con di
bre a
N A</w>
ta kes</w>
di ed</w>
st ate</w>
in no
fel t</w>
y our
wr it
w ed</w>
t un
ma g
at e
ul es</w>
olu tion</w>
ne ws</w>
sur vi
sur pri
c op
ar ch
am oun
I s
syste ms</w>
re l
popul ation</w>
le ast</w>
de li
your self</w>
m olec
tic ally</w>
ey es</w>
b ility</w>
s li
s il
s ha
fri end</w>
every body</w>
di g
e mo
c k
rela tion
in c
diffic ult</w>
at s</w>
ta in
st er
n on
h ind</w>
d r
at ten
En g
ti vely</w>
s cre
bor n</w>
an ts</w>
ab or
re g
pr ac
enc y</w>
p t</w>
p ot
cur r
c al
ta ken</w>
re gi
in ning</w>
des cri
c le</w>
lea ve</w>
d ers</w>
l ots</w>
f er
wee k</w>
tr ac
s or
mo del</w>
ima ge</w>
ex pla
de ath</w>
b ur
beg an</w>
In di
phy si
out side</w>
ne y</w>
b ir
per haps</w>
know le
fiel d</w>
simp ly</w>
medi a</w>
h ol
fin ally</w>
G od</w>
ut es</w>
p le
u al</w>
pati ents</w>
p ur
c os
Th en</w>
mic ro
fig ure</w>
differ ence</w>
U .
s our
pos ed</w>
h on
nee ded</w>
it h</w>
h o
can not</w>
bloo d</w>
an t
y -
su ff
sel f-
se qu
realiz ed</w>
g ed</w>
si mil
poli tical</w>
at or</w>
ul ts</w>
o ce
ic k</w>
f ic
d uring</w>
al ong</w>
te am</w>
e ts</w>
car e
al lo
O ur</w>
t elling</w>
hu ge</w>
war ds</w>
p ay</w>
lon ger</w>
iz e</w>
eas y</w>
an tly</w>
Yor k</w>
sc ale</w>
min utes</w>
hund re
en ted</w>
pres ent</w>
hum ans</w>
f ra
comm on</w>
at ure</w>
ti z
or din
fl u
c y</w>
c y
au di
O kay</w>
o il</w>
n am
im pro
conver sa
be hind</w>
po or</w>
pat ter
p sy
hel p
en ge</w>
d ence</w>
the ma
per f
li sh</w>
de fin
de ca
D NA</w>
ne igh
beg inning</w>
w on</w>
t ot
ma j
l ost</w>
gro w</w>
cl ose</w>
vi sion</w>
tr ust</w>
ful l</w>
al one</w>
L e
wal k</w>
ver sity</w>
spe ak</w>
m et</w>
happ y</w>
fun c
see ing</w>
s it</w>
n ers</w>
me an
mark et</w>
d -
fi sh</w>
c ost</w>
a ds</w>
wh at
spe a
fe ar</w>
ex tre
ci ties</w>
an ci
ab solu
O r</w>
O h</w>
ter ms</w>
physi cal</w>
ex pl
clim ate</w>
A t</w>
tra di
m al
in stitu
chall enge</w>
res our
re le
qu e</w>
con sci
sp i
h osp
pos si
nee ds</w>
hum an
Mus ic</w>
wr ite</w>
th re
t ou
mi ddle</w>
ma thema
lo cal</w>
k ill
imag es</w>
hundre ds</w>
gro w
behavi or</w>
su per
opport unity</w>
ob vi
knowle dge</w>
elec tri
wee ks</w>
low ed</w>
gr and
e ither</w>
boo ks</w>
par t
eng ine
T o
ve ment</w>
un ch</w>
rou ght</w>
fa il
an al
cl es</w>
amoun t</w>
T o</w>
th ird</w>
realiz e</w>
mach ine</w>
cer tain</w>
O n</w>
par ts</w>
mo d
P ar
t ar
ra di
in ation</w>
g ing</w>
comple x</w>
C on
x i
m a</w>
e vi
car s</w>
h ands</w>
grow th</w>
A u
ver age</w>
se ven</w>
e mer
c ks</w>
vi su
ste p</w>
di sc
ca tions</w>
underst anding</w>
u res</w>
m ine</w>
feel ing</w>
d en</w>
con su
bac ter
year -
ri ed</w>
e ment</w>
chang es</w>
a x
mil lions</w>
f as
develop ed</w>
M o
ick ly</w>
ac cess</w>
sp end</w>
on d</w>
indu stry</w>
gg est</w>
cle ar</w>
viol ence</w>
to ols</w>
simil ar</w>
pre dic
oun d
gen e
en ding</w>
ac e
TE D</w>
vo ice</w>
s mar
or ig
gi ving</w>
e ight</w>
b an
s qu
pr om
nor mal</w>
inv ol
a va
qu ickly</w>
om s</w>
mo ving</w>
Euro pe</w>
see ms</w>
reli gi
reco gn
gu ys</w>
wh ite</w>
person al</w>
h ood</w>
gir l</w>
d ou
bac k
r ate</w>
n al</w>
li ke
fi ed</w>
an ima
wonder ful</w>
tri ed</w>
ti s
logi es</w>
b ene
ris k</w>
r en
pre ci
m os
li ties</w>
supp ort</w>
st ro
solu tion</w>
sit u
re v
li ved</w>
in ve
econom y</w>
car b
J o
sp ent</w>
ci vi
atten tion</w>
what ever</w>
st age</w>
po in
num bers</w>
h old</w>
b rought</w>
are a</w>
sol ve</w>
mul ti
develop ment</w>
c ro
Y e
uc k</w>
materi al</w>
c li
as king</w>
te m
li g
disco vered</w>
di e</w>
tin y</w>
t ro
phot ograp
ma s
m ale</w>
l ess
ig n</w>
esp eci
especi ally</w>
enti ally</w>
dru gs</w>
ava il
val ue</w>
p us
char ac
arch it
ag ed</w>
ur ity</w>
k id</w>
individu al</w>
gener ation</w>
f ree
or ies</w>
liter ally</w>
imp act</w>
S e
D o</w>
sit ting</w>
sch o
rec ently</w>
pl ant</w>
like ly</w>
gro wing</w>
ch i
as h
S u
ill s</w>
g one</w>
che mi
vi e
tur al</w>
sp ir
scienti sts</w>
s ite</w>
ordin ary</w>
on line</w>
con v
ab o
z y</w>
uc le
su dd
m ech
in ten
h and
chall eng
a ir
J ust</w>
C A</w>
ver s</w>
str on
st e</w>
mo ved</w>
in st
grou ps</w>
dru g</w>
de al</w>
1 2</w>
net work</w>
ing ly</w>
fund am
cer tain
N or
z ed</w>
te mp
pati ent</w>
g est</w>
f ast</w>
comp li
avail able</w>
ter ri
st and</w>
o w
interest ed</w>
incredi ble</w>
i st</w>
f y</w>
d ings</w>
as tic</w>
w ouldn</w>
techno logies</w>
pr os
n ucle
medi c
for ward</w>
di st
dar k</w>
cre ating</w>
Y es</w>
W or
Pe ople</w>
Indi a</w>
Chin a</w>
ser i
oo k</w>
mo der
la w</w>
di ag
as s</w>
all s</w>
al low</w>
ag ing</w>
teach ers</w>
le g
bu y</w>
b a
per for
pa in
gre en</w>
com b
S ome</w>
G oo
v or
se ver
re p
medi cal</w>
mar ke
inno v
il s</w>
f ur
ec h</w>
communi ties</w>
year- old</w>
sa ve</w>
any one</w>
wr ote</w>
tru th</w>
ter m</w>
m ers</w>
eas i
dig ital</w>
4 0</w>
tre at
p aper</w>
gre at
d en
a verage</w>
Eng lish</w>
star ting</w>
g le</w>
connec ted</w>
s m</w>
p an
neur ons</w>
eff ect</w>
d ly</w>
bene f
bab y</w>
1 1</w>
wat ch</w>
suc cess
me et</w>
incre as
for tun
develop ing</w>
de gre
ce i
ca mer
ac k
st ay</w>
sho ws</w>
res ult</w>
de t
are as</w>
H a
ul arly</w>
su sta
pres sion</w>
h om
bo x</w>
oce an</w>
la b</w>
de f
clas s</w>
ch es</w>
anima l</w>
sur face</w>
ma p</w>
ex am
chang ing</w>
th ro
ro ad</w>
g ar
er ed</w>
er ci
typ e</w>
s ounds</w>
re ly</w>
g ger</w>
con struc
colle ag
ci tiz
carb on</w>
au th
Ye ah</w>
N o
demo cr
d om
beli ev
h op
el lig
S ome
sm all
sec urity</w>
s le
s ent</w>
for ce</w>
ca mp
y es</w>
shi ps</w>
progra m</w>
gir ls</w>
bl ue</w>
absolu tely</w>
a ke</w>
O K</w>
y ond</w>
te ach</w>
str u
ra is
pro duce</w>
per i
for ms</w>
ev en
de ep</w>
Af ter</w>
tran sp
t es</w>
see m</w>
nec ess
jour ney</w>
g es</w>
com pe
cho ice</w>
b al
sec re
pa in</w>
n y</w>
mor ning</w>
l ate</w>
ga me</w>
ec ting</w>
comp as
anc es</w>
ac hi
I s</w>
se x</w>
run ning</w>
read ing</w>
int ellig
di men
de ed</w>
beg in</w>
sion al</w>
mil es</w>
e at</w>
C an</w>
to m</w>
per spec
l u
incredi bly</w>
dri ve</w>
dre am</w>
d y
audi ence</w>
S .</w>
N ot</w>
F ir
us ion</w>
su m
so on</w>
ec ture</w>
c ut</w>
ac tions</w>
wr iting</w>
scho ols</w>
s ou
mess age</w>
de ep
col or</w>
ti ves</w>
se x
issu e</w>
be comes</w>
b all</w>
U ni
B y</w>
sever al</w>
n os
ac i
N a
w ers</w>
tici p
do or</w>
tri bu
respon se</w>
m u
k y</w>
chan ce</w>
bi ggest</w>
bacter ia</w>
ar s</w>
anal y
st res
sour ce</w>
ni fic
he ad
gu e</w>
bre ak</w>
be yond</w>
sho wed</w>
nucle ar</w>
h it</w>
fami lies</w>
bas ic</w>
b it
ac coun
G re
th o
su p
p en
op en
mis sion</w>
U. S.</w>
ter r
resour ces</w>
re pres
or ity</w>
gi c</w>
fa vor
ex tra
de ta
co de</w>
M ay
Fir st</w>
A c
ma in</w>
inclu ding</w>
dev ice</w>
conversa tion</w>
b ul
ter ed</w>
str ong</w>
star ts</w>
se a</w>
n ar
me t
conf lic
Goo gle</w>
6 0</w>
wor th</w>
pu tting</w>
n u
lo ved</w>
experi ment</w>
desig ned</w>
am es</w>
E very</w>
ro le</w>
o d
g en</w>
con cer
D e
st and
sol ar</w>
prot e
mo vi
gi ves</w>
at ors</w>
st o
sa fe</w>
reas ons</w>
r an</w>
qu i
iz ed</w>
issu es</w>
int ro
in spi
f ly</w>
E very
- year-old</w>
prin ci
po ver
h our</w>
de ad</w>
bi gger</w>
R ight</w>
N e
st ers</w>
situ ation</w>
even tually</w>
doc tor</w>
u te</w>
sh ort</w>
s end</w>
pover ty</w>
mo vement</w>
evi dence</w>
ev ol
b es</w>
app li
the ory</w>
r ap
pic tures</w>
ey e</w>
emp lo
c ed</w>
b at
v ol
scienti fic</w>
prof es
poli ce</w>
moder n</w>
l in
h un
aliz ed</w>
t y
sc ri
relation ship</w>
l ines</w>
j us
exper im
democr acy</w>
ad dre
wi fe</w>
s l
me ant</w>
de m
b s</w>
sh ing</w>
r ing</w>
pro per
medic ine</w>
g ot
fin ding</w>
f er</w>
dep end
de ter
com for
cen ter</w>
c lear
buil dings</w>
C om
produc t</w>
partic ularly</w>
g al
expla in</w>
es ti
en ly</w>
devel op</w>
cal cul
H ar
1 0
writ ten</w>
wal king</w>
u ally</w>
to wards</w>
ri ghts</w>
perf ect</w>
maj or</w>
di stri
compu ters</w>
Wor ld</w>
S outh</w>
ou ght</w>
imp os
hosp ital</w>
gen es</w>
enc ed</w>
colle ge</w>
bot tom</w>
a v
w ish</w>
stre et</w>
st anding</w>
si a</w>
se par
pot ential</w>
gene tic</w>
fi ght</w>
eff ici
as su
ar ed</w>
tru ly</w>
t op
su g
stud ent</w>
r os
hund red</w>
h an
ar en</w>
appro ach</w>
am s</w>
ac her</w>
L a
tech ni
r .</w>
min i
individu als</w>
cri sis</w>
G er
ro r</w>
pp ed</w>
o re
mon th</w>
lar gest</w>
institu tions</w>
fore st</w>
foc us</w>
ex tr
cra zy</w>
condi tions</w>
c ope</w>
v ic
t end</w>
sh ape</w>
qu ality</w>
prot ect</w>
perspec tive</w>
me ly</w>
le ad</w>
incre ase</w>
de b
cre ative</w>
c ool</w>
bra ins</w>
M a
vi sible</w>
susta in
ha ven</w>
May be</w>
w all</w>
tr al</w>
suc cess</w>
sti c
posi tion</w>
ol der</w>
o -
n ice</w>
i tion</w>
h y</w>
g er
equ i
P ro
wor l
w ell
str an
sti c</w>
speci al</w>
pro cess
meas ure</w>
lo wing</w>
in al</w>
fe et</w>
favor ite</w>
diag nos
T w
tim ate</w>
res ults</w>
pres s</w>
neigh bor
ill ing</w>
high er</w>
gre w</w>
gre ss</w>
gra du
dise ases</w>
b an</w>
M i
8 0</w>
list en</w>
li fe
in si
i cal</w>
en ded</w>
eff ective</w>
bo ard</w>
as h</w>
2 5</w>
ri ch</w>
re ach</w>
psy cho
m oun
jo y</w>
e ma
contin ue</w>
camer a</w>
ac tive</w>
visu al</w>
so f
ph il
on to</w>
mean ing</w>
lon g
im medi
f am
coll abor
am ong</w>
W ith</w>
we ver</w>
ing ing</w>
fur ther</w>
consi der</w>
compas sion</w>
certain ly</w>
treat ment</w>
sho wing</w>
ous ness</w>
or d</w>
ob ject</w>
ne w
m ir
li z
heal thy</w>
govern ments</w>
g as</w>
every where</w>
com par
G e
C ar
B ri
th ank</w>
success ful</w>
speci fic</w>
mech an
kno ws</w>
ev olution</w>
To day</w>
I mag
C o
tal ked</w>
st opp
po e
n ine</w>
m ous</w>
fir e</w>
colleag ues</w>
ad d</w>
sp ac
shar ed</w>
o x
mo bi
c lo
bo dies</w>
ran ge</w>
play ing</w>
ob jects</w>
leg al</w>
lar ger</w>
extra ordinary</w>
d ang
cho ose</w>
O f</w>
B i
19 9
z er
sy n
sp read</w>
small er</w>
obvi ously</w>
ob s</w>
ma ss</w>
cul tural</w>
con st
al ing</w>
E x
wi de</w>
v ill
tot ally</w>
some where</w>
ro bo
r it
r ace</w>
o es</w>
non -
i al</w>
ar ds</w>
wh ose</w>
we a
sk in</w>
sig nific
sh own</w>
par ticip
materi als</w>
li st</w>
li ar</w>
f le
exp ect</w>
exi st</w>
disc us
c in
P er
Imag ine</w>
wor se</w>
w il
tradi tional</w>
spea king</w>
no tice</w>
ke pt</w>
gu ess</w>
great est</w>
fa ster</w>
ver se</w>
um p</w>
tu m
scre en</w>
re cei
pas s
o kay</w>
invol ved</w>
for med</w>
fil m</w>
d on
ci es</w>
ch ec
ab i
D on</w>
underst ood</w>
te acher</w>
sy m
socie ties</w>
patter ns</w>
oun ded</w>
m ot
l y
gal ax
exc iting</w>
er ous</w>
al g
P h
teach ing</w>
su n</w>
requ i
produc ts</w>
pic k</w>
d ance</w>
au ght</w>
Americ ans</w>
to wn</w>
t a</w>
stru gg
sk y</w>
rev olution</w>
recogn ize</w>
re fl
p ay
off ice</w>
lo wer</w>
l ose</w>
j obs</w>
free dom</w>
Wh ere</w>
t aught</w>
sup posed</w>
recor d</w>
produc tion</w>
l ay
fortun ately</w>
fo ot
deca des</w>
at ures</w>
S i
wor kers</w>
re mark
p ose</w>
ma in
lead ers</w>
en sive</w>
ear li
clas s
b and</w>
an n
wan ts</w>
un e</w>
ther ap
st om
st an</w>
s al
poli tics</w>
mod els</w>
l and
fol low</w>
exam ples</w>
elec tr
ear s</w>
doc tors</w>
do w
M ost</w>
H e
wat ching</w>
tra vel
t ells</w>
sub ject</w>
star s</w>
ri es</w>
bo y</w>
bio logy</w>
E ven</w>
C ol
B ra
well -
s ent
in flu
in deed</w>
con tr
ac ting</w>
a in</w>
wa it</w>
ther e
t ele
min ute</w>
list ening</w>
in te
fu n</w>
f all</w>
des er
deci sion</w>
any more</w>
allo ws</w>
al ism</w>
abo ve</w>
V ide
we b
tw are</w>
tra ining</w>
sudd enly</w>
spe ed</w>
smar t</w>
r ules</w>
poin ts</w>
ph en
peri od</w>
mat h</w>
li gh
hi m
dri ving</w>
d ow</w>
an ks</w>
Vide o</w>
wa iting</w>
phys ics</w>
ori th
ici al</w>
cre a
con n
an e</w>
M e
L ook</w>
Chin ese</w>
t on
posi tive</w>
pl an</w>
human ity</w>
h ed</w>
flo or</w>
fin anci
comple te</w>
citiz ens</w>
ar m</w>
alg orith
al lowed</w>
B u
tra vel</w>
tis su
sc en
re por
p ath</w>
no tic
m ent
inter est</w>
f ru
cu ri
y ed</w>
v al</w>
uni que</w>
om en
ma tic</w>
logi st</w>
it ation</w>
innov ation</w>
i an</w>
go al</w>
ga in</w>
fundam ental</w>
fi gu
f oo
cri tical</w>
compli cated</w>
bl ind</w>
be coming</w>
archit ecture</w>
ac tual</w>
C an
wi se</w>
stres s</w>
st ore</w>
sof tware</w>
sh ap
re fu
priv ate</w>
pa id</w>
ot ing</w>
on y</w>
impro ve</w>
comm it
clear ly</w>
cap ital</w>
ca ses</w>
any body</w>
al th</w>
ac ti
z z
w in</w>
tre es</w>
t ext</w>
provi de</w>
piec es</w>
ou d</w>
no body</w>
logi sts</w>
kill ed</w>
ir s</w>
impos sible</w>
high -
hi c</w>
g ni
cont ext</w>
ac ity</w>
a vi
B o
Afri can</w>
thous and</w>
pres sure</w>
on ic</w>
nam ed</w>
molec ules</w>
jus tice</w>
in come</w>
help ed</w>
h ur
as soci
1 8
sho t</w>
phen omen
pa ir</w>
o logy</w>
mi sta
doc um
distri bu
consci ousness</w>
conn ect</w>
ca t
ac ks</w>
S y
S te
F ace
te en
plan ts</w>
par ti
indu stri
fe ed</w>
ess entially</w>
ep ing</w>
dev ices</w>
contin u
be ings</w>
wa ste</w>
up on</w>
tre at</w>
t or
si bility</w>
pp ing</w>
plan ets</w>
mas sive</w>
jour n
in s
him self</w>
got ten</w>
cos ts</w>
challeng es</w>
au tom
att ack</w>
J u
J e
H o
F r
2 00</w>
1 4</w>
vic ti
v ul
tem per
ox y
net works</w>
mor al</w>
min ds</w>
m it</w>
le vel
financi al</w>
f ine</w>
communi cate</w>
w illing</w>
too l</w>
to -
ti tu
throu gh
t ex
sor ts</w>
regi on</w>
re pe
phys ici
mo m</w>
mem ory</w>
m it
la ws</w>
h us
fe male</w>
f ying</w>
eri a</w>
electri city</w>
e ful</w>
cep tion</w>
b om
arti st</w>
ari ly</w>
anc ed</w>
a p</w>
E ast</w>
7 0</w>
wer en</w>
us ually</w>
ra ge</w>
organiz ation</w>
l ands</w>
l ab
j a
experi ences</w>
conflic t</w>
b ing</w>
5 00</w>
serv ice</w>
s wi
ra ise</w>
prac tice</w>
poli cy</w>
extre mely</w>
eng th</w>
eff ects</w>
di versity</w>
communi cation</w>
Face book</w>
1 8</w>
stu dies</w>
sta ti
s at
relation ships</w>
or ts</w>
m es</w>
li ber
it ary</w>
immedi ately</w>
en ting</w>
e ty</w>
dou b
connec tion</w>
con tribu
as s
acti vi
ac ci
Uni versity</w>
C ity</w>
A re</w>
tu m</w>
t ree</w>
suff ering</w>
sp o
sk ills</w>
seri ous</w>
p tion</w>
movi e</w>
mach ines</w>
func tion</w>
exp lo
equ ality</w>
direc tion</w>
d ama
as se
ac cep
Wh o</w>
sug ge
serv ices</w>
me ters</w>
g ames</w>
exc ited</w>
e ting</w>
e f</w>
con sequ
cap it
addre ss</w>
won der</w>
we ap
ur s</w>
tra in</w>
tra ff
ser ve</w>
remark able</w>
long -
fol lowing</w>
fas cin
ess es</w>
earli er</w>
der ed</w>
d ness</w>
cle an</w>
ar ri
M any</w>
tu red</w>
ph ones</w>
ne uro
mobi le</w>
gen e</w>
f it</w>
dang erous</w>
cont ent</w>
co ld</w>
as p
ari a</w>
aliz ation</w>
ach ed</w>
a vo
H I
ste m</w>
sig n
sh e
ni a</w>
man u
intellig ence</w>
gh tly</w>
g ly</w>
di vi
b its</w>
J ap
v acc
tou ch</w>
solu tions</w>
sear ch</w>
k il
fam ous</w>
exp ensive</w>
el es
cor rec
ad di
ac tivity</w>
Tw o</w>
M ic
trans l
tr ou
str ate
stopp ed</w>
s us
s ong</w>
s mo
ri c</w>
rel ated</w>
refu ge
ne arly</w>
l er</w>
dow n
de stro
bir th</w>
be l</w>
W est
typ es</w>
pus h</w>
mem bers</w>
low -
l led</w>
inve st
h ic
f re
en ter</w>
e um</w>
d aughter</w>
d ate</w>
compe ti
al ter
W i
L on
Jo h
Is ra
Ch r
ver sion</w>
ri se</w>
ra id</w>
os op
o h</w>
le y</w>
h ous
h ot</w>
g ery</w>
g ate</w>
en ter
c ked</w>
aw are</w>
P o
zer o</w>
vill age</w>
val u
terri ble</w>
sur r
sig n</w>
publi shed</w>
pro jects</w>
op s</w>
ne ar</w>
n ur
ma gic</w>
li ghts</w>
inter national</w>
g ri
fami liar</w>
experim ents</w>
exi st
d ying</w>
c ele
bio logical</w>
an ger</w>
Th ose</w>
D i
spe ech</w>
ra tion</w>
qu ar
pr ene
p age</w>
l ack</w>
gener al</w>
fa ir
expl or
e e</w>
do g</w>
de mon
b unch</w>
at ory</w>
W est</w>
wal ked</w>
ther n</w>
t ory</w>
some how</w>
shar ing</w>
re duc
necess ary</w>
la un
l ying</w>
in sec
fin i
fi gh
fac es</w>
f os
en ess</w>
ec tively</w>
cri min
clos er</w>
cap acity</w>
camp a
bri dge</w>
br inging</w>
ai m</w>
af ter
ad ap
S ch
x es</w>
th ree
t t
st ation</w>
s we
rec ent</w>
rais ed</w>
pre par
pr int</w>
ple ase</w>
ound ation</w>
emo tional</w>
em br
curr ent</w>
con cept</w>
bas is</w>
b ble</w>
S h
Nor th</w>
w is
tion ally</w>
t an
st ates</w>
sit es</w>
phil osop
manu fac
i sts</w>
hel d</w>
gre ater</w>
er a</w>
equ al</w>
ent re
el lit
cr os
comfor table</w>
care er</w>
bab ies</w>
as ed</w>
ali ve</w>
V i
T V</w>
E g
Bra z
A no
9 0</w>
sustain able</w>
secre t</w>
pri son</w>
patter n</w>
notic ed</w>
mp tion</w>
li e</w>
kno wing</w>
is ms</w>
h ole</w>
entre prene
dis appe
con ven
b la
ag ree</w>
ab les</w>
R i
Ch ri
5 ,000</w>
w ind</w>
ve hic
ti mat
si des</w>
sa fe
pl astic</w>
ph o
mos tly</w>
mo tiv
mat ters</w>
high ly</w>
hi stor
f our
f ant
ev ent</w>
deca de</w>
ap art</w>
af raid</w>
achi ev
Ano ther</w>
timat ely</w>
tici ans</w>
through out</w>
si mul
see med</w>
sat ellit
s -
pro gress</w>
pas s</w>
import antly</w>
im m
il ing</w>
h ing</w>
exp ected</w>
eng age</w>
disco ver</w>
condi tion</w>
ac ked</w>
S p
19 8
st ree
s un
ro oms</w>
plan e</w>
organiz ations</w>
neigh b
mil itary</w>
level s</w>
enc ou
ema il</w>
el ess</w>
dra w</w>
di a
cu stom
cha in</w>
ca u
bro ken</w>
wor k
u le</w>
st ar</w>
shi ft</w>
s low</w>
ra in</w>
perfor m
mathema tics</w>
marke ts</w>
inspi red</w>
ha ir</w>
gr y</w>
fin al</w>
f s</w>
con fi
ag ri
ac cur
T ake</w>
Mus li
In stead</w>
Chr is</w>
y a</w>
vari ous</w>
there fore</w>
scienti st</w>
pas sed</w>
o ds</w>
me th
l os
l li
ini ti
i de</w>
gi ant</w>
fu el</w>
engine ering</w>
en or
e ve</w>
e th
cor por
blo ck</w>
be es</w>
ar gu
Lon don</w>
H u
us eful</w>
ur ban</w>
survi ve</w>
re ve
re ma
r ot
r om
mat es</w>
le -
er n</w>
direc tly</w>
de pression</w>
ar t
a th
a mp
S o
HI V</w>
we ight</w>
ta tions</w>
sur gery</w>
reg ul
n ot
ill ed</w>
fi x</w>
far mers</w>
e ding</w>
degre es</w>
deci sions</w>
chil d
car to
app ly</w>
P ri
K en
we b</w>
vi sit</w>
th ri
sum mer</w>
re fer
pri ce</w>
pre vi
parti cles</w>
p ap
osp here</w>
gen ome</w>
ex ten
bl ing</w>
au ty</w>
ari an</w>
app ed</w>
ali st</w>
ach es</w>
R a
Eg yp
un g</w>
tot al</w>
ta ins</w>
stree ts</w>
par a
os y
on e-
obvi ous</w>
m el
land sc
k ill</w>
it es</w>
inf ra
ep ide
des p
chemi cal</w>
am bi
ad ults</w>
abi lities</w>
Y our</w>
R us
1 3</w>
tur ning</w>
tr ack</w>
tion ed</w>
sy mp
robo t</w>
progra m
plac ed</w>
pl at
pe ace</w>
pas sion</w>
oc cu
n an
mi le</w>
me ter</w>
li f
l uc
kil ome
inv ented</w>
experi enced</w>
crea tivity</w>
any where</w>
anci ent</w>
an ce
ad a</w>
S a
F rom</w>
wor st</w>
t ons</w>
t al</w>
st y
s at</w>
religi on</w>
op ti
on g
inte gr
hus band</w>
fe els</w>
expl ore</w>
en ed</w>
easi ly</w>
deci de</w>
dd en</w>
ca uses</w>
ans wers</w>
T al
0 -
x ed</w>
wor ry</w>
vul ner
vol un
us i
three -
the tic</w>
surpri sing</w>
sa ving</w>
pur pose</w>
priv acy</w>
pop ular</w>
phot os</w>
perform ance</w>
o be
n ation</w>
le tter</w>
le t
fi cation</w>
fas hi
degre e</w>
cele br
anc y</w>
aliz e</w>
ach ing</w>
ac ts</w>
a head</w>
Af gh
A d
wh er
tion ary</w>
stre am</w>
ste in</w>
sle ep</w>
s ell</w>
resear ch
pul l</w>
pre v
possi bly</w>
me eting</w>
le gs</w>
l l
in depend
in a</w>
h oo
extr a</w>
differ ently</w>
desp ite</w>
c oo
be auty</w>
ag ement</w>
a stron
West ern</w>
On ce</w>
Na tional</w>
Mar s</w>
F ran
Euro pe
D r.</w>
wat ched</w>
vir us</w>
stran ge</w>
pe di
par k</w>
p al
lead ing</w>
la w
ess ed</w>
emp o
di sa
cro w
comm erci
believ ed</w>
ar ies</w>
M on
ti n</w>
t ask</w>
stic s</w>
stand ard</w>
sion ate</w>
signific ant</w>
na tive</w>
molec ule</w>
l ar</w>
for th</w>
ex cept</w>
easi er</w>
ali sts</w>
W ar</w>
Th ink</w>
Li ke</w>
w ear
th i
tar get</w>
ser ies</w>
mom ents</w>
micro bes</w>
in struc
il ed</w>
gl ass</w>
eff ort</w>
co ver</w>
ar r
P al
M an
19 7
1 6</w>
1 ,000</w>
ye ah</w>
tw ice</w>
squ are</w>
sa v
op pos
off er</w>
neighbor hood</w>
man i
in visible</w>
help ing</w>
environ mental</w>
e sts</w>
cre ates</w>
c ore</w>
brea k
auti sm</w>
ali ties</w>
al though</w>
ad ly</w>
P a
web site</w>
vir tual</w>
so il</w>
respon d</w>
n a</w>
mess ages</w>
man aged</w>
low ly</w>
jo in</w>
is tic</w>
il e
gra v
for get</w>
exist ence</w>
ent ally</w>
ele ments</w>
dro p</w>
differ ences</w>
c um
b one</w>
ani stan</w>
Th e
I S
B ro
Afgh anistan</w>
t eles
stu died</w>
secon ds</w>
rep ort</w>
pres sed</w>
pre si
po o
pi cal</w>
op tion</w>
nu tri
l abor
infra structure</w>
ha bit
foc used</w>
f ically</w>
er r
ec tions</w>
dol lar</w>
do z
descri be</w>
d ad</w>
child hood</w>
bil lions</w>
at temp
an k
ali for
ali a</w>
C hi
C alifor
viol ent</w>
v ast</w>
ti sh</w>
spac es</w>
respon sibility</w>
progra ms</w>
possi bility</w>
or d
m p</w>
ki d
g ent
effici ent</w>
d ents</w>
cho ices</w>
arti sts</w>
Wh ich</w>
F in
Europe an</w>
val ues</w>
tra de</w>
tissu e</w>
st -
sh ort
re -
orig inal</w>
mi gr
mi d
mal aria</w>
ma m
in stance</w>
hear ing</w>
happ iness</w>
ha m
fini shed</w>
fail ure</w>
f low</w>
con duc
c t</w>
bir ds</w>
at ch</w>
a ster
O ver</w>
1 .
x ity</w>
w alls</w>
tur ing</w>
ther wise</w>
temper ature</w>
stra ight</w>
si ster</w>
s la
s ick</w>
resp ect</w>
ot h</w>
he ads</w>
foo t</w>
dom in
ca used</w>
br and</w>
bot s</w>
and a</w>
an z
ai ly</w>
T i
Califor nia</w>
A b
win dow</w>
vie ws</w>
tw o-
supp ly</w>
s lowly</w>
religi ous</w>
par ty</w>
p y</w>
mic ros
less on</w>
l ad
ga p</w>
fe ed
ex erci
ec osy
descri bed</w>
defin ition</w>
de struc
coll ective</w>
cha ir</w>
bro ther</w>
anc ing</w>
am ing</w>
R o
Is la
G o
us h</w>
therap y</w>
sur ve
su s</w>
stud ying</w>
struc tures</w>
stra tion</w>
stor s</w>
sig nal</w>
ro bots</w>
ri ver</w>
h ate</w>
gra de</w>
for ced</w>
class room</w>
c ure</w>
any way</w>
anti bio
aff ord</w>
aff ect</w>
Some times</w>
Ho wever</w>
3 00</w>
uni ties</w>
tri al</w>
tre m
supp or
su it</w>
st uck</w>
st ay
ser ved</w>
opport unities</w>
nar ra
kilome ters</w>
invest ment</w>
in king</w>
h ot
f all
exp ec
every day</w>
enor mous</w>
edu ca
di stance</w>
deter min
des ire</w>
cor ding</w>
c ot
be low</w>
as si
U S</w>
H is</w>
s and</w>
recei ved</w>
r ying</w>
pain ting</w>
oper ation</w>
no ise</w>
mis sions</w>
mis sing</w>
m osphere</w>
lea ves</w>
l at
intro duc
for ces</w>
evol ved</w>
e dge</w>
dimen sional</w>
cre d
cor ner</w>
consci ous</w>
comple xity</w>
co ff
br ings</w>
benef its</w>
at mosphere</w>
ap h
R ic
G u
2 4</w>
wis dom</w>
w ood</w>
trans form</w>
thre at
sli ghtly</w>
s y</w>
re ti
profes sional</w>
or ders</w>
oppos ite</w>
lab or</w>
gen der</w>
fore ver</w>
fol lowed</w>
disco very</w>
din os
deep ly</w>
de a
civi liz
car ry</w>
bri lli
ar ms</w>
an tum</w>
S an</w>
sp ar
sex ual</w>
s wit
pho to</w>
os ity</w>
maj ority</w>
in ci
imag ination</w>
hosp it
he at</w>
har d
ess or</w>
en tation</w>
cen tral</w>
call s</w>
at om
as ks</w>
accoun t</w>
Se e</w>
Mi ddle</w>
Joh n</w>
H ey</w>
C E
A ma
wit ter</w>
vo ices</w>
tran si
st ood</w>
sp ending</w>
sent ence</w>
sec tion</w>
s al</w>
ris ks</w>
pri mar
play ed</w>
langu ages</w>
fore sts</w>
extre me</w>
ev ents</w>
e ating</w>
compar ed</w>
bu t
ar m
a thy</w>
W e
T witter</w>
T u
S econ
Braz il</w>
Au str
tri l
tra ined</w>
spir it</w>
se ly</w>
respon sible</w>
rep li
re m
re f
re al
prote in</w>
prac tic
phenomen on</w>
oper ate</w>
nor m
l ling</w>
ing ton</w>
increas ingly</w>
ill ness</w>
identi ty</w>
hor ri
gre s
gg ing</w>
galax ies</w>
ga tive</w>
figh ting</w>
es sion</w>
enc ing</w>
dre ams</w>
do ws</w>
clas si
chemi stry</w>
che ap</w>
campa ign</w>
ca de
c ru
back ground</w>
al es</w>
I D
Bri tish</w>
3 D</w>
worl d
ul timately</w>
trou ble</w>
transp or
sh ou
re turn</w>
r ac
ple as
pa int</w>
oun ding</w>
ne l</w>
n one</w>
let ters</w>
le gi
gu n</w>
grap h</w>
gen cy</w>
fun ny</w>
feel ings</w>
fail ed</w>
f ab
es is</w>
el low</w>
d aily</w>
ck et</w>
cau ght</w>
bi lities</w>
S A</w>
I ra
An y
volun te
tri p</w>
sym bo
sti ck</w>
rou gh
ro ll</w>
on -
o logical</w>
mar ri
luc ky</w>
it ch
ig n
identi fy</w>
hom es</w>
h all
feed back</w>
fascin ating</w>
fant astic</w>
fair ly</w>
ex act</w>
er t</w>
conversa tions</w>
cl aim</w>
chec k</w>
ca te
aff ected</w>
W om
Jap an</w>
Ch ar
1 7</w>
1 5
wh om</w>
w el
vi s
ver ing</w>
va tive</w>
sli de</w>
sh el
sen s
qu es</w>
p rou
on y
ob s
new sp
mo tion</w>
meas u
lea ving</w>
lar ge
l oss</w>
iz ation</w>
it ely</w>
is ol
insec ts</w>
f li
et c</w>
deli ver</w>
coff ee</w>
call ing</w>
bal ance</w>
b y
au d
ani cal</w>
F ren
Ama z
victi ms</w>
um s</w>
survi val</w>
st one</w>
st at
serv ation</w>
s w
ro ck</w>
re ment</w>
qu it
produc ed</w>
photograp h</w>
ph r
inv est</w>
in j
hol ding</w>
figu red</w>
f ill</w>
emplo ye
doub t</w>
dama ge</w>
curr ently</w>
c ing</w>
beg ins</w>
app ing</w>
ac cept</w>
L o
G P
Can ada</w>
2 ,000</w>
wil d</w>
we alth</w>
un fortunately</w>
tele vision</w>
st ery</w>
rele v
re duce</w>
part ner</w>
ot yp
m ate</w>
lim ited</w>
laun ched</w>
landsc ape</w>
ke eping</w>
hol es</w>
gro wn</w>
fac tors</w>
fa ith</w>
fa ir</w>
dri ver</w>
desig ners</w>
conv inc
conf er
char ge</w>
cate g
bo ys</w>
be l
be d
asse m
a di
E ach</w>
wear ing</w>
tion ing</w>
te e
re action</w>
nam es</w>
moun tain</w>
hy po
hon est</w>
f al
du e</w>
dist inc
co gni
co al</w>
ci ence</w>
bus in
bl ed</w>
b on
b ank</w>
avi d</w>
an thro
ag er</w>
adv ant
a id</w>
Q u
O r
Ar ab
A t
traff ic</w>
surpri se</w>
sty le</w>
sa ved</w>
s an
qu antum</w>
prot ection</w>
par ent</w>
op hi
li c</w>
inter act</w>
in stein</w>
hy dro
go ods</w>
gener ate</w>
for d</w>
far m</w>
es cap
en joy</w>
d el
comp are</w>
cl in
civi l</w>
ce ive</w>
benef it</w>
analy sis</w>
acci dent</w>
T ur
Ger many</w>
Ac tually</w>
z one</w>
vulner able</w>
ti ous</w>
t ent</w>
su ici
resi dent</w>
rem ote</w>
rele ase</w>
radi o</w>
pu ts</w>
multi ple</w>
m ouse</w>
hel ps</w>
fac ts</w>
fac ing</w>
f requ
enti rely</w>
curi ous</w>
comp on
cir cum
charac ter</w>
br an
belie f</w>
avo id</w>
achi eve</w>
a tional</w>
Th anks</w>
F i
F e
E instein</w>
D avid</w>
C l
wor ried</w>
we ar</w>
v ey</w>
tum or</w>
te x</w>
surpri sed</w>
suc ce
ste ps</w>
sho p</w>
ru le</w>
ri ch
reas on
r ates</w>
poe try</w>
pl us</w>
oxy gen</w>
oper ating</w>
open ed</w>
o therwise</w>
gra tion</w>
fos si
fore ign</w>
f illed</w>
en coun
empo wer
ele ph
do ors</w>
deta ils</w>
dem and</w>
consequ ences</w>
cle an
charac ters</w>
cap able</w>
b ought</w>
ac king</w>
W il
K i
Fren ch</w>
B rit
A sia</w>
A ra
y l
valu able</w>
sou l</w>
si ght</w>
safe ty</w>
r on
pro ve</w>
p ounds</w>
opti mi
ne ath</w>
me at</w>
mat ch</w>
mar ried</w>
in tu
ill u
gener ations</w>
f ro
emo tions</w>
e ps</w>
di o
d a
cop y</w>
ar ity</w>
ap preci
am a</w>
ac ted</w>
O b
GP S</w>
G i
F or
Ch il
C R
y er</w>
wa ke</w>
um ents</w>
trem end
tre ated</w>
sudd en</w>
strugg le</w>
stitu te</w>
s ac
previ ous</w>
predic t</w>
necess arily</w>
mon it
mean ing
man age</w>
lo g
lo ad</w>
iz ing</w>
inv esti
hous es</w>
hi dden</w>
grand mother</w>
g ation</w>
epide mic</w>
eng ine</w>
const antly</w>
W ash
M c
Ira q</w>
Amaz on</w>
A ID
v ote</w>
univer sity</w>
u ri
th -
t ough</w>
str ang
shi f
sc ul
s ons</w>
r and
prou d</w>
pro found</w>
or row</w>
me tho
m outh</w>
long- term</w>
dri ven</w>
cre ation</w>
con cep
be ar</w>
ag s</w>
Wash ington</w>
Ara b</w>
v ot
v es
uc ks</w>
to il
th row</w>
temp or
te sting</w>
t ol
sh ouldn</w>
se tt
reg ular</w>
refuge es</w>
priv ile
princi ples</w>
p ra
off ic
ne gative</w>
meth od</w>
le ts</w>
ke ts</w>
j e
it able</w>
ig nor
g el
f la
est ab
er ship</w>
en cies</w>
el er
econom ies</w>
deb ate</w>
coun t</w>
cont act</w>
cat ch</w>
brilli ant</w>
blo cks</w>
bl es</w>
associ ated</w>
adv anced</w>
Th ree</w>
Tal k</w>
Gre at</w>
D o
wea ther</w>
us ual</w>
terr ori
speci fically</w>
so ld</w>
separ ate</w>
re min
ner v
mo thers</w>
ma tically</w>
ju d
ini cal</w>
he av
go ld</w>
gh t
g ers</w>
fiel ds</w>
fashi on</w>
ex ic
er -
engine ers</w>
dimen sions</w>
cor tex</w>
clos ed</w>
cl inical</w>
civiliz ation</w>
charac ter
bu d
behavi ors</w>
b ru
ar tic
ar gue</w>
ad ded</w>
a st
a k
Sy ri
D ar
Au di
1 0,000</w>
z ine</w>
y ellow</w>
ve ments</w>
under neath</w>
un less</w>
th in</w>
ter y</w>
tal ity</w>
stati stics</w>
sel ling</w>
research ers</w>
relev ant</w>
ran dom</w>
prev ent</w>
per s</w>
per form</w>
organ ic</w>
or ism</w>
on ed</w>
mus eum</w>
ma kers</w>
li t</w>
in sur
imp li
im er</w>
i or</w>
har der</w>
h ome
ex hi
emer ging</w>
de aling</w>
connec tions</w>
ch imp
and -
ag ers</w>
a war
W ould</w>
R ob
N ig
M exic
J an
Ha ve</w>
F ri
D id</w>
C O
B ill</w>
AID S</w>
A n</w>
4 00</w>
ve -
val ent</w>
ur ch</w>
ty pical</w>
thre at</w>
sor ry</w>
resi stance</w>
prom ise</w>
pot entially</w>
organiz ed</w>
ob j
neur os
narra tive</w>
n it
molec ular</w>
mo on</w>
mathema tical</w>
lead ership</w>
lay er</w>
l en
l ap
high est</w>
he imer</w>
gen esis</w>
fel low</w>
ess ential</w>
es ome</w>
demon str
demo cra
d ots</w>
construc tion</w>
col ors</w>
c ard</w>
bo at</w>
bi a</w>
be t</w>
b le
algorith ms</w>
Y ou
S we
2 1
z heimer</w>
z es</w>
titu de</w>
str ength</w>
sig ned</w>
se es</w>
scen e</w>
rele ased</w>
pu zz
pay ing</w>
par al
p ages</w>
min d
m ur
it u
imm une</w>
ha s
h s</w>
fac tory</w>
fa il</w>
f oundation</w>
f ell</w>
eng aged</w>
e fully</w>
dou ble</w>
direc t</w>
din ner</w>
cred it</w>
cr uc
coll ect</w>
c ell
bre ad</w>
be at</w>
ap art
ang ing</w>
an g</w>
acc eler
ac tiv
M ore</w>
Ge or
Al zheimer</w>
200 8</w>
world wide</w>
v ard</w>
tril lion</w>
tee th</w>
te sted</w>
sti mul
shap es</w>
seri ously</w>
ra in
princi ple</w>
plat form</w>
pas sionate</w>
oce ans</w>
lea ds</w>
inter ven
inter pre
industri al</w>
imp res
has n</w>
gradu ate</w>
environ ments</w>
en se</w>
ec u
deta il</w>
commerci al</w>
col on
busin esses</w>
b ic
ad ver
a im
B er
B ab
4 5</w>
1 7
writ er</w>
us ers</w>
tom orrow</w>
th ir
t ac
symp tom
sur ge
sol ved</w>
sil ence</w>
si vely</w>
sa m
re present</w>
re pair</w>
r ural</w>
prom is
pri me</w>
poli ticians</w>
perf ec
mal es</w>
m ice</w>
lead er</w>
in d
in ations</w>
fri end
fossi l</w>
ed it
dea ths</w>
cri me</w>
cap ture</w>
att acks</w>
anti -
an a</w>
ad ult</w>
Tu be</w>
The ir</w>
TE D
Sch ool</w>
S ol
H ig
H i
B ar
Afri can
wonder ing</w>
wa ves</w>
st ac
sp ot</w>
sho es</w>
sec ure</w>
sav ings</w>
ro ads</w>
r ene
process es</w>
pro por
prepar ed</w>
pre gn
part ment</w>
p un
oc ca
norm ally</w>
no vel</w>
met aph
intellig ent</w>
influ ence</w>
in ner</w>
ho wever</w>
exper ts</w>
ex plan
eff ectively</w>
dy na
def ine</w>
d est</w>
cir cu
arri ved</w>
al o
You Tube</w>
P resident</w>
C am
vide os</w>
un it</w>
tremend ous</w>
to ward</w>
thou ghts</w>
ten s</w>
surve ill
sp ring</w>
so li
sh es</w>
se ts</w>
satellit e</w>
perfec tly</w>
pass words</w>
nerv ous</w>
mo ves</w>
mech anical</w>
manufac turing</w>
ma ster</w>
m ming</w>
inter action</w>
inf ection</w>
inc enti
in -
hypo the
ga ther
fl ying</w>
fac ed</w>
f at</w>
ex change</w>
es c
econom ics</w>
di sp
dep ends</w>
cy cle</w>
cor ru
cli ck</w>
cl usion</w>
bus y</w>
bro ad
astron om
arti f
adv ice</w>
M il
Hig gs</w>
Har vard</w>
wa ve</w>
vehic le</w>
us er</w>
travel ing</w>
transp ar
sk ele
se tting</w>
sc r
sc ared</w>
sa mple</w>
requ ire</w>
rec y
re sc
pros per
proper ties</w>
process ing</w>
poli cies</w>
p it
no w
mil li
mar k</w>
kill ing</w>
jo ined</w>
import ance</w>
gi es</w>
g lo
fundam entally</w>
f old</w>
elec tion</w>
dis ci
correc t</w>
contin ent</w>
coll ection</w>
ba g</w>
b age</w>
ann oun
anal o
an xi
allo wing</w>
ad op
Par is</w>
No bel</w>
M r.</w>
Brit ain</w>
Bi g</w>
200 9</w>
weap ons</w>
vi a</w>
terr orism</w>
ta il</w>
symptom s</w>
surveill ance</w>
stor y
spo ke</w>
sign als</w>
sig ns</w>
sequ ence</w>
proper ty</w>
pro j
pro ce
possi bilities</w>
pic ked</w>
op ening</w>
nat ur
mor tality</w>
mo di
ma ga
li br
j ump</w>
inv ited</w>
i ly</w>
hospit als</w>
hoo ds</w>
gr ate
exp an
e m</w>
det ect</w>
defin ed</w>
consi dered</w>
coll ap
care fully</w>
car ds</w>
addi tion</w>
ad ed</w>
absolu te</w>
Mexic o</w>
Ken ya</w>
2 .
whe el
vari ety</w>
v olu
sur vey</w>
sto ck</w>
sol di
sha me</w>
sa d</w>
ri de</w>
rela tively</w>
prote ins</w>
os is</w>
ophi sti
men tioned</w>
marri age</w>
l au
l a</w>
it i</w>
it arian</w>
institu tion</w>
id ly</w>
expla ined</w>
ex tin
en ever</w>
employe es</w>
emp ty</w>
disci pl
destruc tion</w>
cre atures</w>
cor al</w>
const ant</w>
comp os
com e
bas e</w>
a -
Isra el</w>
D P</w>
An gel
3 ,000</w>
wh el
vo ca
univer sal</w>
ti e</w>
sta ur
sp on
son gs</w>
si an</w>
s ophisti
s ke
requi res</w>
recor ded</w>
re staur
r ound</w>
produc tive</w>
pl as
p ha
neighb ors</w>
na vi
mon y</w>
mani pul
low ers</w>
lo cation</w>
h i</w>
grap hic</w>
gi ft</w>
galax y</w>
fal se</w>
emp athy</w>
ear th</w>
e missions</w>
dyna mic</w>
convinc ed</w>
confer ence</w>
competi tion</w>
cir cle</w>
chimp anz
challeng ing</w>
c king</w>
c el
brea king</w>
bat tle</w>
b oun
argu ment</w>
ap p</w>
agri culture</w>
T im
Su n</w>
S ha
N i
M al
I tal
us ive</w>
um ber</w>
tradi tion</w>
thin ks</w>
techni cal</w>
tal ks</w>
strate gy</w>
sour ces</w>
sen ding</w>
rough ly</w>
rev olu
re ci
quot e</w>
per ception</w>
particip ate</w>
orig in
organ isms</w>
met al</w>
li min
ke ys</w>
is land</w>
increas ing</w>
increas ed</w>
hall uc
h os
grand father</w>
gr an
gen i
fi le</w>
exi sts</w>
ex pression</w>
em bar
dis orders</w>
cy ber
ce ment</w>
aw esome</w>
at trac
antibio tics</w>
alter native</w>
advant age</w>
W al
S ou
S ince</w>
N A
L ast</w>
J er
I T</w>
Eng land</w>
Austr alia</w>
Ap ple</w>
Al so</w>
transi tion</w>
ti l
suff er</w>
sil k</w>
sen si
se at</w>
r in
r ay</w>
pul led</w>
over whel
on i
mista kes</w>
mir ror</w>
meaning ful</w>
less ons</w>
le g</w>
k a</w>
inv en
in fin
il legal</w>
fra me</w>
er al</w>
equi valent</w>
electri c</w>
deter mine</w>
con ta
capit alism</w>
c in</w>
c at</w>
awar eness</w>
at ri
am i</w>
al u
ag re
V o
S tre
G o</w>
Fr ance</w>
D ay</w>
C oun
C ould</w>
C .</w>
B al
B G</w>
10 0,000</w>
1 ,
we ird</w>
u ary</w>
trans formation</w>
th care</w>
techni ques</w>
sp here</w>
sec tor</w>
scul p
re main</w>
rap idly</w>
qu id</w>
qu ick</w>
prof it</w>
prof essor</w>
plan ning</w>
pl u
no tion</w>
ne ar
n ote</w>
insi ght</w>
gener ated</w>
fe wer</w>
e u
e as</w>
consu mption</w>
concer ned</w>
ca st</w>
bu bble</w>
bro ke</w>
bl in
b right</w>
b ird</w>
accur ate</w>
Y et</w>
S cot
Ric hard</w>
Per haps</w>
C or
B os
An der
A gain</w>
20 th</w>
20 10</w>
19 6
y ers</w>
w o
volu me</w>
vir uses</w>
va st
v an</w>
tra ge
su m</w>
ste ms</w>
st ant</w>
spec tr
shou l
sa tis
qu anti
presi dent</w>
on e
om es</w>
om as</w>
ol a</w>
newsp aper</w>
mp s</w>
metho ds</w>
mem ories</w>
liter ature</w>
la unch</w>
l oud</w>
l ay</w>
inter view</w>
insur ance</w>
inno vative</w>
independ ent</w>
in ev
hi de</w>
heav y</w>
func tions</w>
for mer</w>
fle xi
exi sting</w>
ex pres
d ry</w>
cu tting</w>
cr oss</w>
cour t</w>
c tion</w>
bor der</w>
bir th
bar ri
artif icial</w>
ar my</w>
an gry</w>
algorith m</w>
ac cording</w>
ab use</w>
Wom en</w>
W hi
S at
Pal est
P i
P R</w>
Jan uary</w>
A le
xi de</w>
worl ds</w>
vacc ines</w>
top ic</w>
suici de</w>
strang ers</w>
se v
sc an
regi ons</w>
radi cal</w>
popul ations</w>
pol ar</w>
mista ke</w>
men ted</w>
li an</w>
ke eps</w>
imag ined</w>
ignor ance</w>
heal thcare</w>
h ou
go s</w>
gent le
explor ation</w>
es tic</w>
eng aging</w>
effici ency</w>
e g
e ds</w>
di r
di et</w>
deep er</w>
cur ve</w>
contr ast</w>
cogni tive</w>
co vered</w>
cl oud</w>
cen tu
bre ath</w>
assu me</w>
appli cations</w>
a de</w>
R es
Musli m</w>
L os</w>
I ran</w>
G DP</w>
Every thing</w>
Every one</w>
Egyp t</w>
E m
C ome</w>
Ander son</w>
African -
x ing</w>
wal ks</w>
vie wed</w>
transpor tation</w>
teles cope</w>
tan e
t ech</w>
stron ger</w>
stre t
st in
sophisti cated</w>
se as
sc o</w>
s er</w>
ru p
rene w
r are</w>
prot otyp
pp er</w>
pos t-
pol lu
p ment</w>
mus cle</w>
ma d</w>
los ing</w>
life time</w>
labor atory</w>
l augh
j un
imp le
hon est
fa ult</w>
encou ra
distribu tion</w>
dar k
cul tures</w>
cre te</w>
cou rage</w>
autom a
aster n</w>
app le</w>
al ed</w>
Secon d</w>
K .</w>
Fran ci
Be fore</w>
9 9</w>
v as
st ances</w>
sm ell</w>
sam ples</w>
respon ses</w>
rema ins</w>
re ven
re mind</w>
re mem
pro p
poin ted</w>
phys ically</w>
pap ers</w>
org an</w>
open -
nor th</w>
no on</w>
natur ally</w>
mp ing</w>
metaph or</w>
marke ting</w>
maga zine</w>
mag ne
l ens</w>
inter ests</w>
int ell
inclu de</w>
gro ws</w>
grav ity</w>
gl aci
gg ed</w>
g ut</w>
fu els</w>
for ming</w>
fe min
fe atures</w>
electri cal</w>
docum ents</w>
disappe ar</w>
dis order</w>
desig ning</w>
consi st
ch ose</w>
bic y
be lon
ance stors</w>
an atom
ad mit</w>
Tim es</w>
Franci sco</w>
F a
C y
At lan
A s
0 0,000</w>
wh enever</w>
ver sus</w>
struc k</w>
st y</w>
st ate
sev ere</w>
s co
resour ce</w>
requi red</w>
re stri
re pu
re ached</w>
radi ation</w>
provi ding</w>
primar y</w>
pri son
pre scri
practic es</w>
part ners</w>
p ost</w>
org ans</w>
neighbor hoods</w>
n ose</w>
mp ed</w>
logi c</w>
le ase</w>
l as
ja il</w>
hu m</w>
hop ing</w>
hop efully</w>
hon or</w>
hol ds</w>
ha dn</w>
h ell</w>
h a</w>
gar den</w>
g an
g all
fol ks</w>
f light</w>
ep tem
el a</w>
ech no
dro pped</w>
diagnos ed</w>
che aper</w>
cer e
cen ters</w>
bi om
artic le</w>
ar re
appro pri
acc es
S eptem
O c
H on
3 5</w>
- up</w>
wan ting</w>
w are</w>
ul ate</w>
trac king</w>
toil et</w>
ti ll</w>
ri min
ri d</w>
r as
qui et</w>
produc tivity</w>
pres er
out comes</w>
ori ties</w>
organiz e</w>
op tions</w>
neur on</w>
movi es</w>
micros cope</w>
mi gration</w>
k itch
intro duce</w>
in equality</w>
gr ay</w>
g ust</w>
exerci se</w>
es timate</w>
engine er</w>
en jo
emer gency</w>
el ing</w>
ecosy stem</w>
direc tor</w>
dia be
des per
defin itely</w>
custom ers</w>
coun ter
cop y
contro lled</w>
col li
be e
appli ed</w>
ag ree
a ti
U. K.</w>
Th omas</w>
T om</w>
Septem ber</w>
R os
Li fe</w>
H ol
C a
A m
20 11</w>
2 2</w>
- like</w>
youn ger</w>
w oo
vir tu
un known</w>
tra its</w>
su ggest</w>
st af
staf f</w>
so -
remem ber
produc ing</w>
prin ting</w>
poo rest</w>
person ally</w>
partic le</w>
p ack
opp ing</w>
oc cur
ner ship</w>
n e</w>
mo vements</w>
man agement</w>
m aps</w>
li cen
is es</w>
ir ing</w>
introduc ed</w>
in ju
hor se</w>
gu i
gi cal</w>
ent y</w>
disa ster</w>
di alo
con trac
con stitu
commit ment</w>
clo ck</w>
centu ries</w>
ca ve</w>
ca ting</w>
c tic</w>
bo xes</w>
ber g</w>
ax is</w>
ar ts</w>
ar d
agre ed</w>
aff ord
a urs</w>
St an
Chri st
Angel es</w>
7 5</w>
w est</w>
ul timate</w>
t les</w>
t ack
surr ounded</w>
spectr um</w>
sc ar
rou gh</w>
recy cl
re moved</w>
r ating</w>
psy ch
profes sion
prac tical</w>
poe m</w>
plan ted</w>
pa int
nee d
mot or</w>
mir ac
mechan ism</w>
m as</w>
lo ck</w>
ins ul
in ion</w>
in gre
ingre di
h ost</w>
go l
g or
fund ing</w>
four th</w>
fl u</w>
f at
explan ation</w>
ev olu
estab li
encou rage</w>
embr ace</w>
eff orts</w>
dre w</w>
dra wing</w>
dom estic</w>
cop es</w>
ci l</w>
bro w
b allo
and er
an ony
after noon</w>
acces sible</w>
Whi le</w>
N umber</w>
M IT</w>
4 ,000</w>
200 7</w>
x im
war m</w>
un like</w>
tr end</w>
the ater</w>
swit ch</w>
swi mming</w>
sol ving</w>
situ ations</w>
sc ary</w>
repres ents</w>
re place</w>
re move</w>
psy chi
prot ected</w>
phr ase</w>
person ality</w>
op inion</w>
ne go
nego ti
n ic
my stery</w>
mi x</w>
men tion</w>
me tri
m ber</w>
loo p</w>
lo ws</w>
in her
in fl
hur t</w>
hou se
gu ar
grap hy</w>
gener ally</w>
figu res</w>
ev alu
equi pment</w>
de vi
cul ar</w>
comb ine</w>
coll ected</w>
co ast</w>
bur ning</w>
aw ful</w>
au l</w>
at oms</w>
ari o</w>
al -
ad ol
ab str
Stre et</w>
P M</w>
On ly</w>
L u
K e
In stitute</w>
G ree
G lob
CO 2</w>
B l
19 5
weap on</w>
tr uck</w>
tici an</w>
survi v
sp reading</w>
smar t
si ties</w>
shap ed</w>
s outh</w>
ro cks</w>
ri gh
ri di
r yp
pre -
pl ate</w>
perfor ming</w>
off ered</w>
obe sity</w>
lim its</w>
li quid</w>
lea ther</w>
kitch en</w>
k et</w>
inst all
inspi ration</w>
in ts</w>
in str
gu il
gre en
grate ful</w>
g ment</w>
fi sh
fall ing</w>
fa ke</w>
exp and</w>
ex tent</w>
es tion</w>
er ror</w>
equ ally</w>
educa tional</w>
dr inking</w>
dinos aurs</w>
dialo gue</w>
desig ner</w>
deli vered</w>
co in</w>
clos ely</w>
circum stances</w>
can di
c ans</w>
bom b</w>
attemp t</w>
accep ted</w>
ac tor</w>
S pe
Musli ms</w>
Isra el
He alth</w>
H er</w>
H er
Geor ge</w>
Every body</w>
C al
B as
Ab out</w>
21 st</w>
1 6
wheel chair</w>
under water</w>
travel ed</w>
ti an</w>
techno logical</w>
te sts</w>
succe ed</w>
stat us</w>
sk ill</w>
sel s</w>
sch ol
ri ce</w>
reco gni
re ver
r us</w>
ph er
pat ent</w>
pain ful</w>
pa tho
oo m</w>
ne ural</w>
na tions</w>
n or</w>
mos quit
me -
log ically</w>
l ink</w>
l in</w>
kin son</w>
identi cal</w>
i ds</w>
hor iz
har m</w>
fin ish</w>
eleph ant</w>
echno logy</w>
dr ink</w>
diffic ul
den se</w>
deb t</w>
de -
d ates</w>
d anger</w>
curi osity</w>
cro ps</w>
crimin al</w>
copy right</w>
consu mer</w>
construc t</w>
confi dent</w>
confi dence</w>
cl ou
chi p</w>
certain ty</w>
car rying</w>
car ried</w>
bro wn</w>
blo ck
bar ely</w>
ap es</w>
afford able</w>
addre s
T r
Sat ur
S ar
I I</w>
Fin ally</w>
An tar
2 7</w>
wor ker</w>
well- being</w>
ta tive</w>
t asks</w>
symbo l</w>
simp li
sil ent</w>
s can</w>
s ca
repe at</w>
rel ation</w>
recogni tion</w>
re comm
re a
puzz le</w>
ph arm
p id</w>
or al</w>
ne u
main tain</w>
lo c
it ting</w>
intell ec
ill usion</w>
hy per
hand le</w>
h ers</w>
go als</w>
g ent</w>
experi encing</w>
entreprene urs</w>
en able</w>
e limin
e ar</w>
dra matically</w>
dis ability</w>
crow d</w>
conven tional</w>
but ton</w>
auth enti
at tribu
as ide</w>
appli cation</w>
ang le</w>
am ed</w>
al d</w>
activi ties</w>
ac tors</w>
ab led</w>
St ate</w>
P lease</w>
Nig eria</w>
M u
La tin</w>
In deed</w>
D oes</w>
D is
2 1</w>
1 3
wor thy</w>
wonder ed</w>
win dows</w>
war ming</w>
tri ck</w>
ton ight</w>
swi m</w>
sugge sts</w>
st able</w>
spi der</w>
spea ker</w>
so ft</w>
recogn ized</w>
re verse</w>
re solution</w>
provi ded</w>
prosper ity</w>
pol l
pl om
pl ed</w>
ore sc
ong st</w>
large ly</w>
lad y</w>
ju dge</w>
inter nal</w>
in tri
in o</w>
human itarian</w>
her self</w>
her oes</w>
her o</w>
func tional</w>
fra u
flo ating</w>
fi f
emo tion</w>
electr onic</w>
doz en</w>
divi ded</w>
distribu ted</w>
dep ending</w>
d a</w>
curr ency</w>
cruc ial</w>
conv ince</w>
com pla
colleag ue</w>
clin ic</w>
citiz en</w>
ch art</w>
c ents</w>
b us</w>
b ones</w>
b in
b ar</w>
b alls</w>
asp ects</w>
ar ely</w>
apart ment</w>
ap par
an ia</w>
amoun ts</w>
am ongst</w>
ad es</w>
a cade
V ery</w>
V al
Uni on</w>
Pa ki
K ore
J ames</w>
Indi an</w>
F l
C i
Audi ence</w>
5 0,000</w>
ye ster
win ter</w>
v oting</w>
un t</w>
tre ating</w>
to cin</w>
st eri
st ands</w>
sp orts</w>
sp ire</w>
so- called</w>
s ul
ro b
repu tation</w>
repor ted</w>
rel ate</w>
re ward</w>
re turned</w>
rais ing</w>
ra m</w>
play er</w>
par king</w>
paint ings</w>
op h
on na</w>
on ics</w>
obs essed</w>
no where</w>
ne ither</w>
measu red</w>
ly mp
le f
lau gh</w>
l un
inv ent</w>
inter face</w>
impli cations</w>
i el
hydro gen</w>
gra m</w>
g ay</w>
fru str
fl at</w>
fer ti
f loo
dro ve</w>
dra matic</w>
con crete</w>
comfor t</w>
comb ination</w>
care ful</w>
camer as</w>
ca mp</w>
bla h</w>
birth day</w>
as sa
ar cha
an der</w>
aliz ing</w>
Mus eum</w>
Mic ha
Me di
M ini
M an</w>
Ger man</w>
E d
D ec
CR IS
C enter</w>
20 00</w>
- to-
- scale</w>
yester day</w>
ves sels</w>
un its</w>
u b
tri als</w>
tol er
tic a</w>
teen agers</w>
t y-
t ories</w>
sus p
sub jects</w>
ste el</w>
stay ed</w>
sh ment</w>
sh ir
sear ching</w>
ro of</w>
refuge e</w>
re ceive</w>
rand om
ra w</w>
r arely</w>
pres ence</w>
pregn ant</w>
preci sely</w>
pre ven
pleas ure</w>
pic ally</w>
per man
pass word</w>
p are</w>
out come</w>
not es</w>
neuro genesis</w>
neighb or</w>
mis s</w>
me work</w>
li zed</w>
l ength</w>
journ alist</w>
jo ke</w>
inv as
imag in
ic a</w>
hun gry</w>
h ac
g un
g in
fu nd</w>
fin gers</w>
f lies</w>
expl os
ex press</w>
evi l</w>
ev ening</w>
en sure</w>
elec tions</w>
ear th
dy s
discus sion</w>
democra tic</w>
d ay
coo king</w>
contr act</w>
con ser
con fir
cl aim
cho os
bot tle</w>
b ill</w>
b ags</w>
anxi ety</w>
ad ing</w>
ad ding</w>
T e
Pri ze</w>
M and
L it
J une</w>
B ank</w>
Arab ic</w>
20 12</w>
19 th</w>
wit ness</w>
w ings</w>
vir al</w>
vehic les</w>
um in
ul ous</w>
tou ched</w>
techni que</w>
t- hand</w>
t at
stu pid</w>
stran ger</w>
sto red</w>
sh all</w>
sc ore</w>
s mile</w>
restaur ant</w>
resi li
re t
re r</w>
re plac
ra dic
qu e
pur cha
oxy tocin</w>
ori al</w>
op ia</w>
libr ary</w>
l unch</w>
l aughter</w>
is on</w>
i Ph
horri ble</w>
h its</w>
fru it</w>
fra mework</w>
fi shing</w>
fe eding</w>
f ought</w>
ex ter
en n
en for
destro yed</w>
deser t</w>
d ancing</w>
cre ature</w>
cr ying</w>
cr ash</w>
corpor ate</w>
commit ted</w>
collabor ation</w>
ci enti
ch ic
ca using</w>
ca ble</w>
b al</w>
appreci ate</w>
appe ar</w>
addi tional</w>
ad mini
W ow</w>
W ill</w>
T ex
S tu
N ext</w>
Glob al</w>
G ab
F O
CRIS PR</w>
Bos ton</w>
z a</w>
whe el</w>
wh ales</w>
we ak</w>
victi m</w>
ve mber</w>
u gly</w>
trage dy</w>
traff ic
to x
terrori st</w>
tempor ary</w>
te e</w>
tane ously</w>
t ell
su rely</w>
si x
secre ts</w>
satellit es</w>
ri sing</w>
ra tional</w>
prom ote</w>
pro of</w>
pollu tion</w>
pl er</w>
pi one
pi g</w>
p hi
p es</w>
p ack</w>
offic er</w>
occu r</w>
obj ective</w>
ob stac
o logists</w>
o de</w>
mic als</w>
journ alists</w>
incre ases</w>
ign ore</w>
ici ans</w>
histor ical</w>
gn ity</w>
gen u
ga ther</w>
ful ness</w>
fin ds</w>
fac tor</w>
f lowers</w>
exhi bi
escap e</w>
es h</w>
ent ure</w>
dri ves</w>
divi de</w>
dis h</w>
diagnos is</w>
di gnity</w>
destro y</w>
der ly</w>
cos mo
contribu te</w>
con clu
compon ents</w>
clas ses</w>
che micals</w>
ch ap
air plane</w>
adver ti
achiev ement</w>
ab sor
T it
Swe den</w>
Stan ford</w>
S ec
S cience</w>
Re member</w>
R ec
Par k</w>
NA SA</w>
M at
Isla m</w>
Inter national</w>
G ood</w>
G al
F oundation</w>
Chil dren</w>
C en
1 50</w>
- based</w>
wher ever</w>
ve ge
treat ments</w>
tion -
sugge sting</w>
sug ar</w>
state ment</w>
squ e
sing ly</w>
si m
sen ses</w>
ru b
ridi cul
resi stant</w>
rela tions</w>
recor ds</w>
reco ver</w>
rec ru
re cep
psycho logical</w>
pri ze</w>
pl ays</w>
pa th
over all</w>
ou ri
o tic</w>
moun tains</w>
mosquit os</w>
mit ted</w>
mind set</w>
micro bi
mar ine</w>
mam m
li ze</w>
li ked</w>
inven tion</w>
intu i
inten ded</w>
intellec tual</w>
instruc tions</w>
incenti ves</w>
in spire</w>
in put</w>
imag ing</w>
illu str
il es</w>
i um</w>
gu ide</w>
glo be</w>
g ated</w>
exper t</w>
ex posed</w>
ess ing</w>
dre s
dra wn</w>
di verse</w>
di plom
det ec
d ur
cr y
cor als</w>
conf used</w>
con fron
coll ecting</w>
cle ver</w>
ck y</w>
chan ces</w>
ch urch</w>
celebr ate</w>
camp us</w>
ca go</w>
ber t</w>
ba th
asp ect</w>
an -
agri cultural</w>
ac compli
T ra
T a
Sou thern</w>
Some thing</w>
Rus sia</w>
Pro ject</w>
M ary</w>
D a
Chi cago</w>
B on
1 9</w>
z en</w>
y ours</w>
y iel
war s</w>
us hed</w>
un comfortable</w>
transp ort</w>
trans formed</w>
tra u
tr ends</w>
tissu es</w>
ter ies</w>
t an</w>
sustain ability</w>
surge on</w>
sub tle</w>
stand ards</w>
spec tac
smo ke</w>
sing ing</w>
sent ences</w>
sensi tive</w>
se ven
s ne
run s</w>
reve al</w>
res h</w>
re tin
pus hing</w>
pus hed</w>
pur su
privile ge</w>
preci sion</w>
pre ce
po p</w>
po cket</w>
physici st</w>
phil anthro
per cent
organ ism</w>
on ing</w>
od d</w>
nar row</w>
meas uring</w>
inve sted</w>
inter active</w>
inter actions</w>
inter acting</w>
inev itable</w>
im men
hun ger</w>
glob ally</w>
g li
extr act</w>
evolu tionary</w>
equ ation</w>
em bed
edu cated</w>
do gs</w>
dist ant</w>
disc rimin
de gra
de fault</w>
conven i
come dy</w>
bud get</w>
bor ders</w>
ban ks</w>
aff ects</w>
adol esc
Wil li
V ir
T or
Syri a</w>
Ste ve</w>
Sp ace</w>
Rob ert</w>
P ole</w>
P aul</w>
Mo on</w>
K ing</w>
G ive</w>
G han
Fri day</w>
D es
Chri sti
Char les</w>
CE O</w>
- time</w>
writ ers</w>
wher eas</w>
vari ation</w>
v it
v est</w>
ti ed</w>
three- dimensional</w>
th anks</w>
tal s</w>
t ate</w>
spo ken</w>
shoul der</w>
sh ops</w>
ser ving</w>
see k</w>
scri pt</w>
reti rement</w>
repres en
remin ded</w>
refer ence</w>
reco very</w>
quar ter</w>
proper ly</w>
pro gres
pl ans</w>
per su
per cep
per cei
p ort</w>
or ing</w>
o v
mon key</w>
min gly</w>
mi es</w>
mechan isms</w>
mar ry</w>
mar ks</w>
m ess</w>
less ly</w>
inst inc
ing dom</w>
infin ite</w>
in cl
i e</w>
he ight</w>
ha n</w>
gra ms</w>
gi vers</w>
gi ble</w>
geni us</w>
ge ograp
g in</w>
g am
fr ank
fic tion</w>
exi sted</w>
ear n</w>
dri vers</w>
doz ens</w>
do t</w>
der al</w>
dec line</w>
d ating</w>
crimin als</w>
corpor ations</w>
continu ed</w>
conflic ts</w>
concep ts</w>
con servation</w>
con clusion</w>
classi c</w>
chic ken</w>
can e</w>
bu ying</w>
bro ad</w>
brea ks</w>
b ow</w>
b att
ans wer
al tru
ab und
So ci
J en
B ur
z o
y outh</w>
y ment</w>
v able</w>
um a</w>
ul l</w>
trans fer</w>
tim ated</w>
t ape</w>
swe et</w>
spir it
refl ect</w>
re aching</w>
r ul
produc es</w>
pri ces</w>
poo l</w>
po wers</w>
physici an</w>
paral y
p en</w>
n esses</w>
ma il</w>
lu x
lo cked</w>
lin ked</w>
life -
lif esp
liber al</w>
legi sl
lay ers</w>
l ecture</w>
itu de</w>
inve sting</w>
in justice</w>
i ons</w>
hear ts</w>
ful l
frank ly</w>
fortun ate</w>
flo wer</w>
f alls</w>
ex ha
ess ence</w>
es timated</w>
ent ro
enc ryp
en h
ele ment</w>
e go</w>
dri ll</w>
disco ver
depend ent</w>
dep end</w>
de di
dat ab
d ust</w>
conv ic
con stra
co ol
cha mp
ch rom
c up</w>
be e</w>
be ach</w>
bar re
b ola</w>
b adly</w>
au r</w>
ar ing</w>
acade mic</w>
abstr act</w>
Wh e
Ph il
Par kinson</w>
Paki stan</w>
N G
M is
M R
G ates</w>
Ar t</w>
African- American</w>
6 5</w>
6 00</w>
wee k
v enti
univer sities</w>
tra uma</w>
til ity</w>
th es</w>
teen age</w>
ta x</w>
ta stro
strugg ling</w>
stru ment</w>
st ag
sp inal</w>
smar ter</w>
see ds</w>
se as</w>
scri p
sch iz
renew able</w>
religi ons</w>
rela tive</w>
prison ers</w>
pre pare</w>
pos es</w>
philosop hy</w>
par ties</w>
p uni
op posed</w>
multi -
migr ants</w>
mi li
medi um</w>
me d
main ly</w>
lim it</w>
licen se</w>
li ed</w>
j i
j ec
is tics</w>
inv ent
initi al</w>
in strument</w>
impro vement</w>
i ous</w>
hot el</w>
hal f-
g y
fri ger
fi re
f ears</w>
explor ing</w>
evol ve</w>
err a</w>
entro py</w>
el derly</w>
e es</w>
diabe tes</w>
di o</w>
d ung</w>
d ding</w>
consu mers</w>
consci ously</w>
compu ting</w>
comb ined</w>
cha ins</w>
cen tr
calcul ate</w>
ca tastro
bur n</w>
bor ing</w>
bicy cle</w>
belie fs</w>
ballo on</w>
b en
auth ority</w>
auth or</w>
ar med</w>
S im
O ther</w>
I .</w>
Ha iti</w>
Gre en</w>
Ghan a</w>
G en
G a
E bola</w>
Ar ctic</w>
A ir
we igh
vi sit
vi br
ver ts</w>
vacc ine</w>
under lying</w>
un expected</w>
um b</w>
ty pically</w>
tum ors</w>
tr ucks</w>
tiz ed</w>
the -
ta p</w>
t ables</w>
super -
si zed</w>
ro ws</w>
ro ots</w>
ree fs</w>
recor ding</w>
re friger
r a</w>
qu it</w>
pre h
pre fer
posi tions</w>
pol y
pl enty</w>
photograp hs</w>
pe er</w>
par ks</w>
out put</w>
or bit</w>
ol dest</w>
off icial</w>
of -
nur ses</w>
mo de</w>
mis sed</w>
mis m</w>
microbi al</w>
mi xed</w>
meas ures</w>
m ut
li a</w>
lat est</w>
l o</w>
k ic
isol ated</w>
invol ves</w>
inf ected</w>
i m</w>
hous ing</w>
hor mon
gra in</w>
gra b</w>
fro zen</w>
for m
flu oresc
f ed</w>
enfor cement</w>
ene my</w>
dis play</w>
dio xide</w>
di str
det ection</w>
dec ep
de vast
de partment</w>
d ges</w>
cu te</w>
cro p</w>
construc ted</w>
clou ds</w>
cli p</w>
chan nel</w>
ch est</w>
cap tured</w>
c tica</w>
c kets</w>
break fast</w>
b iting</w>
aw k
automa tically</w>
appropri ate</w>
analy ze</w>
an o</w>
an ese</w>
We b</w>
Sa har
S m
Palest ini
O ce
G ir
Fr ank</w>
E l
Dar win</w>
Con gress</w>
B it
B a
Antar ctica</w>
2 3</w>
y al</w>
wh o
w l</w>
volunte ers</w>
un certainty</w>
un believ
tu s</w>
trans forma
ti se</w>
thro wn</w>
teles copes</w>
t led</w>
t all</w>
suff ici
stay ing</w>
sco res</w>
sac ri
sa fer</w>
ro ot</w>
re view</w>
re actions</w>
pre dat
pos t
plan es</w>
percent age</w>
pe ak</w>
pas sing</w>
p y
p lot</w>
p in
oph ren
occur red</w>
mus ical</w>
motiv ated</w>
m uni
l es
inv ite</w>
ingredi ents</w>
halluc inations</w>
ha m</w>
guar an
glob alization</w>
gar bage</w>
four -
foot ball</w>
far ming</w>
expla ining</w>
exp on
exp anding</w>
ex pedi
end a</w>
encoun ter</w>
electr onics</w>
el ine</w>
earth qu
dis gu
de pres
dark ness</w>
corru ption</w>
contin ues</w>
consequ ence</w>
concer n</w>
con tra
compe te</w>
comm ents</w>
comb at</w>
ca ts</w>
c enti
at en</w>
ar g
appro aches</w>
ap o
amp ;</w>
am p</w>
al a</w>
ag encies</w>
ace u
a ks</w>
a king</w>
W all</w>
Ti me</w>
Micha el</w>
E M</w>
Bo b</w>
B e</w>
B ang</w>
A ri
A L
9 0s</w>
20 50</w>
& amp;</w>
z oom</w>
v ation</w>
un cle</w>
transl ation</w>
trans plant</w>
thre ats</w>
ter ing</w>
ter -
ten sion</w>
survi ved</w>
surpri singly</w>
strate gies</w>
st ations</w>
st ability</w>
spirit ual</w>
smo king</w>
sion ally</w>
shi pping</w>
schiz ophren
sa tion</w>
pro per</w>
prin ted</w>
pos ted</w>
per mission</w>
p ure</w>
ow ned</w>
oo t</w>
ol ds</w>
ne ts</w>
navi gate</w>
n om
multi p
mon keys</w>
mil len
mathema ticians</w>
mag nific
le tting</w>
le te</w>
ke t
indi ca
in tr
il le</w>
il it
iPh one</w>
i ans</w>
ho li
help ful</w>
han g</w>
h att
h at
h all</w>
go od
fig uring</w>
fi xed</w>
fi bers</w>
fac i
fa thers</w>
extin ct</w>
exper tise</w>
exc it
ex tend</w>
eth ical</w>
er ies</w>
enter pri
embr ac
embed ded</w>
ell ed</w>
ec e</w>
di v
dep lo
cry st
consi der
connec ting</w>
concer ns</w>
co ck
chimpanz ees</w>
char ged</w>
c o</w>
bi c</w>
ast oni
ander th
anatom y</w>
al ty</w>
ag ency</w>
adap t</w>
a tic</w>
Vo ice</w>
T ell</w>
P ol
Man hatt
M other</w>
Li b
J os
F ive</w>
F er
D en
D el
C he
C ha
Ar chi
A cade
7 0s</w>
20 15</w>
20 ,000</w>
19 4
. C.</w>
wat er
vis ited</w>
ve ter
un usual</w>
u ed</w>
tex t
te a</w>
ta ste</w>
t ap
t ab
stu dio</w>
sti cks</w>
spea kers</w>
soldi ers</w>
sho ck</w>
shif ting</w>
sha ke</w>
sha dow</w>
se where</w>
s na
rou te</w>
ridicul ous</w>
rich er</w>
re gre
re con
r ent</w>
r at
quar ters</w>
prof its</w>
pl ying</w>
para do
ot ed</w>
optimi stic</w>
nutri tion</w>
need le</w>
met abo
mem or
medi cation</w>
me al</w>
mat ure</w>
m one</w>
lo cated</w>
ligh ting</w>
li ver</w>
la be
ki lo
it e
inter net</w>
instr uments</w>
inj ury</w>
inclu des</w>
im mer
identi fied</w>
hor mone</w>
hi p
head ed</w>
ha bit</w>
h ire</w>
h il
great -
grav it
grap h
grand children</w>
gl uc
g ments</w>
g ence</w>
for gotten</w>
foot print</w>
foc using</w>
fle w</w>
fascin ated</w>
fail ing</w>
faci lities</w>
f usion</w>
f resh</w>
f oun
ex pos
el sewhere</w>
el ev
el ed</w>
ecosy stems</w>
dol ph
do cu
discus s</w>
discover ies</w>
dinos aur</w>
di an</w>
determin ed</w>
desig ns</w>
deser ve</w>
descri ption</w>
deli very</w>
cr ash
conver t</w>
contro ver
communi cations</w>
com et</w>
collap se</w>
collabor ative</w>
col ony</w>
chrom os
character istics</w>
char ity</w>
carto ons</w>
c ow</w>
c ook</w>
att ached</w>
arti cles</w>
appe ars</w>
ap ers</w>
anony mous</w>
ad dic
ac qui
Val ley</w>
Un til</w>
Un fortunately</w>
S E
R w
R NA</w>
Ne anderth
Mic ros
Manhatt an</w>
Mand ela</w>
M e</w>
Lit tle</w>
J es
Is lands</w>
I ran
H ouse</w>
H i</w>
G r
G ener
F u
F ort
Afri cans</w>
A l</w>
2 50</w>
z y
wi d
ver sions</w>
v ital</w>
ur ban
uc k
tru st
ti tle</w>
threat ened</w>
the less</w>
tar gets</w>
tar ge
ta x
stro ke</w>
str ing</w>
sti cal</w>
soli d</w>
skele ton</w>
sho cked</w>
shir t</w>
sh r
se y</w>
restri c
repres ented</w>
re less</w>
r at</w>
promis ed</w>
prob ability</w>
pro file</w>
po et</w>
pic king</w>
pe t</w>
pe ace
ous y</w>
our ing</w>
ou ter</w>
origin ally</w>
ob serve</w>
ob serv
o l</w>
o ci
no des</w>
na tives</w>
na ked</w>
ment ally</w>
ma ker</w>
list ened</w>
lic on</w>
l ine
inf ections</w>
inclu ded</w>
imp acts</w>
im migration</w>
ici an</w>
hom eless</w>
he a
gr ab
gh ted</w>
gentle men</w>
gen ous</w>
fe ature</w>
fab ric</w>
f it
expan sion</w>
esti mates</w>
es the
eng agement</w>
emp ha
em ber</w>
econom ists</w>
docu ment</w>
dist ur
di g</w>
des k</w>
de st
d i</w>
cri tici
cr y</w>
cor d</w>
co operate</w>
co m</w>
clo thes</w>
clim b</w>
class rooms</w>
cir cul
cir cles</w>
capit a</w>
ca tal
bl u
be long</w>
assi stance</w>
as sign
arti stic</w>
ar do</w>
appar ently</w>
announ ced</w>
ambi tious</w>
ali en</w>
ag gre
achiev ed</w>
a j
Wh at
Re ally</w>
O x
O s</w>
M os
Gab by</w>
FO X
F ree
D uring</w>
Cy rus</w>
Cen tral</w>
B ay</w>
Acade my</w>
win ning</w>
vie wing</w>
trans late</w>
ti tion</w>
thi er</w>
surr ounding</w>
str eng
sto res</w>
st ops</w>
st ones</w>
ske p
si sters</w>
seas on</w>
scen ario</w>
s now</w>
s ki
ro of
pres ented</w>
pharm aceu
ow ner</w>
orig in</w>
off ices</w>
of t</w>
o k
nutri ents</w>
ner ve</w>
meth ane</w>
mamm als</w>
magnific ent</w>
lo vely</w>
lo red</w>
liter acy</w>
le m
l ung</w>
l uck</w>
k ne
k es
jus ti
influ enced</w>
industri es</w>
ide al</w>
hu mili
hormon es</w>
honest ly</w>
hard ware</w>
happ i
habit at</w>
h es</w>
gr as
gluc ose</w>
g onna</w>
g a</w>
flexi ble</w>
fin ger
fac ility</w>
f ts</w>
f ounded</w>
f ear
expec tations</w>
exhibi tion</w>
enter ing</w>
ear ch</w>
def ense</w>
dec re
d anc
d af
cr ack</w>
conv ey</w>
co operation</w>
co -
clos est</w>
civi c</w>
cha os</w>
ce iling</w>
catastro p
car ing</w>
c ous
c and
bro thers</w>
brea thing</w>
bi ke</w>
b oss</w>
as pi
archit ects</w>
an ticip
ag enda</w>
ag en</w>
acc um
ac u
a ment</w>
T ony</w>
S ing
S aud
S S</w>
P u
Ob ama</w>
No body</w>
N .</w>
M or
Jap anese</w>
Isla mic</w>
Gree k</w>
Dec ember</w>
Christ mas</w>
Any way</w>
8 0s</w>
200 5</w>
200 4</w>
1 4
. D
y o
y ard</w>
y an</w>
work force</w>
wor ms</w>
wi red</w>
wi der</w>
was h</w>
w ine</w>
w age</w>
usi ons</w>
us cri
ul tra
ul ated</w>
tri cks</w>
tra it</w>
tra gic</w>
ti p</w>
ther mal</w>
tele phone</w>
tack le</w>
success fully</w>
su per</w>
st ine</w>
spir ing</w>
spectac ular</w>
sho oting</w>
san itation</w>
ra mi
predic table</w>
perman ent</w>
per si
pe ers</w>
p ink</w>
p ace</w>
os en</w>
op ens</w>
ni ghts</w>
neu tral</w>
mis sion
mirac le</w>
mechan ics</w>
man uscri
magne tic</w>
m m</w>
lo aded</w>
lifesp an</w>
lea p</w>
las er</w>
la ke</w>
l ou
it ory</w>
insul in</w>
imag ining</w>
han ded</w>
gran ted</w>
gra des</w>
gi e</w>
fri gh
for mul
fin ed</w>
fin ance</w>
fil ms</w>
excit ement</w>
ev el
et ary</w>
establi shed</w>
en ables</w>
embar ras
elec ted</w>
ec ology</w>
earthqu ake</w>
dy nam
domin ant</w>
di c</w>
d ential</w>
d al</w>
contro ls</w>
contra dic
consist ent</w>
compon ent</w>
competi tive</w>
categ ory</w>
bur den</w>
block chain</w>
bl ack
bio logists</w>
bi as</w>
b o</w>
aster o
all -
Whe ther</w>
W a
U. N.</w>
Scot t</w>
S D</w>
P r
P hi
Ne w
Mar ch</w>
H um
H el
Ale x
wil d
wea k
wa i
w ire</w>
u ti
transpar ency</w>
transl ated</w>
ton om
ti ze</w>
terri fying</w>
t ancy</w>
syn the
sym b
suppor ted</w>
sugge sted</w>
story telling</w>
ster ed</w>
sp ots</w>
sp lit</w>
sh ut</w>
sh ots</w>
separ ated</w>
sens ors</w>
see king</w>
se t
sculp ture</w>
scr atch</w>
scho ol
s ession</w>
ro lling</w>
ro cket</w>
ri st</w>
res on
regi me</w>
recep tor</w>
re ments</w>
r ors</w>
profession als</w>
pro pos
pre mi
pi gs</w>
photograp hy</w>
pha se</w>
pedi a</w>
para dig
pa irs</w>
over come</w>
or -
on ald</w>
ol ine</w>
ob servation</w>
n els</w>
mp tions</w>
mil k</w>
mi d-
m on</w>
li kes</w>
legisl ation</w>
law yer</w>
lap top</w>
l ls</w>
l ined</w>
je al
it er</w>
inten se</w>
inst ant</w>
ig no
hypothe sis</w>
hi cal</w>
hac kers</w>
green house</w>
gr ass</w>
ge ome
forma l</w>
fore station</w>
foot age</w>
far mer</w>
ex ecu
en i
el son</w>
difficul ty</w>
decre ase</w>
de x</w>
cros s-
consu me</w>
choos ing</w>
che str
ch osen</w>
c lic
brow ser</w>
brea the</w>
bla me</w>
beauti fully</w>
be have</w>
b ucks</w>
b or</w>
b low</w>
b ind</w>
audi o</w>
au tonom
at titude</w>
as ing</w>
ang les</w>
adv ance</w>
ad y</w>
aci fic</w>
Tex as</w>
T ali
P or
Oce an</w>
O lymp
N elson</w>
N ations</w>
Micros oft</w>
MR I</w>
M om</w>
M arti
M T</w>
M R</w>
G et</w>
FOX O</w>
E du
E astern</w>
B ack</w>
Atlan tic</w>
200 6</w>
2 8</w>
197 0s</w>
we al
was hing</w>
vir tually</w>
vi ously</w>
venti l
un k</w>
u pper</w>
trans fer
tox ic</w>
to ber</w>
ti red</w>
thri ve</w>
th ick</w>
ter min
tal ent</w>
t our</w>
t ears</w>
t ance</w>
symb ols</w>
suppor ting</w>
sub -
sou p</w>
some what</w>
sli des</w>
short -
sh it</w>
sh ine</w>
ser ves</w>
sen ior</w>
s pl
s enti
ro wing</w>
ri cul
reve aled</w>
repor ts</w>
reg ard
regard less</w>
reduc ing</w>
recei ving</w>
re j
r hy
r ats</w>
r ape</w>
qu est</w>
prot ecting</w>
profes sion</w>
princi p
pe op
o red</w>
o logist</w>
nur se</w>
ne ys</w>
lux ury</w>
lim b</w>
la id</w>
it ations</w>
in spiring</w>
immedi ate</w>
i ed</w>
hop es</w>
hi ding</w>
har m
gener ous</w>
fall en</w>
fac tories</w>
fac ial</w>
fab ulous</w>
ex cl
er o
entreprene ur</w>
empower ed</w>
econom ist</w>
e ded</w>
distri ct</w>
disp os
dir ty</w>
diag ram</w>
di um</w>
cur ricul
cul tiv
cor respon
con tains</w>
con sent</w>
con front</w>
com preh
col um
clos ing</w>
cl arity</w>
ch r
bre ast</w>
bra ve</w>
bee tle</w>
bath room</w>
bat tery</w>
b ite</w>
audi ences</w>
assu mptions</w>
archa e
appe ared</w>
an ni
an ge</w>
ai ms</w>
ag gres
activi sts</w>
activi st</w>
accoun ts</w>
ac qu
a a</w>
St ar
S pan
Oc tober</w>
N ature</w>
Mar k</w>
M oun
M S</w>
M K</w>
Li st
L ord</w>
Ju ly</w>
Jes us</w>
Je wish</w>
I N
G l
F ar
E thi
D u
Bit coin</w>
B r
A h</w>
9 5</w>
3 2</w>
3 0s</w>
20 14</w>
&apos; clock</w>
yp e</w>
whi st
ver s
ver -
v or</w>
v a</w>
ul ation</w>
transpar ent</w>
tradi tions</w>
tra jec
tr ash</w>
thro wing</w>
the ore
tex ts</w>
terri fied</w>
ta g</w>
surviv ors</w>
su it
su gg
stron gly</w>
stra igh
st ol
stol en</w>
st ages</w>
some day</w>
si der</w>
shar k</w>
sen sing</w>
see mingly</w>
se m
s n
s .</w>
repres entation</w>
rat ings</w>
r aci
psychi at
prototyp e</w>
pros titu
pro ved</w>
pret end</w>
predic ted</w>
play ers</w>
plas tics</w>
per pe
pas sive</w>
p ump</w>
p ir
ou gh
on al</w>
obe se</w>
neuros cience</w>
mus cles</w>
mo bility</w>
metri c</w>
ment ary</w>
me et
meet ings</w>
ma gn
lun gs</w>
life style</w>
li ve
leg acy</w>
large -scale</w>
ke y
k is
k in</w>
inv enting</w>
integr ated</w>
impro ving</w>
impro ved</w>
i res</w>
har vest</w>
h h
h anging</w>
guil ty</w>
gradu ated</w>
gra m
gr ounds</w>
g aps</w>
frustr ated</w>
frigh ten
fr action</w>
fli p</w>
fin ger</w>
fif th</w>
fi ve-
ex ception</w>
err ors</w>
er ce</w>
ent ary</w>
en tr
en co
emplo yment</w>
e k</w>
e igh
dre ss</w>
do od
distinc tion</w>
disappe ared</w>
descri bing</w>
de qu
de pressed</w>
cy lin
custom er</w>
cros sing</w>
cr yp
cour ses</w>
coun sel
con tain</w>
con centr
coll agen</w>
ch ron
categ ories</w>
cap ability</w>
cap abilities</w>
bri ef</w>
bo ards</w>
believ ing</w>
be sides</w>
bar s</w>
b os
au to
arr ay</w>
arm or</w>
archit ect</w>
alter natives</w>
al le
air s</w>
aff air</w>
ad vo
ab and
a dequ
What ever</w>
W as</w>
Vi et
T .</w>
Span ish</w>
Saud i</w>
S or
S al
Ri ghts</w>
P acific</w>
N at
M as
Jo e</w>
J up
E ric</w>
Can adi
Bu dd
B oth</w>
B lack</w>
Ac cording</w>
200 1</w>
1 20</w>
z i
z ar
wi de
wide ly</w>
war ning</w>
v ant
under ground</w>
un able</w>
ul f</w>
u bi
ti ble</w>
thre w</w>
thir ds</w>
ter ror</w>
t ability</w>
susp ect</w>
suff ered</w>
sub way</w>
stopp ing</w>
signific antly</w>
si de
sh opping</w>
sel ection</w>
sec tions</w>
scre ens</w>
sac red</w>
rub ber</w>
ri sky</w>
resi st</w>
reli able</w>
reason able</w>
re views</w>
re placed</w>
re in
r ush</w>
r on</w>
py rami
psych op
pros thetic</w>
pro posed</w>
primar ily</w>
pos ter</w>
pol ar
photograp her</w>
par as
p ing</w>
p ed</w>
or chestr
oc curr
o y
n ings</w>
mon o
mi ser
mer ely</w>
medic ines</w>
mach in
machin ery</w>
ma tion</w>
ma gical</w>
m ics</w>
ly wood</w>
la bel</w>
jud gment</w>
intri gu
inter viewed</w>
insi ghts</w>
indi genous</w>
in timate</w>
in formed</w>
immen se</w>
il er</w>
her o
got ta</w>
gen omes</w>
ge ar</w>
gather ed</w>
g os
fe males</w>
fa st
f ate</w>
exten sion</w>
exten ded</w>
ex tro
ep is
en th
emer ge</w>
ema ils</w>
ele g
el ly</w>
e fly</w>
e ball</w>
dro ps</w>
deep est</w>
de forestation</w>
de adly</w>
dar ies</w>
dama ged</w>
d oms</w>
d augh
daugh ters</w>
d ated</w>
d am
cra stin
cos mic</w>
conclu de</w>
con om
com ment</w>
clu ster</w>
chap ter</w>
cer ti
campa ig
bu ried</w>
boun daries</w>
behavi oral</w>
bacter ial</w>
b ats</w>
at tr
at ers</w>
assu mption</w>
arg uments</w>
ap or
an ity</w>
am ine</w>
al co
ag ue</w>
a i</w>
Willi am</w>
Th ings</w>
Tali ban</w>
T uring</w>
T SD</w>
Si erra</w>
S ur
S an
Rw anda</w>
R evolution</w>
Pro f
P TSD</w>
Or gan
Ob viously</w>
Marti n</w>
L in
Kore a</w>
J us
Ital ian</w>
Israel i</w>
Hi gh</w>
Ha wai
G ra
Fl or
E conom
D ra
B run
B C</w>
8 00</w>
, 500</w>
year- olds</w>
y o</w>
wel come</w>
wat ers</w>
vill ages</w>
ver tical</w>
ver t</w>
v y</w>
unbeliev able</w>
trau matic</w>
ti le</w>
the me</w>
tain ment</w>
ta ined</w>
t ine</w>
syn thetic</w>
syn dr
sun light</w>
sum mar
sub stance</w>
struc tural</w>
stra tions</w>
story tell
stor m</w>
sta tic</w>
sp ra
shar ks</w>
sh ore</w>
sc ales</w>
safe ly</w>
s mil
s ink</w>
ro om
ro lled</w>
rema ined</w>
ree f</w>
re tro
radic ally</w>
r ab
pros tate</w>
propor tion</w>
program ming</w>
pri mi
primi tive</w>
previ ously</w>
pi lot</w>
philosop her</w>
ph an
peop les</w>
parado x</w>
pain ted</w>
p es
ow nership</w>
ot echnology</w>
mom en
momen tum</w>
mo od</w>
min ing</w>
micro phone</w>
micro -
m ort
lo ans</w>
lo an</w>
list en
li ft</w>
law yers</w>
journ alism</w>
is lands</w>
inve stors</w>
inst antly</w>
ins ect</w>
inju red</w>
ing -
in duc
in ch</w>
i P
grand parents</w>
gr and</w>
frequ ency</w>
flu id</w>
flo ws</w>
fi res</w>
fe deral</w>
fa i
exter nal</w>
expec tancy</w>
ex cep
es tiv
es ia</w>
end less</w>
en a</w>
edu cate</w>
ed ly</w>
ed ges</w>
dro w
discus sions</w>
discipl ine</w>
dimen sion</w>
deta iled</w>
desper ately</w>
demonstr ate</w>
datab ase</w>
cr ushed</w>
cosmo s</w>
contro lling</w>
comp elling</w>
clu b</w>
chi ef</w>
challeng ed</w>
carto on</w>
ca ves</w>
ca sh</w>
ca s
bur st</w>
bu m</w>
bil li
believ es</w>
be half</w>
barri er</w>
b ands</w>
au ts</w>
ali an</w>
ag ents</w>
advo cate</w>
accep table</w>
ac ies</w>
Z e
V ic
V en
St or
Sol ly</w>
S om
S cr
Ri ver</w>
P l
N ick</w>
N an
Mini ster</w>
M ag
Le on
J a
Hu man</w>
Fran k
F re
Em ma</w>
Cam bridge</w>
Bas ically</w>
B hu
Au gust</w>
195 0s</w>
vot ers</w>
ver e
underst and
uc tu
u red</w>
tri gg
to y</w>
terrori sts</w>
te dly</w>
t one</w>
t ome</w>
t ar</w>
syn ap
sy l
sub ur
ste al</w>
sta irs</w>
st ly</w>
sp ort</w>
sou thern</w>
so vere
sne a
simul taneously</w>
shel ter</w>
sh u
separ ation</w>
se duc
s per
s or</w>
s its</w>
run k</w>
ri vers</w>
resi dents</w>
research er</w>
resc ued</w>
requ est</w>
repli cate</w>
reg ularly</w>
reduc tion</w>
reason ing</w>
re act</w>
ra ti
ra p</w>
qu alities</w>
prot o
prin ts</w>
prepar ing</w>
predic tion</w>
preci se</w>
pre su
poll en</w>
pen is</w>
pen gu
particip ation</w>
paradig m</w>
pa use</w>
p ound</w>
p ort
p ants</w>
on a</w>
obstac les</w>
my steri
motiv ation</w>
mor ality</w>
monit or</w>
mini ster</w>
mic r
li ath</w>
laugh ing</w>
knowle d
kid ney</w>
k able</w>
ir ony</w>
interest ingly</w>
in ity</w>
imple ment</w>
gri d</w>
graph ics</w>
ge o
fre sh
for got</w>
foo ds</w>
fl uctu
fl ouri
ferti liz
femin ist</w>
fast est</w>
fant as
f its</w>
f are</w>
expres sions</w>
exc ell
en de
emer ged</w>
ell o</w>
e ments</w>
discrimin ation</w>
dis ap
dis abilities</w>
differ enti
d ental</w>
curricul um</w>
cou ples</w>
conta min
connec tome</w>
comm un
coll ectively</w>
co ordin
cienti sts</w>
chi ps</w>
bu b
bran ches</w>
br is</w>
blu e
bl ank</w>
be er</w>
be ars</w>
b ound</w>
awk ward</w>
auth orities</w>
att acked</w>
atom ic</w>
astronom ers</w>
astoni shing</w>
asse ts</w>
as yl
antibio tic</w>
ani el</w>
analo gy</w>
ag e-
ad ays</w>
ac tively</w>
a to</w>
a qu
Wi thin</w>
Wi ki
T ru
T ri
T en</w>
S top</w>
O dys
Ni ke</w>
M ake</w>
M ad
L E
Jup iter</w>
Hol lywood</w>
H om
H C</w>
E ven
Chil d</w>
Chi le</w>
Brun o</w>
Be at
Ar my</w>
Al though</w>
A .
3 6</w>
198 0s</w>
19 0
. 5</w>
wo ke</w>
what so
whatso ever</w>
we t
we dding</w>
ven ess</w>
us eless</w>
up set</w>
un t
ul tr
ubi quit
tu ber
tu be</w>
ti s</w>
ti er</w>
th out</w>
te en</w>
ta ining</w>
t ank</w>
supp ose</w>
stri king</w>
spea ks</w>
sig nature</w>
sh ell</w>
sens or</w>
se l</w>
se ed</w>
sacri f
rom an
rit u
ri cane</w>
resili ence</w>
remember ing</w>
refl ection</w>
reduc ed</w>
rap ed</w>
qu ali
publi c
psycho logist</w>
proce d
proced ure</w>
privile ged</w>
pre fer</w>
poin ting</w>
po int
pla in</w>
pl um
physici sts</w>
phi a</w>
phenomen a</w>
pharmaceu tical</w>
person alized</w>
paral le
paralle l</w>
pan el</w>
p ouring</w>
p on
p a</w>
ot a</w>
or ter</w>
opp ed</w>
on going</w>
offic ers</w>
off ici
occa sionally</w>
observ ations</w>
ob served</w>
ner ves</w>
n -
marke t
mar row</w>
manipul ate</w>
m ou
lo ves</w>
le verage</w>
la dies</w>
l ec
k ick</w>
instruc tion</w>
incl usive</w>
identi ties</w>
ic e
home work</w>
he al</w>
har mony</w>
har dly</w>
hand ful</w>
h ill</w>
gun s</w>
gr as</w>
glaci er</w>
g -
friend ly</w>
fre ely</w>
fluoresc ent</w>
fir m</w>
en zy
emo tionally</w>
elec tro
el phia</w>
ec k</w>
e ast</w>
dro id</w>
down load</w>
dom ain</w>
di ve</w>
devast ating</w>
dem ands</w>
def end</w>
dedi cated</w>
de fe
daf -
daf- 2</w>
d entally</w>
d ency</w>
cu st
correc tly</w>
contr ary</w>
continu ous</w>
con sul
compas sionate</w>
co inci
catal y
carto on
calcul us</w>
c s</w>
bo red</w>
blin dness</w>
be gun</w>
bac ks</w>
b uc
avo i
attrac tive</w>
at a</w>
arre sted</w>
appro aching</w>
ama zed</w>
am in</w>
al t</w>
al arm</w>
ai red</w>
adv enture</w>
ad ul
ad option</w>
ad elphia</w>
accompli shed</w>
Wi thout</w>
W K</w>
U g
T er
Si x</w>
Sh ould</w>
Secon dly</w>
Sahar an</w>
S un
Phil adelphia</w>
Pe te</w>
M in
Joh n
Is n</w>
I ts</w>
I S</w>
H osp
H en
H all</w>
D re
D ad</w>
Col um
Ci vi
Be ing</w>
B el
B I</w>
An droid</w>
A .</w>
2 6</w>
wor m</w>
wild life</w>
whe at</w>
visu alize</w>
va cation</w>
ubiquit ous</w>
tw ins</w>
tuber cul
tubercul osis</w>
top s</w>
tol l</w>
th- century</w>
th or
teen ager</w>
ta xes</w>
syndr ome</w>
st on</w>
sil ly</w>
sh oot</w>
sequ ences</w>
respon ded</w>
remember ed</w>
rela tives</w>
recogn izing</w>
re build</w>
re alities</w>
random ly</w>
psycho logy</w>
pro ven</w>
pri sons</w>
pre ad</w>
power ed</w>
percei ved</w>
particip ants</w>
par tly</w>
pan els</w>
pa ths</w>
p ill</w>
p ig
p acked</w>
overwhel ming</w>
ori ous</w>
or biting</w>
or a</w>
oper ations</w>
op ini
op amine</w>
ograp hic</w>
od ds</w>
oc k
nec k</w>
near by</w>
n es
mysteri ous</w>
mur der</w>
mir rors</w>
mi dd
me tals</w>
mathema tician</w>
man ner</w>
magn itude</w>
m apping</w>
m -
line ar</w>
lin ks</w>
ligh t
li zing</w>
lan ding</w>
l y-
kno ck</w>
isol ation</w>
is ed</w>
intu ition</w>
int on</w>
innov ate</w>
imagin able</w>
imag ery</w>
histor ic</w>
h es
go ds</w>
gene tics</w>
ge ous</w>
gather ing</w>
gar age</w>
fund ed</w>
fac ilit
exha u
equ ations</w>
encoun tered</w>
en vel
en tered</w>
eg gs</w>
ear ning</w>
doub le-
don or</w>
distinc t</w>
dis agree</w>
diagnos tic</w>
dia c</w>
di vision</w>
di ver
di stor
demonstr ated</w>
demon stration</w>
dam n</w>
cu ts</w>
cor n</w>
cop ic</w>
consu ming</w>
con cent
co lored</w>
circu its</w>
circu it</w>
cho col
car dio
candi date</w>
ca ge</w>
by e</w>
bu mp</w>
bri efly</w>
bre eding</w>
br ush</w>
bor row</w>
blo g</w>
bene ath</w>
be ating</w>
barri ers</w>
bacter ium</w>
back wards</w>
asyl um</w>
assa ult</w>
arri ve</w>
archit ec
appro ved</w>
ap plying</w>
am y
al together</w>
adop ted</w>
acci dents</w>
a a
Wh ite</w>
Wh it
W at
Ug anda</w>
T ha
So vi
Se a</w>
Satur day</w>
S qu
R u
R om
R N
Prof essor</w>
Palestini an</w>
P ut</w>
Nor thern</w>
No thing</w>
Mi ke</w>
M ay</w>
Le one</w>
Le ban
J on
Ital y</w>
In du
Hu bble</w>
H al
Gre en
G over
F our</w>
Even tually</w>
E mp
D emo
Coun cil</w>
Cor ps</w>
C ur
C M
A sian</w>
4 0,000</w>
200 ,000</w>
2 5
0 0-
.D .</w>
yiel d</w>
wit n
win ners</w>
web sites</w>
war ri
ut ch</w>
un -
tr ace</w>
tis m</w>
threat ening</w>
thre sh
ter ly</w>
te ams</w>
t esti
sus pic
surge ons</w>
ster e
star ing</w>
st um
st ays</w>
soldi er</w>
soci ally</w>
smart phones</w>
smart phone</w>
sm u
sla ve</w>
sim pler</w>
sil ver</w>
sex ually</w>
ser ver</w>
sel ected</w>
se us</w>
scre ening</w>
schizophren ia</w>
sc al
sal es</w>
s anc
robo tic</w>
revolu tions</w>
retin a</w>
reli ef</w>
ref used</w>
ref use</w>
re st
re minds</w>
re fer</w>
re ads</w>
rap id</w>
provi des</w>
prote sts</w>
pro pose</w>
pres entation</w>
predic tions</w>
preci ous</w>
pr osp
pit ch</w>
philanthro py</w>
pe tition</w>
pas ses</w>
pan ic</w>
pack age</w>
p unch</w>
or an</w>
opini ons</w>
ol ves</w>
nu ts</w>
ni ght
n am</w>
mus icians</w>
min ority</w>
mi x
medi cations</w>
mat tered</w>
mar ked</w>
ly n</w>
los ses</w>
lo cations</w>
lim itations</w>
li ce</w>
le ment</w>
lab s</w>
ju mped</w>
it age</w>
intui tive</w>
im it
ide ology</w>
ic on</w>
i gh</w>
hum or</w>
heal thier</w>
heal ing</w>
he avi
happi er</w>
ha bits</w>
h ated</w>
h acking</w>
gu ards</w>
gl ad</w>
gene tically</w>
gen oci
g mented</w>
g eria</w>
fun eral</w>
frau d</w>
fla g</w>
fin dings</w>
fig ur
fi es</w>
f ted</w>
f ing</w>
f an</w>
evol ving</w>
evel op
ev apor
enterpri se</w>
encoura ged</w>
eleph ants</w>
ed a</w>
e ye
down town</w>
dis ru
dis abled</w>
direc tions</w>
di lem
der ness</w>
der ing</w>
defin i
decep tion</w>
dec lar
dd enly</w>
cylin der</w>
cre di
cra ft</w>
cr it
con temporary</w>
con tain
comp rom
co vering</w>
cli ents</w>
cl ue</w>
cl aims</w>
chr onic</w>
bran ch</w>
bot tom
bo y
bio logist</w>
b y-
b at</w>
autom o
arch y</w>
ar ded</w>
ar bit
ar ance</w>
apo logi
ap ore</w>
anima tion</w>
an no
an e
am ate
agree ment</w>
ag on
adolesc ence</w>
ad voca
ac knowledge</w>
a c</w>
X -
Tit an</w>
Th ird</w>
Th er
T eles
Su ddenly</w>
Su b
Ste ph
Sor ry</w>
Sing apore</w>
S pain</w>
S er
Res earch</w>
Nor way</w>
M el
La w</w>
L HC</w>
Ki ds</w>
J ane</w>
Indu stri
In don
H ome</w>
Fi f
F o
Egyp tian</w>
E s
E .
D evelop
C os
Bro ok
Bi ble</w>
Bab bage</w>
B il
Alex ander</w>
Ad am</w>
6 0s</w>
20 s</w>
2 9</w>
10 -
z er</w>
woo ds</w>
wi reless</w>
we l</w>
we ed</w>
wa ited</w>
volunte er</w>
vol can
virtu e</w>
vas cular</w>
v ille</w>
ultr as
u ps</w>
tru sted</w>
trans mit</w>
thresh old</w>
ten ds</w>
sub j
stic ally</w>
sti g
st ure</w>
st un
speci alized</w>
spec im
spar k</w>
small est</w>
ske t
she pher
shar p</w>
sex y</w>
se ats</w>
resc ue</w>
res ul
recycl ing</w>
reco vered</w>
real m</w>
re actor</w>
raci al</w>
qui e
pursu e</w>
public ly</w>
prot est</w>
prof ound
profound ly</w>
prescri ption</w>
poli tically</w>
pi x
phr ases</w>
perfor med</w>
peace ful</w>
pati ence</w>
pa ste</w>
p ts</w>
p il
ow ners</w>
orig ins</w>
orig ami</w>
ong side</w>
nit ure</w>
n ity</w>
mu tation</w>
mot h</w>
monit oring</w>
migr ant</w>
mi ze</w>
mi st</w>
mel ting</w>
me try</w>
me ga
mar ch</w>
ma ster
lo ving</w>
lif ted</w>
lic it</w>
li ament</w>
le an
labe led</w>
l ers</w>
kin dness</w>
kid n
it er
is y</w>
invest ments</w>
int act</w>
independ ence</w>
in ser
impres sion</w>
id ers</w>
ick ens</w>
horiz on</w>
ho ly</w>
gra ve</w>
gi le</w>
g as
fur niture</w>
fra gile</w>
fr ac
flo wing</w>
far ms</w>
f way</w>
f t
f ound
f ancy</w>
exerci ses</w>
eri an</w>
elimin ate</w>
edit ors</w>
ec t
e pi
dro pping</w>
docum ented</w>
disco vering</w>
der i
d or
d opamine</w>
d ele
cru el</w>
cre w</w>
cre ator</w>
coun ting</w>
coun ter</w>
consu med</w>
connec ts</w>
confir med</w>
conduc ted</w>
comm it</w>
com mod
colon ies</w>
co her
claim ed</w>
chromos ome</w>
chimpanz ee</w>
cell ular</w>
ca cy</w>
buil ds</w>
bra in
br a</w>
bom bs</w>
bi e</w>
bi ases</w>
bel t</w>
bas eball</w>
ban g</w>
attemp ts</w>
assem bly</w>
ass ment</w>
as i</w>
ar i</w>
anthro po
answer ed</w>
an gu
al ongside</w>
al istic</w>
adverti sing</w>
adv ances</w>
adequ ate</w>
ad m
accur ately</w>
accur acy</w>
accep tance</w>
Wom an</w>
Viet nam</w>
T uni
T om
Stor y
Some body</w>
S till</w>
S pr
S imp
S il
Phi li
Pe ter</w>
Ox ford</w>
No vember</w>
Neanderth als</w>
L augh
Jer sey</w>
J ord
Go liath</w>
Gener al</w>
G ore</w>
G and
Ethi opia</w>
D I</w>
Com pu
Civi l</w>
Canadi an</w>
Bu il
Bri an</w>
Braz i
Ar ch
6 ,000</w>
200 3</w>
0 0
wid th</w>
wi ves</w>
w ill
vi vi
ven s</w>
us able</w>
uni form</w>
underst ands</w>
un prece
tre as
trans it</w>
trans actions</w>
to w
titu des</w>
t less</w>
super market</w>
suit case</w>
suffici ent</w>
stom ach</w>
sti cky</w>
st or</w>
sque e
sper m</w>
spac e-
sp ite</w>
sp iders</w>
sla very</w>
sion -
simul ation</w>
sh y</w>
sh ining</w>
sel fish</w>
scre aming</w>
scr at
s and
rou tine</w>
ro les</w>
righ t-hand</w>
rhy th
respon si
regul ation</w>
refl ected</w>
recomm end</w>
reci pe</w>
rea uc
re ha
re d
rain forest</w>
ra ys</w>
ra ft</w>
r ose</w>
pur poses</w>
pul ling</w>
publi sh</w>
prot est
prop ag
program med</w>
princip al</w>
pre y</w>
po t</w>
pleas ant</w>
plat forms</w>
pi le</w>
pi ge
perspec tives</w>
peri ods</w>
percep tions</w>
per ceive</w>
pa sted</w>
ori um</w>
open- source</w>
oo h</w>
on stage</w>
on er</w>
off spring</w>
no vel
no ises</w>
newsp apers</w>
mat ri
lim ate</w>
lic op
le op
landsc apes</w>
k n
k ingdom</w>
k -
invas ive</w>
interven tions</w>
interven tion</w>
inten sive</w>
install ed</w>
innov ations</w>
inju ries</w>
initi ally</w>
inf ant</w>
imp aired</w>
im migrants</w>
igno red</w>
hy dr
human -
hi red</w>
he licop
he li
gu est</w>
govern ance</w>
gl ue</w>
g low</w>
g ering</w>
g ating</w>
g al</w>
friend ship</w>
fol ding</w>
fol ded</w>
fl ash
fil ter</w>
fi ber</w>
ev ity</w>
esp ite</w>
enter tainment</w>
eg g</w>
ec ological</w>
e ks</w>
duc k</w>
du ty</w>
dre aming</w>
dolph ins</w>
dis rup
depend ence</w>
democr acies</w>
danc ers</w>
controver si
continu ing</w>
con sen
collabor ate</w>
ci ous</w>
che ese</w>
cha irs</w>
car ed</w>
ca the
c us</w>
bus es</w>
bur ned</w>
bu reauc
bru ary</w>
broad er</w>
belon gs</w>
bed room</w>
auth or
associ ate</w>
assem ble</w>
art work</w>
appro xim
ani um</w>
alco ho
al bum</w>
adop t</w>
activ ate</w>
acqui red</w>
aband oned</w>
ab ling</w>
Z im
Y oun
Wiki pedia</w>
To gether</w>
Ti m</w>
T es
Si licon</w>
R B</w>
P rot
Odys seus</w>
N I
M y
L ine</w>
Je ws</w>
Industri al</w>
Indon esia</w>
H an
Gre ece</w>
G ar
Fe bruary</w>
D utch</w>
D espite</w>
Con sider</w>
Ch urch</w>
Bro wn</w>
Bl ue</w>
B re
B ang
Atlan ta</w>
An y</w>
A th
8 5</w>
3 0,000</w>
20 13</w>
2 4
199 8</w>
1. 5</w>
. com</w>
z z</w>
z i</w>
wh ale</w>
visu ally</w>
vi sibility</w>
ver ted</w>
ver bal</w>
ven tures</w>
v ag
ur ge</w>
ur a</w>
unprece d
unpreced ented</w>
traffic king</w>
top ics</w>
terri bly</w>
targe ted</w>
t sun
sub si
stri p</w>
stati stical</w>
sle eping</w>
si zes</w>
shif ts</w>
shel f</w>
she et</w>
sha dows</w>
se al</w>
sci ences</w>
ritu als</w>
rit ual</w>
ri l</w>
replac ing</w>
ren der</w>
re war
re solve</w>
pyrami d</w>
psychiat ric</w>
presi dential</w>
preser ve</w>
pres sing</w>
prac tically</w>
por ts</w>
poli tician</w>
poli o</w>
pol lin
po le</w>
po campus</w>
pl ing</w>
path way</w>
part nership</w>
pal m</w>
pa sting</w>
p tions</w>
p our</w>
p ity</w>
p el
over -
ot ted</w>
op ar
off s</w>
off ering</w>
nor ms</w>
na mely</w>
mu tations</w>
mu stac
min es</w>
midd le-
mi sts</w>
men tation</w>
me ets</w>
mar g
man ual</w>
main stream</w>
ma ble</w>
m ously</w>
long evity</w>
legi timate</w>
la h</w>
kne es</w>
k ni
jour nal</w>
inter section</w>
inte gration</w>
inno cent</w>
in spec
in k
in hi
im provi
ill nesses</w>
ici ous</w>
i di
house hold</w>
honest y</w>
histor ically</w>
high way</w>
her itage</w>
hear t
head lines</w>
head ing</w>
hea ven</w>
he a</w>
har bor</w>
happ ily</w>
ham mad</w>
gravit ational</w>
gli mp
ge ly</w>
ga ined</w>
g ases</w>
func tioning</w>
fron tal</w>
fac tion</w>
f ting</w>
f illing</w>
expos ure</w>
expedi tion</w>
exi can</w>
ex pressed</w>
et ro
es sions</w>
er os
er als</w>
er adi
epide mics</w>
eni x</w>
enh ance</w>
engine ered</w>
empower ing</w>
empo wer</w>
em bo
el ite</w>
ear ned</w>
e ties</w>
e ted</w>
dynam ics</w>
dro p
dra wings</w>
di arr
detec tor</w>
destruc tive</w>
des pread</w>
der -
depres s
den sity</w>
deli vering</w>
de pic
cyber criminals</w>
cros sed</w>
conveni ent</w>
cont ex
co at</w>
ci g
chocol ate</w>
bu ff
bri gh
bon ds</w>
bo ld</w>
blo wing</w>
bio diversity</w>
be ll</w>
be et
b end</w>
b b
authenti c</w>
at tle</w>
at ories</w>
ari ties</w>
ari ous</w>
are t
architec tural</w>
appe arance</w>
ans as</w>
ann ual</w>
an gi
ama z
alcoho l</w>
al and</w>
air port</w>
air o</w>
ag ent</w>
after wards</w>
addres sing</w>
accoun table</w>
a ther</w>
a ca
Zim bab
U p</w>
Teles cope</w>
Squ are</w>
Satur n</w>
S ta
S how</w>
Ra ther</w>
R ab
Pa ti
P rin
P an
O l
Ne ws</w>
N one</w>
Mu hammad</w>
M exican</w>
Lo ve</w>
Leon ardo</w>
Leban on</w>
L ar
K ar
Jo el</w>
J im</w>
Is land</w>
I sa
Gover n
G G</w>
Edu cation</w>
E DI</w>
Do aa</w>
De partment</w>
D onald</w>
Cl inton</w>
Ch o
C re
C limate</w>
C ap
C airo</w>
Brazi lian</w>
Bal i</w>
B .</w>
Audi o</w>
Ar ound</w>
Ap ril</w>
A. I.</w>
7 2</w>
3 3</w>
3 1</w>
1 2
- and-
z ation</w>
wor rying</w>
wi res</w>
wi despread</w>
who ever</w>
was hed</w>
voca bul
visit ing</w>
veter ans</w>
vers ary</w>
vari eties</w>
us hing</w>
univer ses</w>
un le
ub a</w>
tun nel</w>
tsun ami</w>
transfer red</w>
trans forming</w>
trajec tory</w>
tra ins</w>
to wer</w>
tiv eness</w>
tion ality</w>
ti ps</w>
ti me-
thri lled</w>
tex ting</w>
teach es</w>
tal e</w>
t z</w>
t ary</w>
susta in</w>
sugg estion</w>
struc tured</w>
stret ch</w>
ste pping</w>
sp ill</w>
sp ends</w>
so le</w>
sl ums</w>
signific ance</w>
si bl
sibl ings</w>
si ans</w>
she ets</w>
sh ri
sen ds</w>
sel ect</w>
scan ner</w>
s wal
s ale</w>
rou s</w>
reven ue</w>
represen tative</w>
repe ated</w>
rema ining</w>
regre t</w>
recon ci
realiz ation</w>
read er</w>
re store</w>
re construct</w>
r ings</w>
qui to</w>
pul se</w>
psycho logists</w>
prob able</w>
pro ph
pro crastin
prin ter</w>
pri ori
pot ent</w>
po ckets</w>
plu g</w>
plan etary</w>
pi ano</w>
philosop hical</w>
pe de
pede stri
particip ating</w>
paraly zed</w>
par enting</w>
p ecu
out break</w>
organiz ing</w>
opar dy</w>
om y</w>
ol d-
occurr ing</w>
ob sc
non violent</w>
non profit</w>
nan op
n est</w>
mus h
min im
meas ur
mas sively</w>
ma xi
m apped</w>
lon ely</w>
lin gu
li fel
leg ally</w>
lef t-hand</w>
laugh ed</w>
lan ded</w>
kill er</w>
it ors</w>
ir on</w>
inter n
inten tion</w>
inten sity</w>
inf ec
infec tious</w>
in ti
imp ul
im per
ill in</w>
ic illin</w>
i red</w>
hy bri
horiz on
hor ror</w>
hip pocampus</w>
hi p</w>
hel pl
ha med</w>
h itting</w>
guaran tee</w>
gras p</w>
gol den</w>
gl as
gir l
gentle man</w>
genoci de</w>
gener osity</w>
g ur
g ates</w>
fun ds</w>
frighten ing</w>
fra mes</w>
fl at
fil m
fi s
fa vor</w>
exp ecting</w>
ex trac
et te</w>
et ta</w>
ep er</w>
encoura ging</w>
en e</w>
en abled</w>
empower ment</w>
emer ges</w>
dra g</w>
div ine</w>
dilem ma</w>
dia meter</w>
def en
deci ding</w>
d umb</w>
d ose</w>
cruc i
cr um
corru pt</w>
contin ents</w>
conser va
concent ration</w>
con g
compar ison</w>
communi cating</w>
clim bed</w>
clean ing</w>
claim ing</w>
cig aret
chan nels</w>
cere mony</w>
candi dates</w>
can v
calcul ation</w>
calcul ated</w>
ca us
ca ke</w>
bra tion</w>
belon ging</w>
bel ly</w>
beet les</w>
bat teries</w>
bar ber
b ound
b other</w>
attr act</w>
ath le
astron auts</w>
appe al</w>
apart ments</w>
anti depress
anni versary</w>
an esthe
ambi gu
am bul
all ed</w>
aff airs</w>
admini stration</w>
ad vi
activ ated</w>
acceler ate</w>
ac ou
abund ance</w>
ab y
a u</w>
a the
Ze aland</w>
W in
V er
Un der
U sing</w>
Tes la</w>
T I</w>
Syri an</w>
Steph en</w>
St asi</w>
Sovi et</w>
Soci al</w>
Sm ith</w>
SE TI</w>
S pi
S ir</w>
S har
S A
Por tu
Organ ization</w>
NG Os</w>
N ic
N ever</w>
M ur
L ater</w>
J F</w>
IN CR
INCR A</w>
I A</w>
I .
H aw
Ge ographic</w>
G ulf</w>
G ol
F BI</w>
D av
D an
D A</w>
Col le
C D</w>
Bhu tan</w>
Be hind</w>
A ge</w>
A T
200 2</w>
19 80</w>
youn gest</w>
wor th
wh is
w ound</w>
w olves</w>
w and
vo ic
vo cal</w>
vi al</w>
vel o
v is</w>
v ice</w>
v ary</w>
up side</w>
un likely</w>
u ality</w>
tun e</w>
trust worthy</w>
tri ps</w>
tri bes</w>
tri bal</w>
transforma tive</w>
ti fication</w>
ther ed</w>
theore tical</w>
the ast</w>
th ood</w>
temper atures</w>
tech n
ta ke
synap ses</w>
su its</w>
sp her
so oner</w>
so lete</w>
snea kers</w>
shou ting</w>
short- term</w>
shepher d</w>
sh -
sex ting</w>
sens ory</w>
sen ger</w>
secon d
se min
s ounded</w>
s lo
ro w
ro gen</w>
ri ding</w>
reve als</w>
reti red</w>
respon ds</w>
repor ters</w>
remark ably</w>
refl ects</w>
rec k
real istic</w>
re y</w>
re vi
ra tions</w>
qu ad
pun c
psychi atri
promis ing</w>
pri or</w>
pri de</w>
por traits</w>
plac ing</w>
pecu liar</w>
pe e</w>
pas senger</w>
p ene
ow ns</w>
or ange</w>
om in
off -
occa sion</w>
ob solete</w>
o dy</w>
now adays</w>
n ine
mustac he</w>
mos quito</w>
mod est</w>
mi sphere</w>
mi gra
mi gh
man agers</w>
mam moth</w>
ma sters</w>
lo y
lo s</w>
liber ty</w>
li ps</w>
less ness</w>
lear ns</w>
le ep</w>
le an</w>
labor atories</w>
kic ked</w>
jo int</w>
jeal ousy</w>
j ell
interpre t</w>
inter views</w>
ine a</w>
indi cate</w>
in fr
in dex</w>
identi fying</w>
ice berg</w>
hu a</w>
high light</w>
hal fway</w>
gradu ally</w>
gi ver</w>
frequ ently</w>
free zing</w>
formul a</w>
fol lows</w>
fol ds</w>
ff s</w>
fe es</w>
fam ously</w>
f estiv
f est</w>
explos ion</w>
explo red</w>
explo it</w>
excell ent</w>
exc use</w>
ex otic</w>
ex ag
estab lish</w>
es cal
er nal</w>
epis ode</w>
enjo ying</w>
ene mies</w>
ende av
en abling</w>
emer gence</w>
embrac ing</w>
em a</w>
electr on</w>
earli est</w>
e ums</w>
dres sed</w>
dra g
domin ated</w>
do g
dist ances</w>
discus sing</w>
dis placed</w>
di ving</w>
di spar
di al</w>
destro ying</w>
descri bes</w>
dep th</w>
dec k</w>
dec ent</w>
de ad
da wn</w>
crow ded</w>
cri mes</w>
cor p
continu ously</w>
conta ined</w>
conser vative</w>
concer t</w>
con fined</w>
colli sion</w>
clu es</w>
che f</w>
char ges</w>
cel ad
celad us</w>
calcul ations</w>
ca sting</w>
ca s</w>
ca p</w>
bu g</w>
bot tles</w>
boo k
ble w</w>
bi zar
bi op
bi le</w>
bi an</w>
ber ry</w>
benef icial</w>
b i</w>
b a</w>
autom ated</w>
auth ors</w>
at titudes</w>
assign ment</w>
as set</w>
app y</w>
ap ples</w>
ang ed</w>
ac knowled
ac es</w>
ab s
a wake</w>
Yor ker</w>
Wh er
U l
U K</w>
Th ir
Tal ks</w>
T echnology</w>
Sun day</w>
Story Corps</w>
St .</w>
S even</w>
S en
S am</w>
R ed</w>
Ph D</w>
Nan op
List en</w>
L at
K ansas</w>
I m
H or
H im
H as
Gi us
F ace</w>
Ex cept</w>
En celadus</w>
E E
Del hi</w>
D .C.</w>
Con go</w>
Ca tho
Brook lyn</w>
B ir
Any one</w>
A my</w>
A M</w>
7 00</w>
7 ,000</w>
4 7</w>
20 30</w>
1. 2</w>
0 .
. A.</w>
- year-olds</w>
z ones</w>
yl on</w>
y fish</w>
work place</w>
win ner</w>
win d
whe els</w>
wer ing</w>
weal thy</w>
vot ed</w>
vocabul ary</w>
