#version: 0.2
t h
i n
a n
th e</w>
e r
o s
o u
a t</w>
a p
in g</w>
t o</w>
a r
i s</w>
ap os
& apos
e n
&apos ;
o f</w>
t i
an d</w>
r e
a l
o n
o r
e r</w>
e d</w>
th at</w>
o n</w>
i n</w>
e s</w>
o t
i t
q u
s t
th e
w h
o u</w>
l y</w>
i t</w>
o m
c a
v e</w>
l i
a c
qu ot
quot ;</w>
& quot;</w>
a s</w>
y ou</w>
a t
r o
w e</w>
u s
l e</w>
&apos; s</w>
n d</w>
o r</w>
er e</w>
e n</w>
n o
b e
h a
e l
d i
T h
A nd</w>
m a
e c
th is</w>
e s
r i
l o
a b
i l
g h
a s
ou t</w>
v er
l d</w>
u r
i c
a n</w>
ti on</w>
m e</w>
ar e</w>
o p
u t</w>
l e
a l</w>
k e</w>
s i
w as</w>
en t</w>
a y</w>
f or</w>
al ly</w>
c h
u n
s e</w>
ha ve</w>
s e
c om
ou r</w>
d e
n e
the y</w>
s h
g o
w it
ca n</w>
r a
wit h</w>
on e</w>
w or
t s</w>
al l</w>
o l
b e</w>
o w</w>
p e
us e</w>
p l
t er</w>
&apos; t</w>
S o</w>
e x
wh at</w>
ab out</w>
c e</w>
s o</w>
p ro
ou ld</w>
a g
gh t</w>
i r
th in
th er</w>
e t</w>
no w</w>
no t</w>
c on
s a
s om
r e</w>
u l
d s</w>
t o
t er
p er
u c
ver y</w>
t r
d o</w>
d o
m y</w>
op le</w>
th ere</w>
or e</w>
m e
th ing</w>
&apos; re</w>
li ke</w>
us t</w>
pe ople</w>
ro m</w>
I t</w>
s p
v i
it y</w>
f rom</w>
ti on
a r</w>
c i
t u
s t</w>
t a
m p
v er</w>
k ing</w>
b ut</w>
e ar
a u
f f
an t</w>
j ust</w>
ca use</w>
t ed</w>
W e</w>
m o
er s</w>
m i
s u
B ut</w>
d e</w>
ur e</w>
the se</w>
i r</w>
at e</w>
g s</w>
i f</w>
Th e</w>
b o
u s</w>
b y</w>
el l</w>
h e</w>
u p</w>
the m</w>
a d
m ore</w>
p o
f or
k now</w>
g e</w>
wh en</w>
g i
go ing</w>
h i
lo o
ha d</w>
ou n
be cause</w>
p ar
w ay</w>
in d</w>
se e</w>
es s</w>
e y</w>
W h
a tion</w>
p re
som e
f i
h ow</w>
thin k</w>
w ere</w>
the ir</w>
f e
ic h</w>
o ther</w>
g et</w>
wh o</w>
w n</w>
w ould</w>
m an
os e</w>
y our</w>
t h</w>
wh ich</w>
ou nd</w>
t w
re ally</w>
tion s</w>
t ing</w>
g h</w>
ti me</w>
e v
il l</w>
o o
i d</w>
&apos; ve</w>
c re
au gh
en ce</w>
h ere</w>
com p
ou r
t e
tu ally</w>
in e</w>
a y
augh ter</w>
wh ere</w>
os t</w>
m ent</w>
&apos; m</w>
wor ld</w>
g e
h as</w>
Th is</w>
the n</w>
k s</w>
l l</w>
a m
y ear
ap p
L aughter</w>
f u
ab le</w>
Y ou</w>
a d</w>
d ay</w>
in to</w>
i s
st r
som e</w>
ac tually</w>
b u
b i
un d
ac k</w>
r ou
d on</w>
ac e</w>
w ill</w>
al l
year s</w>
thin gs</w>
uc h</w>
ca l</w>
c o
s el
g o</w>
st ar
st e
c l
en t
c ould</w>
en ts</w>
d ing</w>
h e
N ow</w>
ag e</w>
m b
be en</w>
p h
w ant</w>
v es</w>
l it
Th ey</w>
ma ke</w>
di ff
m s</w>
g re
f ir
as t</w>
f a
h app
h u
g u
d y</w>
m ost</w>
k ed</w>
v ing</w>
t le</w>
f e</w>
s o
ri ght</w>
com e</w>
ch an
v e
t ri
es t</w>
th an</w>
some thing</w>
in ter
en ti
t ure</w>
sa id</w>
i z
t y</w>
st or
ec t</w>
m uch</w>
i es</w>
ti ve</w>
wor k</w>
d u
l a
ou s</w>
th ose</w>
t al
on g</w>
g r
fir st</w>
c h</w>
s ti
diff er
pl a
w e
o d</w>
n o</w>
y ing</w>
th ou
i g
al so</w>
s y
g y</w>
tw o</w>
on s</w>
p r
c e
ne w</w>
ma n</w>
i c</w>
b ack</w>
pro b
it e</w>
lit tle</w>
d es
i mp
ac t</w>
en d</w>
w i
ay s</w>
loo k</w>
0 0</w>
go t</w>
o ver</w>
d ed</w>
b le</w>
Th at</w>
m on
at ed</w>
on ly</w>
li fe</w>
s c
i de
g en
ev en</w>
s ay</w>
st u
re e</w>
d n</w>
A p
p os
man y</w>
ne ed</w>
es s
ti c
t ra
sh e</w>
h er</w>
I n</w>
h is</w>
i m
ta ke</w>
ver y
fu l</w>
c oun
m in
lo t</w>
Wh at</w>
it s</w>
m il
ec h
bo dy</w>
ar d</w>
k ind</w>
an y</w>
pla use</w>
r u
an s</w>
si on</w>
Ap plause</w>
or t
ar ound</w>
m er
ac h</w>
bu il
th rou
ic e</w>
di d</w>
t ur
f f</w>
c ol
d er</w>
at er</w>
n ing</w>
k e
ec on
m ar
f ri
n i
Th ere</w>
und er
differ ent</w>
f in
e very
el l
al s</w>
do wn</w>
m at
i ma
ec i
ti es</w>
throu gh</w>
com m
tr y</w>
re d</w>
ti c</w>
un i
y e
I n
p a
re c
e very</w>
go od</w>
w er</w>
c ar
di s
c all
w s</w>
or t</w>
con t
v ed</w>
sa me</w>
&apos; ll</w>
s ur
an k</w>
p ri
be ing</w>
pre s
happ en
il l
a m</w>
an d
re s
e st
si de</w>
t ech
le ar
prob le
in g
stor y</w>
p ut</w>
w r
sel f</w>
mp le</w>
W ell</w>
mb er</w>
I f</w>
ar y</w>
a f
o b
l ar
an s
c ent</w>
do ing</w>
or s</w>
sh o
pl an
H e</w>
an ce</w>
w ays</w>
lo gy</w>
at ing</w>
g a
u e</w>
an y
call ed</w>
g ra
ti m
s ol
ca me</w>
s ci
t e</w>
st s</w>
ch il
p u
e l</w>
n a
sy ste
om e</w>
so ci
li on</w>
v el
ag a
d uc
oo d</w>
n ed</w>
s on</w>
ex per
b as
b ra
ma de</w>
b l
h el
s er
per cent</w>
e ver</w>
o ld</w>
o k</w>
t ly</w>
ac h
p i
qu es
&apos; d</w>
b r
w om
tion al</w>
th ree</w>
f ore</w>
re s</w>
under st
ye ar</w>
chan ge</w>
p ic
tech no
us ed</w>
hu man</w>
t ter</w>
d re
en c
d er
to day</w>
t ell</w>
s en
f o
t re
des ig
f ind</w>
f act</w>
imp ort
o wn</w>
wh y</w>
w ell</w>
lo w</w>
g er</w>
in t</w>
di dn</w>
n u
y s</w>
le t</w>
ide a</w>
star ted</w>
B e
c u
v en</w>
s ch
in gs</w>
af ter</w>
k es</w>
at es</w>
C h
en g
t en
tal k</w>
c our
tim es</w>
ge ther</w>
gre at</w>
ter s</w>
f l
w ing</w>
wi th
be li
mi ght</w>
an c
w an
to gether</w>
se e
0 00</w>
be tter</w>
be fore</w>
al iz
w ent</w>
thou ght</w>
s m
oo l</w>
f t</w>
b it</w>
Th ank</w>
sh ould</w>
sh i
an other</w>
l ast</w>
l ess</w>
ima g
e ly</w>
me di
pl ace</w>
t ting</w>
ne ver</w>
ex p
g ro
v ir
bi g</w>
k i
o ff</w>
h ear
in v
c ul
gi ve</w>
c or
par t</w>
p p
p s</w>
import ant</w>
ar i
i l</w>
il ity</w>
, 000</w>
lo gi
sti ll</w>
ag o</w>
proble m</w>
cour se</w>
in s</w>
fe w</w>
exper i
ne x
o le</w>
k no
c r
si ble</w>
j o
nex t</w>
d at
c ess</w>
star t</w>
as e</w>
bra in</w>
syste m</w>
ou s
tw e
hi m</w>
for ma
o m</w>
b ot
e ach</w>
sh ow</w>
an ds</w>
a tions</w>
inter est
re ad
str uc
f ound</w>
ca tion</w>
& #
&# 9
w a
w ater</w>
Wh en</w>
comp le
d d
it ed</w>
w ar
aga in</w>
be g
techno logy</w>
e w</w>
m ents</w>
f ac
po li
do es</w>
al i
2 0
es e</w>
c ri
1 9
e p</w>
twe en</w>
c ou
l ong</w>
de vel
e ve</w>
ic ally</w>
e ff
comp u
i ght</w>
pro duc
or g
us ing</w>
to o</w>
t en</w>
be tween</w>
A mer
com es</w>
c er
fa mi
ec ts</w>
in cre
d eci
&apos ;</w>
al ity</w>
j ect</w>
me an</w>
forma tion</w>
chan g
a mple</w>
wom en</w>
n at
li ght</w>
sp ec
ques tion</w>
po int</w>
ch o
ex ample</w>
m or
loo king</w>
dat a</w>
dre n</w>
O n
s h</w>
gen er
os s</w>
c ap
n ec
wan ted</w>
es n</w>
s pe
underst and</w>
st a
b re
s es</w>
lo ve</w>
do esn</w>
n s</w>
li ve</w>
ce p
s econ
Be cause</w>
A fri
d one</w>
sel ves</w>
f ace</w>
chil dren</w>
f ul
n ess</w>
re as
a way</w>
s k
c k</w>
ou gh</w>
u m</w>
c all</w>
th er
d ol
s ort</w>
al ways</w>
g l
ma y</w>
econ om
wh ole</w>
1 0</w>
H ow</w>
re al</w>
un ity</w>
b li
hel p</w>
wor king</w>
gr ap
per son</w>
ab ly</w>
S t
ic i
mi s
beli eve</w>
er i
tr ying</w>
fe el</w>
sch ool</w>
m en
in formation</w>
re sp
tr ans
com ing</w>
c ity</w>
c ur
al e</w>
in t
mil lion</w>
pr ot
el ec
he al
z e</w>
s ing</w>
l ine</w>
ma y
m us
m y
for m</w>
ti cal</w>
devel op
on es</w>
ell s</w>
org an
s ec
me ans</w>
ou t
u tion</w>
b or
cre ate</w>
w al
en er
po wer</w>
thin king</w>
d ri
a ma
ul ar</w>
el e
f r
pu bli
se ar
d es</w>
coun try</w>
th s</w>
si g
sp ace</w>
ch e
ro om</w>
f our</w>
e p
r y</w>
ne e
m om
l dn</w>
y p
ul t</w>
w er
to ok</w>
m en</w>
ma king</w>
col l
h op
every thing</w>
v al
b il
as k</w>
ki ds</w>
lo b
re e
may be</w>
ti v
mon ey</w>
le a
or y</w>
su b
be come</w>
On e</w>
go ver
l an
ent ly</w>
sm all</w>
s it
h al
o ff
s ing
c li
tri es</w>
ot s</w>
b us
en ds</w>
read y</w>
desig n</w>
st er</w>
nu mber</w>
p le</w>
st ri
in ess</w>
h ome</w>
fu ture</w>
v o
M y</w>
Afri c
ab ility</w>
g rou
en ough</w>
s ure</w>
p as
z ing</w>
te ly</w>
in es</w>
sen se</w>
c en
l ed</w>
gover n
ph y
hi gh
w at
h ar
s ed</w>
uni ver
l es</w>
ve l</w>
ge tting</w>
ar t</w>
o p</w>
S he</w>
ar e
resp on
qu ite</w>
ener gy</w>
be st</w>
Th ese</w>
with out</w>
we e
secon d</w>
lo w
at h</w>
in e
wh i
happen ed</w>
op p
se t</w>
it al</w>
t or</w>
pre t
o f
ac r
pl ay</w>
soci al</w>
a k</w>
pl ac
m ul
fi ve</w>
ic s</w>
cont ro
coun tries</w>
it ing</w>
fo re
f ood</w>
r an
e y
U n
y oun
li ves</w>
d ge</w>
u t
n er</w>
m ed</w>
h ard</w>
wh e
pi ec
bo ok</w>
re ad</w>
be au
le ft</w>
d ent</w>
re aliz
shi p</w>
interest ing</w>
to ld</w>
w on
prob ably</w>
L et</w>
E ar
in ed</w>
acr oss</w>
in di
ous ly</w>
re la
k en</w>
tal king</w>
g lob
d ra
l and</w>
vir on
s on
pret ty</w>
g g
o t</w>
f ol
e du
c are</w>
me mber</w>
b ro
lar s</w>
fami ly</w>
buil ding</w>
i d
th ers</w>
sa w</w>
hu man
c an
stu ff</w>
di c
s uch</w>
dol lars</w>
ac k
buil d</w>
mo ve</w>
Afric a</w>
par tic
en viron
2 0</w>
ha ving</w>
en e
ca se</w>
any thing</w>
ent al</w>
si ons</w>
ou se</w>
s uc
as ked</w>
hal f</w>
d in
v en
H ere</w>
el s</w>
A n
con nec
sp eci
5 0</w>
w ard</w>
Wh y</w>
li ving</w>
e as
sci enti
an g
se en</w>
thou gh</w>
mom ent</w>
l on
bi o
Ear th</w>
o ver
om e
Amer ic
experi ence</w>
in ce</w>
whi le</w>
m ach
d ays</w>
comm uni
ta in</w>
si mple</w>
si ve</w>
e qu
ot e</w>
ne t</w>
A s</w>
F or</w>
sci ence</w>
happ en</w>
ch ar
c ha
wor ks</w>
compu ter</w>
In di
su pp
ap s</w>
to p</w>
thou s
ma kes</w>
g ir
w as
pro cess</w>
l ater</w>
youn g</w>
soci e
n or
ca r</w>
lear n</w>
c le
i gh
ec ted</w>
di se
al most</w>
pic ture</w>
h and</w>
in side</w>
sear ch</w>
N o</w>
m ind</w>
p op
a h</w>
k ay</w>
el se</w>
he ad</w>
m ing</w>
happen s</w>
v a
tic s</w>
ev ol
tur n</w>
ar ti
plan et</w>
p at
bil lion</w>
In ter
o c
tu res</w>
de p
ic es</w>
enc es</w>
go es</w>
pl ay
or der</w>
ol s</w>
ch all
j u
c ra
reas on</w>
mat ter</w>
sa ys</w>
hi gh</w>
dis co
c ells</w>
sing le</w>
ir d</w>
cont in
c es</w>
l ing</w>
p or
f ar</w>
an ding</w>
vi de
ste ad</w>
e mp
of ten</w>
tr u
fr on
b ri
l s</w>
is m</w>
A ll</w>
pos sible</w>
at ely</w>
loo ked</w>
pro ject</w>
pro gra
c ent
N ew</w>
c op
u p
cl u
glob al</w>
comm unity</w>
i st
my self</w>
al ready</w>
1 ;</w>
&#9 1;</w>
k in
b er
mar k
v ol
3 ;</w>
&#9 3;</w>
en s</w>
ama zing</w>
y et</w>
proble ms</w>
d ro
os p
wor ds</w>
mon ths</w>
li es</w>
f un
si on
no thing</w>
i a</w>
beau ti
ur al</w>
organ iz
gh ts</w>
sa ying</w>
our s</w>
some one</w>
cl as
s ity</w>
ag es</w>
publi c</w>
a ff
ur y</w>
imag ine</w>
le ad
ar s</w>
re member</w>
di rec
A l
whe ther</w>
hi story</w>
bot h</w>
b ad</w>
pa ti
ti ci
ide as</w>
ac tion</w>
ti l</w>
st er
v ice</w>
f il
ur ing</w>
sol u
hop e</w>
loo ks</w>
heal th</w>
p er</w>
ph ot
ex c
u ro
chil d</w>
ti ce</w>
ve ly</w>
ans wer</w>
hear d</w>
h und
on ce</w>
incre di
e t
0 s</w>
o grap
in a</w>
0 ,000</w>
or i
in f
br ing</w>
ac y</w>
with in</w>
mat eri
er ing</w>
buil t</w>
piec e</w>
bus iness</w>
wr ong</w>
ke ep</w>
g n
jo b</w>
grou p</w>
M us
beauti ful</w>
fi c</w>
d ents</w>
won der
di es</w>
nat ure</w>
mo ther</w>
op er
vi du
ge ts</w>
t able</w>
lan gu
at t
ap e</w>
indi vidu
b lo
tiv ity</w>
si x</w>
h y
e d
A r
wor d</w>
plac es</w>
ph one</w>
ma s
stor ies</w>
ir e</w>
gu y</w>
c ess
tr ue</w>
govern ment</w>
in ing</w>
en d
E n
ni ght</w>
ca ted</w>
bas ically</w>
pro f
o s</w>
ta tion</w>
op en</w>
fi g
j ects</w>
is su
3 0</w>
und er</w>
in i
ic k
an im
ful ly</w>
un til</w>
f er
vide o</w>
ta king</w>
m ic
h ouse</w>
ap pro
lear ned</w>
was n</w>
T E
in st</w>
fri ends</w>
wom an</w>
p ol
univer se</w>
f el
du ce</w>
the m
Un ited</w>
sti tu
edu cation</w>
dd le</w>
aga inst</w>
happen ing</w>
m er</w>
contro l</w>
. .
vi ew</w>
be came</w>
h er
comple tely</w>
sh are</w>
per son
li ons</w>
de l</w>
ar k</w>
Inter net</w>
is n</w>
f lo
cl os
.. .</w>
anc er</w>
P e
k new</w>
spec ies</w>
deci ded</w>
b ly</w>
t ors</w>
t on</w>
our selves</w>
d ru
st op</w>
cou ple</w>
ch ing</w>
st re
e -
20 0
i ve</w>
he ar</w>
sh ed</w>
k er</w>
ne t
ques tions</w>
stu dy</w>
is h</w>
i st</w>
a w
t un
me as
ac tly</w>
mb ers</w>
Indi a</w>
them selves</w>
re search</w>
pos i
some times</w>
p ul
in k</w>
fron t</w>
cul ture</w>
a tive</w>
Americ a</w>
m ust</w>
t in
le vel</w>
gr ound</w>
s li
ru n</w>
re co
socie ty</w>
mus ic</w>
do m</w>
s ince</w>
oun ds</w>
mo del</w>
it self</w>
comp any</w>
u r</w>
o ce
in no
fi el
f und
every body</w>
tr an
ou th</w>
pop ul
in ning</w>
U .
cre ated</w>
li st
every one</w>
ex actly</w>
h aps</w>
f -
pr in
a ir</w>
enti al</w>
r un
lar ge</w>
be ha
k ers</w>
re li
ar ly</w>
tu al</w>
po wer
kin ds</w>
us es</w>
ec tion</w>
ar ch
ap pe
St ates</w>
na me</w>
v ation</w>
anim als</w>
some body</w>
ch ed</w>
i se</w>
wor ked</w>
t yp
in stead</w>
dise ase</w>
st ra
cep t</w>
an t
opp ort
re qu
ap er</w>
comp an
c ancer</w>
struc ture</w>
mi c</w>
n er
thous ands</w>
langu age</w>
cent ury</w>
ri s
lit er
in du
col le
ut es</w>
i can</w>
hu ge</w>
con si
pl es</w>
s ound</w>
hear t</w>
eng ine
di g
le ast</w>
ra ther</w>
h ours</w>
ac c
u es</w>
ou ldn</w>
environ ment</w>
beha vi
logi cal</w>
ver ed</w>
diff ic
bl ack</w>
L i
1 00</w>
si mp
p ast</w>
j our
R e
t -
st ance</w>
cou ldn</w>
str y</w>
d ec
con ver
st ate</w>
O kay</w>
E uro
c ir
v ari
fa ther</w>
bas ed</w>
am oun
O K</w>
st ed</w>
w ed</w>
par ents</w>
li c
Y or
kno wn</w>
p ot
fig ure</w>
at s</w>
f ar
G od</w>
war ds</w>
ta ken</w>
si ze</w>
na tional</w>
ec tive</w>
Th en</w>
tur ned</w>
o thers</w>
m ate</w>
syste ms</w>
t om
out side</w>
ell ing</w>
de mo
al ong</w>
pro vi
er y</w>
tur ns</w>
re st</w>
sh ar
fo c
c le</w>
st ing</w>
k ey</w>
ne ws</w>
ro w</w>
enti re</w>
c ell</w>
re ality</w>
p e</w>
stu dents</w>
chang ed</w>
Amer ican</w>
sc ale</w>
en ing</w>
mach ine</w>
gre s
rela tion
at e
lear ning</w>
happ y</w>
ear ly</w>
ul es</w>
see ing</w>
ic k</w>
min utes</w>
ca te</w>
a ir
ta in
d r
bre a
b ab
an ts</w>
A f
s or
or d</w>
mo ving</w>
ci ties</w>
a i
or din
w on</w>
l ots</w>
w in
pat ter
partic ular</w>
nat ural</w>
O r</w>
fi sh</w>
compan ies</w>
s is</w>
differ ence</w>
d -
w ar</w>
ta kes</w>
fe el
s cre
1 5</w>
ga ve</w>
i on</w>
ma g
al lo
re si
m ental</w>
vi ol
bo o
f ree</w>
vi sion</w>
sel f-
ex pla
en ted</w>
re gi
m ess
ex pl
di ed</w>
be h
Y e
p ur
n ers</w>
ex t</w>
cl ose</w>
b ility</w>
th y</w>
ma j
at ure</w>
t ou
O h</w>
te am</w>
p le
nee ded</w>
lea ve</w>
at or</w>
c k
phy s
de fin
y -
per haps</w>
d ers</w>
s our
C on
n on
mi ddle</w>
i ther</w>
e ts</w>
ti s
ra di
e mo
beg inning</w>
se qu
g ed</w>
diffic ult</w>
c al
kno w
econom ic</w>
b ur
h or
un ch</w>
phy si
elec tri
TE D</w>
te ach
tr ac
re l
tic ally</w>
n am
ey es</w>
b ed</w>
c os
m a</w>
id enti
t est</w>
ver age</w>
beg an</w>
par ts</w>
ima ge</w>
h o
eas y</w>
ti vely</w>
per f
are a</w>
Yor k</w>
N A</w>
I s
gro w</w>
can not</w>
human s</w>
a x
wh at
ad v
ter ms</w>
re pres
li m
phot ograp
ma l</w>
beh ind</w>
cur r
popul ation</w>
realiz ed</w>
power ful</w>
nee ds</w>
di ence</w>
ve ment</w>
li g
gi ven</w>
b ir
gro w
do c
bor n</w>
c y
fri end</w>
enc y</w>
d uring</w>
u al</w>
th ird</w>
gu ys</w>
fin ally</w>
qu ick
mo d
fl u
fiel d</w>
de li
k ill
it h</w>
h ol
f ic
f ly</w>
wonder ful</w>
as es</w>
p t</w>
ac ter
ab or
ne ur
amoun t</w>
fel t</w>
sur face</w>
ne y</w>
ga me</w>
at ten
d ence</w>
c ost</w>
as tic</w>
wal k</w>
d en</w>
A u
ex tre
know le
A t</w>
wee k</w>
mark et</w>
cer tain</w>
an ci
Ch ina</w>
en ge</w>
medi a</w>
pos ed</w>
in c
S u
N or
y our
sur vi
h ands</w>
con f
S ome</w>
re g
inv ol
in sp
grow th</w>
de ca
a ds</w>
u res</w>
str u
in clu
O ur</w>
t ot
quick ly</w>
on d</w>
D o</w>
your self</w>
b ar
T o
oce an</w>
lon ger</w>
comm on</w>
se ven</w>
s il
mo vi
chall enge</w>
par t
m al
de ath</w>
ul ts</w>
f ra
an ima
sp end</w>
simp ly</w>
lo cal</w>
an tly</w>
m et</w>
hund re
s qu
b loo
t elling</w>
g one</w>
Pe ople</w>
h on
des cri
su m
ro bo
oun d
tri ed</w>
pre dic
e vi
boo ks</w>
ab solu
T o</w>
sur pri
iz e</w>
sit ting</w>
poli tical</w>
physi cal</w>
ob vi
fun c
an ti
rou ght</w>
Ye ah</w>
pr ac
m p</w>
chang es</w>
pos si
cl es</w>
l ost</w>
ver sity</w>
t ro
oo k</w>
D NA</w>
su per
low ed</w>
ful l</w>
fi ed</w>
res our
o -
ne igh
gr and
car e
arch it
s it</w>
reli gi
li sh</w>
what ever</w>
res s</w>
po in
4 0</w>
z ed</w>
pri v
m ol
el lig
ca mer
c ks</w>
b an
interest ed</w>
g ing</w>
tra di
ste p</w>
sp ent</w>
W or
po or</w>
li ke
con di
m os
for ward</w>
de al</w>
an al
L e
me mor
wr it
wee ks</w>
di e</w>
c y</w>
S .</w>
val ue</w>
p sy
logi es</w>
gi ving</w>
v ices</w>
p ay</w>
opport unity</w>
b ack
wh ite</w>
es p
M o
I s</w>
al one</w>
o il</w>
gir l</w>
Y es</w>
w ouldn</w>
sho ws</w>
econom y</w>
hundre ds</w>
e ither</w>
cli mate</w>
underst anding</w>
ri ed</w>
Mus ic</w>
in stitu
f as
s ha
qu e</w>
e mer
e ment</w>
con sci
wr ite</w>
imag es</w>
hel p
fa il
year -
th re
h old</w>
or ig
knowle dge</w>
int ellig
s mar
o l</w>
R ight</w>
gro wing</w>
bu y</w>
b rought</w>
for ce</w>
e ight</w>
comple x</w>
us h</w>
fund am
fe et</w>
chang ing</w>
u ght</w>
progra m</w>
per for
me an
in ation</w>
feel ing</w>
d om
J ust</w>
im pro
h ood</w>
er ed</w>
enti ally</w>
develop ed</w>
d en
nu mbers</w>
cle ar</w>
vi su
pre ci
U. S.</w>
per i
i cal</w>
comp li
ca tions</w>
b ene
behavi or</w>
scienti sts</w>
mul ti
mil lions</w>
are as</w>
O n</w>
for tun
as s</w>
ar gu
ac cess</w>
see ms</w>
a verage</w>
incredi ble</w>
ig n</w>
gener ation</w>
conver sa
M a
to ols</w>
m ale</w>
in ten
sit u
mor ning</w>
gg est</w>
J o
spe ak</w>
materi al</w>
fa v
ordin ary</w>
en ding</w>
p aper</w>
i red</w>
ch es</w>
as h
u te</w>
pati ents</w>
mol ec
mil es</w>
techno logies</w>
su dd
si mil
s ite</w>
car b
ser i
re le
car s</w>
spe a
gir ls</w>
bo x</w>
ab o
reco gn
n al</w>
f y</w>
f ur
S e
star ting</w>
st age</w>
r en
man ag
ac e
su sta
st e</w>
realiz e</w>
ex am
to m</w>
res ult</w>
ing ly</w>
dig ital</w>
com b
N ot</w>
the ma
pl ant</w>
in ve
st ro
mo der
liter ally</w>
net work</w>
g ger</w>
c ut</w>
z y</w>
t ar
like ly</w>
bl ue</w>
pr om
individu al</w>
di sc
G oo
1 2</w>
in s
b a
uc k</w>
k id</w>
g le</w>
pro duce</w>
com pe
bloo d</w>
atten tion</w>
t es</w>
ci vi
vi e
e at</w>
col or</w>
ac hi
va il
se ver
person al</w>
le g
fe ar</w>
wr ote</w>
mo ved</w>
e f</w>
ver s</w>
re p
d ly</w>
cre ating</w>
as king</w>
G re
c ro
L a
H a
tin y</w>
re ly</w>
qu ality</w>
h osp
di men
so on</w>
N o
x i
ill s</w>
d ark</w>
anc es</w>
am es</w>
En g
the ory</w>
li ties</w>
wat ch</w>
g al
f ast</w>
gre en</w>
f it</w>
al low</w>
op en
ech an
te mp
rec ently</w>
p an
o d
cer tain
Euro pe</w>
sol ve</w>
d ou
anima l</w>
ur ity</w>
su ff
pa in
C A</w>
produc t</w>
mo vement</w>
vo ice</w>
mis sion</w>
eas i
di st
any one</w>
am s</w>
ul arly</w>
tur al</w>
e mb
in st
chall eng
supp ort</w>
r ate</w>
m ine</w>
gres s</w>
a vail
M ay
ris k</w>
ma p</w>
gi ves</w>
for ms</w>
ma thema
he ad
fu n</w>
che mi
C an</w>
li ved</w>
la w</w>
disco vered</w>
1 1</w>
f ine</w>
de ep</w>
connec ted</w>
ch i
p en
n ice</w>
bot tom</w>
n y</w>
g est</w>
g en</w>
st and</w>
gen e
ti z
develop ment</w>
us h
so f
ex ist
evol ution</w>
sch o
il s</w>
compu ters</w>
incre as
con su
tran sp
ter ri
str on
k y</w>
au th
all s</w>
E very
v ill
indu stry</w>
f ree
g ar
y ond</w>
sol ution</w>
mic ro
ey e</w>
S ome
sour ce</w>
experi ment</w>
sm all
pu tting</w>
de ep
b all</w>
se a</w>
s le
relation ship</w>
nor mal</w>
re vol
pic tures</w>
mar ke
l ess
esp eci
especi ally</w>
ec h</w>
plan ts</w>
con v
see m</w>
desig ned</w>
de vice</w>
l u
ti ves</w>
suc cess
run ning</w>
play ing</w>
me et</w>
m echan
ec ting</w>
cen ter</w>
bo ard</w>
avail able</w>
A c
6 0</w>
sh ort</w>
ac i
N a
me t
clas s</w>
year- old</w>
tech ni
sho wed</w>
ou ght</w>
or ity</w>
y es</w>
om s</w>
imp act</w>
b acter
D e
typ e</w>
g es</w>
co de</w>
cho ice</w>
absolu tely</w>
oo t</w>
h and
d ying</w>
issu e</w>
th ro
l in
grou ps</w>
N e
m u
ex tra
chan ce</w>
sever al</w>
beg in</w>
th ank</w>
sh ape</w>
h un
ce i
Eng lish</w>
nec ess
l ines</w>
con struc
B y</w>
r it
maj or</w>
ex pres
be yond</w>
sa ve</w>
inno vation</w>
carb on</w>
i sts</w>
fil m</w>
b at
z er
s end</w>
h om
bab y</w>
Goo gle</w>
develop ing</w>
ter m</w>
speci al</w>
be comes</w>
M ars</w>
tru th</w>
tici p
o w
gal ax
jour ney</w>
incredi bly</w>
foc us</w>
simil ar</w>
int ro
U ni
B i
t y
shi ps</w>
l ate</w>
expla in</w>
au dience</w>
s ounds</w>
r ules</w>
m ent
sion al</w>
sec urity</w>
ma in</w>
ec ture</w>
b ul
Wor ld</w>
tri bu
la b</w>
exper im
st ay</w>
d ings</w>
bre ak</w>
to wards</w>
tal ked</w>
si a</w>
robo t</w>
resour ces</w>
ha ven</w>
eff ect</w>
dri ve</w>
ca mp
bi gger</w>
wr iting</w>
u ally</w>
medi cal</w>
h y</w>
c ool</w>
wor th</w>
reas ons</w>
per spec
fav or
demo cr
anal y
M ar
str ong</w>
s ent</w>
ro ad</w>
pati ent</w>
ob jects</w>
gre at
ex tr
t op
su p
te m
pot ential</w>
movi e</w>
de gre
appro ach</w>
F ir
te ach</w>
read ing</w>
perf ect</w>
moder n</w>
viol ence</w>
tw are</w>
sho wing</w>
r an</w>
r .</w>
on line</w>
me ly</w>
at ors</w>
ar en</w>
issu es</w>
h our</w>
c lo
partic ularly</w>
ni fic
communi ties</w>
beli ev
w ers</w>
invol ved</w>
en ly</w>
con cer
char ac
bas ic</w>
tre at
pic k</w>
in al</w>
ar ed</w>
mess age</w>
evi dence</w>
o re
medi c
en ded</w>
di stri
S outh</w>
sof tware</w>
pro cess
on to</w>
b al
C om
st and
se x</w>
r ace</w>
pro per
imp os
eff ici
de ta
de ed</w>
ac coun
Fir st</w>
sy n
ste m</w>
gi c</w>
t on
sol ar</w>
sec re
t ele
equ i
P ar
ra is
or ies</w>
meas ure</w>
l and
ch ec
ad d
susta in
rec or
2 5</w>
wal king</w>
str an
sti c</w>
li fe
gu ess</w>
do or</w>
camer a</w>
b er</w>
sh ing</w>
h it</w>
b it
E very</w>
situ ation</w>
con n
May be</w>
19 9
pr os
elec tr
prin ci
pres ent</w>
po ver
ev en
ci tiz
aliz ed</w>
pp ed</w>
pover ty</w>
f am
comp as
0 -
re ach</w>
kno ws</w>
tre es</w>
se x
scienti fic</w>
high -
exam ples</w>
T a
star ts</w>
scho ols</w>
a v
w ish</w>
m oun
li st</w>
G er
Af ter</w>
u m
sp ir
scre en</w>
res ults</w>
g ot
dru gs</w>
de t
at ures</w>
sa fe</w>
f all</w>
colle ag
tr al</w>
su g
f le
tr ust</w>
st anding</w>
o es</w>
mon th</w>
i tion</w>
app li
th o
r ap
psy cho
h an
cra zy</w>
com for
c lear
O f</w>
suc cess</w>
posi tion</w>
spe ed</w>
n ine</w>
contin ue</w>
certain ly</w>
bi ggest</w>
P ro
w in</w>
lead ers</w>
cho ose</w>
star s</w>
dre am</w>
stre et</w>
materi als</w>
de ad</w>
ac tivity</w>
ac tive</w>
8 0</w>
wor l
ro le</w>
osp here</w>
le ad</w>
l y
com par
any body</w>
an ks</w>
iz ed</w>
Wh ere</w>
w all</w>
ter ed</w>
fa ster</w>
L ook</w>
G e
wan ts</w>
cre ative</w>
y ed</w>
us ion</w>
list en</w>
devel op</w>
as su
a vi
ob ject</w>
m ot
ca t
r ing</w>
non -
f er</w>
P h
fer ence</w>
democr acy</w>
ar ri
sc en
mas s</w>
en sive</w>
c ed</w>
ac tions</w>
mach ines</w>
dru g</w>
de ter
t ree</w>
ob ser
mod els</w>
lar gest</w>
l ay
i al</w>
exc iting</w>
am ong</w>
S i
st o
no tice</w>
fi ght</w>
conf lic
uc le
ri ghts</w>
l ose</w>
gre w</w>
fortun ately</w>
ar ds</w>
s ou
pro jects</w>
perspec tive</w>
min ds</w>
li z
im medi
hund red</w>
ac her</w>
me ant</w>
fur ther</w>
fami lies</w>
emp lo
di ag
ag ing</w>
M e
ri ch</w>
min ute</w>
fore st</w>
ad d</w>
tot ally</w>
m ous</w>
j us
ur b
to wn</w>
favor ite</w>
ear s</w>
wi fe</w>
vi sible</w>
sy m
st ers</w>
pa in</w>
obvi ously</w>
o kay</w>
mo bi
lo wing</w>
intellig ence</w>
fir e</w>
extra ordinary</w>
ta ught</w>
n ar
sh e
peri od</w>
conversa tion</w>
coll abor
H e
D i
es ti
ac ks</w>
M ost</w>
E ven</w>
p ose</w>
lo wer</w>
li ar</w>
d y
colle ge</w>
E x
D on</w>
vill age</w>
prot ect</w>
fundam ental</w>
ther e
sho wn</w>
m it
high er</w>
every where</w>
ess entially</w>
t end</w>
se par
it ary</w>
even tually</w>
bo y</w>
V ide
S h
wat ching</w>
li gh
le y</w>
ex ist</w>
compli cated</w>
bot s</w>
Vide o</w>
T w
Jo h
B ri
B ra
teach ers</w>
ri es</w>
incre ase</w>
ill ing</w>
gen es</w>
do w
cir cu
ol der</w>
nam ed</w>
individu als</w>
d ang
Wh o</w>
w ind</w>
w il
str ate
st ore</w>
sk in</w>
prof es
patter ns</w>
tradi tional</w>
patter n</w>
p ay
o x
n ucle
m es</w>
bacter ia</w>
ver sion</w>
sig nific
ran ge</w>
pl an</w>
C ol
stu dent</w>
s al
produc ts</w>
f ru
buil dings</w>
tra vel</w>
g ri
f ant
ob s</w>
inclu ding</w>
S a
Afri can</w>
wor se</w>
tim ate</w>
t ells</w>
sp ac
ru p
ro bots</w>
oun ded</w>
off ice</w>
ga in</w>
extre mely</w>
con st
H ar
C o
wi de</w>
smar t</w>
sk y</w>
piec es</w>
c in
Nor th</w>
Ch ri
as h</w>
J ap
visu al</w>
respon se</w>
r os
no body</w>
for med</w>
b om
al lowed</w>
To day</w>
C ar
qu i
ph ones</w>
m ers</w>
bo dies</w>
5 00</w>
us ually</w>
tru ly</w>
ro r</w>
poin ts</w>
neigh bor
fi gu
de pres
de m
allo ws</w>
al ing</w>
M i
B u
success ful</w>
lo ved</w>
go al</w>
des er
we b
sp read</w>
inter est</w>
ing ing</w>
gra du
distri bu
W i
Th ose</w>
neur ons</w>
g er
g ames</w>
ear li
Americ ans</w>
te acher</w>
sh ap
sc ri
plan e</w>
l l
conn ect</w>
bra ins</w>
W ith</w>
sho t</w>
ir s</w>
disc us
M ic
speci fic</w>
ser vice</w>
r om
fol low</w>
contin u
lar ger</w>
in flu
al th</w>
to ol</w>
sudd enly</w>
par ticip
doc tor</w>
cop e</w>
medic ine</w>
m ir
exp ect</w>
e ma
ari ly</w>
A re</w>
2 00</w>
wa it</w>
sup posed</w>
n os
logi sts</w>
vel s</w>
sti c
regi on</w>
on y</w>
is ms</w>
in te
hosp ital</w>
fin ding</w>
do cu
P er
we ver</w>
throu gh
condi tions</w>
cal cul
b unch</w>
abo ve</w>
t an
me ters</w>
m or</w>
impos sible</w>
heal thy</w>
ach ed</w>
z z
v acc
su n</w>
st om
recogn ize</w>
pro gress</w>
organiz ation</w>
ci es</w>
ca ses</w>
b es</w>
ac ti
tem per
govern ments</w>
exp lo
exc ited</w>
posi tive</w>
leg al</w>
happ iness</w>
fo ot
electri city</w>
b s</w>
archit ecture</w>
ar r
ver se</w>
ter r
sp o
s un
ph en
ous ness</w>
or ts</w>
ma in
in deed</w>
wa ste</w>
up on</w>
thous and</w>
ne w
hi c</w>
gh tly</w>
ar m</w>
wi se</w>
s ong</w>
ici al</w>
en ter</w>
as s
re fl
in si
g ni
J u
H u
1 0
rec ord</w>
memor y</w>
e ful</w>
we a
ke pt</w>
indu stri
got ten</w>
er ous</w>
e ting</w>
cre a
bio logy</w>
any more</w>
ab i
I mag
st opp
small er</w>
si bility</w>
secon ds</w>
m it</w>
en or
W est</w>
kill ed</w>
ali ve</w>
writ ten</w>
w ood</w>
sor ts</w>
ou d</w>
g ent
f oot</w>
dri ving</w>
cont ext</w>
compe ti
ther n</w>
pol l
man u
ma tic</w>
j obs</w>
institu tions</w>
est er
deca des</w>
th ree
some where</w>
solu tions</w>
on ic</w>
con tribu
as p
a p</w>
a in</w>
- year-old</w>
t a</w>
si mul
produc tion</w>
ph il
exp ensive</w>
engine ering</w>
consi der</w>
compas sion</w>
v ic
sig n
ser ies</w>
pres s</w>
plan ets</w>
perfor man
om en
jo y</w>
wer en</w>
tou ch</w>
some how</w>
ni a</w>
h ic
gener al</w>
fin anci
seri ous</w>
ra tion</w>
p age</w>
mean ing</w>
in come</w>
g as</w>
fam ous</w>
deci sions</w>
S te
B o
s wi
prot e
der ed</w>
cul tural</w>
s at
re cei
i an</w>
great est</w>
expl or
b and</w>
H o
tion ary</w>
hi m
ep ing</w>
dow n
cri sis</w>
w ell
revol ution</w>
o logy</w>
de f
au tom
ac ting</w>
v al</w>
t ory</w>
phen omen
fac es</w>
colleag ues</w>
won der</w>
treat ment</w>
st y
ou ra
fas cin
fami liar</w>
enc ed</w>
cos ts</w>
con sequ
ri se</w>
mobi le</w>
gene tic</w>
d ow</w>
d aughter</w>
co ld</w>
be coming</w>
acti vi
wor kers</w>
pa ir</w>
f our
dise ases</w>
Ch in
pres sure</w>
po e
dang erous</w>
d on
con cept</w>
clear ly</w>
b its</w>
tra ining</w>
s mo
provi de</w>
no tic
li ghts</w>
de b
stu dies</w>
re mark
phys ics</w>
ox y
la ws</w>
g -
d ama
challeng es</w>
aw are</w>
ti tu
d a</w>
al ism</w>
ad ap
ac tual</w>
M on
Imag ine</w>
H I
tis su
mil itary</w>
i shed</w>
free dom</w>
flo or</w>
be ings</w>
anc ed</w>
ve hic
to -
r ac
7 0</w>
underst ood</w>
s us
r ot
mas sive</w>
ac ity</w>
T V</w>
1 8</w>
1 8
ye ah</w>
wa iting</w>
vir us</w>
tr ou
sk ills</w>
priv ate</w>
poli ce</w>
mor al</w>
human ity</w>
cu ri
cep tion</w>
Wh ich</w>
sub ject</w>
shar ed</w>
on e-
P o
we ight</w>
un e</w>
par a
inter national</w>
fe ed</w>
eng th</w>
e th
R o
performan ce</w>
o h</w>
manu fac
inf ra
him self</w>
deci sion</w>
curr ent</w>
connec tion</w>
E ast</w>
le -
jus tice</w>
immedi ately</w>
eri a</w>
cle an</w>
any where</w>
there fore</w>
spea king</w>
re por
pp ing</w>
ple ase</w>
k ill</w>
er e
e ty</w>
as se
arti st</w>
ar ies</w>
Chin ese</w>
uni que</w>
tw o-
s low</w>
r is</w>
organiz ations</w>
op s</w>
h ur
fl ying</w>
earli er</w>
R us
L on
F r
val ues</w>
through out</w>
sig n</w>
m osphere</w>
land sc
l uc
fol lowing</w>
fant astic</w>
S p
typ es</w>
s we
pri ce</w>
poli cy</w>
pe di
par ti
l ands</w>
el lit
e e</w>
at mosphere</w>
an e</w>
ur s</w>
three -
logi st</w>
it ation</w>
ini ti
func tion</w>
fe male</w>
ess es</w>
c ele
bu t
S o
C ity</w>
s ell</w>
h ot</w>
en ter
de vices</w>
comple te</w>
Uni versity</w>
v ot
no ther</w>
inve st
enc oura
dra w</w>
di versity</w>
beau ty</w>
aliz ation</w>
W e
vari ous</w>
ta tions</w>
s l
s ent
ra ise</w>
mi sta
direc tion</w>
cho ices</w>
A nother</w>
tre at</w>
t ex
socie ties</w>
cri tical</w>
cont ent</w>
a mp
ther ap
t or
stran ge</w>
rec ent</w>
nucle ar</w>
lo c
l led</w>
deca de</w>
communi cate</w>
citiz ens</w>
ag ed</w>
S y
A d
wal ked</w>
gre ater</w>
financi al</w>
ab les</w>
In stead</w>
wor k
sat ellit
n ot
l ab
inv ented</w>
for th</w>
d ance</w>
S A</w>
religi on</w>
op ti
ne ar</w>
in stru
cap ital</w>
W ar</w>
ser vices</w>
relation ships</w>
mo m</w>
com mer
bene f
app ed</w>
anc y</w>
19 8
wh ose</w>
sustain able</w>
poli tics</w>
h ole</w>
fin al</w>
en dent</w>
eff ective</w>
W ester
tra in</w>
tion ed</w>
t ext</w>
le gs</w>
h ous
environ mental</w>
ec tively</w>
e ding</w>
di vi
Li ke</w>
os ing</w>
l ar</w>
en ess</w>
con ven
cap it
ag ree</w>
well -
j a
help ed</w>
fi gh
direc tly</w>
dep endent</w>
con ser
appe ar</w>
a head</w>
Af gh
st ree
oc cu
m ming</w>
f re
extr a</w>
enor mous</w>
M any</w>
s -
pul l</w>
k il
f ying</w>
d ness</w>
ad di
us i
re sear
list ening</w>
li e</w>
li ber
ist an</w>
hi stor
g ly</w>
de stro
de mon
cr os
comm it
al g
af ter
Lon don</w>
5 ,000</w>
w illing</w>
st ation</w>
qu ar
pl astic</w>
expl ore</w>
experim ents</w>
e m
clos er</w>
progra ms</w>
ple as
phys ici
ot h</w>
mat h</w>
le vels</w>
it es</w>
any way</w>
tra vel
t al</w>
re duc
pr int</w>
p ush</w>
os y
l ack</w>
f low</w>
consci ousness</w>
ci al</w>
al ter
Tw o</w>
1 4</w>
the tic</w>
teach ing</w>
ra id</w>
pa id</w>
fa ir
ex cept</w>
eff ects</w>
R i
Ch ris</w>
me ter</w>
l li
in stance</w>
exp ected</w>
deci de</w>
ac ked</w>
a th
sen s
p ush
f lies</w>
dol lar</w>
comfor table</w>
at ory</w>
anci ent</w>
an k
ac ci
T i
zer o</w>
tr ack</w>
st ates</w>
pi cal</w>
er a</w>
cor rec
ari a</w>
an n
Y our</w>
us eful</w>
urb an</w>
tu m</w>
ta ins</w>
st ar</w>
shar ing</w>
rel ated</w>
ph o
mos tly</w>
men d
me eting</w>
fe els</w>
experi ences</w>
doc tors</w>
co ver</w>
as soci
K en
Afgh an
ter y</w>
secre t</w>
notic ed</w>
ma m
ma gic</w>
ill ed</w>
go l
effici ent</w>
e um</w>
di o</w>
care er</w>
cap acity</w>
ac ts</w>
HI V</w>
tur ning</w>
do g</w>
Afghan istan</w>
ti mat
t ons</w>
stree ts</w>
stopp ed</w>
mi le</w>
low -
impro ve</w>
desig ners</w>
d ate</w>
con tr
car ry</w>
ap art</w>
am a</w>
Th ink</w>
th i
sum mer</w>
su s</w>
remark able</w>
radi o</w>
insp ired</w>
charac ter</w>
bri dge</w>
af raid</w>
achi ev
wor st</w>
terri ble</w>
squ are</w>
pur pose</w>
prac tice</w>
oo ds</w>
hel d</w>
h us
g ery</w>
evol ved</w>
bir th</w>
a ster
timat ely</w>
sur r
see med</w>
play ed</w>
neigh b
n ur
mo tiv
man i
infra structure</w>
il ing</w>
i res</w>
f os
ess ed</w>
cro w
V i
C an
y a</w>
sle ep</w>
cu stom
ca uses</w>
w is
v ul
jour n
gra v
f la
ex ten
add ress</w>
Ch ar
survi ve</w>
sug ge
sta ti
net works</w>
min i
for get</w>
er ship</w>
conflic t</w>
chemi cal</w>
al though</w>
al -
wor ry</w>
sa fe
ru le</w>
re pe
possi bly</w>
photograp h
j ec
g ate</w>
cor por
an g</w>
ali for
C alifor
A I
tu red</w>
signific ant</w>
re fu
pe ace</w>
p ath</w>
ori th
kil ome
intro duc
er ci
disco ver</w>
communi cation</w>
alg orith
J e
F rom</w>
1 6</w>
x es</w>
sti ck</w>
s at</w>
pr ene
pl at
marke ts</w>
en ting</w>
clas s
W om
R a
sli ghtly</w>
pri son</w>
n ation</w>
chil d
Ta ke</w>
publi shed</w>
mis sing</w>
fi cation</w>
dro p</w>
crea tivity</w>
b one</w>
b la
am bi
S econ
Joh n</w>
we b</w>
tur ing</w>
struc tures</w>
har d
co ff
be low</w>
bas is</w>
a vo
Wester n</w>
Califor nia</w>
w ear
ev ent</w>
arti sts</w>
app ly</w>
D r.</w>
9 0</w>
st -
orig inal</w>
ne arly</w>
molec ules</w>
mat ters</w>
l a</w>
high ly</w>
galax ies</w>
cor ner</w>
con duc
camp a
s wit
gen ome</w>
g gl
for ces</w>
ent re
con fi
bab ies</w>
att ack</w>
an ce
achi eve</w>
M an</w>
G u
A b
te en
re ma
produc ed</w>
me mbers</w>
inte gr
il ed</w>
entre prene
b ought</w>
An y
tele vision</w>
stor s</w>
s m</w>
respon sibility</w>
ot yp
op pos
m el
hear ing</w>
gl ass</w>
differ ently</w>
d ad</w>
bir ds</w>
ag ri
Euro pe
tre mend
temper ature</w>
photograp h</w>
lo ad</w>
jo in</w>
gu e</w>
di a
bo ys</w>
bio logical</w>
ach ing</w>
s la
pre par
os op
o ds</w>
ill u
Indi an</w>
ri c</w>
p al
le t
el es
e ating</w>
comp on
ali st</w>
Mus li
1 ,000</w>
web site</w>
ti sh</w>
t ask</w>
hy dro
ha ir</w>
br inging</w>
an ger</w>
ali a</w>
ac cep
w el
tra ff
supp ly</w>
sty le</w>
sli de</w>
pre v
pas sed</w>
obvi ous</w>
in tu
easi ly</w>
bl ind</w>
H ey</w>
F ran
B ro
B er
pop ular</w>
pas sion</w>
pain ting</w>
diag nos
avi d</w>
P a
H is</w>
x ed</w>
imag ination</w>
he at</w>
cele br
ar t
I ra
3 D</w>
19 7
we ar</w>
vic ti
mp tion</w>
me th
gen e</w>
fore ver</w>
fas hi
defin ition</w>
c ot
as ed</w>
and -
abi lities</w>
Is ra
z en</w>
ti l
parti cles</w>
par ty</w>
o ther
necess ary</w>
mo on</w>
gi ant</w>
des p
consci ous</w>
ai m</w>
Th e
Na tional</w>
we ap
sit es</w>
re -
r ying</w>
pas s</w>
la un
easi er</w>
di stance</w>
dd en</w>
bro ken</w>
Th anks</w>
F in
sur gery</w>
ra in</w>
phil osop
n one</w>
lon g-
l un
exp ec
ex erci
ali ties</w>
uni ties</w>
trou ble</w>
spe ech</w>
scienti st</w>
pri mar
ound ation</w>
mom ents</w>
l er</w>
help ing</w>
f ab
enti rely</w>
cre ates</w>
c oo
aliz e</w>
al es</w>
F ace
D avid</w>
tw ice</w>
stand ard</w>
rou gh
ro ck</w>
qu es</w>
mis sions</w>
import antly</w>
figu red</w>
en tation</w>
ear th</w>
ck et</w>
bil lions</w>
Ac tually</w>
tot al</w>
st at
shi ft</w>
landsc ape</w>
l at
ga z
fi x</w>
emo tional</w>
degre es</w>
ce ive</w>
ari an</w>
Gre at</w>
1 .
val u
tion ally</w>
si des</w>
res ol
opport unities</w>
ne ga
maj ority</w>
lead ing</w>
lead ership</w>
inter act</w>
differ ences</w>
b ble</w>
ans wers</w>
Bra z
vi sit</w>
tissu e</w>
ro oms</w>
resear ch
na tive</w>
is tic</w>
h ot
f s</w>
c ore</w>
c ell
bus in
S ch
Q u
tran si
refu ge
qu ick</w>
neighbor hood</w>
meas u
ma gaz
it ely</w>
fun ny</w>
fu el</w>
dou b
di sp
coll ective</w>
c ru
O b
vir tual</w>
us ual</w>
su it</w>
sp ending</w>
s w
plac ed</w>
la w
ent ally</w>
an z
Face book</w>
3 00</w>
1 0,000</w>
ver ing</w>
t t
respon d</w>
invest ment</w>
hol ding</w>
g ers</w>
f all
dom in
cre ation</w>
ap h
T u
F ren
C hi
x ity</w>
stre am</w>
re duce</w>
le tter</w>
l ling</w>
engine ers</w>
deter min
car to
ar tic
2 ,000</w>
trans l
tici ans</w>
par k</w>
lo g
lim ited</w>
l ying</w>
l oss</w>
kilome ters</w>
gr y</w>
fin ished</w>
ess or</w>
ele ments</w>
desp ite</w>
ach es</w>
a di
religi ous</w>
pho to</w>
oxy gen</w>
oper ation</w>
off er</w>
gen der</w>
ec osy
di sa
descri be</w>
col ors</w>
coff ee</w>
call s</w>
blo ck</w>
b on
adv ant
a stron
1 3</w>
tis m</w>
reg ul
oppos ite</w>
ema il</w>
cy cle</w>
bro ther</w>
and a</w>
a -
O r
Au dience</w>
stra ight</w>
ste in</w>
ir ing</w>
in visible</w>
ha bit
es sion</w>
des ire</w>
comple xity</w>
ad y</w>
N ig
Is la
Ha ve</w>
Europe an</w>
C O
win dow</w>
v ast</w>
u tionary</w>
rais ed</w>
in -
figh ting</w>
en ed</w>
civi liz
chec k</w>
as si
aff ord</w>
M an
D P</w>
C am
sol di
sh ort
sa ving</w>
pre vi
ke ts</w>
gu n</w>
gent le
cen tral</w>
ad op
AI D
st uck</w>
rep li
nor m
it ch
foc used</w>
fail ure</w>
f light</w>
bene fit</w>
believ ed</w>
arti f
N A
A t
A sia</w>
pre si
possi bility</w>
gra de</w>
eng age</w>
dimen sional</w>
bri lli
ap preci
a id</w>
we alth</w>
so ld</w>
resp ect</w>
re ve
organ isms</w>
mo thers</w>
mi d
mar ri
luc ky</w>
iz ation</w>
ig n
gg ing</w>
child hood</w>
bu d
benef its</w>
be d
Fren ch</w>
2 4</w>
y el
open ed</w>
om y</w>
n an
el er
br ings</w>
be l</w>
O ver</w>
vol un
tremend ous</w>
respon sible</w>
necess arily</w>
identi ty</w>
hus band</w>
f ically</w>
every day</w>
ec u
d ar
at temp
accoun t</w>
ac cur
S an</w>
Jap an</w>
E g
D ar
AID S</w>
wear ing</w>
vul ner
ul timately</w>
sy mp
s al</w>
r ay</w>
n a</w>
l ap
kno wing</w>
hel ps</w>
du e</w>
dama ge</w>
cri min
consequ ences</w>
clas si
cap able</w>
app ing</w>
R ic
Ho wever</w>
G o
F e
ti n</w>
stu dying</w>
s ick</w>
galax y</w>
f ro
f li
el ess</w>
eff ort</w>
e fully</w>
cre atures</w>
T ur
Au str
rup tion</w>
re turn</w>
me mb
manag ed</w>
li c</w>
im m
exist ence</w>
ep ide
dre ams</w>
din os
depres sion</w>
cont act</w>
Some times</w>
va tive</w>
transp or
tra ined</w>
supp or
suc ce
extre me</w>
co gni
cat ch</w>
asse mb
ad ver
Bri tish</w>
traff ic</w>
sex ual</w>
new sp
ne l</w>
men ted</w>
mathema tics</w>
less on</w>
degre e</w>
M ex
w alls</w>
spac es</w>
predic t</w>
no ise</w>
mat es</w>
f requ
dimen sions</w>
coll ap
cha in</w>
an a</w>
am ing</w>
M c
Ger many</w>
s ac
r on
phenomen on</w>
no tion</w>
in ci
f illed</w>
et c</w>
acc eler
val ent</w>
t ough</w>
p rou
or row</w>
mo tion</w>
mar ried</w>
mal aria</w>
ins ects</w>
disco very</w>
compar ed</w>
b ird</w>
T wit
On ce</w>
wa ke</w>
tra de</w>
th row</w>
strate gy</w>
s low
nega tive</w>
industri al</w>
fascin ating</w>
far mers</w>
ci ence</w>
bro ad
ali sts</w>
a st
trans form</w>
th ri
t ent</w>
stu died</w>
sh ou
sc ul
pas s
nu tri
le ts</w>
ing ton</w>
fa ir</w>
emp o
cor ding</w>
c t</w>
bas e</w>
anc ing</w>
a tional</w>
P ri
Eg yp
ve ments</w>
un fortunately</w>
sign als</w>
sh el
r a</w>
pl u
organ ic</w>
oc cur
fair ly</w>
e g
cre d
ca used</w>
bo at</w>
ar ms</w>
an -
T al
th in</w>
temp or
sion ate</w>
rep ort</w>
op hi
lead er</w>
i de</w>
d a
con ference</w>
char ge</w>
c ard</w>
br and</w>
M al
Ira q</w>
wil d</w>
stic s</w>
sa v
ri ver</w>
rele v
k a</w>
grap h</w>
desig ning</w>
clos ed</w>
beli ef</w>
an tum</w>
ad ults</w>
A gain</w>
1 ,
suff ering</w>
mi gr
it able</w>
fore sts</w>
f ill</w>
demo cra
c ing</w>
brea k
M ore</w>
D id</w>
univer sity</w>
ro ll</w>
pu ts</w>
o logical</w>
movi es</w>
hor ri
gg le</w>
g on
for ced</w>
deep ly</w>
back ground</w>
b ru
S we
Ge or
Bi g</w>
vi s
re t
mon it
l en
ke e
il e
gen cy</w>
ev ents</w>
e dge</w>
const antly</w>
bal ance</w>
am i</w>
TE D
A n</w>
se ly</w>
on -
nar ra
fac tory</w>
fa ith</w>
equ al</w>
engine er</w>
enc ing</w>
en se</w>
en cies</w>
be at</w>
b ing</w>
Twit ter</w>
H i
tal ity</w>
ste ps</w>
sig nal</w>
scen e</w>
s pl
pro found</w>
pa int</w>
other wise</w>
l ay</w>
increas ingly</w>
i or</w>
har der</w>
deli ver</w>
ap ers</w>
G r
CO 2</w>
v ote</w>
st one</w>
so il</w>
sen si
se as
repres ent</w>
par al
opti mi
mic ros
m ma
ex hi
commer cial</w>
call ing</w>
ca te
busin esses</w>
19 6
u le</w>
ta il</w>
st ay
sp ot</w>
slow ly</w>
sho p</w>
prou d</w>
pre gn
oce ans</w>
li f
lab or</w>
ke t
inter action</w>
intellig ent</w>
in king</w>
gener ate</w>
dem and</w>
ca ught</w>
W il
Braz il</w>
1 7</w>
ve -
res sed</w>
plan ning</w>
n ote</w>
moun tain</w>
mo ves</w>
ge ly</w>
for d</w>
bi lities</w>
artif icial</w>
Th ree</w>
surpri se</w>
st ood</w>
sor ry</w>
sent ence</w>
sec tor</w>
ran dom</w>
pu zz
pic ked</w>
perf ec
p ounds</w>
os ity</w>
lea ds</w>
emo tions</w>
cop y</w>
civi l</w>
cha ir</w>
at ch</w>
argu e</w>
ag s</w>
tre ated</w>
th ir
profes sional</w>
l au
ju mp</w>
inv en
int ell
ha s
fore ign</w>
dra wing</w>
competi tion</w>
cate g
be l
ai ly</w>
L o
yel low</w>
worl d
wa ves</w>
sur ve
sudd en</w>
spec tr
satellit e</w>
phot os</w>
p ages</w>
men tioned</w>
marri age</w>
m b</w>
gro wn</w>
fl u</w>
f old</w>
ex tin
condi tion</w>
campa ign</w>
M r.</w>
K .</w>
G ood</w>
F or
4 00</w>
1 5
vehic le</w>
titu de</w>
si ght</w>
quot e</w>
p ha
op ini
norm ally</w>
mo di
mag ne
inv ited</w>
inno v
h ome
edu ca
e u
an thro
ad a</w>
Su n</w>
Secon d</w>
Se e</w>
G o</w>
F i
Chri st
vie ws</w>
ty pical</w>
t eles
sti mul
ster y</w>
sequ ence</w>
sc an
qu antum</w>
multi ple</w>
low ers</w>
h ate</w>
fail ed</w>
descri bed</w>
conv inc
che ap</w>
argu ment</w>
ar ity</w>
aff ect</w>
advant age</w>
P al
K i
D o
ten s</w>
sta ur
s ul
re staur
princi ples</w>
prac tic
pl us</w>
magaz ine</w>
m ouse</w>
l abor
far m</w>
en ever</w>
coun t</w>
beg ins</w>
as ks</w>
ac cept</w>
E ach</w>
tri p</w>
survi val</w>
struc tion</w>
stitu te</w>
separ ate</w>
resi dent</w>
reg ular</w>
on g
met aph
he ads</w>
grap h
g lo
fiel ds</w>
ex ists</w>
es ome</w>
dep end
d aily</w>
construc tion</w>
be t</w>
be es</w>
be ar</w>
T im
C oun
2 1
wh om</w>
wer ed</w>
uc ks</w>
re m
prof it</w>
oun ding</w>
ob s
mil li
j e
influ ence</w>
hous es</w>
gener ations</w>
er t</w>
ele ph
desig ner</w>
connec tions</w>
con cep
bl es</w>
a ti
E in
wat ched</w>
tri l
th -
techni cal</w>
stru ggle</w>
si ster</w>
si an</w>
sec tion</w>
recei ved</w>
oper ate</w>
nam es</w>
manufac turing</w>
m outh</w>
lay er</w>
identi fy</w>
fin ger</w>
fe ed
fashi on</w>
dri ven</w>
de fine</w>
d el
consi dered</w>
ca de
b in
artic le</w>
I T</w>
y er</w>
wa ve</w>
tri al</w>
tom orrow</w>
tar get</w>
t ac
sym bo
surpri sing</w>
seri ously</w>
safe ty</w>
ra in
proper ty</w>
part ment</w>
lea ving</w>
inv est</w>
hi dden</w>
f ell</w>
f al
en joy</w>
char acter
P le
Every thing</w>
transp ar
techni ques</w>
prev ent</w>
man age</w>
laun ched</w>
hom es</w>
equi valent</w>
deep er</w>
de a
curr ently</w>
cri me</w>
cl in
cir cle</w>
camer as</w>
brilli ant</w>
b allo
V ery</w>
M il
wis dom</w>
volun te
te x</w>
spo ke</w>
sh ouldn</w>
process es</w>
pres er
p ra
ner v
m as</w>
ju d
inter pre
fri end
fol lowed</w>
ess ential</w>
emplo ye
comp are</w>
cl oud</w>
chemi stry</w>
charac ters</w>
ch imp
analy sis</w>
adv anced</w>
wea ther</w>
ver sus</w>
us ers</w>
un less</w>
sym me
spir it</w>
sm ell</w>
plat form</w>
oper ating</w>
mal es</w>
experi enced</w>
exper ts</w>
contin ent</w>
concer ned</w>
ab str
a thy</w>
W ash
Ein stein</w>
wor ried</w>
we ird</w>
sa ved</w>
s an
prote in</w>
p y</w>
organiz ed</w>
or d
op ening</w>
na mic</w>
mp s</w>
me at</w>
li br
le gi
ke eping</w>
inv esti
hon est</w>
ha dn</w>
deta il</w>
conversa tions</w>
circu m
b y
arri ved</w>
ac king</w>
We b</w>
Mi ddle</w>
M u
G DP</w>
Every body</w>
tion ing</w>
scul p
ra tional</w>
princi ple</w>
ne uro
lea ves</w>
he av
grap hic</w>
ga ther
cor ruption</w>
col on
ca st</w>
c tion</w>
b ank</w>
Li fe</w>
C or
B ar
viol ent</w>
ur ch</w>
sp on
prom ise</w>
lo cation</w>
hop efully</w>
exerci se</w>
electri c</w>
civiliz ation</w>
bre ad</w>
a war
Wash ington</w>
R ob
Ch il
tal ks</w>
so li
ris ks</w>
r ates</w>
perfec tly</w>
pay ing</w>
o be
mean ing
in ner</w>
hol es</w>
h i</w>
grand mother</w>
fac ts</w>
er -
e m</w>
demon str
au d
ad ult</w>
S tre
Mex ic
B rit
str ength</w>
simp li
shap es</w>
prot otyp
ph er
or ism</w>
li qu
let ters</w>
inc enti
imp li
has n</w>
direc t</w>
de aling</w>
co vered</w>
car ds</w>
agri culture</w>
P i
vo ices</w>
tu mor</w>
the sis</w>
terr ori
t ech</w>
sp i
research ers</w>
par ent</w>
n it
ke ys</w>
iz ing</w>
ge on</w>
ga p</w>
emer ging</w>
dol ph
din ner</w>
di o
c ked</w>
br an
avo id</w>
air plane</w>
Tim es</w>
NA SA</w>
I tal
z a</w>
therap y</w>
surpri sed</w>
st ress</w>
s ons</w>
re action</w>
produc tive</w>
org ans</w>
on ed</w>
neur os
mor tality</w>
mess ages</w>
in j
fac ing</w>
ex act</w>
eff ectively</w>
cl aim</w>
ab led</w>
V al
C E
Austr alia</w>
10 0,000</w>
wonder ing</w>
te e
t ol
s y</w>
s and</w>
pp er</w>
or ders</w>
manag ement</w>
ki d
go ld</w>
fol ks</w>
fin ish</w>
est ab
e ds</w>
cor tex</w>
con cl
appe ared</w>
z one</w>
z es</w>
v es
ti ous</w>
thre at</w>
thre at
te sting</w>
sho es</w>
rough ly</w>
nat ur
mat ch</w>
mar k</w>
le g</w>
g el
fos si
deta ils</w>
curi ous</w>
b us</w>
ul l</w>
stra tion</w>
sto ck</w>
sen ding</w>
se at</w>
ri d</w>
relev ant</w>
ra b</w>
r ural</w>
part ner</w>
molec ule</w>
intell ec
hy po
g ation</w>
feel ings</w>
es cap
en coun
cor al</w>
comp os
coll ect</w>
ar ts</w>
ang le</w>
The ir</w>
A ma
A le
vari ety</w>
to il
speci fically</w>
shi f
sa d</w>
nerv ous</w>
import ance</w>
he li
grav ity</w>
gh t
for ming</w>
fi sh
cou ra
ann oun
alter native</w>
U. K.</w>
L ast</w>
Ken ya</w>
vol u
thin ks</w>
su m</w>
si vely</w>
qu it
produc ing</w>
process ing</w>
logi c</w>
is es</w>
increas ing</w>
gen i
exp an
eng ine</w>
dou ble</w>
do ws</w>
addi tion</w>
W ould</w>
F ri
B os
rec y
p ment</w>
mus eum</w>
mo vements</w>
l osing</w>
is ol
h ell</w>
fa il</w>
epide mic</w>
e missions</w>
cre te</w>
coll ection</w>
co al</w>
ch er</w>
ad ed</w>
M S</w>
K ore
worl ds</w>
tan e
sig ned</w>
res h</w>
re f
prin ting</w>
n e</w>
mus cle</w>
min d
in fin
high est</w>
gre en
four th</w>
evol utionary</w>
distribu tion</w>
defin itely</w>
b ar</w>
a k
W hi
S ince</w>
x ing</w>
w est</w>
ve ge
trans formation</w>
thou ghts</w>
m pl
inter ven
in dependent</w>
hosp it
heav y</w>
h a</w>
gl and</w>
ex plan
dr ink</w>
d ots</w>
care fully</w>
al ed</w>
P resident</w>
Har v
C ould</w>
C ome</w>
to ward</w>
ro b
r ound</w>
r hy
r are</w>
ou se
ophi sti
ne ath</w>
g ment</w>
elec tion</w>
defin ed</w>
deb ate</w>
bro ke</w>
bl in
b le
au l</w>
associ ated</w>
Mexic o</w>
war m</w>
us ive</w>
th care</w>
terr orism</w>
sp ring</w>
s ophisti
pro ve</w>
priv ile
met al</w>
in ts</w>
h os
fel low</w>
de st
c king</w>
I I</w>
war ming</w>
vide os</w>
st ate
sour ces</w>
sk ele
shou l
rem ote</w>
prof essor</w>
pro ce
p it
p id</w>
on ing</w>
n ic
kill ing</w>
intu i
insp i
i ly</w>
gradu ate</w>
gg ed</w>
explor ation</w>
electri cal</w>
bre ast</w>
blo cks</w>
appro pri
W al
M IT</w>
4 5</w>
3 ,000</w>
- up</w>
ye ster
w are</w>
valu able</w>
vacc ine</w>
tra u
ter -
spectr um</w>
ro ads</w>
re al
qu a
plan es</w>
organ ism</w>
ne ar
meth od</w>
mani pul
life time</w>
k et</w>
inter face</w>
id ly</w>
feed back</w>
ere as</w>
econom ics</w>
dy namic</w>
d ry</w>
cred it</w>
cogni tive</w>
ca ting</w>
bre ath</w>
au tism</w>
aff ected</w>
absolu te</w>
P S</w>
N u
D es
7 5</w>
3 5</w>
1 50</w>
world wide</w>
vulner able</w>
under neath</w>
se tt
sc ared</w>
rela tively</w>
prot ected</w>
proper ties</w>
presi dent</w>
ph r
ot ing</w>
na tions</w>
class room</w>
ci l</w>
c ents</w>
b right</w>
anal o
al u
adver ti
T it
R es
Ar ab
A rab</w>
w ings</w>
us er</w>
su ggest</w>
sig ns</w>
recor ded</w>
re ven
pro p
per form</w>
neighb ors</w>
heal thcare</w>
g ay</w>
fac tors</w>
ech no
dep lo
ba g</w>
an gl
Stre et</w>
Nig eria</w>
K e
I S
B ill</w>
yester day</w>
rele ase</w>
re min
re ached</w>
op e</w>
mon y</w>
liqu id</w>
langu ages</w>
intro duce</w>
inter view</w>
go als</w>
gentle men</w>
g or
equi pment</w>
convinc ed</w>
Fran ci
Fr ance</w>
B as
weap ons</w>
victi ms</w>
sec ure</w>
requ ires</w>
requ ired</w>
re ment</w>
r in
possi bilities</w>
per ception</w>
part ners</w>
or ing</w>
open -
introduc ed</w>
in sur
go ods</w>
fi le</w>
b ound
ap art
ad ly</w>
Y et</w>
S at
Jap an
20 th</w>
writ er</w>
vie wed</w>
swit ch</w>
sol ved</w>
sensi tive</w>
scri p
resol ution</w>
regi ons</w>
re sc
re ci
poli ticians</w>
poin ted</w>
oo m</w>
no w
natur ally</w>
ma tically</w>
l as
kee ps</w>
k itch
it u
in her
gra m</w>
f resh</w>
correc t</w>
compon ents</w>
comb ination</w>
c ure</w>
aw esome</w>
at trac
al o
ad dic
ac tiv
Y ou
Tu be</w>
I ran</w>
At lan
tril lion</w>
st able</w>
sc o</w>
re main</w>
rap idly</w>
prot ection</w>
previ ous</w>
play er</w>
nee d
ne u
mp ed</w>
medi um</w>
mathema tical</w>
long- term</w>
lo ck</w>
l unch</w>
k ne
inst all
fossi l</w>
fi re
es timate</w>
en jo
ca ve</w>
ac cording</w>
Wom en</w>
S ha
0 0,000</w>
wh enever</w>
wer ing</w>
univer sal</w>
un it</w>
teen ag
st y</w>
sp here</w>
ser ve</w>
se es</w>
ri de</w>
p ack
or al</w>
is land</w>
inv ent</w>
go s</w>
es h</w>
environ ments</w>
cap ture</w>
bat tery</w>
b ic
awar eness</w>
ag re
U S</w>
L in
H ol
Franci sco</w>
v ey</w>
tradi tion</w>
sh ir
se tting</w>
se ts</w>
sa tis
re ward</w>
primar y</w>
op tion</w>
oc ca
m ur
inven tion</w>
i ds</w>
emp ty</w>
e li
cul tures</w>
consu mption</w>
che mic
behavi ors</w>
an i
L u
Harv ard</w>
Geor ge</w>
G i
En gland</w>
D oes</w>
An gel
2 000</w>
un k</w>
transpor tation</w>
stu pid</w>
stre t
ste el</w>
stati stics</w>
s co
repres ents</w>
ol a</w>
intellec tual</w>
gi ft</w>
fundam entally</w>
fall ing</w>
fac tor</w>
exist ing</w>
employe es</w>
dist inc
dis ci
det ect</w>
der son</w>
cr uc
cle an
cl ou
autom a
ance stors</w>
an xi
acci dent</w>
Ric hard</w>
B l
travel ing</w>
soldi ers</w>
radi ation</w>
out come</w>
org an</w>
m aps</w>
increas ed</w>
in ev
gi es</w>
dri ver</w>
cu tting</w>
consi st
con ta
co ast</w>
chemic als</w>
challeng ing</w>
cen tu
activi ties</w>
You Tube</w>
Chri sti
Ap ple</w>
2 .
wh el
was h
vir uses</w>
to x
sh es</w>
s outh</w>
pl ays</w>
per s</w>
narra tive</w>
n ose</w>
molec ular</w>
grand father</w>
gra tion</w>
fra me</w>
expla ined</w>
de -
bud get</w>
brea king</w>
ad es</w>
Ple ase</w>
Isra el</w>
Ama z
Al so</w>
200 8</w>
swi mming</w>
stru ggl
sk ill</w>
si x
sel ling</w>
sc ar
pleas ure</w>
no vel</w>
l ady</w>
i Ph
hur t</w>
gr an
gi cal</w>
ent ure</w>
deser t</w>
democra tic</w>
contro lled</w>
ce ment</w>
aw ful</w>
appli ed</w>
anti -
ad vice</w>
ac ted</w>
a i</w>
Sch ool</w>
S cot
Per haps</w>
Mic ha
Can ada</w>
Brit ain</w>
volu me</w>
vi a</w>
tee th</w>
sil ence</w>
re mind</w>
por tra
over whel
or bit</w>
or an
on ics</w>
metaph or</w>
ma ster</w>
interest s</w>
hop ing</w>
h ouse
go ti
f oundation</w>
expl os
encoura ge</w>
disci pl
di v
d est</w>
cur ve</w>
confi dence</w>
con crete</w>
compu ting</w>
cer e
cen ters</w>
bu ying</w>
bo xes</w>
bi a</w>
att acks</w>
ar m
an o</w>
ad ded</w>
In stitute</w>
H er</w>
F ive</w>
tic a</w>
th es</w>
st un
refuge es</w>
qu e
on y
na vi
my stery</w>
mot or</w>
l augh
j ective</w>
it i</w>
institu tion</w>
ini cal</w>
fund ing</w>
expres sion</w>
expres s</w>
en able</w>
crow d</w>
cl inical</w>
W ow</w>
Tal k</w>
P aul</w>
J an
C enter</w>
str ing</w>
rhy th
radi cal</w>
prepar ed</w>
kitch en</w>
hydro gen</w>
fl at</w>
doub t</w>
di r
dep ends</w>
clos ely</w>
cli mb
ch ic
algorith ms</w>
ag ree
O c
Musli m</w>
M at
A s
u ri
stat us</w>
sophisti cated</w>
sing ing</w>
resi stance</w>
re place</w>
pedi a</w>
occur red</w>
less ons</w>
inclu de</w>
g an
emo tion</w>
el ing</w>
dro pped</w>
ca mp</w>
ap es</w>
C en
C a
An derson</w>
x im
under water</w>
tri ck</w>
transi tion</w>
ti ll</w>
the -
t les</w>
sug ar</w>
sp orts</w>
sol ving</w>
requ ire</w>
rele ased</w>
re stri
re memb
re less</w>
pul led</w>
pro por
pl ate</w>
particip ate</w>
newsp aper</w>
n or</w>
me -
l or
l ink</w>
l in</w>
ki st
jo ined</w>
it ting</w>
it arian</w>
imp res
imag ined</w>
fe min
equ ation</w>
eng aged</w>
de man
centu ries</w>
cen tr
car rying</w>
bus y</w>
au ton
a urs</w>
Japan ese</w>
Char les</w>
9 9</w>
21 st</w>
tempor ary</w>
sus p
sens ors</w>
re ti
rais ing</w>
r ene
pot entially</w>
play ers</w>
p ort</w>
on e
ne goti
mit ted</w>
mista kes</w>
mi x</w>
li ked</w>
l -
is ed</w>
inno vative</w>
ho wever</w>
fe atures</w>
do ors</w>
ber g</w>
appe ars</w>
appe ar
F a
20 10</w>
19 5
win ter</w>
the ater</w>
st ant</w>
st ances</w>
progra m
phys ically</w>
off ic
me tho
log ically</w>
instru ment</w>
imp le
ill ness</w>
hospit als</w>
est s</w>
de di
bor ing</w>
at en</w>
as ses</w>
ac le</w>
V o
P aci
N i
1 7
un known</w>
stron ger</w>
shap ed</w>
ro of</w>
restaur ant</w>
res er
poll ution</w>
op tions</w>
o rest</w>
moun tains</w>
mechan ism</w>
mb le</w>
la unch</w>
is on</w>
fle xi
fi shing</w>
evol ve</w>
ecosy stem</w>
echno logy</w>
cra ft</w>
const ant</w>
c at</w>
bat tle</w>
J ames</w>
D is
Con gress</w>
B a
6 00</w>
w o
sub -
resour ce</w>
recy cl
qu anti
pri son
meaning ful</w>
ma kers</w>
inf ected</w>
hor iz
hol ds</w>
gener ated</w>
gener ally</w>
ex change</w>
elec tro
ed it
disa ster</w>
de struction</w>
con stra
bar ri
Sat ur
Dar win</w>
ti le</w>
te sted</w>
swi m</w>
st eri
si ties</w>
se v
pregn ant</w>
pic ally</w>
pas sionate</w>
om ic</w>
in struc
in gre
ingre di
grap hy</w>
gl am
ge ograp
for mer</w>
fic tion</w>
fal se</w>
ent y</w>
cr oss</w>
consu mer</w>
conser vation</w>
but ton</w>
at oms</w>
ap par
ab sor
Whi le</w>
S ou
Paci fic</w>
B ank</w>
0 0
struc k</w>
stor y
sc r
sa mple</w>
rela tive</w>
re a
pro of</w>
poll en</w>
li cen
ici de</w>
hon or</w>
g un
fe eding</w>
do gs</w>
discus sion</w>
dinos aurs</w>
di et</w>
des per
connec ting</w>
cli ck</w>
chimp anz
bu bble</w>
bor ders</w>
amp ;</w>
amoun ts</w>
Ob ama</w>
C l
& amp;</w>
y ers</w>
top ic</w>
three- dimensional</w>
tain ment</w>
t ape</w>
rou gh</w>
re ver
push ing</w>
photograph s</w>
om as</w>
min ist
memor ies</w>
lo ws</w>
lim its</w>
evi l</w>
er al</w>
equ ality</w>
ec tions</w>
dra matic</w>
do zen</w>
con sum
c el
ad mit</w>
Ste ve</w>
S ep
Micha el</w>
G PS</w>
E l
C i
An tar
youn ger</w>
wal ks</w>
un usual</w>
techno logical</w>
te sts</w>
te ams</w>
sou l</w>
sil k</w>
seas on</w>
provi ding</w>
pres ence</w>
pre -
pe t</w>
para dig
orig in
mus ici
mis m</w>
ment ary</w>
in put</w>
imag in
hi de</w>
ha n</w>
g all
fu els</w>
econom ies</w>
bl u
allo wing</w>
a im
Un fortunately</w>
Sep te
Pa kist
On ly</w>
K ing</w>
Antar c
v an</w>
trac king</w>
state ment</w>
sta ff</w>
s na
ri di
rel ate</w>
re fer
pri me</w>
per man
p es</w>
mista ke</w>
mir ror</w>
ly wood</w>
l am
inspi ration</w>
ill ance</w>
fle w</w>
fac ed</w>
f ears</w>
exp on
ev ening</w>
eg gs</w>
eff orts</w>
distribu ted</w>
dar k
conv ince</w>
co ordin
clo thes</w>
ch est</w>
at ri
asp ects</w>
appreci ate</w>
T e
Septe mber</w>
L os</w>
Ger man</w>
Fin ally</w>
200 9</w>
1 6
tra ge
sustain ability</w>
ro cks</w>
ri sing</w>
re pair</w>
re ceive</w>
pa int
li zed</w>
illu str
iPh one</w>
h all
h ack
green house</w>
fru str
f loo
exp and</w>
dis play</w>
d anger</w>
collabor ation</w>
cli p</w>
ca using</w>
bur ning</w>
bom b</w>
b ones</w>
Rus sia</w>
M arti
C he
Any way</w>
wor ker</w>
wat er
th anks</w>
s ca
rema ins</w>
recor ding</w>
prote ins</w>
priv acy</w>
poe m</w>
per cent
pen gu
opini on</w>
ol ds</w>
occu r</w>
mis s</w>
men tion</w>
loc ked</w>
impli cations</w>
hy per
fin gers</w>
f lowers</w>
estab li
d ancing</w>
chic ken</w>
ch ose</w>
brea the</w>
bot tle</w>
ar re
ar d
ang ing</w>
agre ed</w>
ac u
abstr act</w>
Val ley</w>
No body</w>
H ig
B r
z oom</w>
z o
wonder ed</w>
ti e</w>
ta ste</w>
t all</w>
surve illance</w>
stu dio</w>
so -
run s</w>
ri gh
resi li
ra w</w>
qui et</w>
pre dat
not es</w>
nor th</w>
no on</w>
min ate</w>
measu red</w>
liter ature</w>
lin ked</w>
lau gh</w>
instru ments</w>
insi ght</w>
fu nd</w>
fra me
fe wer</w>
fa ult</w>
f at</w>
explan ation</w>
emb race</w>
dri ves</w>
cir cul
chi p</w>
ar my</w>
Nu mber</w>
Me di
G en
Every one</w>
C .</w>
war s</w>
to y</w>
the me</w>
ter nal</w>
situ ations</w>
sev ere</w>
re move</w>
r ors</w>
pro gres
pre ven
mp ing</w>
gni tion</w>
ex tent</w>
dea ths</w>
de vi
d ay
custom ers</w>
cu mul
cre ature</w>
corpor ate</w>
concl usion</w>
che str
ballo on</w>
aster n</w>
ang ers</w>
accur ate</w>
acc es
R u
Par is</w>
- like</w>
ul timate</w>
ton ight</w>
techni que</w>
t ack
surr ounded</w>
sh all</w>
s can</w>
puzz le</w>
pre ce
p un
p il
o tic</w>
mus ical</w>
mon key</w>
l os
l ine
l ength</w>
ins ul
in tri
imm une</w>
he im
h oods</w>
g ent</w>
func tions</w>
es tic</w>
es c
electr onic</w>
conven tional</w>
comb ine</w>
coll ected</w>
col li
bi om
bi as</w>
b en
auth enti
appli cations</w>
am ed</w>
Hig gs</w>
G ree
D .</w>
Amaz on</w>
5 0,000</w>
2 1</w>
wi reless</w>
wh ales</w>
tri als</w>
sur vey</w>
succe ed</w>
st ations</w>
sh oot</w>
pri ze</w>
poli cies</w>
person ally</w>
perfor ming</w>
magne tic</w>
i shing</w>
her o</w>
heim er</w>
hard ware</w>
glo be</w>
g li
g ence</w>
figu res</w>
fi f
explor ing</w>
emp athy</w>
emb arr
effici ency</w>
car ried</w>
bl ing</w>
appropri ate</w>
Sy ri
R os
Be fore</w>
y ment</w>
vo ca
vehic les</w>
s and
recor ds</w>
reco gnition</w>
of -
od d</w>
le f
ja il</w>
h its</w>
gro ws</w>
gri d</w>
exhi bi
eng aging</w>
dis h</w>
dis appear</w>
direc tor</w>
d ates</w>
coo king</w>
circum stances</w>
bir th
be lon
at tr
aster o
an gry</w>
a de</w>
a cade
V ir
Th omas</w>
S tu
4 ,000</w>
we igh
w ine</w>
ul ous</w>
tou ched</w>
ste ms</w>
si mpl
sh ment</w>
sc ary</w>
ro ots</w>
provi ded</w>
opp ing</w>
mechan ical</w>
marke ting</w>
mar ine</w>
ly mp
lic on</w>
le m
lar gely</w>
in cl
i m</w>
gu ar
func tional</w>
fr ank
edu cated</w>
e fs</w>
dat ab
comb ined</w>
coll ecting</w>
bic y
bar ely</w>
b ers</w>
ari o</w>
ac tor</w>
G lob
G ir
G al
B en
A l</w>
6 0s</w>
200 7</w>
z heimer</w>
xi de</w>
vacc ines</w>
va st
u ary</w>
tol er
ti tle</w>
t ables</w>
sp reading</w>
re moved</w>
re gre
pe ak</w>
ke y
ine quality</w>
in d
hand le</w>
geni us</w>
gar den</w>
frank ly</w>
for m
emer gency</w>
depend ence</w>
den se</w>
curi osity</w>
cor d</w>
clo ck</w>
cle ver</w>
X -
St ate</w>
Re member</w>
Ne w
He alth</w>
Egyp t</w>
Cen tral</w>
B al
Al zheimer</w>
Afric ans</w>
un like</w>
t an</w>
suff er</w>
son gs</w>
sch ol
recogn ized</w>
re verse</w>
ra m</w>
quar ter</w>
psycho logy</w>
ph arm
percent age</w>
p en</w>
organiz e</w>
micros cope</w>
li an</w>
labor atory</w>
ju dge</w>
in o</w>
il legal</w>
he ight</w>
gol f</w>
ge -
frame work</w>
flo wer</w>
et ary</w>
er ever</w>
equ ally</w>
el ine</w>
ear th
ch rom
T om</w>
Swe den</w>
St an
Sp ace</w>
O s</w>
Jan uary</w>
Ar t</w>
2 2</w>
stay ed</w>
sen ses</w>
re aching</w>
popul ations</w>
phr ase</w>
ner ship</w>
min ation</w>
itu de</w>
fil ms</w>
f alls</w>
exper t</w>
es tion</w>
er ror</w>
em bed
educa tional</w>
deter mine</w>
continu ed</w>
b age</w>
attemp t</w>
asp ect</w>
ap p</w>
ac tors</w>
Sa har
M ini
J os
Chi ca
Angel es</w>
A ri
ty pically</w>
trans formed</w>
spec tac
sel ection</w>
s n
s mile</w>
re spec
re ference</w>
pos t
pl om
obs essed</w>
neighb or</w>
libr ary</w>
j i
inter acting</w>
gl aci
el d</w>
dre w</w>
do t</w>
der ing</w>
dep end</w>
cr ying</w>
coura ge</w>
coun ter
com pla
collap se</w>
ch urch</w>
can di
ca ble</w>
c kets</w>
bor der</w>
bi ke</w>
assu me</w>
archit ect</w>
anti bio
Some thing</w>
S m
Pal est
Chica go</w>
A m
vir tu
u pper</w>
teles cope</w>
tane ously</w>
swe et</w>
sub jects</w>
shir t</w>
see ds</w>
sc ore</w>
prac tical</w>
poe try</w>
no where</w>
mam m
jo ke</w>
insur ance</w>
horri ble</w>
g al</w>
four -
fi ve-
escap e</w>
dr inking</w>
construc t</w>
commit ted</w>
che aper</w>
c up</w>
b ow</w>
an ticip
an at
S ec
H er
D en
D ay</w>
- to-
w ire</w>
v it
un expected</w>
trans forma
te e</w>
symp tom
supp ose</w>
sel s</w>
sav ings</w>
robo tic</w>
rene w
push ed</w>
pat ent</w>
paint ings</w>
p ack</w>
over all</w>
out comes</w>
op posed</w>
inter nal</w>
inter active</w>
insp ire</w>
her oes</w>
entreprene urs</w>
el ev
dom estic</w>
concep ts</w>
ath le
after noon</w>
ac les</w>
Wom an</w>
W ill</w>
Christ mas</w>
2 3</w>
19 th</w>
y ard</w>
v or</w>
sugge sts</w>
ridi cul
re comm
pur su
psycho logical</w>
pe ace
p y
p apers</w>
ori ties</w>
mon keys</w>
main tain</w>
la dies</w>
ign ore</w>
han g</w>
fortun ate</w>
electr onics</w>
crimin al</w>
co ol
clou ds</w>
cli mb</w>
ci enti
ch ap
bl ed</w>
auth ority</w>
aff ord
acces sible</w>
S ol
S cience</w>
Mus eum</w>
J une</w>
J es
C al
Bos ton</w>
Ad am</w>
whe el</w>
wan ting</w>
ul ty</w>
sp inal</w>
r yp
profes sion
po orest</w>
po cket</w>
pl as
pl ans</w>
pain ful</w>
pa tho
os is</w>
off ered</w>
n els</w>
multi -
mi d</w>
li ver</w>
lat est</w>
ki lo
intui tive</w>
infin ite</w>
il le</w>
i um</w>
i ed</w>
hon est
gra b</w>
gr ass</w>
flo ating</w>
ele ment</w>
ec e</w>
dia be
destro yed</w>
de partment</w>
cour t</w>
col ony</w>
ch art</w>
b an</w>
b ags</w>
apart ment</w>
ac qu
P ark</w>
Musli ms</w>
F our</w>
tr end</w>
tici an</w>
ter ing</w>
ta x</w>
t y-
t ap
some what</w>
sear ching</w>
repres ented</w>
ra dic
preci sely</w>
pol ar</w>
pas sing</w>
paradig m</w>
mis sed</w>
m ess</w>
lun g</w>
li ze</w>
inv ent
ing -
her self</w>
h ost</w>
expec tations</w>
exist ed</w>
es is</w>
dro ve</w>
dio xide</w>
contr ast</w>
consum ers</w>
con centr
co ck
bro w
ag ement</w>
Isla m</w>
D u
C ha
7 0s</w>
2 7</w>
tre ating</w>
t at
st ands</w>
spl it</w>
r and
par king</w>
o logists</w>
neur on</w>
mi ser
ha m</w>
gr and</w>
gi ble</w>
gen u
fru it</w>
fir m</w>
f ed</w>
ex ecu
embed ded</w>
dra wn</w>
dec line</w>
d ust</w>
cos mo
con tra
comfor t</w>
automa tically</w>
astron om
appli cation</w>
Pro ject</w>
N .</w>
M ary</w>
La tin</w>
B ur
whi st
u gly</w>
tri c</w>
t ar</w>
so- called</w>
smar t
sh ark</w>
reas on
proper ly</w>
pos t-
partic le</w>
p are</w>
n est</w>
loo p</w>
j ected</w>
inv ite</w>
hu mor</w>
gu il
graph ics</w>
fascin ated</w>
fa ke</w>
f ounded</w>
experi encing</w>
e igh
dra matically</w>
communi cations</w>
col um
ax is</w>
ab use</w>
T er
Pakist an</w>
O lymp
D ec
9 0s</w>
6 5</w>
wh erever</w>
vi br
ul ate</w>
tu s</w>
tu m
toil et</w>
t ories</w>
su icide</w>
sti cks</w>
se as</w>
satellit es</w>
produc tivity</w>
pre fer</w>
poli o</w>
plan ted</w>
pas sen
mini ster</w>
metho ds</w>
lo vely</w>
l oud</w>
inter actions</w>
hi p</w>
happ i
gr ay</w>
foot ball</w>
fin ance</w>
fi xed</w>
fe ature</w>
ess ence</w>
er ies</w>
ene my</w>
el a</w>
descri p
dep ending</w>
con stitu
commit ment</w>
classi c</w>
chrom os
cho osing</w>
capit alism</w>
bur n</w>
birth day</w>
b alls</w>
ast on
accep ted</w>
O ce
Glob al</w>
G et</w>
E d
D el
wee k
v est</w>
v a</w>
un comfortable</w>
uc k
travel ed</w>
til ity</w>
the less</w>
symptom s</w>
symbo l</w>
su rely</w>
spea ker</w>
si zed</w>
sho ck</w>
s ession</w>
repor ted</w>
re r</w>
r ar
privile ge</w>
practic es</w>
pos es</w>
po ol</w>
person ality</w>
or chestr
op ia</w>
mechan isms</w>
in fl
in ch</w>
imag ing</w>
ide al</w>
fro zen</w>
friend ly</w>
enter tainment</w>
elec tions</w>
des k</w>
cu te</w>
conven i
con trac
co m</w>
clas ses</w>
care ful</w>
cap tured</w>
behavi oral</w>
ac compli
U. N.</w>
Re ally</w>
N ext</w>
Joh n
H ouse</w>
G ener
B on
B G</w>
y outh</w>
wh ereas</w>
ti red</w>
ter ies</w>
t- hand</w>
su per</w>
soli d</w>
so ft</w>
se where</w>
sa tion</w>
s now</w>
s ne
ri f
ri ce</w>
rec ru
pres ented</w>
pic king</w>
philosop hy</w>
over come</w>
mil k</w>
met abo
ment ally</w>
me et
meet ings</w>
main ly</w>
ma ker</w>
m ice</w>
lim it</w>
lay ers</w>
l ens</w>
j un
hun gry</w>
h att
h at
glob alization</w>
ec tor</w>
divi ded</w>
divi de</w>
desig ns</w>
contribu te</w>
conflic ts</w>
com man
au di
att ached</w>
all -
ali en</w>
adverti sing</w>
ab und
Wi ki
S ar
O ther</w>
J a
Inter national</w>
D an</w>
B e</w>
. D.</w>
- and-
w l</w>
vis ited</w>
v able</w>
t asks</w>
ster e
s lu
po p</w>
paral y
p ost</w>
p ed</w>
m .</w>
life style</w>
incenti ves</w>
in n
hun ger</w>
hot el</w>
he a
g in</w>
el sewhere</w>
dist ant</w>
den sity</w>
celebr ate</w>
bro thers</w>
be e</w>
b al</w>
an ia</w>
algorith m</w>
adap t</w>
ad ing</w>
achiev ed</w>
ac cumul
Uni on</w>
R IS
P ole</w>
M R
J er
H i</w>
Gre en
B ay</w>
Antarc tica</w>
Ab out</w>
A R
1 9</w>
. m.</w>
vari ation</w>
tu be</w>
ti ed</w>
ta g</w>
sur geon</w>
stand ards</w>
shoul der</w>
sha me</w>
sh ut</w>
ru pt</w>
ro ot</w>
repres en
rela tions</w>
r y
om es</w>
is s</w>
identi cal</w>
histor ical</w>
hear ts</w>
ge ous</w>
ge ome
g y
fer ti
extr act</w>
exhibi tion</w>
ex posed</w>
ell o</w>
eleph ant</w>
econom ists</w>
docu ments</w>
dis orders</w>
der al</w>
d ding</w>
d ated</w>
cy ber
con clu
brea thing</w>
b a</w>
archit ects</w>
W all</w>
T or
P an
Man hatt
L it
Kore a</w>
D H</w>
Bi ble</w>
B ang</w>
Atlan tic</w>
A h</w>
well- being</w>
w and
vill ages</w>
un its</w>
ti p</w>
str angers</w>
spir it
sa m
ro cket</w>
ri st</w>
respon ses</w>
re ments</w>
psy ch
pros per
po wers</w>
pha se</w>
per cep
oran ge</w>
ob st
neighbor hoods</w>
ne ts</w>
mi d-
in ju
gn ity</w>
g in
en tr
e k</w>
direc tions</w>
de gra
d am
cop es</w>
contro lling</w>
co -
blo g</w>
ba th
b ucks</w>
b ill</w>
auton om
ap pl
anima tion</w>
T ex
P u
No thing</w>
Manhatt an</w>
G ol
1 4
1 3
wh ale</w>
we ak</w>
vi sit
ta tive</w>
se ed</w>
rac ing</w>
prot ecting</w>
pro per</w>
prin ted</w>
mi es</w>
leg acy</w>
las er</w>
lan ded</w>
inve sting</w>
integr ated</w>
ini an</w>
hous ing</w>
h ren
fund ed</w>
f are</w>
earth qua
dolph ins</w>
dimen sion</w>
di ve</w>
destro y</w>
cor respon
colleag ue</w>
col ate</w>
circu it</w>
cha os</w>
cap ability</w>
bro wn</w>
bra ve</w>
beli efs</w>
at tribu
ar med</w>
aliz ing</w>
al d</w>
afford able</w>
ad ding</w>
T ell</w>
Stan ford</w>
Pe ter</w>
Bas ically</w>
200 5</w>
20 11</w>
vot ed</w>
vir tually</w>
ver ies</w>
univer sities</w>
tion -
thro wn</w>
thir ds</w>
t ability</w>
stor m</w>
sing ly</w>
sil ent</w>
sha ke</w>
sam ples</w>
s ke
re plac
rand om
py ra
progra mming</w>
power ed</w>
p ure</w>
out put</w>
optimi stic</w>
ne ural</w>
mamm als</w>
li a</w>
la id</w>
im men
i ons</w>
hor se</w>
h il
h anging</w>
ful l-
f oun
f at
f an</w>
ex pedi
ev el
en z
en th
emp ha
e ar</w>
di gnity</w>
dedi cated</w>
cruc ial</w>
compon ent</w>
clin ic</w>
ca ts</w>
c ow</w>
be ach</w>
back wards</w>
W a
T en</w>
S er
Marti n</w>
G ra
G a
F oundation</w>
B ab
year- olds</w>
wor thy</w>
win dows</w>
vol can
vir al</w>
ul f</w>
tri ck
to ber</w>
sun light</w>
squ e
sp ar
sk ull</w>
si sters</w>
se ven
prob ability</w>
open- source</w>
need le</w>
my th</w>
meas uring</w>
le l</w>
journ alist</w>
ic a</w>
gra in</w>
glob ally</w>
ga ther</w>
g am
ell ed</w>
ear n</w>
di plom
def ense</w>
cri tici
cr y
cr ash</w>
cha mp
certain ty</w>
ce iling</w>
capit a</w>
calcul ate</w>
c enti
be have</w>
ban ks</w>
b low</w>
auth or</w>
anxi ety</w>
Vo ice</w>
S un
Ri o</w>
R ec
P ol
Oc tober</w>
No bel</w>
N G
H om
An y</w>
z ar
y i
ver tical</w>
ush ed</w>
t ab
s ki
ru b
rom an
religi ons</w>
rel ation</w>
produc es</w>
pres entation</w>
pi one
pi g</w>
p uni
micro bes</w>
m on</w>
le tting</w>
lap top</w>
kill er</w>
it e
insp iring</w>
impro vement</w>
ill usion</w>
ig nor
hu m</w>
govern ance</w>
fr ac
forma l</w>
flu id</w>
fav or</w>
ear ch</w>
e ded</w>
di ver
determin ed</w>
co operation</w>
cei ved</w>
ca tes</w>
c ous
appar ently</w>
ag ency</w>
a ment</w>
S k
P R</w>
Oce an</w>
O x
N at
Hol lywood</w>
G ive</w>
200 4</w>
y l
vot ing</w>
under lying</w>
under ground</w>
ul tra
u mb
tech n
sub tle</w>
se l</w>
scri pt</w>
reve al</w>
ra ft</w>
provi des</w>
pol y
pain ted</w>
p ink</w>
ol dest</w>
licen se</w>
l uck</w>
inten ded</w>
in y</w>
i e</w>
har m</w>
har dly</w>
gran ted</w>
for mul
foc using</w>
f ought</w>
f it
ess ing</w>
es the
end a</w>
en tered</w>
ec k</w>
diagnos ed</w>
di verse</w>
deli vered</w>
d ress</w>
d augh
daugh ters</w>
contro ver
con fron
c ook</w>
bri ef</w>
au r</w>
ans wered</w>
ag encies</w>
addi tional</w>
Th ings</w>
P M</w>
N ature</w>
M os
L E
Isra el
G han
D emo
Chil dren</w>
ves sels</w>
strate gies</w>
stra igh
simul ation</w>
sh ops</w>
see k</w>
se ats</w>
s er</w>
remin ded</w>
refuge e</w>
refl ect</w>
ra p</w>
pur cha
pri ces</w>
predic table</w>
pi ano</w>
per su
per mission</w>
or b
on al</w>
o de</w>
ne ither</w>
mind set</w>
mechan ics</w>
me d
ma gn
life -
is tics</w>
invol ves</w>
in gu
hal f-
habit at</w>
ge ons</w>
g ated</w>
far mer</w>
elec ted</w>
ecosy stems</w>
e ye
dis order</w>
di an</w>
di alo
de fe
cro ps</w>
cop y
contin ues</w>
consequ ence</w>
co ho
chan nel</w>
carto on</w>
bri e
bio logists</w>
arti stic</w>
ag ue</w>
ag gres
acade mic</w>
a ks</w>
Wiki pedia</w>
P en
M oun
Ale x
3 2</w>
wil d
v y</w>
ur ation</w>
un t</w>
transpar ency</w>
transp ort</w>
tim ated</w>
ta p</w>
symme try</w>
spirit ual</w>
smo ke</w>
si de
ser ved</w>
r at</w>
pres sed</w>
pi lot</w>
pi le</w>
photograp hy</w>
perman ent</w>
paral lel</w>
o v
nor thern</w>
mus h
multi p
men tation</w>
li ft</w>
l o</w>
inten se</w>
ingredi ents</w>
inf ection</w>
incre ases</w>
in ations</w>
fa thers</w>
ex cl
es timated</w>
er adi
eng agement</w>
curr ency</w>
contro ls</w>
contra dic
conf used</w>
cir cles</w>
bo ards</w>
bla h</w>
al t</w>
U g
T ru
R evolution</w>
P hi
I .</w>
H en
20 ,000</w>
19 4
y o
tr uck</w>
te a</w>
sp ots</w>
sou thern</w>
smo king</w>
sli des</w>
rar ely</w>
ra ys</w>
r ul
p hi
ob jective</w>
mil len
liber al</w>
heli cop
head ed</w>
h ire</w>
guar an
gu ide</w>
gra ms</w>
frequ ency</w>
fig uring</w>
extin ct</w>
ex ha
en h
en abled</w>
embarr as
dri ll</w>
do x</w>
discus s</w>
disco veries</w>
dis ability</w>
der ly</w>
cr ash
cor n</w>
conv ic
consist ent</w>
confi dent</w>
citiz en</w>
blu e
b ola</w>
as ide</w>
ar ran
anc ers</w>
Wh e
V en
S S</w>
M ay</w>
v ital</w>
usi ons</w>
un believ
tox ic</w>
thi er</w>
terrori st</w>
tele phone</w>
ske p
sco res</w>
sc ales</w>
s ket
ridicul ous</w>
ri cul
reco ver</w>
re turned</w>
re form</w>
ra ti
r on</w>
quar ters</w>
posi tions</w>
pl enty</w>
ong st</w>
off icial</w>
mp tions</w>
mi gration</w>
lo aded</w>
l ecture</w>
kne e</w>
ins ect</w>
inclu des</w>
igh ts</w>
her o
grav it
gl asses</w>
for gotten</w>
foot print</w>
fab ulous</w>
exc ell
en sure</w>
e es</w>
do z
diag ram</w>
demonstr ate</w>
deb t</w>
de x</w>
cr y</w>
construc ted</w>
com e
be long</w>
aw k
am ongst</w>
al coho
Wil li
T ra
S or
Mic ros
Li b
L ar
Ital y</w>
In deed</w>
Ha iti</w>
F lor
Egyp ti
B I</w>
Arab ic</w>
8 0s</w>
whe el
trage dy</w>
tex t
ta x
t our</w>
simpli city</w>
sho oting</w>
sac red</w>
s or</w>
ri vers</w>
preci se</w>
physici st</w>
p es
organiz ing</w>
op ens</w>
neuros cience</w>
monit or</w>
mi xed</w>
line ar</w>
lin ks</w>
ing dom</w>
ha m
fri gh
fra g
fore station</w>
fi ber</w>
fail ing</w>
fac ial</w>
exp anding</w>
ex ception</w>
enc ryp
ell er</w>
di ving</w>
di g</w>
d ges</w>
consu me</w>
compe te</w>
bound aries</w>
as ive</w>
app le</w>
air craft</w>
adv ance</w>
Tex as</w>
T ri
Rob ert</w>
P or
9 5</w>
1 2
victi m</w>
trans fer</w>
tr ends</w>
the ories</w>
syn thetic</w>
sy mb
st ag
she et</w>
ri cher</w>
res on
repe at</w>
r ab
prin ter</w>
pri mi
pre pare</w>
pass words</w>
p lot</w>
na ked</w>
me al</w>
m uni
flo ws</w>
fli p</w>
exten ded</w>
expan sion</w>
et ro
di str
datab ase</w>
character istics</w>
c tic</w>
bla me</w>
ber t</w>
be gun</w>
b acks</w>
assu mptions</w>
after wards</w>
Z i
R ome</w>
MR I</w>
J en
Fri day</w>
A .</w>
A -
3 0s</w>
wit n
th ick</w>
symb ols</w>
super -
spo ken</w>
sle eping</w>
sla very</w>
sk y
sh r
sac rif
resi stant</w>
resc ue</w>
re con
r ings</w>
qu ali
prom ote</w>
primar ily</w>
pre h
pos ter</w>
par tly</w>
pa irs</w>
ou ri
orig in</w>
od ds</w>
obser vation</w>
mus cles</w>
ma gical</w>
lu x
lo cated</w>
k ni
j am
inst inc
inev itable</w>
i le</w>
i ans</w>
h oo
gr ab
g ases</w>
fin ds</w>
fil ter</w>
ex tend</w>
eth ical</w>
dis ap
dir ty</w>
diabe tes</w>
deser ve</w>
dark ness</w>
cros sing</w>
contr act</w>
concer n</w>
be ars</w>
bar re
b att
an nu
ag enda</w>
ad ol
ad minist
Ug anda</w>
Satur n</w>
S pan
R om
Isla mic</w>
F u
F ort
E bola</w>
CE O</w>
Bo b</w>
B F</w>
B C</w>
. C.</w>
y al</w>
w inning</w>
ul ation</w>
treat ments</w>
ti zed</w>
ten sion</w>
teenag ers</w>
struggl ing</w>
st ops</w>
spea kers</w>
sculp ture</w>
regi me</w>
predic ted</w>
pre mi
photograp her</w>
phil anthro
per si
par ties</w>
ow ned</w>
origin ally</w>
obe sity</w>
o k
nur ses</w>
ni ght
mos quit
min ing</w>
lo red</w>
inve sted</w>
instruc tions</w>
in i</w>
in formed</w>
il er</w>
i ous</w>
i P
gon na</w>
g ut</w>
flexi ble</w>
fab ric</w>
f ear
ex cep
engine ered</w>
e ball</w>
dep th</w>
deli ber
clos est</w>
ca sh</w>
c s</w>
c c
brea ks</w>
b ars</w>
ate ful</w>
as sign
arri ve</w>
announ ced</w>
analy ze</w>
an ony
aff ects</w>
ace u
acci dents</w>
Tit an</w>
Ti me</w>
Se a</w>
Pri ze</w>
Gre en</w>
Con go</w>
2 50</w>
- based</w>
w oo
un clear</w>
un able</w>
transpar ent</w>
terrori sts</w>
t led</w>
st or</w>
st ones</w>
spi der</w>
skele ton</w>
shar ks</w>
s its</w>
ro ws</w>
revol u
res sing</w>
re in
rap id</w>
qu alities</w>
prototyp e</w>
physici an</w>
ow ner</w>
oper ations</w>
o ft</w>
my steri
min gly</w>
ma il</w>
m ou
m m</w>
law yer</w>
la be
journ alists</w>
isol ated</w>
initi al</w>
hypo the
gun s</w>
go od
gene tically</w>
f ts</w>
emer ged</w>
docu ment</w>
con temporary</w>
co in</w>
bicy cle</w>
arch y</w>
ap o
Sou thern</w>
Si licon</w>
M om</w>
y ours</w>
wit ness</w>
volunte ers</w>
vie wing</w>
trau ma</w>
t ears</w>
stron gly</w>
sto res</w>
st ages</w>
spectac ular</w>
sh ell</w>
se y</w>
s .</w>
repres entation</w>
repor ts</w>
reli able</w>
primi tive</w>
offic er</w>
off ici
min ated</w>
micro -
m -
li kes</w>
l es
immedi ate</w>
id a</w>
gu i
grand children</w>
gar bage</w>
g ust</w>
frustr ated</w>
fri ger
fif th</w>
explos ion</w>
exc it
ex trac
ex ternal</w>
enth usi
ele g
el ite</w>
down load</w>
dialo gue</w>
depres sed</w>
cry st
copy right</w>
clu ster</w>
ci ous</w>
ch ron
c us
c in</w>
brie fly</w>
bio diversity</w>
bi c</w>
b y-
b ound</w>
at a</w>
argu ments</w>
and er
air planes</w>
ai ms</w>
Vi et
Micros oft</w>
Jes us</w>
197 0s</w>
z z</w>
wi red</w>
wh o
we al
ver sions</w>
tum ors</w>
trans late</w>
tra jec
top s</w>
thre w</w>
tal s</w>
tack le</w>
t ank</w>
t ancy</w>
suff ici
st oc
sion ally</w>
rou te</w>
rit u
re st
re friger
qu it</w>
publi c
pharm aceu
p ace</w>
or a</w>
n -
mo de</w>
min im
mi dd
meth ane</w>
meas ures</w>
mar ry</w>
ir on</w>
interest ingly</w>
in k
identi fied</w>
i lities</w>
han ded</w>
gi le</w>
fac ilities</w>
fa st
expon ential</w>
eleph ants</w>
ed ges</w>
dy nam
dra gon
dis appeared</w>
d i</w>
cor als</w>
con tains</w>
comp rom
com mon
cl aim
cer ti
be er</w>
be e
anthro po
a to</w>
Wh ite</w>
S ur
S qu
S im
Phi li
Ma ke</w>
H y
H on
E ver
D uring</w>
C ap
200 3</w>
00 0-
y an</w>
ur a</w>
un g</w>
thro wing</w>
surpri singly</w>
success fully</w>
stro ke</w>
sta irs</w>
smar ter</w>
sil ly</w>
sh ots</w>
secre ts</w>
scho ol
ro lling</w>
re al-
re act</w>
r ush</w>
pre fer
pengu ins</w>
particip ation</w>
p ound</w>
os en</w>
op y</w>
mer ely</w>
medi cation</w>
mb ling</w>
magn itude</w>
lun gs</w>
lim it
lim b</w>
li ve
less ly</w>
lea p</w>
laugh ing</w>
l it</w>
inter viewed</w>
industri es</w>
in tr
imag ery</w>
im mer
hi cal</w>
fac tories</w>
f illing</w>
expla ining</w>
ed a</w>
e mber</w>
e ast</w>
dri vers</w>
disp os
deta iled</w>
de vast
cho colate</w>
char ity</w>
chan nels</w>
b in</w>
autonom ous</w>
attr act</w>
an der</w>
agree ment</w>
Z e
T r
Ph il
P r
N ations</w>
Ghan a</w>
Dec ember</w>
3 3</w>
20 12</w>
198 0s</w>
zer o-
was h</w>
w anda</w>
v acu
survi ved</w>
sur faces</w>
sugge sting</w>
sto red</w>
separ ated</w>
qu est</w>
pyra mid</w>
pul ling</w>
psy chi
peri ods</w>
motiv ated</w>
mo bility</w>
ligh ting</w>
le verage</w>
innov ations</w>
human itarian</w>
histor ic</w>
head ing</w>
gol den</w>
frigh ten
fr action</w>
fin ed</w>
fe deral</w>
ev alu
enter pri
encoun ter</w>
en for
en de
earthqua ke</w>
d ented</w>
cros s-
cos mic</w>
con cent
competi tive</w>
com et</w>
chi ps</w>
ca s
assemb ly</w>
activi sts</w>
Wi thin</w>
Wi th
Whe ther</w>
W at
V er
S om
R wanda</w>
P l
M ag
H el
G ulf</w>
E thi
B lack</w>
200 6</w>
199 0s</w>
1 0-
ve mber</w>
un prece
tr ucks</w>
threat ened</w>
thre ats</w>
tar gets</w>
shel f</w>
sha dow</w>
sh u
radic ally</w>
prison ers</w>
poin ting</w>
po le</w>
pi gs</w>
ot a</w>
ograp hic</w>
o gen
nutri ents</w>
ner ve</w>
knowle d
j ection</w>
impro ving</w>
ic ked</w>
happi er</w>
hack ers</w>
fla g</w>
fe males</w>
esc ence</w>
eri an</w>
emplo yment</w>
ec raft</w>
doz ens</w>
dec l
custom er</w>
cur ricul
crimin als</w>
connec tivity</w>
chimpanz ees</w>
categ ory</w>
categ ories</w>
bro ad</w>
b oun
au dio</w>
astero id</w>
as pi
arr ay</w>
arr ator</w>
ar do</w>
al ty</w>
adop ted</w>
ad vo
achiev ement</w>
With out</w>
W as</w>
T es
Res earch</w>
N arrator</w>
M or
M e</w>
Gree k</w>
Bu dd
8 00</w>
7 00</w>
200 1</w>
2 9</w>
wel come</w>
unprece dented</w>
u ti
tri cks</w>
the ore
ter rit
suppor ted</w>
sum mar
sugge sted</w>
struc tural</w>
st ability</w>
soldi er</w>
sens ory</w>
sen ior</w>
s mil
ree fs</w>
reduc ed</w>
re d
re actions</w>
pl ed</w>
per pe
per ceive</w>
or ous</w>
obser ve</w>
motiv ation</w>
min d-
man s</w>
ma ster
ma d</w>
list ened</w>
jus ti
is lands</w>
intu ition</w>
ho li
h itting</w>
h all</w>
fast est</w>
explo red</w>
excit ement</w>
ex pos
emer ge</w>
el ed</w>
e go</w>
dis abled</w>
dinos aur</w>
di c</w>
de ly</w>
de fault</w>
d ency</w>
con tain</w>
con sul
comm ents</w>
coll ectively</w>
chan ces</w>
ch osen</w>
ca ta
an ni
an ic</w>
air port</w>
a is
S ing
S W</w>
Rus sian</w>
Ri ver</w>
P rot
Mo on</w>
M ad
Je wish</w>
Is land</w>
Gir l</w>
Cam bridge</w>
C our
Ac t</w>
A ir
3 .
19 0
yp e</w>
wi d
wash ing</w>
u bi
transl ated</w>
trans mission</w>
ti les</w>
ter ror</w>
t one</w>
t ate</w>
str eng
sta tic</w>
she ets</w>
sh ine</w>
ser ving</w>
ro wing</w>
rhyth m</w>
restri c
resili ence</w>
r ent</w>
pu mp</w>
pro jec
pres sion</w>
plan etary</w>
p ir
ou ter</w>
orig ami</w>
o logist</w>
nit ure</w>
nar row</w>
mi ze</w>
mb led</w>
mat ri
it ate</w>
inj ury</w>
im migr
ic on</w>
hun ting</w>
h ey</w>
g a</w>
f es
extin ction</w>
establi shed</w>
er o</w>
el derly</w>
de forestation</w>
d ating</w>
cre di
corpor ations</w>
co vering</w>
cata stro
camp us</w>
bu ried</w>
blo ck
bl ack
bi zar
bas eball</w>
b oss</w>
b end</w>
b ats</w>
at ar</w>
arre sted</w>
anat omy</w>
ag er</w>
Sh ould</w>
S he
R ed</w>
La w</w>
La b</w>
L ist
Is n</w>
G ar
F er
Christi an</w>
B run
Ar ctic</w>
20 s</w>
1 20</w>
, 500</w>
writ ers</w>
wor ms</w>
w age</w>
tra ins</w>
to ys</w>
terri fying</w>
teles copes</w>
shif ting</w>
sh opping</w>
sex y</w>
scen ario</w>
res ses</w>
repli cate</w>
regre t</w>
re cep
pro pos
pro be</w>
pret end</w>
po et</w>
peace ful</w>
p ap
o th
navi gate</w>
na tives</w>
musici ans</w>
mag nific
m ut
la bel</w>
ji had</w>
impro ved</w>
hi er
ha i</w>
h ill</w>
gather ing</w>
gather ed</w>
fra gile</w>
far ming</w>
expec tancy</w>
di stor
compar ison</w>
com preh
climb ing</w>
bur den</w>
bra in
blo wing</w>
bizar re</w>
beauti fully</w>
at ers</w>
arti cles</w>
ab and
a king</w>
Yor ker</w>
Un til</w>
Sor ry</w>
Scot t</w>
S al
S E
R B</w>
Qu e
Ox ford</w>
Mini ster</w>
M other</w>
M is
M er
F ree
Car ol
Bl ue</w>
B ush</w>
B ack</w>
A m</w>
. com</w>
y fish</w>
win ds</w>
wi dely</w>
to cin</w>
tissu es</w>
tion ality</w>
ti ze</w>
the ast</w>
suff ered</w>
su its</w>
story telling</w>
stay ing</w>
st ine</w>
sent ences</w>
sch iz
ritu als</w>
reven ue</w>
reduc tion</w>
re minds</w>
prof ound
profound ly</w>
pro file</w>
predic tions</w>
physici sts</w>
photograph ed</w>
p ing</w>
nutri tion</w>
mysteri ous</w>
mos pher
mis sion
min al</w>
mar ks</w>
m apping</w>
l ou
k n
intri gu
initi ally</w>
imp acts</w>
ig no
hi p
har m
ha bit</w>
fin ger
enter ing</w>
dolph in</w>
disc ri
dis rup
demon stration</w>
deman ds</w>
circu its</w>
chi ef</w>
chap ter</w>
cha irs</w>
car t</w>
ca ves</w>
at tle</w>
at titude</w>
ar cha
ag ents</w>
adv enture</w>
V ic
So vi
Si x</w>
S pain</w>
Nor thern</w>
Mar ch</w>
M y
J im</w>
H al
Fr ank</w>
Flor ida</w>
F ord</w>
D on
C y
Bo y</w>
2 8</w>
, 000-
weap on</w>
wat ers</w>
war ning</w>
up set</w>
tun a</w>
trans plant</w>
trac ks</w>
ten ds</w>
syn the
suppor ting</w>
sub way</w>
su gg
sti cal</w>
soci ally</w>
simul taneously</w>
she ep</w>
sh ore</w>
see king</w>
se t
sci ences</w>
sand w
reco very</w>
qui to</w>
prosper ity</w>
profession als</w>
prin ts</w>
previ ously</w>
preser ve</w>
preci ous</w>
perfor med</w>
pe er</w>
pa th
our ing</w>
ordin arily</w>
opti mism</w>
nur se</w>
mir acle</w>
lo ving</w>
la ke</w>
l ot
kin son</w>
honest ly</w>
he al</w>
gar age</w>
fur niture</w>
fun ds</w>
fi res</w>
en ables</w>
e pi
e aten</w>
dra wings</w>
domin ant</w>
disco vering</w>
di lem
descrip tion</w>
deli very</w>
dec re
d ressed</w>
d or</w>
d entally</w>
cu ts</w>
comb at</w>
cli ents</w>
char ged</w>
carto ons</w>
cap abilities</w>
br is</w>
bo red</w>
b un
b or</w>
antibio tics</w>
alcoho l</w>
ag gre
ag ent</w>
Or gan
N one</w>
Ar gent
3 0,000</w>
2 6</w>
z e
work force</w>
vie wer</w>
vi bra
ver s
v ille</w>
unbeliev able</w>
um b</w>
tr a</w>
titu des</w>
ter ly</w>
tal ent</w>
ta tional</w>
sus pen
stran ger</w>
spac ecraft</w>
shi pping</w>
schiz op
scan ning</w>
rob ust</w>
ri l</w>
rema ining</w>
real m</w>
r i</w>
pur poses</w>
predic tion</w>
par as
p ort
oxy tocin</w>
ot ed</w>
n es
mos quito</w>
may or</w>
lux ury</w>
li ed</w>
lar ge-
lan ding</w>
l ls</w>
k es
ju mped</w>
it er
is ing</w>
inve stors</w>
inst antly</w>
insi ghts</w>
hop es</w>
hear t
heal thier</w>
har vest</w>
hall uc
h ated</w>
great -
grand parents</w>
gener ous</w>
exten sion</w>
ent y-
ed ly</w>
ec ological</w>
dom s</w>
dist ingu
diagnos is</w>
dia c</w>
dama ged</w>
dam n</w>
cy cles</w>
correc tly</w>
consci ously</w>
conclu de</w>
collabor ative</w>
bur ned</w>
bu b
bru ary</w>
bio logist</w>
bath room</w>
auth or
au g
archit ec
appl ying</w>
U S
Span ish</w>
Sahar an</w>
M ark</w>
Lit tle</w>
H ello</w>
Gr and</w>
Gener al</w>
Fe bruary</w>
C ra
Ari st
Afric an-
0 .
. A.</w>
- making</w>
wor e</w>
win d
wi der</w>
wa i
vi ously</w>
ur ban
ubi quit
ubiquit ous</w>
tr ash</w>
tr ace</w>
tic ket</w>
ti ps</w>
ti me-
th west</w>
th al</w>
tar ge
sp ort</w>
scen es</w>
renew able</w>
reduc ing</w>
realiz ing</w>
r ats</w>
pan el</w>
obser ved</w>
near by</w>
midd le-
k ick</w>
it er</w>
i ca
human -
home work</w>
guil ty</w>
gentle man</w>
fi bers</w>
fant as
f ted</w>
exp ecting</w>
enfor cement</w>
encoura ged</w>
en a</w>
ec tors</w>
dom ain</w>
dist urb
defin ing</w>
curricul um</w>
cre w</w>
conver t</w>
continu ous</w>
co lored</w>
clos ing</w>
c o</w>
by e</w>
br a</w>
bl ank</w>
bene ath</w>
b adly</w>
autom o
at mospher
assu mption</w>
asse ts</w>
ari ties</w>
air s</w>
activi st</w>
ac hu
ab y
T echnology</w>
N ever</w>
M and
J on
G and
F BI</w>
E astern</w>
D an
Coun cil</w>
Chil d</w>
B oth</w>
Arist ot
Al though</w>
20 50</w>
wild life</w>
we dding</w>
w ill
ti se</w>
ta ined</w>
sp in</w>
some day</w>
sh it</w>
roman tic</w>
re ha
publi sh</w>
prop ag
pro pose</w>
pic k
pi x
par ks</w>
p acked</w>
open ness</w>
o red</w>
me ta
jud gment</w>
j ell
it age</w>
immen se</w>
glam orous</w>
gar d
fl ash
ferti liz
femin ist</w>
fac ility</w>
experim ental</w>
ere k</w>
electr on</w>
edu cate</w>
dr ones</w>
diffic ulty</w>
colon ies</w>
clo thing</w>
cl aims</w>
che ese</w>
ch r
ca ke</w>
bu g</w>
be sides</w>
ac ies</w>
a tic</w>
X- ray</w>
Syri a</w>
Squ are</w>
Sm ith</w>
Ph .D.</w>
Ob viously</w>
L ong</w>
Is lands</w>
Ha wai
G ore</w>
Des ign</w>
D erek</w>
Col le
6 ,000</w>
z ones</w>
vacu um</w>
un likely</w>
un certainty</w>
trans mit</w>
trajec tory</w>
to w
th umb</w>
t sun
sub si
star ing</w>
sil ver</w>
schizop hren
san itation</w>
sa fer</w>
run k</w>
rememb ering</w>
re placed</w>
passen ger</w>
para dox</w>
par achu
or an</w>
om ics</w>
off ering</w>
oc curr
ni ghts</w>
newsp apers</w>
ne ys</w>
ne at</w>
n om
monit oring</w>
magnific ent</w>
lo ads</w>
li ce</w>
legi sl
kni fe</w>
ki ly</w>
k i</w>
imag ining</w>
ide ology</w>
ic e
house hold</w>
hom eless</w>
hi red</w>
h ers</w>
ful ness</w>
f oods</w>
f ing</w>
f ate</w>
ev in</w>
er rors</w>
equ ations</w>
entreprene ur</w>
ent ro
dragon flies</w>
dr one</w>
distri ct</w>
di am
constra ints</w>
concer ns</w>
compas sionate</w>
comm and</w>
com mod
com ment</w>
cl ay</w>
chromos ome</w>
ca tal
bur st</w>
buil ds</w>
blin dness</w>
bin ary</w>
b os
aston ishing</w>
as m</w>
appro aches</w>
ambi tious</w>
ama z
al titude</w>
agri cultural</w>
ad ays</w>
accoun ts</w>
ac tively</w>
a de
Wh at
St ar
Pro f
P ut</w>
M as
Le on
Ital ian</w>
G ates</w>
E du
D ut
D ou
D A</w>
Bu il
- of-
wo ke</w>
vi al</w>
ve ter
va cation</w>
v enture</w>
v ations</w>
tradi tions</w>
tra its</w>
tou ching</w>
ti er</w>
ten dency</w>
ta ining</w>
t esti
stor age</w>
st ly</w>
small est</w>
shar p</w>
sh or
sal es</w>
sacrif ice</w>
s per
reli ef</w>
reg ard
regard less</w>
refl ection</w>
reci pe</w>
reason able</w>
real istic</w>
ra tions</w>
proce d
proced ure</w>
pos ted</w>
pit ch</w>
pi e</w>
p it</w>
p al</w>
ori al</w>
on a</w>
ograp hy</w>
occur s</w>
nu ts</w>
micro phone</w>
ly n</w>
ligh ten
li hood</w>
landsc apes</w>
key board</w>
influ enced</w>
inclu ded</w>
im provi
i gh</w>
help ful</w>
head lines</w>
ha bits</w>
g os
exper tise</w>
dy s
dic tionary</w>
der i
cro p</w>
cr it
coun ting</w>
commer ci
col or
can opy</w>
can e</w>
campa ig
bom b
bi le</w>
b o</w>
attrac tive</w>
assi stance</w>
ap or
analo gy</w>
am p</w>
ade qu
Th rough</w>
Th ird</w>
Su per
Ste ph
Secon dly</w>
S ir</w>
R ed
Prof essor</w>
M A</w>
L T</w>
Ju ly</w>
H un
G over
Fi f
D a
Colle ge</w>
C ur
Ab solu
5 0s</w>
wi res</w>
what so
whatso ever</w>
ur ge</w>
un cle</w>
u ed</w>
transl ation</w>
teenag er</w>
susp ect</w>
strate gic</w>
smo oth</w>
signific antly</w>
sc ent</w>
safe ly</w>
s wal
ro les</w>
rela tives</w>
ree f</w>
re pu
re fer</w>
re ads</w>
qu ad
prom ised</w>
prof its</w>
pro ved</w>
pre scrip
po ckets</w>
plu g</w>
pla in</w>
p ig
p ants</w>
ot echnology</w>
oper a</w>
off ers</w>
o tion</w>
mo ld</w>
measu rements</w>
me g
m ort
li ament</w>
k o</w>
k able</w>
interpre tation</w>
integr ate</w>
horiz on
helicop ter</w>
hea ven</w>
har ve
h es
gu id
gr ateful</w>
gr as
gl ad</w>
flo wing</w>
ex ce
evel op
es thetic</w>
entro py</w>
en e</w>
dro ps</w>
di al</w>
desper ately</w>
de ar</w>
d or
d op
cr ack</w>
conser vative</w>
comp elling</w>
co vers</w>
cell ular</w>
ca p</w>
bo ld</w>
bil li
believ es</w>
be ating</w>
be ar
barri er</w>
b at</w>
aud it
an ten
alter natives</w>
ad ul
accep table</w>
a er
a c</w>
a .m.</w>
T ali
T .</w>
St ar</w>
Some body</w>
Sh ang
R ay</w>
Medi a</w>
Del hi</w>
De partment</w>
D evelop
Cour t</w>
C u
C re
Be ing</w>
B el
A L
8 5</w>
wand ering</w>
w oods</w>
ver -
v ag
un -
u ality</w>
tri bes</w>
tri be</w>
tim acy</w>
temper atures</w>
t ag
susta in</w>
sus pic
stra tions</w>
ste al</w>
st ays</w>
speci alized</w>
sig nature</w>
si zes</w>
short -
scre ens</w>
re mot
rati o</w>
r ating</w>
pro posed</w>
portra it</w>
per ceived</w>
particip ants</w>
pa use</w>
p in
nu mer
mo od</w>
mi a</w>
mathema ticians</w>
marke t
manipul ate</w>
mam mo
lo ves</w>
lo an</w>
lic it</w>
large- scale</w>
kill s</w>
inv enting</w>
inter ior</w>
inno cent</w>
inf ections</w>
inf ec
high way</w>
heal ing</w>
hard est</w>
gradu ally</w>
ga ined</w>
g ating</w>
g as
fre sh
fall en</w>
fa i
f ancy</w>
extra ordinarily</w>
expla ins</w>
expedi tion</w>
en try</w>
emb ry
ema ils</w>
domin ated</w>
distinc t</w>
descri bes</w>
decre ase</w>
dd enly</w>
d ele
consi der
conduc ted</w>
con front</w>
chec k
believ ing</w>
bed room</w>
b ite</w>
authenti c</w>
audi ences</w>
at omic</w>
assign ment</w>
architec tural</w>
appear ance</w>
angl ad
al istic</w>
adv ances</w>
ad m
a ster</w>
a ca
St or
S pe
O k
N ic
Mic hel
In du
I .
Hi gh</w>
Hen ry</w>
H C</w>
G l
E ric</w>
D ra
Ch an
B il
B anglad
19 60</w>
vari ations</w>
v ant
ush ing</w>
t less</w>
t i</w>
smart phone</w>
simpl er</w>
sho cked</w>
shel ter</w>
sen sing</w>
sel ected</w>
scan ner</w>
s ink</w>
reti rement</w>
requ i
rememb ered</w>
recei ving</w>
re view</w>
re build</w>
pul se</w>
prot est</w>
pros thetic</w>
pol lin
pleas ant</w>
pass word</w>
pan els</w>
pal m</w>
p on
or ph
oo h</w>
off ices</w>
occa sionally</w>
obst acles</w>
mor ality</w>
miser able</w>
minim um</w>
mel t</w>
matri x</w>
main stream</w>
le an
law yers</w>
ki e</w>
introduc tion</w>
inter views</w>
institu tional</w>
in ity</w>
in ery</w>
impres sive</w>
he avi
h h
gravit ational</w>
gr ounds</w>
gi e</w>
fundam ent
fl uc
fi es</w>
ex ag
est ate</w>
en vel
el son</w>
el ly</w>
differ enti
di um</w>
def end</w>
de pic
cur ves</w>
continu ing</w>
con fir
comm it</w>
cl arity</w>
catastro p
car ing</w>
camp s</w>
cal ories</w>
bul b</w>
bran ches</w>
bran ch</w>
bom bs</w>
awk ward</w>
angl es</w>
Ze al
Wh it
T ony</w>
Su ddenly</w>
Sovi et</w>
Ra ther</w>
R NA</w>
Lo ve</w>
La dies</w>
K ar
Hom o</w>
E con
D etro
C ri
C li
C D</w>
Be at
B ron
Absolu tely</w>
A cade
2 4
v enti
tun e</w>
to es</w>
syn dr
succe eded</w>
straigh t
sque e
spea ks</w>
sou p</w>
so ap</w>
see mingly</w>
sc al
research er</w>
re alities</w>
que en</w>
pro ven</w>
pri ority</w>
po int
plat forms</w>
pas sive</w>
pack age</w>
p ene
ow nership</w>
ol ly</w>
mon o
mat ure</w>
mani fe
manag er</w>
mach inery</w>
lon ely</w>
liter acy</w>
k in</w>
interven tion</w>
inten sive</w>
inten sity</w>
inst ant</w>
in dependence</w>
hy bri
go d</w>
geome try</w>
fron tal</w>
fol ding</w>
far ms</w>
eth n
ep is
encoura ging</w>
div or
dis agree</w>
devi l</w>
det ection</w>
demo graphic</w>
cu st
cot ton</w>
controver si
compu tation</w>
comple ted</w>
collap sed</w>
co at</w>
clu b</w>
bu rea
boo k
ble w</w>
bi e</w>
bel ly</w>
b i</w>
as ing</w>
as i</w>
adop t</w>
adap ted</w>
Y oun
What ever</w>
U p</w>
T eles
Se attle</w>
Ne ander
N elson</w>
Mo ore</w>
J ane</w>
Israel i</w>
I ran
F ar
Ex cept</w>
Ethi opia</w>
D s</w>
D re
Cor ps</w>
Chi le</w>
Char lie</w>
Carol ina</w>
Bro ok
Ber lin</w>
A sian</w>
3 6</w>
2 5
196 0s</w>
wh is
volunte er</w>
vi sion
ut terly</w>
tsun ami</w>
tri gg
trans forming</w>
t ary</w>
surr ounding</w>
so le
sne a
ro of
ro ll
reve aled</w>
rap ed</w>
rais es</w>
ra ins</w>
r ape</w>
prepar ing</w>
pot ent</w>
por tion</w>
person alized</w>
on going</w>
neu tral</w>
min es</w>
mas ses</w>
m ously</w>
lo g</w>
limit ations</w>
ligh t
lif ted</w>
le ment</w>
lab s</w>
la p</w>
jell yfish</w>
invest ments</w>
inter net</w>
infec tious</w>
inev it
igno red</w>
gra des</w>
gr ass
got ta</w>
gli mp
ge l</w>
fu r</w>
fluc tu
flu ore
f usion</w>
f its</w>
excell ent</w>
empo wer</w>
electr om
di ves</w>
des cen
deep est</w>
deci sion
d al</w>
cor ners</w>
contin ents</w>
co operate</w>
cli ent</w>
cienti sts</w>
ci g
cha ins</w>
c and
blo wn</w>
bi an</w>
be half</w>
bacter ial</w>
b ond</w>
aud i</w>
au ts</w>
appro aching</w>
appear ing</w>
app y</w>
add ressing</w>
accompli shed</w>
ac knowledge</w>
a the
Zeal and</w>
Ti m</w>
Tali ban</w>
S wis
S top</w>
S till</w>
S pr
S imp
S il
Par kinson</w>
Palest inian</w>
NG Os</w>
Mo z
L uc
K oran</w>
Hu man</w>
Fran k
Brun o</w>
Aristot le</w>
y o</w>
wor rying</w>
us cri
u mp
tro pical</w>
tri gger</w>
tri cal</w>
tra gic</w>
tr apped</w>
tou gh
ti fication</w>
thri ve</w>
thre sho
thresho ld</w>
terri fied</w>
teen age</w>
te dly</w>
suc k</w>
sub st
stret ch</w>
ste pped</w>
sens or</w>
scr atch</w>
sca ff
s enti
robo tics</w>
ri sky</w>
pharmaceu tical</w>
p ill</w>
overwhel ming</w>
ori um</w>
opini ons</w>
n am</w>
mi li
ment or</w>
men ting</w>
me mes</w>
man uscri
man ner</w>
ma tion</w>
m apped</w>
lon g
lo com
la h</w>
incl usive</w>
in duc
in ches</w>
in car
ignor ance</w>
i j
histor ically</w>
go ds</w>
gi vers</w>
gh ted</w>
geograp hy</w>
ge st
g aps</w>
for got</w>
foot age</w>
explo it</w>
ex ec
empo wered</w>
electro des</w>
dro w
destro ying</w>
descri bing</w>
cri mes</w>
cop ic</w>
contr ary</w>
conn ects</w>
class rooms</w>
civi c</w>
candi dates</w>
can v
bre eding</w>
be an</w>
barri ers</w>
b and
appro xim
aggres sive</w>
ad der</w>
ac he</w>
aband oned</w>
Sun day</w>
Sing ap
Shang hai</w>
S ure</w>
S audi</w>
M ur
L ord</w>
K u
K evin</w>
H igh
E s
E mp
Dut ch</w>
D ad</w>
Com pu
Al most</w>
wid th</w>
we t
wat ts</w>
vi sions</w>
ves sel</w>
vege tables</w>
v ary</w>
tran sc
toil ets</w>
ti ble</w>
te en</w>
t ine</w>
subst anti
stri king</w>
straight forward</w>
str ings</w>
stopp ing</w>
sp ra
sp an</w>
sh y</w>
sec tions</w>
sc ans</w>
ro lled</w>
recycl ing</w>
r ose</w>
propor tion</w>
pres sing</w>
po x</w>
plan ting</w>
phenomen a</w>
pas ses</w>
p a</w>
ou ts</w>
ou gh
mon soon</w>
mo tions</w>
mi mic</w>
memb ran
mathema tician</w>
m ics</w>
low est</w>
l en</w>
iz za</w>
ite ms</w>
it em</w>
illustr ate</w>
ick ens</w>
i di
hi ding</w>
h at</w>
gener ating</w>
gen ous</w>
g han</w>
fun g
f ound
electrom ag
ec ology</w>
dra g</w>
dis gu
deplo yed</w>
dec or
de mic</w>
concer t</w>
compu tational</w>
communi cating</w>
collabor ate</w>
clean ing</w>
challeng ed</w>
ca sting</w>
c us</w>
burea uc
bot tles</w>
bon ds</w>
bo ther</w>
bo om</w>
bo di
blo gs</w>
ban g</w>
b ands</w>
athle tes</w>
as i
ar i</w>
ans as</w>
annu al</w>
am ine</w>
advo cate</w>
accur acy</w>
accoun tability</w>
W in
Viet nam</w>
Tur ns</w>
To gether</w>
Teles cope</w>
T y
T om
T anz
Swis s</w>
St age</w>
Sa me</w>
S en
Q a
O l
O ff
Demo cr
Argent ina</w>
Acade my</w>
4 0,000</w>
20 20</w>
20 0,000</w>
&apos; clock</w>
z i
whe at</w>
web sites</w>
wea k
w rist</w>
w ound</w>
vi l</w>
un conscious</w>
u red</w>
ton gue</w>
theore tical</w>
terri bly</w>
t ance</w>
syndr ome</w>
syn ap
supp lies</w>
sub stance</w>
stere otyp
sp ati
slu ms</w>
si der</w>
s ni
ro gen</w>
ret ina</w>
rema ined</w>
refl ected</w>
read ers</w>
rain forest</w>
pursu e</w>
pur suit</w>
prot oc
prot o
pr ay</w>
por ts</w>
plas tics</w>
philosop her</w>
parachu te</w>
pan demic</w>
ot ted</w>
orchestr a</w>
offici als</w>
off spring</w>
ob jec
nec k</w>
mosquit os</w>
medic ines</w>
mb s</w>
ma xi
li sm</w>
labe led</w>
in ser
hypo thesis</w>
her itage</w>
hand ful</w>
h op</w>
gradu ated</w>
glaci er</w>
gl ue</w>
fre ely</w>
fortun e</w>
fol ded</w>
fil es</w>
fail ures</w>
fac il
expan ded</w>
evol ving</w>
esti mates</w>
er als</w>
enz y
en i
econom ist</w>
earli est</w>
docu mentary</w>
dilem ma</w>
dia meter</w>
des k
cul tiv
cul ar</w>
conveni ent</w>
contro ll
consu med</w>
conser va
con sen
cere mony</w>
car ri
car ed</w>
ca su
but ter
br ush</w>
belon gs</w>
be aten</w>
b ol
au ti
att acked</w>
assemb le</w>
are t
ar -
ama zed</w>
al le
al arm</w>
al a</w>
ac knowled
Willi am</w>
Tur key</w>
Stor y
Steph en</w>
Some one</w>
S wit
Qa eda</w>
List en</w>
L .A.</w>
John son</w>
J H</w>
Indu stri
Gre ece</w>
E m
Co ke</w>
Ch urch</w>
Ch o
C os
C RIS
B ol
B en</w>
B M</w>
Au gust</w>
Af ghan</w>
A ge</w>
A M</w>
20 15</w>
- year-olds</w>
y ards</w>
wr apped</w>
wor m</w>
weal thy</w>
war e
w ling</w>
up side</w>
tun nel</w>
techn ically</w>
super market</w>
suffici ent</w>
stu res</w>
stor ms</w>
simpl est</w>
sen sation</w>
se a
sch e
sal t</w>
s ale</w>
re se
pul ls</w>
profes sion</w>
pro -
pri de</w>
pregn ancy</w>
preci sion</w>
pre su
pre me</w>
pe ts</w>
p ecu
occu p
o ci
no ises</w>
ne o
min us</w>
mi xing</w>
m o</w>
lea f</w>
l ec
it an</w>
inter n
inte gration</w>
inf ant</w>
imple ment</w>
imp ul
horiz on</w>
gu ard</w>
gor geous</w>
gen esis</w>
form at</w>
fol ds</w>
fir st-
fil mma
fi red</w>
es cal
er o
enjo yed</w>
end ang
emplo yed</w>
dist ances</w>
discipl ine</w>
dea f</w>
de stri
da wn</w>
d ential</w>
coun ter</w>
consu ming</w>
con tain
climb ed</w>
break through</w>
break fast</w>
bo died</w>
at oes</w>
appro ached</w>
ambi gu
amaz ingly</w>
am bo
ab s</w>
W ol
V -
T I</w>
St asi</w>
Singap ore</w>
New ton</w>
N ick</w>
M in
M W</w>
Leon ardo</w>
L oo
L ad
L a</w>
Jo e</w>
J ack</w>
I ts</w>
Green land</w>
Ge ographic</w>
E .
Detro it</w>
CRIS PR</w>
Bron x</w>
Be ij
Ac cording</w>
6 0,000</w>
195 0s</w>
z ation</w>
y ourselves</w>
war ri
v as
ur able</w>
un happy</w>
ther mal</w>
teach es</w>
te l</w>
t s
sur geons</w>
ster n</w>
st ack</w>
si ans</w>
sh ri
s lower</w>
rub ber</w>
rot ate</w>
ri dge</w>
resi dents</w>
recomm end</w>
r o</w>
psycho logist</w>
pl ates</w>
pi geon</w>
perspec tives</w>
pan ic</w>
p izza</w>
overwhel med</w>
on er</w>
om ing</w>
ol d-
o let</w>
neu tr
near est</w>
musici an</w>
me ga
lo cations</w>
li sts</w>
lam p</w>
ket ball</w>
install ed</w>
initi ative</w>
ing er</w>
incenti ve</w>
in o
hun t</w>
guaran tee</w>
gro cer
gra mma
glam our</w>
gene tics</w>
g ering</w>
g an</w>
far ther</w>
exha u
ent -
encoun tered</w>
en tum</w>
eleg ant</w>
electr ons</w>
dynam ics</w>
dro pping</w>
dre aming</w>
dou bled</w>
desk top</w>
des pair</w>
d ough</w>
d ental</w>
cour ses</w>
conv ey</w>
c a</w>
bub bles</w>
bat teries</w>
ban king</w>
auth orities</w>
astronom ers</w>
assu med</w>
art work</w>
anticip ate</w>
anony mous</w>
an i</w>
am ate
ag e-
addic tion</w>
achiev ing</w>
acceler ate</w>
a u</w>
a be
Wh ereas</w>
So cial</w>
R oc
N et
M R</w>
L ou
L augh
Je ff</w>
Can adi
Bri an</w>
B hu
B A</w>
Ar my</w>
Ap ol
Alex ander</w>
4 0
20 -
19 80</w>
zer land</w>
witn essed</w>
wheel chair</w>
we ed</w>
war mer</w>
vacc in
v ors</w>
underst ands</w>
tu bes</w>
tri vial</w>
tra p</w>
th- century</w>
th us</w>
th r
ta xes</w>
sub mer
sti g
she er</w>
sel fish</w>
sandw ich</w>
s si
s anc
ro w
rit ual</w>
righ t-hand</w>
res ul
requ est</w>
reha bil
re produce</w>
pros tate</w>
program med</w>
prison er</w>
pr osp
poli tically</w>
plan ned</w>
pe op
pe destri
pat ents</w>
paraly zed</w>
par enting</w>
p ouring</w>
p el
ow ners</w>
ong side</w>
ol en</w>
off -
n ity</w>
n ings</w>
n ine
mu d</w>
mot ors</w>
mot h</w>
modi fied</w>
market place</w>
ma xim
li p
l aughter</w>
journ alism</w>
jour nal</w>
install ation</w>
in fr
ic onic</w>
hel pl
hand -
ha mb
ha ir
h es</w>
gras p</w>
gl uc
g ur
fl ash</w>
fab ri
f in</w>
f ence</w>
expres sed</w>
exag ger
es sions</w>
ear ning</w>
e ments</w>
du mb</w>
doub le-
di vision</w>
det ector</w>
deser ves</w>
democr acies</w>
deli cious</w>
decision -making</w>
dec k</w>
de bris</w>
cr yp
cosmo s</w>
cos tu
contribu ted</w>
conduc t</w>
con fig
compe ting</w>
comm un
colum n</w>
co inci
co ach</w>
clu sters</w>
cig aret
car ries</w>
calcul us</w>
bus es</w>
bur gh</w>
broad er</w>
bi ol
ber ry</w>
bas ketball</w>
appe al</w>
ant a</w>
amp li
al ongside</w>
ac ou
ab s
Wa it</w>
Swit zerland</w>
Su pp
St .</w>
S ta
S el
S cr
P ret
P it
Ni ke</w>
N ep
M ac
J our
J ord
H ong</w>
Gover n
Coun ty</w>
Col um
C as
Brook lyn</w>
B it
Apol lo</w>
Ap ril</w>
A ir</w>
3 0-
200 2</w>
199 0</w>
w rest
visu alize</w>
visit ing</w>
vi vi
vi olet</w>
ver ts</w>
val ley</w>
u ps</w>
u min
tri ps</w>
trans fer
to wer</w>
t z</w>
stri p</w>
stre ams</w>
stom ach</w>
stic ally</w>
sp inning</w>
skele tal</w>
sk i</w>
s now
repe ated</w>
regul ation</w>
ref used</w>
realiz ation</w>
re war
re sur
re store</w>
re jected</w>
ra il
pri sons</w>
pres su
predat ors</w>
pre ad</w>
portra its</w>
percep tions</w>
pe ers</w>
part ner
pa ths</w>
p ill
orig ins</w>
ol ine</w>
occurr ing</w>
narra tives</w>
mom entum</w>
mod eling</w>
mi x
me tic</w>
me als</w>
manag ing</w>
lif esp
li fel
l friend</w>
jo int</w>
j et</w>
int on</w>
inju ries</w>
im plant</w>
hon y</w>
high- tech</w>
high light</w>
glimp se</w>
formul a</w>
fish eries</w>
ev apor
es ia</w>
enterpri se</w>
endang ered</w>
emo tionally</w>
el abor
dro p
down town</w>
di gi
dest iny</w>
deci ding</w>
dec lar
de pos
d ose</w>
cros sed</w>
conta ined</w>
concent ration</w>
con qu
cl ue</w>
ce li
canv as</w>
candi date</w>
cal m</w>
bot tom
bo ats</w>
au to
at titudes</w>
at -
ar ded</w>
ans wering</w>
aff airs</w>
ad just</w>
activ ated</w>
Z ero</w>
T re
T ha
S P</w>
Que en</w>
Pret ty</w>
P A</w>
No vember</w>
N SA</w>
M en</w>
M ach
J us
J up
Industri al</w>
Gand hi</w>
Co ast</w>
Banglad esh</w>
B us
Ar chi
7 2</w>
4 8</w>
4 7</w>
3 50</w>
yi eld</w>
worl d-
win ner</w>
visu alization</w>
un ited</w>
u ms</w>
tw ins</w>
th umb
th or
t elec
t ant</w>
t all
stri ke</w>
str ands</w>
stimul ation</w>
st olen</w>
squ ar
sper m</w>
small pox</w>
shor ter</w>
sel ect</w>
ris m</w>
restaur ants</w>
respon ded</w>
resi st</w>
repu tation</w>
rec k
qui e
prot ests</w>
privile ged</w>
poe ms</w>
pecu liar</w>
os es</w>
obser vations</w>
no des</w>
ne tic</w>
na sty</w>
na mely</w>
mu tations</w>
mot or
maxim um</w>
man kind</w>
m ere</w>
loc ally</w>
live stock</w>
liter ate</w>
like lihood</w>
li zing</w>
kne es</w>
k iss</w>
k el
interpre t</w>
inter section</w>
indi genous</w>
indi cate</w>
ici ans</w>
ici an</w>
hop eful</w>
hop ed</w>
home town</w>
ho lo
harm ful</w>
gr at
gluc ose</w>
gener ates</w>
gen oci
fla vor</w>
fl ouri
f way</w>
expres sions</w>
ev al</w>
ethn ic</w>
equ ity</w>
ende av
do od
devast ating</w>
deplo y</w>
de struc
d runk</w>
d enti
d am</w>
credi ble</w>
cre ator</w>
controversi al</w>
continu ously</w>
conduc tor</w>
colli sion</w>
co oper
chimpanz ee</w>
che at</w>
c on</w>
c ally</w>
bound ary</w>
bo y
biol umin
bel t</w>
back yard</w>
b ind</w>
b all
attemp ts</w>
arch i
ar bit
appro ved</w>
an no
abund ance</w>
a- half</w>
Wat son</w>
Sy stem</w>
Si er
R ights</w>
Organ ization</w>
Mi ke</w>
L G</w>
L A</w>
Kore an</w>
K a
Hawai i</w>
H op
El ec
D ru
Christ op
Ca tho
B ot
B ell</w>
Ale x</w>
