#version: 0.2
t h
i n
a n
th e</w>
e r
o s
o u
a t</w>
a p
in g</w>
t o</w>
a r
ap os
& apos
i s</w>
e n
&apos ;
t i
o f</w>
an d</w>
r e
a l
o n
o r
e r</w>
e d</w>
th at</w>
o n</w>
i n</w>
e s</w>
o t
q u
i t
s t
th e
w h
o u</w>
l y</w>
i t</w>
o m
v e</w>
c a
l i
a c
qu ot
quot ;</w>
& quot;</w>
a s</w>
y ou</w>
a t
r o
w e</w>
u s
&apos; s</w>
l e</w>
o r</w>
n d</w>
er e</w>
e n</w>
n o
b e
h a
e l
d i
T h
A nd</w>
e c
m a
r i
e s
th is</w>
l o
a b
i l
a s
g h
ou t</w>
l d</w>
v er
i c
u r
a n</w>
ti on</w>
m e</w>
ar e</w>
l e
o p
a l</w>
u t</w>
k e</w>
s i
en t</w>
w as</w>
a y</w>
f or</w>
al ly</w>
c h
u n
ha ve</w>
c om
s e</w>
ou r</w>
s e
d e
n e
the y</w>
g o
s h
w it
r a
ca n</w>
on e</w>
wit h</w>
w or
t s</w>
al l</w>
b e</w>
o l
p e
o w</w>
us e</w>
p l
&apos; t</w>
e x
t er</w>
wh at</w>
S o</w>
c e</w>
ab out</w>
s o</w>
p ro
a g
ou ld</w>
i r
gh t</w>
th in
th er</w>
e t</w>
no t</w>
c on
no w</w>
s a
s om
r e</w>
u l
t o
t er
d s</w>
p er
u c
t r
d o</w>
d o
ver y</w>
m y</w>
m e
op le</w>
or e</w>
th ing</w>
th ere</w>
&apos; re</w>
li ke</w>
us t</w>
pe ople</w>
i s
ro m</w>
I t</w>
it y</w>
ti on
f rom</w>
s p
a r</w>
c i
m p
t u
t a
v er</w>
k ing</w>
b ut</w>
v i
e ar
f f
an t</w>
a u
j ust</w>
ca use</w>
t ed</w>
er s</w>
W e</w>
m o
d e</w>
s t</w>
B ut</w>
i r</w>
ur e</w>
at e</w>
s u
the se</w>
Th e</w>
i f</w>
u s</w>
g s</w>
b o
el l</w>
h e</w>
b y</w>
the m</w>
u p</w>
a d
f or
m ore</w>
p o
a m
k now</w>
g e</w>
go ing</w>
wh en</w>
ou n
ha d</w>
h i
p ar
lo o
be cause</w>
w ay</w>
in d</w>
g i
es s</w>
p re
W h
a tion</w>
e y</w>
som e
w ere</w>
the ir</w>
h ow</w>
ic h</w>
thin k</w>
se e</w>
wh o</w>
g et</w>
o ther</w>
f e
t h</w>
os e</w>
w n</w>
w ould</w>
wh ich</w>
y our</w>
an y</w>
tion s</w>
e v
ou nd</w>
g h</w>
re ally</w>
t w
i d</w>
t ing</w>
ti me</w>
il l</w>
f i
&apos; ve</w>
o d</w>
en ce</w>
ou r
e m
au gh
com p
in e</w>
c re
wh ere</w>
a y
h ere</w>
tu ally</w>
augh ter</w>
os t</w>
&apos; m</w>
h as</w>
the n</w>
wor ld</w>
k s</w>
y ear
l l</w>
c o
ab le</w>
f u
ap p
g e
a d</w>
L aughter</w>
Th is</w>
t e
b u
d ay</w>
b i
som e</w>
in to</w>
Y ou</w>
u m
st r
d on</w>
r ou
ac k</w>
un d
ac tually</w>
w ill</w>
ac e</w>
year s</w>
al l
ca l</w>
s el
uc h</w>
c l
g o</w>
d ing</w>
thin gs</w>
en t
h e
en ts</w>
st ar
c ould</w>
N ow</w>
be en</w>
ag e</w>
w ant</w>
m i
v es</w>
g re
ma ke</w>
l it
di ff
p h
Th ey</w>
f ir
d y</w>
as t</w>
h app
g u
k ed</w>
m ost</w>
ch an
t ri
t le</w>
es t</w>
s o
st e
com e</w>
f e</w>
v ing</w>
ti ve</w>
i z
some thing</w>
ri ght</w>
th an</w>
sa id</w>
m ent</w>
wor k</w>
t y</w>
th ose</w>
t ure</w>
in ter
en ti
t al
i es</w>
m uch</w>
on g</w>
ec t</w>
ou s</w>
st or
d u
i c</w>
c h</w>
l a
ti c
g r
fir st</w>
w e
diff er
pl a
y ing</w>
s y
n o</w>
th ou
al so</w>
i g
ne w</w>
p r
g y</w>
pro b
it e</w>
ma n</w>
i mp
an s</w>
tw o</w>
b ack</w>
d es
en d</w>
on s</w>
lit tle</w>
w i
ay s</w>
b le</w>
go t</w>
ac t</w>
f o
loo k</w>
o ver</w>
0 0</w>
c e
d ed</w>
Th at</w>
at ed</w>
on ly</w>
v e
g en
ev en</w>
s ay</w>
i m
li fe</w>
re e</w>
i de
st u
h is</w>
p os
ne ed</w>
m on
d n</w>
es s
t ra
m any</w>
sh e</w>
c oun
A p
I n</w>
fu l</w>
s c
Wh at</w>
h er</w>
it s</w>
ar d</w>
ta ke</w>
ver y
bo dy</w>
lo t</w>
ch o
bu il
com m
m s</w>
ec h
s ti
m il
k ind</w>
or t
si on</w>
h u
pla use</w>
r u
Ap plause</w>
m in
ic e</w>
t ur
th rou
k e
ac h</w>
di d</w>
ar ound</w>
n ing</w>
c ol
ec on
f f</w>
m ar
at er</w>
d er</w>
f ri
f in
n i
und er
f a
differ ent</w>
el l
ec i
Th ere</w>
e very
ti es</w>
ti c</w>
al s</w>
tr y</w>
b er</w>
di s
throu gh</w>
ti m
go od</w>
p a
re d</w>
w er</w>
do wn</w>
i ma
re s
re c
or t</w>
e very</w>
con t
y e
p ri
c ar
o k</w>
w s</w>
sa me</w>
an ce</w>
an d
c all
v ed</w>
an k</w>
I n
pre s
be ing</w>
il l
a m</w>
un i
in g
&apos; ll</w>
s ur
happ en
prob le
t ech
e st
si de</w>
w r
le ar
mp le</w>
m at
stor y</w>
an s
ar y</w>
or s</w>
W ell</w>
a f
p ut</w>
c ent</w>
o b
I f</w>
sel f</w>
sh o
b r
b l
H e</w>
do ing</w>
g ra
at ing</w>
l ar
g a
w ays</w>
p u
an y
lo gy</w>
u e</w>
ch il
s ol
er i
e l</w>
s ci
st s</w>
call ed</w>
n ed</w>
b as
v el
ca me</w>
so ci
d uc
t e</w>
ex per
s on</w>
om e</w>
per cent</w>
n a
pl an
w om
li on</w>
h el
ag a
t ly</w>
o l</w>
e ver</w>
ma de</w>
&apos; d</w>
tion al</w>
f ore</w>
qu es
ac h
p i
b ra
th ree</w>
d re
chan ge</w>
tech no
under st
en c
t ter</w>
us ed</w>
h o
t re
re s</w>
ye ar</w>
hu man</w>
imp ort
t ell</w>
f ind</w>
an c
to day</w>
des ig
s en
w ell</w>
lo w</w>
d er
wh y</w>
p ic
f act</w>
in t</w>
o wn</w>
at es</w>
ste m</w>
le t</w>
g er</w>
di dn</w>
y s</w>
v en</w>
B e
ide a</w>
in gs</w>
star ted</w>
af ter</w>
en g
k es</w>
C h
gre at</w>
t en
ge ther</w>
wi th
c our
tal k</w>
me m
be li
tim es</w>
w ing</w>
ter s</w>
be tter</w>
be fore</w>
mi ght</w>
to gether</w>
al iz
sh i
w an
f t</w>
me di
0 00</w>
thou ght</w>
l ast</w>
f am
ne ver</w>
s er
sh ould</w>
Th ank</w>
f l
h ear
w ent</w>
pl ace</w>
s m
o m</w>
in v
import ant</w>
c ul
bi g</w>
l ess</w>
g ro
i l</w>
b it</w>
p s</w>
t ting</w>
k i
e ly</w>
an other</w>
par t</w>
ex p
gi ve</w>
k no
o ff</w>
il ity</w>
sti ll</w>
p p
v ir
d at
as e</w>
c r
proble m</w>
exper i
m er
j o
sy stem</w>
, 000</w>
c or
ima g
ne x
ar i
ag o</w>
nex t</w>
m an
tw e
in s</w>
c ri
a tions</w>
cour se</w>
c ess</w>
hi m</w>
fe w</w>
ou s
it ed</w>
str uc
re ad
si ble</w>
po li
for ma
n um
star t</w>
w a
f ound</w>
b ot
s cho
o ld</w>
an ds</w>
e w</w>
e ach</w>
inter est
Wh en</w>
w ater</w>
aga in</w>
es e</w>
comp le
d d
ca tion</w>
& #
&# 9
be g
bra in</w>
wom en</w>
techno logy</w>
e ff
c er
2 0
ic ally</w>
sh ow</w>
do es</w>
w ar
1 9
de vel
twe en</w>
pro duc
f ac
e p</w>
to o</w>
l ong</w>
t en</w>
c ou
or g
be tween</w>
e ve</w>
com es</w>
dat a</w>
d eci
&apos ;</w>
al ity</w>
us ing</w>
comp u
i ght</w>
fam i
me an</w>
in cre
lo gi
chan g
dre n</w>
ques tion</w>
is t</w>
a mple</w>
o le</w>
sp ec
po int</w>
ex ample</w>
forma tion</w>
loo king</w>
j ect</w>
s pe
c u
ec ts</w>
c ap
gen er
st a
n at
or y</w>
b li
os s</w>
b re
underst and</w>
s es</w>
d one</w>
O n
n s</w>
chil dren</w>
al i
s econ
re as
li ve</w>
wan ted</w>
es n</w>
ce p
n ess</w>
sel ves</w>
n ec
lo ve</w>
he al
s k
do esn</w>
f ul
Be cause</w>
ou gh</w>
li ght</w>
S t
a way</w>
un ity</w>
u m</w>
th er
c all</w>
ma y</w>
f ace</w>
em ent</w>
H ow</w>
A fri
ab ly</w>
wor king</w>
1 0</w>
hel p</w>
per son</w>
econ om
wh ole</w>
pu bli
tr ying</w>
al ways</w>
s ort</w>
re al</w>
tr ans
d ol
re sp
beli eve</w>
m us
l ine</w>
ic i
ma y
g l
w al
d ri
ti cal</w>
org an
c ity</w>
com ing</w>
scho ol</w>
mil lion</w>
for m</w>
ul ar</w>
ti v
gr ap
s ec
e p
devel op
in formation</w>
h um
fe el</w>
u tion</w>
d es</w>
coun try</w>
c ur
b or
se ar
po wer</w>
ro om</w>
me ans</w>
li m
al e</w>
ou t
m om
is h</w>
thin king</w>
pr ot
in t
en er
cre ate</w>
th s</w>
m y
ver n
z e</w>
l dn</w>
ne e
ell s</w>
en d
f r
ul t</w>
col l
s ing</w>
may be</w>
h op
el ec
on es</w>
o ff
y p
r y</w>
le a
st o
f our</w>
to ok</w>
se e
si g
a ma
c k</w>
v al
su b
w er
mon ey</w>
ma king</w>
every thing</w>
as k</w>
v o
l an
c en
be come</w>
m is
ent ly</w>
ot s</w>
sm all</w>
ki ds</w>
h al
go vern
lo b
em s</w>
b us
read y</w>
m en</w>
sp ace</w>
o t</w>
st ri
num ber</w>
h ome</w>
desig n</w>
en ough</w>
g rou
in ess</w>
en ds</w>
s ing
tri es</w>
s ure</w>
fu ture</w>
On e</w>
b il
hi gh
te ly</w>
resp on
p le</w>
st er</w>
h ar
M y</w>
t or</w>
re e
secon d</w>
ab ility</w>
sen se</w>
p as
ve l</w>
we e
w at
for m
U n
it ing</w>
Afri c
z ing</w>
ge tting</w>
op p
buil ding</w>
o f
in es</w>
at h</w>
be st</w>
S he</w>
w ed</w>
s it
wh i
with out</w>
s ed</w>
qu ite</w>
fi ve</w>
se t</w>
d ge</w>
Th ese</w>
tic s</w>
an g
a k</w>
happen ed</w>
fo re
pl ac
stu d
h ard</w>
ar e
l es</w>
ener gy</w>
wh e
e qu
it al</w>
soci al</w>
i d
pre t
bo ok</w>
s on
l ed</w>
li ves</w>
ac r
cont ro
y oun
tal king</w>
to ld</w>
ph y
is m</w>
n er</w>
c are</w>
u t
le ft</w>
fo od</w>
e y
ar t</w>
coun tries</w>
ic s</w>
re ad</w>
re aliz
f ol
prob ably</w>
re la
at ely</w>
L et</w>
pi ec
w on
shi p</w>
g g
in di
pl ay</w>
b ro
in ed</w>
buil d</w>
m or
l and</w>
k en</w>
be au
uni ver
interest ing</w>
th ers</w>
acr oss</w>
mem ber</w>
b er
pret ty</w>
ac k
di c
bi o
fami ly</w>
d in
l on
e du
ta in</w>
ous ly</w>
ou se</w>
sa w</w>
g lob
ent al</w>
ca se</w>
2 0</w>
vir on
v en
lar s</w>
s uc
s uch</w>
par tic
any thing</w>
E ar
ha ving</w>
H ere</w>
dol lars</w>
hal f</w>
thou gh</w>
whi le</w>
stu ff</w>
sp eci
m ents</w>
c an
as ked</w>
mom ent</w>
el s</w>
e as
Wh y</w>
sci enti
5 0</w>
mo ve</w>
experi ence</w>
en viron
A n
el e
c ha
F or</w>
li ving</w>
w ard</w>
si ve</w>
se en</w>
Afric a</w>
in ce</w>
d ays</w>
sci ence</w>
si ons</w>
en e
A mer
v a
si mple</w>
he ad</w>
Amer ic
w as
gh ts</w>
d ra
happ en</w>
m en
youn g</w>
ma kes</w>
e ty</w>
sear ch</w>
di se
m ach
con nec
su pp
ot e</w>
wor ks</w>
N o</w>
comm uni
A s</w>
n or
in e
c le
to p</w>
om e
ch ar
ti s
h and</w>
o ver
e mp
happen s</w>
Ear th</w>
l ater</w>
p or
compu ter</w>
v is
thou s
sa ys</w>
ne t</w>
pro cess</w>
p op
enc es</w>
publi c</w>
el se</w>
ap s</w>
tur n</w>
al most</w>
heal th</w>
ic es</w>
ec ted</w>
ca r</w>
m ind</w>
in side</w>
m m
k ay</w>
u p
b ri
ev ol
lear n</w>
ch all
dis co
go es</w>
ir d</w>
of ten</w>
f ar</w>
In ter
cont in
a h</w>
hi gh</w>
c ra
c es</w>
m ul
de p
reas on</w>
N ew</w>
pic ture</w>
comm unity</w>
tr u
an ding</w>
i a</w>
c ent
organ iz
some one</w>
c ells</w>
or der</w>
sing le</w>
g ir
cl u
v ol
pro gra
pa ti
plan et</w>
fr on
en s</w>
loo ked</w>
sa ying</w>
ol s</w>
ste ad</w>
our s</w>
al ready</w>
A ll</w>
pl ay
proble ms</w>
bil lion</w>
no thing</w>
mar k
st er
pos sible</w>
k in
tu res</w>
M ar
y et</w>
pro ject</w>
p at
do c
s ity</w>
al lo
f un
cl as
mon ths</w>
ag es</w>
ur al</w>
vi de
a ff
i st
bot h</w>
my self</w>
whe ther</w>
f lo
1 ;</w>
&#9 1;</w>
hi story</w>
ans wer</w>
glob al</w>
di rec
3 ;</w>
&#9 3;</w>
In di
wor ds</w>
b ad</w>
re member</w>
u al</w>
i gh
os p
le ad
hop e</w>
ur y</w>
sol u
govern ment</w>
o c
e t
Ch in
ser v
is su
si on
ama zing</w>
ti l</w>
beau ti
p er</w>
imag ine</w>
on ce</w>
lan gu
mat ter</w>
di es</w>
A l
l ing</w>
with in</w>
r an
ke ep</w>
ac y</w>
l s</w>
chil d</w>
bus iness</w>
f il
or i
li es</w>
d ro
b ers</w>
ex c
hear d</w>
f er
ur ing</w>
ide as</w>
g n
t able</w>
wr ong</w>
op en</w>
ti ci
c anc
ti ce</w>
ve ly</w>
jo b</w>
f ra
li c
br ing</w>
Un ited</w>
e d
ge ts</w>
A m
ac tion</w>
u ro
loo ks</w>
incre di
grou p</w>
h und
wor d</w>
vi du
ni ght</w>
ap pro
o s</w>
bas ically</w>
mo ther</w>
0 s</w>
buil t</w>
c ess
b ly</w>
i cal</w>
indi vidu
3 0</w>
op er
mat eri
0 ,000</w>
ir e</w>
G o
ta tion</w>
t ors</w>
j u
at t
ph ot
ma s
won der
piec e</w>
was n</w>
tiv ity</w>
fi c</w>
tr ue</w>
h y
M us
plac es</w>
o grap
ch e
b lo
si x</w>
per son
pro f
beauti ful</w>
gu y</w>
ri s
st re
ap e</w>
und er</w>
un til</w>
stor ies</w>
ic k
du ce</w>
t in
h ouse</w>
d ru
in ing</w>
nat ure</w>
an im
fri ends</w>
T E
A r
er ing</w>
ta king</w>
f el
canc er</w>
ca ted</w>
t on</w>
is n</w>
n am
fi g
contro l</w>
. .</w>
ph one</w>
our selves</w>
lear ned</w>
k new</w>
ar ti
vi ew</w>
the m
ful ly</w>
E n
. ..</w>
c op
sh ed</w>
wom an</w>
sti tu
ac tly</w>
deci ded</w>
P e
cul ture</w>
be came</w>
spec ies</w>
h er
re search</w>
edu cation</w>
St ates</w>
stu dy</w>
mus ic</w>
tr an
na me</w>
b ar
ru n</w>
re co
do m</w>
pos i
e -
cou ple</w>
le vel</w>
i on</w>
j ects</w>
sh are</w>
in st</w>
Inter net</w>
comple tely</w>
soci ety</w>
gr ound</w>
ne t
in no
de l</w>
ul ation</w>
ch ing</w>
20 0
m ic
happen ing</w>
ex actly</w>
vide o</w>
t un
m ust</w>
U .
a w
he ar</w>
dd le</w>
p ol
aga inst</w>
ac c
li st
fron t</w>
sto p</w>
ou th</w>
st ems</w>
oun ds</w>
them selves</w>
it self</w>
hear t</w>
li ons</w>
s li
re qu
r un
langu age</w>
enti al</w>
comp any</w>
cl os
a tive</w>
s ince</w>
me as
ec tive</w>
dise ase</w>
ques tions</w>
in ning</w>
in k</w>
ap er</w>
na tional</w>
k ers</w>
c lim
ar ch
some times</w>
fi el
Americ a</w>
u r</w>
f -
f und
k er</w>
every body</w>
ar ly</w>
lit er
be ha
sh ar
tu al</w>
h ours</w>
mo del</w>
wor ked</w>
t om
ec tion</w>
L i
opp ort
pl es</w>
cre ated</w>
s h</w>
us es</w>
p ast</w>
kin ds</w>
ver ed</w>
con si
ap pe
anim als</w>
some body</w>
pr in
col le
ch ed</w>
si mp
p ul
struc ture</w>
st ra
re li
ra ther</w>
diff ic
po wer
n er
kno wn</w>
in stead</w>
t yp
t -
con ver
o thers</w>
logi cal</w>
en ing</w>
an ts</w>
Am eri
hu ge</w>
beha vi
lar ge</w>
tur ns</w>
i se</w>
d ec
a ir</w>
ou ldn</w>
f ar
comp an
cep t</w>
cent ury</w>
every one</w>
u es</w>
in du
i ve</w>
s ound</w>
bas ed</w>
h aps</w>
st ed</w>
o ce
cou ldn</w>
ad v
1 00</w>
ut es</w>
c le</w>
j our
Y or
univer se</w>
eng ine
de v
thous ands</w>
c ir
st ate</w>
gre s
ell ing</w>
bl ack</w>
b ed</w>
Ameri can</w>
h or
fo c
s is</w>
stud ents</w>
st ance</w>
lear ning</w>
ic k</w>
er y</w>
pro vi
rela tion
str y</w>
al ong</w>
par ents</w>
le ast</w>
de mo
d ar
am oun
E uro
p ot
en ted</w>
environ ment</w>
war ds</w>
v ari
fa ther</w>
tur ned</w>
R e
st ing</w>
d ent</w>
O kay</w>
partic ular</w>
p e</w>
sy stems</w>
at s</w>
re si
ro w</w>
fig ure</w>
an t
rec or
chang ed</w>
tic ally</w>
ear ly</w>
b ab
Indi a</w>
w in
s or
th y</w>
di g
ta ken</w>
ga ve</w>
b ur
c ell</w>
vi ol
w ar</w>
ne ws</w>
happ y</w>
l ots</w>
k ey</w>
G od</w>
re st</w>
min utes</w>
sc ale</w>
d r
enti re</w>
or din
h ind</w>
at ure</w>
Th en</w>
C on
mach ine</w>
ci ties</w>
bre a
O h</w>
1 5</w>
o od</w>
e mo
w on</w>
si ze</w>
out side</w>
ta in
n on
nat ural</w>
ex t</w>
see ing</w>
m ess
compan ies</w>
res s</w>
f ish</w>
re ality</w>
ca te</w>
p le
d -
un ch</w>
p ur
id enti
f ree</w>
sel f-
i ther</w>
O K</w>
differ ence</w>
diffic ult</w>
ma j
y -
ta kes</w>
gi ven</w>
cl ose</w>
O r</w>
fri end</w>
fe el
be hind</w>
s our
nee ded</w>
m ental</w>
lea ve</w>
c k
ul es</w>
te am</w>
kno w
vi sion</w>
at or</w>
bo o
beg inning</w>
se qu
mo v
ma l</w>
TE D</w>
s cre
di ence</w>
mo ving</w>
b ility</w>
elec tri
fin ally</w>
Yor k</w>
re l
ma g
ra di
k ill
enc y</w>
d ers</w>
an ti
tr ac
par ts</w>
n ers</w>
ex pla
a ir
re gi
A f
t est</w>
wal k</w>
wh at
nee ds</w>
t ou
ey es</w>
beg an</w>
A u
per f
pat ter
p t</w>
eas y</w>
ti vely</w>
th ird</w>
di ed</w>
c y
per haps</w>
T o
de fin
ver age</w>
b loo
mo d
mi ddle</w>
in clu
gu ys</w>
phy s
y our
gro w
econom ic</w>
d uring</w>
ch em
ter ms</w>
re g
pri v
mark et</w>
ex tre
cur r
F r
pop ulation</w>
realiz ed</w>
re pres
de li
te ach
h on
fiel d</w>
c al
are a</w>
an ci
ab or
N or
le g
ima ge</w>
d ence</w>
your self</w>
gro w</w>
phy si
ne y</w>
con f
qu ick
h ol
sur vi
sur pri
b ir
at ten
as es</w>
Chin a</w>
inno v
bor n</w>
power ful</w>
lon ger</w>
pos ed</w>
a i
I s
lo cal</w>
it h</w>
cer tain</w>
wee k</w>
simp ly</w>
fel t</w>
f ic
de ca
comm on</w>
c os
Y e
D o</w>
phot ograp
can not</w>
h ands</w>
ex pl
car e
w ers</w>
li g
N A</w>
A t</w>
par t
amoun t</w>
wonder ful</w>
fl u
know le
d en</w>
T o</w>
inv ol
poli tical</w>
L o
c ost</w>
sp end</w>
in f
grow th</w>
en ge</w>
ab solu
se ven</w>
hum ans</w>
an tly</w>
a ds</w>
pre dic
medi a</w>
des cri
S .</w>
ver sity</w>
at e
g one</w>
g ed</w>
pr ac
l ost</w>
e ts</w>
S ome</w>
t elling</w>
b an
ac ter
e vi
de ath</w>
s ha
li ke
p sy
chang es</w>
O ur</w>
ul ts</w>
su m
con di
c y</w>
quick ly</w>
res our
chall enge</w>
arch it
Pe ople</w>
t ot
m et</w>
an ima
su per
sp ent</w>
hum an
de al</w>
iz e</w>
fun c
z ed</w>
wr it
ob vi
as tic</w>
on d</w>
c li
gr and
what ever</w>
u res</w>
o -
ne ur
tri ed</w>
s il
in i
ful l</w>
wee ks</w>
ga me</w>
in sp
ho ld</w>
Ye ah</w>
W or
p ay</w>
logi es</w>
th re
o ds</w>
mo vi
t ro
fi ed</w>
rou ght</w>
li sh</w>
in c
hel p
L e
opport unity</w>
hund re
al one</w>
sit ting</w>
interest ed</w>
ste p</w>
b ack
boo ks</w>
tra di
s qu
reli gi
pos si
ne igh
fa il
di e</w>
J o
sur face</w>
o g
e ither</w>
4 0</w>
wr ite</w>
fol lo
I s</w>
em er
im pro
f ly</w>
d ly</w>
clim ate</w>
U. S.</w>
val ue</w>
econom y</w>
mic ro
M o
physi cal</w>
i li
ci vi
in stitu
es p
ac e
ing ly</w>
gro wing</w>
gi ving</w>
cle ar</w>
for ward</w>
pati ents</w>
p aper</w>
an al
C A</w>
re le
m os
oce an</w>
Mus ic</w>
d en
D NA</w>
underst anding</w>
conver sa
qu e</w>
in ation</w>
po in
Y es</w>
wh ite</w>
s mar
s ite</w>
f as
w ouldn</w>
u ght</w>
po or</w>
progra m</w>
or ig
ho od</w>
el lig
ri ed</w>
o il</w>
lo g
behavi or</w>
M a
sit u
sho ws</w>
me an
comple x</w>
ca mer
S u
J ust</w>
m ol
knowle dge</w>
bu y</w>
ac cess</w>
spe ak</w>
pre ci
per i
ig n</w>
or ies</w>
con sci
as h
ris k</w>
mul ti
for ce</w>
e ight</w>
enti ally</w>
reco gn
fund am
chang ing</w>
st age</w>
num bers</w>
hundre ds</w>
en ding</w>
per form
o d
ca tions</w>
bloo d</w>
like ly</w>
a verage</w>
scienti sts</w>
cl es</w>
techno logies</w>
su ff
spe a
com b
year -
materi al</w>
gir l</w>
gg est</w>
ab o
O n</w>
vo ice</w>
ordin ary</w>
ch es</w>
b rought</w>
b ene
fe et</w>
b a
N ot</w>
us h</w>
t em
si mil
mor ning</w>
g ing</w>
are as</w>
develop ed</w>
d om
pl ant</w>
man ag
m al
incredi ble</w>
for tun
fa v
ro bo
x i
t es</w>
mil es</w>
in ve
lo w
liter ally</w>
i red</w>
feel ing</w>
realiz e</w>
person al</w>
int ellig
in ten
uc k</w>
f ur
com pe
P ar
se ems</w>
pro duce</w>
c ut</w>
mil lions</w>
em ents</w>
u te</w>
to ols</w>
t ar
car b
as s</w>
su dd
s eri
n al</w>
imag es</w>
fe ar</w>
f y</w>
S e
atten tion</w>
R ight</w>
vi e
su sta
o p</w>
comp li
G re
ti z
st ro
va il
re p
m ine</w>
ex am
N o
individu al</w>
g ar
pr om
to m</w>
p an
gre en</w>
ill s</w>
tur al</w>
m ale</w>
g ger</w>
f ree
car s</w>
c ro
ac hi
star ting</w>
re ly</w>
a x
tran sp
mov ement</w>
issu e</w>
gener ation</w>
gen e
anc es</w>
sol ve</w>
se ver
res ult</w>
net work</w>
f it</w>
am es</w>
supp ort</w>
he ad
gres s</w>
er ed</w>
h osp
anima l</w>
H a
wr ote</w>
st e</w>
e f</w>
di st
f ast</w>
evol ution</w>
1 2</w>
mo ved</w>
g est</w>
bl ue</w>
ver s</w>
r ate</w>
m ing</w>
chall eng
bo x</w>
in st
di sc
for ms</w>
d ou
L a
z y</w>
c ks</w>
al low</w>
au th
te mp
mol ec
mo der
mi c</w>
disco vered</w>
cre ating</w>
as king</w>
a vail
wat ch</w>
i sts</w>
desig ned</w>
d ings</w>
re vol
cer tain
u ally</w>
eas i
M ay
n y</w>
la w</w>
k id</w>
ech an
En g
ul arly</w>
ter ri
C an</w>
pa in
k y</w>
dig ital</w>
am s</w>
op en
mar ke
absolu tely</w>
run ning</w>
e at</w>
so on</w>
gi ves</w>
compu ters</w>
1 1</w>
rec ently</w>
l ess
ex ist
ec h</w>
ch i
tin y</w>
tici p
il s</w>
develop ment</w>
ur ity</w>
sol ution</w>
suc cess
nor mal</w>
de ep
any one</w>
t y
f ine</w>
con v
ar s</w>
all s</w>
the ma
gir ls</w>
Euro pe</w>
shi ps</w>
grou ps</w>
n ice</w>
ex pres
indu stry</w>
develop ing</w>
bo ard</w>
th ro
li ved</w>
b al
avail able</w>
E very
A c
y es</w>
sour ce</w>
au dience</w>
or ity</w>
bot tom</w>
st and</w>
chan ce</w>
tre at
sh ort</w>
de gre
medi c
h and
en ded</w>
connec ted</w>
cen ter</w>
v ill
ter m</w>
s le
pu tting</w>
m a</w>
in s
de ep</w>
dep end
reas ons</w>
U ni
relation ship</w>
me et</w>
cho ice</w>
y ond</w>
sa ve</w>
innov ation</w>
ex tra
b ul
S ome
sho wed</w>
l in
incre as
esp eci
especi ally</w>
typ e</w>
produc t</w>
b all</w>
6 0</w>
us h
m echan
clas s</w>
the ory</w>
str on
medi cal</w>
me t
la b</w>
ec ting</w>
ce i
h om
experi ment</w>
con struc
col or</w>
viol ence</w>
ti ves</w>
see m</w>
se a</w>
pati ent</w>
a tional</w>
plan ts</w>
ou ght</w>
z er
Wor ld</w>
D e
issu es</w>
appro ach</w>
ca mp
g en</w>
play ing</w>
on line</w>
imp act</w>
comp as
beg in</w>
tal ked</w>
s end</w>
maj or</w>
fil m</w>
be comes</w>
year- old</w>
g es</w>
b at
ma p</w>
dar k</w>
bre ak</w>
simil ar</w>
se x</w>
oun d
l ate</w>
ey e</w>
con cer
tru th</w>
su p
resour ces</w>
r an</w>
F ir
nec ess
ma thema
l ines</w>
sm all
om s</w>
m oun
ci tiz
dri ve</w>
demo cr
beli ev
B y</w>
ma in</w>
fav or
communi ties</w>
C om
19 9
tri bu
to wards</w>
c lo
wor th</w>
sever al</w>
s tic
r it
foc us</w>
Eng lish</w>
fu n</w>
di ag
co de</w>
ec ture</w>
read ing</w>
pr os
gi c</w>
be yond</w>
at ors</w>
incredi bly</w>
gre at
eff ect</w>
b s</w>
ac coun
uc le
tech ni
so f
ra is
mis sion</w>
ha ven</w>
carb on</w>
bab y</w>
st and
wr iting</w>
eff ici
Fir st</w>
str ong</w>
sh ape</w>
tr ust</w>
st ay</w>
dru gs</w>
dev ice</w>
b acter
anal y
ad d
ac i
Go og
th ank</w>
ro ad</w>
pot ential</w>
er ci
speci al</w>
s ounds</w>
S outh</w>
exper im
t op
s ent</w>
h our</w>
ar en</w>
h un
expla in</w>
ev en
ni fic
com for
N e
co ol</w>
aliz ed</w>
mess age</w>
invol ved</w>
evi dence</w>
bi gger</w>
on to</w>
ch ec
re ach</w>
pro cess
m u
Goog le</w>
r .</w>
perf ect</w>
in al</w>
do or</w>
us ion</w>
int ro
gu e</w>
stre et</w>
n u
imp os
dru g</w>
sy m
per spec
me ly</w>
fore st</w>
bas ic</w>
str an
sec urity</w>
jour ney</w>
di men
de ed</w>
a v
tr al</w>
pp ed</w>
gu ess</w>
May be</w>
E very</w>
si a</w>
r ules</w>
partic ularly</w>
wal king</w>
situ ation</w>
sec re
ri ghts</w>
pic tures</w>
o w
susta in
sol ar</w>
pic k</w>
n ucle
movi e</w>
kno ws</w>
de t
char ac
p en
l y
di stri
to wn</w>
dre am</w>
de ta
sho wing</w>
psy cho
meas ure</w>
m ed</w>
h it</w>
en ly</w>
0 -
tre es</w>
t ele
g ot
o re
c ed</w>
Jo h
prin ci
ac tive</w>
sion al</w>
qu ality</w>
mon th</w>
moder n</w>
h y</w>
sy n
pres ent</w>
li fe
le ad</w>
l and
conf lic
con n
Mar s</w>
w ish</w>
te ach</w>
sa fe</w>
non -
i tion</w>
r ap
b it
ar ed</w>
B i
high -
exam ples</w>
b es</w>
Wh ere</w>
2 5</w>
sh ing</w>
lead ers</w>
c lear
P ro
n os
iz ed</w>
de ad</w>
t on
fer ence</w>
devel op</w>
st anding</w>
n ar
li st</w>
or d</w>
ob s</w>
star ts</w>
res ults</w>
emp lo
app li
w all</w>
um ent</w>
suc cess</w>
posi tion</w>
any body</w>
gre w</w>
en ter
scho ols</w>
o es</w>
lar gest</w>
conversa tion</w>
colle ag
an ks</w>
al th</w>
8 0</w>
pro per
cl in
camer a</w>
t ree</w>
sp ir
robo t</w>
f le
certain ly</w>
bi ggest</w>
b an</w>
de ter
cre ative</w>
scienti fic</w>
f all</w>
contin ue</w>
Af ter</w>
n ine</w>
d y
cho ose</w>
am ong</w>
ro le</w>
hund red</w>
fami lies</w>
ca t
as h</w>
gra du
ex tr
s al
respon se</w>
high er</w>
en sive</w>
G e
wan ts</w>
tw are</w>
spe ed</w>
fi ght</w>
fir e</w>
favor ite</w>
f er</w>
democr acy</w>
se x
w in</w>
t end</w>
stud ent</w>
r ing</w>
ob jects</w>
extra ordinary</w>
exc iting</w>
buil dings</w>
medic ine</w>
B ra
s it</w>
P h
sof tware</w>
pa in</w>
nam ed</w>
list en</w>
im medi
equ i
colle ge</w>
ac ks</w>
O f</w>
wi fe</w>
off ice</w>
cra zy</w>
c in
scre en</w>
individu als</w>
do w
ac tions</w>
E ven</w>
li z
wor l
str ate
po ver
on y</w>
me ant</w>
de b
inclu ding</w>
ill ing</w>
h an
g ri
com par
ag ing</w>
st at
pro jects</w>
pover ty</w>
par ticip
min ute</w>
j us
it ary</w>
fur ther</w>
fa ster</w>
ar ds</w>
Lo ok</w>
D on</w>
se par
o kay</w>
every where</w>
a vi
pl an</w>
peri od</w>
materi als</w>
coll abor
bo dies</w>
ac tivity</w>
Wh o</w>
ob ject</w>
mas s</w>
bo y</w>
T a
B o
st ers</w>
mach ines</w>
m ous</w>
G er
perspec tive</w>
fortun ately</w>
ad d</w>
p ay
mod els</w>
de pres
sk in</w>
sho wn</w>
mem ory</w>
at ures</w>
y ed</w>
tot ally</w>
success ful</w>
st ore</w>
sk y</w>
j obs</w>
ear s</w>
fin ding</w>
C ar
tim ate</w>
sc en
fundam ental</w>
elec tr
S i
su g
s ou
ru p
er ous</w>
To day</w>
J ap
E x
B ri
wat ching</w>
w ind</w>
no tice</w>
intellig ence</w>
i an</w>
g al
even tually</w>
bi le</w>
an n
M e
H ar
lo ved</w>
ga in</w>
con sum
ac her</w>
M ost</w>
su mm
o logy</w>
l ose</w>
incre ase</w>
form ed</w>
de m
compas sion</w>
M ic
C o
r os
prot ect</w>
me th
li gh
is ms</w>
d ang
ca ses</w>
V ide
T w
D i
ta ught</w>
sig nific
osp here</w>
li ar</w>
le y</w>
al ing</w>
Vide o</w>
vel s</w>
to ol</w>
serv ice</w>
sc ri
piec es</w>
obvi ously</w>
neigh bor
l l
ing ing</w>
gen es</w>
Chin ese</w>
str u
produc ts</w>
p ose</w>
no body</w>
ex ist</w>
des er
we ver</w>
prof es
l ay
ess entially</w>
d on
cri sis</w>
tem per
ma in
wor se</w>
ver se</w>
lo wer</w>
kill ed</w>
doc tor</w>
allo wed</w>
C ol
ri es</w>
organiz ation</w>
con st
w il
ro r</w>
r om
B u
sp o
ri ch</w>
m ot
ear li
vill age</w>
t ells</w>
speci fic</w>
ran ge</w>
inter est</w>
go al</w>
compli cated</w>
sup posed</w>
s l
oun ded</w>
ol der</w>
W ith</w>
M i
Americ ans</w>
us ually</w>
um p</w>
ther e
sp ac
smar t</w>
jo y</w>
fol low</w>
exc ited</w>
o x
a th
Nor th</w>
5 00</w>
sho t</w>
sh e
nucle ar</w>
in te
extre mely</w>
wi de</w>
tradi tional</w>
some where</w>
s un
posi tive</w>
allo ws</w>
o h</w>
leg al</w>
heal thy</w>
gener al</w>
g as</w>
condi tions</w>
vi sible</w>
treat ment</w>
pro gress</w>
min ds</w>
ci es</w>
inter national</w>
g er
fin anci
fi gu
bacter ia</w>
abo ve</w>
ter r
recor d</w>
ke pt</w>
hosp ital</w>
f ru
H e
qu i
e th
bio logy</w>
a in</w>
Th ose</w>
wa it</w>
w ood</w>
is tic</w>
contin u
S h
H o
sudd enly</w>
su n</w>
recogn ize</w>
institu tions</w>
b unch</w>
teach ers</w>
st opp
ou d</w>
exp ect</w>
electri city</w>
archit ecture</w>
we b
ma tic</w>
logi sts</w>
in flu
i al</w>
f ant
cont ext</w>
ari ly</w>
writ ten</w>
throu gh
thous and</w>
far m
distri bu
disc us
conn ect</w>
b om
P er
tra vel</w>
sp read</w>
patter n</w>
star s</w>
st om
patter ns</w>
ni a</w>
hi c</w>
fo ot</w>
W i
S a
z z
tru ly</w>
t a</w>
ra tion</w>
produc tion</w>
lar ger</w>
e ma
e ful</w>
b ing</w>
H I
sh ap
poli ce</w>
in come</w>
fam ous</w>
ach ed</w>
wor kers</w>
wi se</w>
ver sion</w>
te acher</w>
impos sible</w>
cul tural</w>
priv ate</w>
m ent
con tribu
Afri can</w>
revol ution</w>
ph ones</w>
en ter</w>
deci sions</w>
W est</w>
2 00</w>
se em
in deed</w>
gh tly</w>
gene tic</w>
free dom</w>
ici al</w>
govern ments</w>
ep ing</w>
eff ective</w>
compe ti
wa ste</w>
plan e</w>
bra ins</w>
ar ri
S o
ous ness</w>
exp ensive</w>
deca des</w>
R i
Ch ri
tion ary</w>
ti tu
ir s</w>
exp lo
ar m</w>
si bility</w>
ph en
or ts</w>
on ic</w>
got ten</w>
as p
al ism</w>
1 8</w>
w ell
tra ining</w>
some how</w>
poin ts</w>
ph il
enc ed</w>
dow n
b and</w>
an e</w>
A re</w>
1 0
sor ts</w>
s ong</w>
pol l
ne w
ili ties</w>
hi m
g ames</w>
au tom
provi de</w>
great est</w>
e ting</w>
ur s</w>
su mp
solu tions</w>
re fl
g -
vis ual</w>
v ic
up on</w>
mean ing</w>
indu stri
consi der</w>
bot s</w>
any more</w>
a p</w>
seri ous</w>
ser ies</w>
r en
mor al</w>
m ir
engine ering</w>
dri ving</w>
s mo
neur ons</w>
in si
i shed</w>
cri tical</w>
re por
re cei
human ity</w>
fo ot
flo or</w>
der ed</w>
d aughter</w>
tou ch</w>
en or
e ties</w>
ali ve</w>
s wi
p age</w>
organiz ations</w>
no tic
be ings</w>
be coming</w>
ad ap
t an
f our
cap ital</w>
I mag
- year-old</w>
wer en</w>
ther ap
stu dies</w>
serv ices</w>
mil itary</w>
challeng es</w>
C ity</w>
we a
tu m
secon ds</w>
poli cy</w>
mas sive</w>
happ iness</w>
cre a
T V</w>
t ory</w>
small er</w>
relation ships</w>
ho t</w>
di versity</w>
tr ou
financi al</w>
e m</w>
dise ases</w>
comple te</w>
co ld</w>
citiz ens</w>
ar r
ac tual</w>
won der</w>
um ents</w>
prot e
op s</w>
om en
dang erous</w>
ro bots</w>
ple ase</w>
la ws</w>
cal cul
as ed</w>
1 8
sti c</w>
re mark
r is</w>
me ters</w>
est er
deci sion</w>
de f
d ow</w>
b its</w>
any where</w>
J u
m it
gal ax
g ent
diag nos
con sequ
ac ting</w>
P o
v al</w>
sig n
him self</w>
fas cin
es ti
cos ts</w>
to -
ther n</w>
sk ills</w>
al ter
ag ed</w>
st y
spea king</w>
ri se</w>
pres sure</w>
pres s</w>
ou ra
log ist</w>
li ghts</w>
g ni
tre at</w>
regi on</w>
it ation</w>
earli er</w>
doc tors</w>
clear ly</w>
al g
M on
s us
phen omen
con cept</w>
poli tics</w>
man u
h ic
tra in</w>
sub ject</w>
shar ed</w>
perform ance</w>
ox y
jus tice</w>
eri a</w>
cu ri
cep tion</w>
as s
ac ity</w>
a mp
wa iting</w>
cop e</w>
as se
w o
un e</w>
immedi ately</w>
fac es</w>
curr ent</w>
L on
val ues</w>
ti n</w>
s low</w>
d ance</w>
aw are</w>
S te
wal ked</w>
r ace</w>
par a
n ot
k ill</w>
deca de</w>
Imag ine</w>
vir us</w>
ot h</w>
h ous
aliz ation</w>
HI V</w>
C an
tw o-
through out</w>
h ur
colleag ues</w>
cle an</w>
R o
v acc
t or
mo bile</w>
Wh ich</w>
W ar</w>
7 0</w>
jour n
fe ed</w>
anc ed</w>
S A</w>
Li ke</w>
uni que</w>
s we
pri ce</w>
inve st
equ ality</w>
direc tion</w>
S p
th ree
list ening</w>
fami liar</w>
ess es</w>
en ting</w>
do g</w>
ac ci
underst ood</w>
s ch
pa ir</w>
op h
ini ti
follo wing</w>
care er</w>
af ter
a ster
tis su
on e-
le -
l ab
i res</w>
f its</w>
eng th</w>
conflic t</w>
beau ty</w>
W e
th i
si mul
rec ent</w>
re sear
l led</w>
f low</w>
er e
c ele
Uni versity</w>
J e
we ight</w>
w illing</w>
sustain able</w>
li ber
le vels</w>
in fra
gre ater</w>
tion ed</w>
there fore</w>
pp ing</w>
ori th
in a</w>
fin al</w>
ar g
ve hic
s -
mi sta
land sc
A d
ye ah</w>
wor k
typ es</w>
s at
func tion</w>
at ory</w>
alg orith
E ast</w>
Ch ris</w>
the tic</w>
phys ics</w>
l uc
for th</w>
depend ent</w>
wh ose</w>
sig n</w>
experi ences</w>
cap it
tra vel
r ot
qu ar
le gs</w>
expl or
enc oura
connec tion</w>
H u
vari ous</w>
t ext</w>
soci eties</w>
m es</w>
cho ices</w>
ur ban</w>
s ell</w>
ra id</w>
oc cu
hi stor
comfor table</w>
ac ked</w>
well -
t ex
no ther</w>
j a
di vi
d ama
con ven
1 4</w>
st ree
inv ented</w>
ec tively</w>
c ked</w>
rel ated</w>
progra ms</w>
mo m</w>
fe male</w>
f re
e e</w>
comm it
ac ts</w>
S y
A nother</w>
t t
s ent
manu fac
in str
appe ar</w>
5 ,000</w>
19 8
wor st</w>
ta tions</w>
st ress</w>
ra ise</w>
pul l</w>
ma gic</w>
li e</w>
l os
g gl
fant astic</w>
er a</w>
deci de</w>
d ying</w>
d ness</w>
anc y</w>
In stead</w>
ta ins</w>
sy mp
pe di
p ath</w>
cr os
ab les</w>
S econ
Joh n</w>
stran ge</w>
religi on</w>
mat h</w>
environ mental</w>
direc tly</w>
cont ent</w>
communi cate</w>
a head</w>
M any</w>
stopp ed</w>
st ation</w>
pr int</w>
help ed</w>
gen e</w>
fa ir
e um</w>
cor por
co ver</w>
bri dge</w>
a di
we alth</w>
us eful</w>
tr ack</w>
notic ed</w>
ne ar</w>
mem bers</w>
ex cept</w>
Lon don</w>
prac tice</w>
l u
em br
d a</w>
any way</w>
al though</w>
af raid</w>
add ress</w>
pe ace</w>
m osphere</w>
l li
in stance</w>
en ess</w>
consci ousness</w>
a id</w>
F rom</w>
summ er</w>
pre par
plan ets</w>
l ar</w>
infra structure</w>
fl ying</w>
exp ected</w>
d ate</w>
arti st</w>
ag ree</w>
P a
teach ing</w>
sen s
ri c</w>
re pe
pa id</w>
l ack</w>
e ding</w>
de mon
at mosphere</w>
ad di
we ap
publi shed</w>
pr ene
pi cal</w>
mos tly</w>
k il
g ate</w>
enor mous</w>
effici ent</w>
cor rec
bir th</w>
as soci
W ester
zer o</w>
marke ts</w>
an k
ag ri
us i
terri ble</w>
temper ature</w>
stree ts</w>
l ands</w>
impro ve</w>
de stro
C ali
re duc
f ying</w>
a vo
R us
ter ed</w>
en ch</w>
con tr
con fi
clos er</w>
F ace
seem ed</w>
l ying</w>
high ly</w>
g ery</w>
fi gh
el lit
dev ices</w>
am bi
Tw o</w>
Cali for
tu red</w>
three -
su s</w>
sa fe
pl at
pl astic</w>
par ty</w>
me eting</w>
ill ed</w>
ac tiv
N ational</w>
tur ning</w>
s wit
ph o
insp ired</w>
ent re
bi li
app ed</w>
al ist</w>
achi ev
K en
w is
tim ately</w>
play ed</w>
mi le</w>
experim ents</w>
entre prene
dol lar</w>
cap acity</w>
camp a
ca uses</w>
ac cep
An y
y a</w>
tra ff
tis m</w>
p ush
it es</w>
for get</w>
fe els</w>
ev ent</w>
eff ects</w>
secre t</w>
remark able</w>
m it</w>
ho le</w>
fu el</w>
f la
en tation</w>
dra w</w>
ari a</w>
ter y</w>
survi ve</w>
struc tures</w>
n ur
expl ore</w>
disco ver</w>
ap art</w>
ali a</w>
Face book</w>
signific ant</w>
pri son</w>
p ush</w>
obvi ous</w>
net works</w>
ne arly</w>
hel d</w>
communi cation</w>
anci ent</w>
Y our</w>
Califor nia</w>
1 6</w>
sat ellit
photograp h
os y
me ter</w>
be es</w>
am a</w>
ab ilities</w>
Ta ke</w>
D r.</w>
w el
shar ing</w>
n ation</w>
mm ing</w>
l er</w>
inte gr
h us
bro ken</w>
b one</w>
and a</w>
Bra z
A b
x es</w>
squ are</w>
ot ing</w>
ess ed</w>
em is
bio logical</w>
B ro
man i
con duc
comm erci
car ry</w>
att ack</w>
W om
st ates</w>
st ar</w>
pur pose</w>
produc ed</w>
min i
il ing</w>
c ore</w>
M an</w>
we b</w>
tre m
terr or
sug ge
stre am</w>
sle ep</w>
s at</w>
ound ation</w>
ex ten
cu stom
1 ,000</w>
web site</w>
m el
f os
desig ners</w>
crea tivity</w>
chil d
ag re
T i
spe ech</w>
sli de</w>
scienti st</w>
des p
degre es</w>
charac ter</w>
achi eve</w>
Th ink</w>
9 0</w>
sur r
sli ghtly</w>
mo tiv
lon g-
ist an</w>
di a
v ul
te en
orig inal</w>
emo tional</w>
dro p</w>
di o</w>
clas s
br inging</w>
wor ry</w>
stic k</w>
st -
respon sibility</w>
re -
easi ly</w>
dd en</w>
cri min
chem ical</w>
al -
shi ft</w>
possi bly</w>
pas sed</w>
par ti
op pos
cro w
Euro pe
C hi
Af gh
vic ti
re ma
help ing</w>
he at</w>
d ad</w>
cor ner</w>
ck et</w>
ach es</w>
w ear
tis h</w>
tele vision</w>
ru le</w>
m p</w>
kno wing</w>
for ces</w>
f ab
bas is</w>
z o
resear ch
j ec
intro duc
hear ing</w>
fas hi
ver ing</w>
ot yp
mat ters</w>
lo ad</w>
import antly</w>
e ating</w>
dy nam
differ ently</w>
G u
stand ard</w>
re duce</w>
pas sion</w>
neigh b
kil ome
jo in</w>
eng age</w>
cen tral</w>
be low</w>
ans wers</w>
tu m</w>
t al</w>
stra ight</w>
b ought</w>
ali ties</w>
Wester n</w>
x ed</w>
un g</w>
sur gery</w>
ra in</w>
ha ir</w>
gi ant</w>
differ ences</w>
ad y</w>
Gre at</w>
radi o</w>
photograp h</w>
necess ary</w>
mis sing</w>
extr a</w>
bab ies</w>
ar t
ai m</w>
A I
tw ice</w>
trou ble</w>
sump tion</w>
r ying</w>
pre v
pre si
lead ing</w>
desp ite</w>
cele br
Au str
stor s</w>
pop ular</w>
le t
la un
b ble</w>
app ly</w>
V i
B er
moun tain</w>
il ed</w>
evol ved</w>
enti rely</w>
co ff
avi d</w>
H ey</w>
Afgh an
sty le</w>
res ol
phil os
n a</w>
defin ition</w>
comp on
bu t
bl ind</w>
ac ti
Afghan istan</w>
sp ending</w>
na tive</w>
gu n</w>
gen ome</w>
fin ished</w>
fi x</w>
c ot
bo ys</w>
Ch ar
1 3</w>
val u
s al</w>
religi ous</w>
rais ed</w>
p al
n one</w>
mom ents</w>
in tu
foc used</w>
easi er</w>
b la
R a
vis it</w>
tur ing</w>
su me</w>
pas s</w>
o ther
maj ority</w>
low -
l a</w>
har d
ent ally</w>
ari an</w>
an g</w>
ach ing</w>
O r
H is</w>
tran si
tot al</w>
t ask</w>
supp ly</w>
ser ve</w>
landsc ape</w>
ing ton</w>
h ot
fun ny</w>
descri be</w>
degre e</w>
consci ous</w>
ar ies</w>
an z
an ger</w>
Th e
O b
Mus li
trem end
ro ck</w>
ri ver</w>
respon d</w>
qu ick</w>
organ isms</w>
neighbor hood</w>
invest ment</w>
bal ance</w>
z en</w>
x ity</w>
ti l
ro oms</w>
rep ort</w>
identi ty</w>
fi cation</w>
er ship</w>
en ed</w>
ema il</w>
el ess</w>
aliz e</w>
uni ties</w>
tici ans</w>
re turn</w>
re fu
pri mar
plac ed</w>
farm ers</w>
d ents</w>
Is ra
2 ,000</w>
si des</w>
s ick</w>
pain ting</w>
gl ass</w>
din os
cre ates</w>
coll ective</w>
M an
19 7
z ine</w>
ple as
meas u
ec u
R ic
I ra
trans l
tion ally</w>
opport unities</w>
off er</w>
ne ga
gr y</w>
es sion</w>
emp o
call s</w>
bl ing</w>
Jap an</w>
we ar</w>
rou gh
no tion</w>
l ling</w>
l am
iz ation</w>
gra de</w>
f all
cy cle</w>
comple xity</w>
arti sts</w>
ac cur
Th anks</w>
C am
3 00</w>
vol un
us ual</w>
stud ying</w>
oppos ite</w>
n an
la w
imag ination</w>
dom in
deter min
and -
Q u
1 .
s la
molec ules</w>
gra v
fore ver</w>
di stance</w>
clas si
civi liz
bus in
ap h
O ver</w>
1 0,000</w>
st uck</w>
nu tri
figu red</w>
des ire</w>
depres sion</w>
civi l</w>
c ell
believ ed</w>
an ce
Europe an</w>
D avid</w>
strate gy</w>
ke ts</w>
it ely</w>
g ly</w>
exp ec
dou b
di sa
c um
D P</w>
va tive</w>
suff ering</w>
lim ited</w>
chec k</w>
ap preci
a -
M ex
w alls</w>
tissu e</w>
ne l</w>
ma ga
in ci
hy dro
ear th</w>
bene fits</w>
vir tual</w>
respon sible</w>
r ac
oper ation</w>
l oss</w>
im m
fail ure</w>
f icial</w>
f ically</w>
c o</w>
ali sts</w>
ad a</w>
T ur
F in
3 D</w>
transp or
s y</w>
lead ership</w>
ce ive</w>
bu d
be l</w>
ar tic
C O
Ac tually</w>
win dow</w>
u tionary</w>
su it</w>
so il</w>
sit es</w>
pre vi
oxy gen</w>
nar ra
le tter</w>
l at
engine ers</w>
br ings</w>
bl ed</w>
bil lions</w>
a stron
ul timately</w>
t ons</w>
resp ect</w>
qu es</w>
hol ding</w>
extre me</w>
eff ort</w>
con ference</w>
bri lli
bir ds</w>
aff ord</w>
acti vi
S an</w>
D ar
Au dience</w>
par k</w>
ir ing</w>
i de</w>
ha bit
e dge</w>
cre d
c ard</w>
Ho wever</w>
trans form</w>
tra ined</w>
stu died</w>
g ers</w>
equ al</w>
child hood</w>
cha ir</w>
be d
b ank</w>
as si
adv ant
ac king</w>
tri al</w>
tra de</w>
so ld</w>
sa ving</w>
re ve
p rou
f s</w>
cat ch</w>
car to
c t</w>
bl es</w>
b on
asse m
app ing</w>
Fr ench</w>
y el
hus band</w>
gen der</w>
for ced</w>
du e</w>
dre ams</w>
di sp
at temp
an -
serv ation</w>
sec tor</w>
less on</w>
it ch
in -
ig n
hel ps</w>
ess or</w>
coll ap
bro ad
br and</w>
an a</w>
T u
v ast</w>
supp or
sh el
rep li
manag ed</w>
inter act</w>
coff ee</w>
bo at</w>
ad op
W ash
T wit
Indi an</w>
2 4</w>
vul ner
spac es</w>
sh ort
s w
ri age</w>
possi bility</w>
pho to</w>
kilome ters</w>
fore sts</w>
f requ
emo tions</w>
bene fit</w>
anc ing</w>
Secon d</w>
On ce</w>
A t
suc ce
sc ul
open ed</w>
in visible</w>
gent le
figh ting</w>
fair ly</w>
el er
cri me</w>
blo ck</w>
wear ing</w>
ul ate</w>
th row</w>
t ent</w>
on -
nor m
necess arily</w>
mo on</w>
l ap
ke e
hor ri
deep ly</w>
consequ ences</w>
cha in</w>
beli ef</w>
ad ver
T al
Ha ve</w>
Ge or
Bri tish</w>
traff ic</w>
se ly</w>
nam es</w>
luc ky</w>
industri al</w>
go l
el ements</w>
disco very</w>
condi tion</w>
co o
Some times</w>
N ig
AI D
A gain</w>
rup tion</w>
f ro
ec osy
al es</w>
accoun t</w>
Wash ington</w>
A n</w>
temp or
ta il</w>
refu ge
new sp
li c</w>
it able</w>
gg ing</w>
g yp
f lies</w>
every day</w>
el es
e fully</w>
compar ed</w>
col ors</w>
cap able</w>
campa ign</w>
ar m
am ing</w>
Braz il</w>
tremend ous</w>
no ise</w>
li f
inv est</w>
h ome
for d</w>
cre ation</w>
ca ught</w>
c ing</w>
st one</w>
sol di
repres ent</w>
predic t</w>
part ment</w>
op tim
et c</w>
ep ide
dem and</w>
be l
b le
wa ke</w>
tri l
th in</w>
sudd en</w>
ro ll</w>
rele v
on g
o logical</w>
mi gr
l en
f illed</w>
d a
bas e</w>
ad ults</w>
a st
AID S</w>
ste ps</w>
pro found</w>
philos op
om y</w>
nega tive</w>
mon it
lea ds</w>
il e
ci ence</w>
brea k
Twit ter</w>
D id</w>
A sia</w>
A ma
ste in</w>
s ac
he ads</w>
gener ate</w>
ev ents</w>
br an
back ground</w>
transp ar
tar get</w>
surpri se</w>
sor ry</w>
sen si
mo thers</w>
fail ed</w>
f li
cra tic</w>
c ru
acc eler
a im
wil d</w>
un fortunately</w>
therap y</w>
st ay
resi dent</w>
organiz ed</w>
mo ves</w>
mar ried</w>
i ds</w>
ha s
gen cy</w>
g lo
en joy</w>
const antly</w>
b ru
ty pical</w>
sh ou
sa v
mo tion</w>
le ts</w>
grap h</w>
f light</w>
desig ning</w>
co gni
bili ties</w>
au tism</w>
P ri
G r
F or
1 7</w>
um s</w>
su m</w>
sion ate</w>
sex ual</w>
res sed</w>
prou d</w>
phenomen on</w>
perf ec
or row</w>
is es</w>
int ell
gg le</w>
follo wed</w>
fa ir</w>
coun t</w>
competi tion</w>
clos ed</w>
cir cle</w>
ca de
ar ms</w>
Ira q</w>
1 ,
val ent</w>
t ough</w>
surpri sed</w>
sp ot</w>
s ons</w>
r in
r a</w>
pas s
other wise</w>
lea ving</w>
k a</w>
fascin ating</w>
fac tory</w>
f ill</w>
enc ing</w>
cont act</w>
be at</w>
be ar</w>
as ks</w>
ag s</w>
W il
Th ree</w>
N A
tre ated</w>
par al
pa th
m ouse</w>
hi dden</w>
exist ence</w>
ex hi
en se</w>
deli ver</w>
dama ge</w>
cor ding</w>
Se e</w>
titu de</w>
s low
prof it</w>
pre gn
p ounds</w>
lead er</w>
lab or</w>
ke eping</w>
inv ited</w>
de a
consi dered</w>
ca used</w>
beg ins</w>
ap ers</w>
M ore</w>
Ger many</w>
th ri
sig nal</w>
pu ts</w>
oper ate</w>
gro wn</w>
ge ly</w>
fore ign</w>
experi enced</w>
ex tin
descri bed</w>
b ird</w>
TE D
M c
F i
E gyp
wa ves</w>
univer sity</w>
r on
pic ked</w>
p ha
oce ans</w>
n ote</w>
n it
mi d
men tioned</w>
mal aria</w>
l abor
inv en
i or</w>
clin ical</w>
ca te
I T</w>
worl d
vie ws</w>
sho p</w>
sh ouldn</w>
r ates</w>
produc tive</w>
phys ici
oun ding</w>
hous es</w>
cre atures</w>
concer ned</w>
commerci al</w>
char ge</w>
C oun
struc tion</w>
sto od</w>
sequ ence</w>
sec tion</w>
scen e</w>
re m
ran dom</w>
ke t
ju d
engine er</w>
dri ven</w>
dimen sional</w>
conv inc
cl oud</w>
bro ther</w>
a thy</w>
T im
P le
wh om</w>
sta ur
reg ular</w>
re staur
organ ic</w>
l ay</w>
en cies</w>
deb ate</w>
construc tion</w>
ai ly</w>
P al
CO 2</w>
yel low</w>
wat ched</w>
th ir
surpri sing</w>
sign als</w>
recei ved</w>
prac tic
plat form</w>
movi es</w>
m ma
identi fy</w>
fe ed
es ome</w>
ele ph
cop y</w>
cir cu
che ap</w>
avo id</w>
aff ect</w>
F e
we ird</w>
tri p</w>
safe ty</w>
quot e</w>
parti cles</w>
oper ating</w>
ki d
influ ence</w>
en ever</w>
emplo ye
curr ently</w>
cate g
busin esses</w>
ar gue</w>
Li fe</w>
us ers</w>
survi val</w>
research ers</w>
prev ent</w>
plan ning</w>
multi ple</w>
mathema tics</w>
ill u
hon est</w>
h ate</w>
gener ations</w>
fashi on</w>
electri c</w>
edu ca
Mex ic
E ach</w>
wa ve</w>
ul ations</w>
tion ing</w>
th -
tal ity</w>
sus p
phot os</w>
p ages</w>
m outh</w>
inv esti
har der</w>
fol ks</w>
ex ists</w>
ess ential</w>
char acter
M il
Austr alia</w>
si ght</w>
s and</w>
oc cur
ob s
man age</w>
lea ves</w>
fo ld</w>
f ell</w>
contin ent</w>
Go od</w>
Fr anc
y er</w>
thre at</w>
t ac
s pl
pu zz
p ra
mic ros
fa ith</w>
e g
B rit
19 6
un less</w>
slow ly</w>
r ay</w>
princi ples</w>
pl us</w>
iz ing</w>
has n</w>
exper ts</w>
er t</w>
d aily</w>
call ing</w>
brilli ant</w>
be t</w>
at ch</w>
am i</w>
G DP</w>
- up</w>
volun te
spec tr
si ster</w>
ra in
process es</w>
perfec tly</w>
mp s</w>
m er</w>
inter action</w>
h ell</w>
gh t
far m</w>
er -
do ws</w>
deep er</w>
de fine</w>
d el
Bi g</w>
ve -
u le</w>
trans formation</w>
to ward</w>
t ol
ster y</w>
sta tis
separ ate</w>
r ural</w>
pay ing</w>
os ity</w>
in j
hom es</w>
h a</w>
desig ner</w>
charac ters</w>
analy sis</w>
an thro
V ery</w>
S we
P resident</w>
Ama z
2 1
se as
princi ple</w>
met aph
j e
fiel ds</w>
est ab
agri culture</w>
Ch il
C E
vo ices</w>
to x
techni cal</w>
sa ved</w>
requ ires</w>
profes sional</w>
min d
inter ven
in ner</w>
hol es</w>
b us</w>
arti ficial</w>
ar ity</w>
4 00</w>
1 5
wis dom</w>
wer ed</w>
v ement</w>
tum or</w>
thre at
t ech</w>
sur ve
spo ke</w>
pa int</w>
p y</w>
on ed</w>
norm ally</w>
ner v
maga zine</w>
le g</w>
j ump</w>
is ol
doc um
de aling</w>
civiliz ation</w>
cir cum
ch imp
M S</w>
K .</w>
D o
v ote</w>
ten s</w>
stitu te</w>
sti mul
si an</w>
s ul
mus eum</w>
mar riage</w>
mag ne
laun ched</w>
intell ec
ha dn</w>
go ld</w>
fri end
Mexic o</w>
M r.</w>
wor ried</w>
tal ks</w>
seri ously</w>
scul p
ne uro
let ters</w>
ins ects</w>
conversa tions</w>
con cep
arg ument</w>
ann oun
advant age</w>
ac cept</w>
a ti
S tre
Every body</w>
viol ent</w>
ur ch</w>
uc ks</w>
ris ks</w>
ra tional</w>
or ders</w>
mo di
mess ages</w>
mean ing
inter pre
erci se</w>
eff ectively</w>
de st
coll ect</w>
col on
co vered</w>
b y
b in
M al
Every thing</w>
Can ada</w>
tom orrow</w>
te sting</w>
so li
shi f
or d
o be
increas ingly</w>
high est</w>
ga ther
ga p</w>
g el
ex ercise</w>
deta il</w>
comp are</w>
coll ection</w>
cl aim</w>
chem i
bl in
ang le</w>
z one</w>
stru ggle</w>
spir it</w>
re action</w>
po e
par ent</w>
mat ch</w>
lay er</w>
hy po
g ation</w>
fac ing</w>
f al
ex plan
ex act</w>
direc t</w>
c tion</w>
appe ared</w>
R ob
Chri st
z es</w>
z a</w>
v es
simp li
sig ned</w>
sent ence</w>
rele ase</w>
re f
prote in</w>
pro ve</w>
p ment</w>
ot ed</w>
k ne
imp li
fl u</w>
fac ts</w>
demon str
curi ous</w>
connec tions</w>
au d
appro pri
ab led</w>
V al
B os
B ar
wonder ing</w>
sym bo
sp i
satellit e</w>
prot otyp
proper ty</w>
pres er
p it
grap hic</w>
grap h
es tim
emis sions</w>
coun ter
G o</w>
tril lion</w>
the ater</w>
sm ell</w>
si vely</w>
me at</w>
intellig ent</w>
g ay</w>
di o
cred it</w>
comp os
cho ol</w>
b oun
av y</w>
adv anced</w>
the sis</w>
te x</w>
sp on
sc an
produc ing</w>
pp er</w>
n e</w>
mil li
hop efully</w>
grand mother</w>
gradu ate</w>
emer ging</w>
dou ble</w>
din ner</w>
camer as</w>
artic le</w>
an tum</w>
ad ed</w>
ac ted</w>
ab str
Tim es</w>
B ill</w>
weap ons</w>
u ri
symp tom
ser ved</w>
sa d</w>
s co
re al
process ing</w>
presi dent</w>
op ening</w>
micro bes</w>
lo cation</w>
li br
import ance</w>
ge on</w>
fra me</w>
fin ger</w>
dra wing</w>
car ds</w>
c ure</w>
W ould</w>
H i
E in
vehic le</w>
ti ous</w>
th care</w>
techni ques</w>
swit ch</w>
shap es</w>
sh es</w>
r are</w>
galax ies</w>
es cap
equi valent</w>
bro ke</w>
arri ved</w>
acci dent</w>
a war
M IT</w>
L in
univer sal</w>
qu it
manag ement</w>
l au
bre ast</w>
ang ing</w>
addi tion</w>
ad ult</w>
ver sus</w>
vari ety</w>
su ggest</w>
sp ring</w>
ri d</w>
relev ant</w>
reas on
prom ise</w>
gg ed</w>
feel ings</w>
deta ils</w>
chemi stry</w>
al o
4 5</w>
stru ggl
speci fically</w>
re sc
ph er
part ner</w>
narra tive</w>
mus cle</w>
met al</w>
logi c</w>
lo c
l as
in dependent</w>
id ly</w>
gen i
fa il</w>
con cl
al ed</w>
L ast</w>
I tal
I I</w>
A le
vis u
sym me
sel ling</w>
se tt
p id</w>
no w
mat es</w>
manufac turing</w>
li qu
i ly</w>
gl and</w>
g on
e th</w>
cre te</w>
a k
F ri
vide os</w>
sto ck</w>
sho es</w>
re ci
pre -
neur os
mar k</w>
langu ages</w>
j ective</w>
hosp it
heal thcare</w>
feed back</w>
cor ruption</w>
au l</w>
associ ated</w>
anti bio
alter native</w>
The ir</w>
S ince</w>
Ric hard</w>
R es
P i
wea ther</w>
war ming</w>
us ive</w>
thin ks</w>
sour ces</w>
ro ads</w>
rele ased</w>
op e</w>
n ose</w>
mor tality</w>
ma tically</w>
ma ster</w>
long- term</w>
l unch</w>
h i</w>
fos si
form ing</w>
blo cks</w>
b allo
We b</w>
S ha
Mi ddle</w>
Ein stein</w>
A s
7 5</w>
10 0,000</w>
t eles
symptom s</w>
priv ile
nerv ous</w>
mov ements</w>
four th</w>
exist ing</w>
equi pment</w>
eng ine</w>
econom ics</w>
ch er</w>
G i
vie wed</w>
um in
str ength</w>
rela tively</w>
re min
kill ing</w>
is ti
is land</w>
intellec tual</w>
increas ing</w>
in her
em ber</w>
dr ink</w>
defin itely</w>
cou ra
ca st</w>
bi a</w>
an o</w>
Wom en</w>
W hi
3 5</w>
transpor tation</w>
se at</w>
rough ly</w>
qu antum</w>
prin ting</w>
poli ticians</w>
ou se
org ans</w>
oph isti
ne ath</w>
molec ule</w>
life time</w>
increas ed</w>
gi es</w>
fin ish</w>
fac tors</w>
es h</w>
e ds</w>
d est</w>
bre ath</w>
Stre et</w>
K ore
Har v
C ome</w>
Brit ain</w>
20 th</w>
war m</w>
vol u
us er</w>
un k</w>
ul l</w>
thou ghts</w>
sen ding</w>
s ophisti
res h</w>
rem ote</w>
rap idly</w>
possi bilities</w>
per form</w>
on y
ne ar
nat ur
mp ed</w>
in ts</w>
gre en
gra tion</w>
fel low</w>
exp an
distribu tion</w>
d ry</w>
cu tting</w>
cor tex</w>
class room</w>
ap art
air plane</w>
ad ly</w>
Ple ase</w>
An gel
Amaz on</w>
vulner able</w>
ve ge
valu able</w>
stra tion</w>
se es</w>
requ ired</w>
pro ce
na tions</w>
mem ber
it u
expres sion</w>
ech no
do ors</w>
deser t</w>
cul tures</w>
comb ination</w>
at trac
an i
U. K.</w>
Geor ge</w>
D es
C ould</w>
B as
ye ster
terror ism</w>
su ici
shou l
re main</w>
pro p
m pl
los ing</w>
ke ys</w>
inv ent</w>
insp i
in fin
in equality</w>
ic als</w>
ho wever</w>
f oundation</w>
evol utionary</w>
dri ver</w>
dis ci
defin ed</w>
cap ture</w>
an xi
aff ected</w>
Ar ab
world wide</w>
wh enever</w>
tan e
se ts</w>
r ound</w>
r hy
grand father</w>
electri cal</w>
e u
e li
Ken ya</w>
Fr ance</w>
x ing</w>
w est</w>
ro b
meth od</w>
intu i
inst all
go ti
galax y</w>
ere as</w>
epide mic</w>
employe es</w>
emp ty</w>
dist inc
con sumption</w>
cle an
chem icals</w>
bre ad</w>
anti -
a urs</w>
Su n</w>
NA SA</w>
H ol
C or
worl ds</w>
victi ms</w>
under neath</w>
um ber</w>
travel ing</w>
statis tics</w>
sec ure</w>
re ached</w>
previ ous</w>
prepar ed</w>
pl ays</w>
pic ally</w>
ph r
n ic
m ate</w>
is co</w>
h os
go ods</w>
gentle men</w>
g an
fundam entally</w>
fi le</w>
em bar
dynam ic</w>
dol ph
convinc ed</w>
b ar</w>
aw esome</w>
ar ts</w>
L os</w>
Jap an
I S
D oes</w>
3 ,000</w>
yester day</w>
son gs</w>
sensi tive</w>
se tting</w>
sc ared</w>
recor ded</w>
prof essor</w>
men ted</w>
less ons</w>
k et</w>
environ ments</w>
en coun
disci pl
dimen sions</w>
behavi ors</w>
ba g</w>
b ol
J ames</w>
I ran</w>
1 50</w>
writ er</w>
tradi tion</w>
to il
spectr um</w>
scri p
sa tis
requ ire</w>
rec y
qu a
poin ted</w>
particip ate</w>
la unch</w>
l ady</w>
kee ps</w>
it ting</w>
in sur
gi ft</w>
g all
eng aged</w>
co al</w>
care fully</w>
autom a
att acks</w>
algorith ms</w>
adver ti
ac le</w>
absolu te</w>
Y et</w>
D is
sol ved</w>
si x
s an
re ment</w>
radi cal</w>
radi ation</w>
priv acy</w>
organ ism</w>
mem ories</w>
ma mm
intro duce</w>
elec tion</w>
cr uc
ac tor</w>
W al
En gland</w>
A ra
w ings</w>
un it</w>
ul ated</w>
teen ag
primar y</w>
per s</w>
ne goti
ly mp
l ink</w>
is ed</w>
inter face</w>
ex change</w>
det ect</w>
clo ck</w>
cen ters</w>
ca ting</w>
bat tery</w>
at ri
an gl
1 7
pot entially</w>
or ing</w>
op tion</w>
neighb ors</w>
mi x</w>
ki st
in ev
he avy</w>
go als</w>
fe min
ent y</w>
di r
de -
d ots</w>
confi dence</w>
con ta
ci l</w>
aw ful</w>
ad ded</w>
S cot
J an
Harv ard</w>
stu pid</w>
sk ele
s outh</w>
ri de</w>
repres ents</w>
re t
re place</w>
por tra
org an</w>
open -
nee d
mechan ism</w>
k itch
grav ity</w>
g or
fund ing</w>
es timate</w>
dinos aurs</w>
b right</w>
Con gress</w>
200 8</w>
0 0,000</w>
y ers</w>
un known</w>
te sts</w>
ste el</w>
rou gh</w>
part ners</w>
m as</w>
jo ined</w>
gra m</w>
der son</w>
correc t</w>
cli ck</w>
challeng ing</w>
c at</w>
bud get</w>
b ic
S chool</w>
P S</w>
Nig eria</w>
N a
K e
At lan
wh el
wer ing</w>
transi tion</w>
re ven
qu e
oc ca
mal es</w>
ir t</w>
gener ated</w>
g ment</w>
fossi l</w>
fle xi
fi sh
c ents</w>
activi ties</w>
ac cording</w>
U S</w>
Tal k</w>
Franc isco</w>
2 .
vir uses</w>
v ey</w>
te eth</w>
struc k</w>
stat us</w>
pre ven
per ception</w>
p ack
out come</w>
or al</w>
off ic
nor th</w>
mathema tical</w>
introduc ed</w>
gr an
expres s</w>
dep lo
dep ends</w>
contro lled</w>
consi st
compon ents</w>
co ast</w>
C .</w>
9 9</w>
19 5
st able</w>
prot ection</w>
proper ties</w>
pro por
poe try</w>
molec ular</w>
medi um</w>
liqu id</w>
l or
inven tion</w>
inclu de</w>
ill ness</w>
h ouse
explor ation</w>
est s</w>
con crete</w>
cogni tive</w>
cl ou
cl aim
cen tu
cen tr
bat tle</w>
appli ed</w>
P aul</w>
Isra el</w>
E l
C enter</w>
tri ck</w>
stre t
st y</w>
sil ence</w>
sa mple</w>
regi ons</w>
re ti
prot ected</w>
over whel
natur ally</w>
is on</w>
hor iz
hon or</w>
g un
ent ure</w>
di v
cor al</w>
brea king</w>
ar ing</w>
Musli m</w>
C l
2 000</w>
ti ll</w>
th es</w>
st ant</w>
soldi ers</w>
sol ving</w>
situ ations</w>
resour ce</w>
re mind</w>
pl ate</w>
m ur
lo ck</w>
l in</w>
l augh
hop ing</w>
gi cal</w>
en able</w>
demo cratic</w>
cur ve</w>
con ser
car rying</w>
awar eness</w>
ang ers</w>
adv ice</w>
ac tors</w>
Y ou
S at
K i
C en
0 0
w are</w>
volu me</w>
vi a</w>
tempor ary</w>
sig ns</w>
resol ution</w>
re member
qu anti
pul led</w>
plan es</w>
ori ties</w>
moun tains</w>
metaph or</w>
ca ve</w>
bu bble</w>
Pa kist
20 10</w>
t les</w>
sophisti cated</w>
ro of</w>
restaur ant</w>
resi stance</w>
no on</w>
meaning ful</w>
imp res
hi de</w>
dri ves</w>
de man
ber g</w>
aster o
W ow</w>
Mic ha
Japan ese</w>
Al so</w>
tri als</w>
te sted</w>
sou l</w>
rais ing</w>
pl u
op tions</w>
log ically</w>
liter ature</w>
li ked</w>
ici ans</w>
echno logy</w>
collabor ation</w>
as ses</w>
V o
On ly</w>
B l
Ara b</w>
An derson</w>
ty pically</w>
swi mming</w>
swi m</w>
st ances</w>
sk ill</w>
se v
sc r
rhy th
res er
pregn ant</w>
po em</w>
om as</w>
no vel</w>
imp le
fu nd</w>
fall ing</w>
encoura ge</w>
en jo
emo tion</w>
el ing</w>
ed it
dr in
crimin al</w>
chimp anz
bu ying</w>
bar ri
aster n</w>
ance stors</w>
Tu be</w>
H er</w>
Chri sti
Be fore</w>
vacc ine</w>
techno logical</w>
st eri
per man
per cent
orig in
not es</w>
m aps</w>
kitch en</w>
interest s</w>
inno vative</w>
in struc
imm une</w>
hospit als</w>
go s</w>
fac tor</w>
f resh</w>
doub t</w>
de struction</w>
corpor ate</w>
conv ince</w>
const ant</w>
ch ic
bi om
appreci ate</w>
Me di
In stitute</w>
21 st</w>
wal ks</w>
sp orts</w>
s lo
occu r</w>
mista ke</w>
institu tion</w>
hur t</w>
gri d</w>
fu els</w>
fe wer</w>
fac ed</w>
expla ined</w>
exp on
ev ening</w>
embr ace</w>
cra ft</w>
consum er</w>
S ol
Chi ca
Angel es</w>
was h
sing ing</w>
s na
re ward</w>
re spec
r ene
na vi
my stery</w>
ma kers</w>
li cen
it i</w>
gener ally</w>
evi l</w>
dro pped</w>
do gs</w>
di et</w>
des per
con stra
ch est</w>
centu ries</w>
bor ing</w>
amp ;</w>
You Tube</w>
Whi le</w>
S er
L u
Chica go</w>
B G</w>
& amp;</w>
va st
tra ge
top ic</w>
st un
sens ors</w>
run s</w>
rela tive</w>
recor ds</w>
re a
poli cies</w>
play er</w>
in ion</w>
imag ined</w>
i Ph
hy per
ho ods</w>
form er</w>
disa ster</w>
cr oss</w>
c king</w>
asp ects</w>
J er
D .</w>
sta ff</w>
sh all</w>
re fer
provi ding</w>
progra mm
pos t-
pleas ure</w>
phys ically</w>
pedi a</w>
pe ace
p ort</w>
p il
newsp aper</w>
mis s</w>
l -
it arian</w>
instr ument</w>
evol ve</w>
effici ency</w>
ch ose</w>
c ement</w>
bus y</w>
ap es</w>
amoun ts</w>
te ams</w>
sc ar
re ver
mot or</w>
mista kes</w>
men tion</w>
me -
inter view</w>
imag in
hol ds</w>
gar den</w>
fl at</w>
ent ary</w>
emp athy</w>
el ine</w>
do zen</w>
dea ths</w>
de di
coll ected</w>
bot tle</w>
at en</w>
ar d
accur ate</w>
S tu
G ree
C i
win ter</w>
tic a</w>
th anks</w>
shap ed</w>
ro ots</w>
ri sing</w>
ri di
rel ate</w>
re stri
pro of</w>
pe t</w>
op inion</w>
measu red</w>
ly wood</w>
inf ected</w>
explan ation</w>
exp and</w>
estab li
ec tions</w>
cul ar</w>
crow d</w>
be e</w>
b a</w>
appropri ate</w>
ap par
ad mit</w>
acc es
ab sor
Per haps</w>
P aci
wonder ed</w>
sp ar
photograph s</w>
os is</w>
on ics</w>
in gre
ingre di
fi shing</w>
f at</w>
electr onic</w>
discus sion</w>
co ordin
ca using</w>
ca mp</w>
bi as</w>
appe ars</w>
anal o
agre ed</w>
M at
F ive</w>
B ank</w>
200 9</w>
xi de</w>
x im
wor ker</w>
tol er
sev ere</w>
qui et</w>
push ing</w>
pres ence</w>
pre ce
perform ing</w>
om ic</w>
l ength</w>
inspi ration</w>
entreprene urs</w>
econom ies</w>
direc tor</w>
dar k
bo xes</w>
ar re
am ed</w>
allo wing</w>
St ate</w>
St an
S ep
N umber</w>
ul timate</w>
ul ous</w>
the -
t ack
suff er</w>
stron ger</w>
resi li
re less</w>
par king</w>
or an
occur red</w>
n or</w>
hor se</w>
h ack
fil ms</w>
fe eding</w>
cr ash</w>
connec ting</w>
compu ting</w>
clo thes</w>
bur ning</w>
bor ders</w>
bir th
b ones</w>
au ton
as sume</w>
ar my</w>
a cade
Sep tem
Par is</w>
Paci fic</w>
N i
Char les</w>
B r
Any way</w>
un usual</w>
ton ight</w>
s ca
recogn ized</w>
prote ins</w>
prac tical</w>
person ally</w>
percent age</w>
p es</w>
grap hy</w>
func tions</w>
es tic</w>
comb ined</w>
after noon</w>
Val ley</w>
T e
Septem ber</w>
S ou
O lymp
5 0,000</w>
ta x</w>
stu dio</w>
stay ed</w>
si ties</w>
repor ted</w>
rema ins</w>
refuge es</w>
pro gres
p y
opp ing</w>
min ist
in d
ic a</w>
hand le</w>
gu ar
flo wers</w>
figu res</w>
fer ti
fal se</w>
exper t</w>
ex ter
ecosy stem</w>
depend ence</w>
appli cations</w>
an gry</w>
ad es</w>
Uni on</w>
Micha el</w>
K ing</w>
Every one</w>
vehic les</w>
v it
v ation</w>
stat ement</w>
pas sionate</w>
op ia</w>
off ered</w>
ne u
lar gely</w>
instr uments</w>
illu str
hydro gen</w>
ge ograp
expl os
elec tro
dra matic</w>
comfor t</w>
co ol
clos ely</w>
cli p</w>
ch ap
algorith m</w>
W ill</w>
Un fortunately</w>
O c
No body</w>
A l</w>
- to-
- like</w>
sug ar</w>
sub -
sc ore</w>
o rest</w>
no where</w>
mir ror</w>
lo cked</w>
labor atory</w>
l ine
in fl
il legal</w>
fi f
fe atures</w>
ex tent</w>
el ev
deter mine</w>
d ancing</w>
but ton</w>
auth ority</w>
Th omas</w>
Ob ama</w>
M u
G lob
Bos ton</w>
B al
u ary</w>
t at
succe ed</w>
spec tac
ser ving</w>
re pair</w>
re move</w>
re ceive</w>
ra w</w>
psy ch
produc tivity</w>
para dig
p un
on e
lin ked</w>
ha n</w>
fru str
fr ank
fin gers</w>
eff orts</w>
dre w</w>
dis play</w>
d ay
chi p</w>
ch art</w>
an der</w>
Sat ur
6 00</w>
2 2</w>
wat er
war s</w>
under water</w>
tain ment</w>
t ape</w>
t all</w>
so -
ri gh
recy cl
poll ution</w>
person ality</w>
out comes</w>
mar ine</w>
jo ke</w>
is tics</w>
h its</w>
green house</w>
gra b</w>
gl am
g ent</w>
frank ly</w>
fra me
f alls</w>
equ ally</w>
distribu ted</w>
dia be
der ing</w>
cre ature</w>
concl usion</w>
com pla
chic ken</w>
che str
bor der</w>
bom b</w>
bi tion</w>
attemp t</w>
Ste ve</w>
S ec
Rus sia</w>
P M</w>
Jan uary</w>
Ger man</w>
G PS</w>
2 1</w>
vacc ines</w>
sur vey</w>
sel s</w>
provi ded</w>
on i
ol ds</w>
ju dge</w>
ja il</w>
impli cations</w>
her o</w>
four -
fle w</w>
fin ance</w>
fi re
ex ecu
el ement</w>
e fs</w>
circum stances</w>
capit alism</w>
bl u
b o</w>
at oms</w>
a de</w>
G en
4 ,000</w>
y l
vo ca
tox ic</w>
t y-
str ing</w>
od d</w>
o logists</w>
mus ical</w>
la dies</w>
horri ble</w>
func tional</w>
embar r
cour t</w>
che aper</w>
ch urch</w>
asp ect</w>
as sum
all -
ad dic
B a
y ment</w>
v est</w>
un like</w>
ti e</w>
suici de</w>
s can</w>
ra m
p en</w>
ori al</w>
l un
insi ght</w>
inc enti
gro ws</w>
glo be</w>
geni us</w>
flo ating</w>
er ror</w>
er r
er ever</w>
en h
emer gency</w>
der al</w>
conven tional</w>
c el
bic y
ap p</w>
abstr act</w>
T om</w>
R w
F a
Dar win</w>
1 6
tr end</w>
ter -
te e</w>
sustain ability</w>
surve ill
sp reading</w>
sh ment</w>
sen ses</w>
recor ding</w>
reco gni
pop ulations</w>
o gen
multi -
mon key</w>
main tain</w>
ma m
lim its</w>
iPh one</w>
fic tion</w>
f loo
ex posed</w>
el d</w>
den se</w>
dat ab
d anger</w>
comb ine</w>
cho os
car ried</w>
be lon
ar gu
acces sible</w>
G ener
B ab
Ab out</w>
youn ger</w>
um b</w>
tou ched</w>
t ables</w>
sil k</w>
seas on</w>
sch ol
scen ari
ro ot</w>
quar ter</w>
pri me</w>
pe ak</w>
pa int
mp ing</w>
marke ting</w>
mani pul
li ver</w>
lau gh</w>
journ alist</w>
insur ance</w>
in cl
i m</w>
he im
ha m</w>
equ ation</w>
eng aging</w>
educa tional</w>
diagnos ed</w>
custom ers</w>
cr ying</w>
continu ed</w>
con trac
collap se</w>
clin ic</w>
brea the</w>
b age</w>
am ent</w>
acc um
Cen tral</w>
Ap ple</w>
200 7</w>
zo om</w>
vir tu
trac king</w>
til ity</w>
techni que</w>
ta ste</w>
sub jects</w>
sp here</w>
sc ary</w>
recogni tion</w>
re moved</w>
re gre
ra m</w>
profes sion
play ers</w>
p ack</w>
m ice</w>
libr ary</w>
ke y
ing -
hot el</w>
her oes</w>
heim er</w>
har m</w>
h all
g li
eli min
dis h</w>
de partment</w>
consum ers</w>
bar ely</w>
ath le
antibio tics</w>
aff ord
Some thing</w>
Re member</w>
Pal est
Pakist an</w>
O s</w>
H ouse</w>
H er
Fin ally</w>
F our</w>
E d
w ire</w>
v an</w>
tri c</w>
trans formed</w>
t an</w>
surveill ance</w>
stor y
sha me</w>
ro cket</w>
puzz le</w>
pri ze</w>
pri son
plan ted</w>
pl om
on ing</w>
om es</w>
of -
obs essed</w>
ner ship</w>
mechan ical</w>
m ples</w>
inter nal</w>
in put</w>
g ence</w>
frame work</w>
ell o</w>
dis appear</w>
coura ge</w>
col li
ac qu
Sa har
M ini
He alth</w>
An tar
whe el
w ine</w>
un expected</w>
tre ating</w>
str angers</w>
see ds</w>
sav ings</w>
ridi cul
rene w
re aching</w>
ra dic
pl as
ph arm
organiz e</w>
or bit</w>
o tic</w>
mis sed</w>
le f
l ung</w>
in tri
in o</w>
he ight</w>
fa ult</w>
f ed</w>
ear th
dom estic</w>
deb t</w>
conven i
coll ecting</w>
ban ks</w>
archit ect</w>
S m
Glob al</w>
D ay</w>
C al
B en
Antar c
z heimer</w>
wan ting</w>
v ot
u pper</w>
t asks</w>
surr ounded</w>
sho ot</w>
sa mples</w>
s mile</w>
ro cks</w>
pur su
psycho logical</w>
pre dat
practic es</w>
po wers</w>
po p</w>
pain ful</w>
mit ted</w>
magne tic</w>
lic on</w>
in ju
h ost</w>
fa ke</w>
f ears</w>
exist ed</w>
el a</w>
dra matically</w>
curi osity</w>
col um
clas ses</w>
care ful</w>
bur n</w>
be ach</w>
an ia</w>
am i
ag ency</w>
ag ement</w>
ac les</w>
ab use</w>
Sy ri
Pro ject</w>
N .</w>
Is lam
G ir
Al zheimer</w>
vi l</w>
three- dimensional</w>
swe et</w>
sa tion</w>
pres ented</w>
poll en</w>
pen gu
le gi
kne e</w>
gu i
g ust</w>
es tion</w>
eleph ant</w>
eg gs</w>
diffic ul
cy ber
confi dent</w>
commit ted</w>
co -
classi c</w>
c kets</w>
b ow</w>
b al</w>
an ticip
T r
T or
R u
G al
19 th</w>
y ard</w>
wi reless</w>
travel ed</w>
to y</w>
ti an</w>
the me</w>
st ations</w>
shoul der</w>
sear ching</w>
pat ent</w>
neighbor hoods</w>
meth ods</w>
me d
m ess</w>
gr and</w>
explor ing</w>
dro ve</w>
dis order</w>
dec line</w>
cor d</w>
colleag ue</w>
chan nel</w>
cha mp
ch rom
brea thing</w>
ballo on</w>
ate ful</w>
apart ment</w>
V ir
S cience</w>
R evolution</w>
N ext</w>
N at
Inter national</w>
Egyp t</w>
C he
v or</w>
v as
tr uck</w>
tane ously</w>
t ories</w>
some what</w>
sel ection</w>
repres ented</w>
re verse</w>
re ference</w>
re comm
preci sely</w>
pos t
pl ans</w>
pha se</w>
p ost</w>
p apers</w>
over all</w>
n els</w>
itu de</w>
il le</w>
identi cal</w>
ici an</w>
gu il
flo wer</w>
fi xed</w>
fascin ated</w>
escap e</w>
edu cated</w>
destro yed</w>
coo king</w>
contr ast</w>
con centr
communi cations</w>
clou ds</w>
ci enti
birth day</w>
ax is</w>
at tr
achiev ed</w>
ac u
U. N.</w>
T ra
Par k</w>
La tin</w>
J es
wor thy</w>
trans forma
ti tle</w>
thro wn</w>
sun light</w>
spea ker</w>
soli d</w>
si mpl
sha ke</w>
s and
pos es</w>
phr ase</w>
l oud</w>
i ed</w>
hous ing</w>
hon est
g al</w>
fortun ate</w>
ess ence</w>
di verse</w>
con servation</w>
cle ver</w>
automa tically</w>
appli cation</w>
app le</w>
anxi ety</w>
accep ted</w>
X -
6 0s</w>
win dows</w>
whe el</w>
wh erever</w>
u gly</w>
transpar ency</w>
tion -
sur geon</w>
stand ards</w>
st ands</w>
ru pt</w>
psycho logy</w>
pros per
pas sing</w>
over come</w>
o ci
intui tive</w>
i um</w>
f usion</w>
drin king</w>
dist ur
descri p
contribu te</w>
clim b</w>
celebr ate</w>
cei ved</w>
c up</w>
be e
auth enti
archit ects</w>
ab und
So ci
Ne w
M oun
M ay</w>
Gre en
E thi
D emo
C y
v a</w>
un comfortable</w>
the less</w>
sugge sts</w>
so- called</w>
smar t
sh irt</w>
ri ce</w>
po cket</w>
pl enty</w>
paral y
mm a</w>
micros cope</w>
lim it</w>
inter active</w>
he a
ge -
g in
fru it</w>
fe ature</w>
et ary</w>
en tr
econom ists</w>
divi de</w>
dis ability</w>
dio xide</w>
dep end</w>
construc t</w>
con stitu
citiz en</w>
bro wn</w>
b ags</w>
as ide</w>
ac compli
No thing</w>
M R
J os
H ig
G et</w>
C a
B e</w>
Afric ans</w>
whi st
ul a</w>
symbo l</w>
supp ose</w>
spl it</w>
sp inal</w>
si zed</w>
rec ru
r ar
pi ano</w>
mil k</w>
mi ze</w>
mechan isms</w>
la m</w>
inv ite</w>
histor ical</w>
h all</w>
gra in</w>
gl aci
gi ble</w>
gen u
fi ve-
experi encing</w>
enter ed</w>
ene my</w>
doc uments</w>
desig ns</w>
concep ts</w>
con clu
co ck
cap tured</w>
can di
ca ble</w>
c ow</w>
ag end
adap t</w>
a i</w>
W a
T it
R os
R ec
L it
F oundation</w>
D ec
C ha
A ri
9 0s</w>
2 7</w>
. D.</w>
we igh
vill ages</w>
tu s</w>
ti le</w>
ta p</w>
su rely</w>
push ed</w>
prin ted</w>
pol ar</w>
po orest</w>
pas sen
paradig m</w>
p ed</w>
ol dest</w>
n est</w>
las er</w>
inter actions</w>
i er</w>
hard ware</w>
f at
dist ant</w>
de gra
cro ps</w>
com e
col ony</w>
att ached</w>
an at
Stan ford</w>
Sp ace</w>
P an
O ther</w>
Mus eum</w>
Joh n
G a
Com m
Christ mas</w>
B ay</w>
1 9</w>
w l</w>
se ven
re plac
pol y
philosop hy</w>
p in
ne ither</w>
leg acy</w>
inter acting</w>
her self</w>
han g</w>
gn ity</w>
expec tations</w>
dis orders</w>
des k</w>
d ates</w>
contro ver
contin ues</w>
bro thers</w>
Wom an</w>
T ex
Swe den</w>
No bel</w>
J une</w>
D en
6 5</w>
2 3</w>
19 4
1 4
y outh</w>
wee k
ves sels</w>
tici an</w>
ti red</w>
ter ies</w>
see k</w>
scri pt</w>
s now</w>
repe at</w>
rela tions</w>
re pu
publi c
proper ly</w>
progra mming</w>
pain ted</w>
p ure</w>
p are</w>
ori sts</w>
ong st</w>
ob st
infin ite</w>
h att
ga ther</w>
f are</w>
ev el
en sure</w>
em bed
elec tions</w>
ec e</w>
do z
do t</w>
d ust</w>
cu te</w>
au r</w>
astron om
ap pl
am ongst</w>
aliz ing</w>
T ell</w>
P en
Mic ros
Hig gs</w>
G han
B ur
8 0s</w>
wh ales</w>
well- being</w>
vir tually</w>
uc k
ta tive</w>
t ability</w>
ster ed</w>
st ag
se ed</w>
se as</w>
s n
s ession</w>
rom an
produc es</w>
privile ge</w>
pre fer</w>
po ol</w>
paint ings</w>
neighb or</w>
met abo
m .</w>
leg is
la id</w>
integr ated</w>
ing dom</w>
ig nor
hun gry</w>
h ire</w>
gr ay</w>
gr ass</w>
fund ed</w>
fir m</w>
es c
er al</w>
ear n</w>
e k</w>
e ar</w>
dra wn</w>
divi ded</w>
deli vered</w>
conflic ts</w>
c enti
ba th
b low</w>
an ony
al u
afford able</w>
ad ding</w>
acade mic</w>
W all</w>
V er
S S</w>
Kore a</w>
Ar t</w>
A h</w>
A .</w>
9 5</w>
. m.</w>
y i
ver ies</w>
v ital</w>
un its</w>
te a</w>
t- hand</w>
spir it
sho ck</w>
ru b
ra p</w>
quar ters</w>
pri ces</w>
pic king</w>
perman ent</w>
per su
p es
op ti
o de</w>
mus h
multi p
mind set</w>
mi d-
inv as
ide al</w>
hum or</w>
ful l-
forma l</w>
farm er</w>
exhi bition</w>
er ies</w>
electr onics</w>
di gnity</w>
dep ending</w>
def ense</w>
commit ment</w>
chrom os
cha os</w>
cep tions</w>
bi ke</w>
Wi ki
S un
S ch
O x
Man hatt
Hol lywood</w>
G ra
D u
Chil dren</w>
Bas ically</w>
Ad am</w>
7 0s</w>
wh ereas</w>
treat ments</w>
thi er</w>
ta x
sto res</w>
so ft</w>
sing ly</w>
sac ri
s ki
repres en
rel ation</w>
or chestr
optim istic</w>
op posed</w>
neur on</w>
mamm als</w>
main ly</w>
lo aded</w>
l ens</w>
is s</w>
inv ent
hear ts</w>
hal f-
friend ly</w>
f ounded</w>
extr act</w>
enter tainment</w>
emp ha
ell ed</w>
e igh
diagnos is</w>
concer n</w>
col ate</w>
bro w
beli efs</w>
behavi oral</w>
auth or</w>
announ ced</w>
ag gres
Wh ite</w>
S pan
P ol
Manhatt an</w>
Is lam</w>
H um
3 2</w>
200 5</w>
vi br
transp ort</w>
toil et</w>
ta g</w>
se where</w>
robo tic</w>
ri min
re r</w>
r and
pres entation</w>
ob jective</w>
licen se</w>
ki lo
j ected</w>
inten ded</w>
insp ire</w>
incenti ves</w>
ign ore</w>
hun ger</w>
hi p</w>
glob alization</w>
gh ten
flu id</w>
ess ing</w>
en z
di str
di plom
di alo
determin ed</w>
den sity</w>
cr y
cop es</w>
compon ent</w>
certain ty</w>
be have</w>
au di
Wil li
N G
B on
20 11</w>
- based</w>
ti ed</w>
sta ti
so le
smo ke</w>
shar k</w>
se y</w>
ri st</w>
remin ded</w>
rar ely</w>
r ab
pur cha
par ties</w>
o k
o ft</w>
ne ts</w>
mon keys</w>
mi gration</w>
ment ally</w>
me et
meet ings</w>
lat est</w>
journ alists</w>
inf ection</w>
incre ases</w>
in y</w>
in formed</w>
har dly</w>
gun s</w>
graph ics</w>
glob ally</w>
g ments</w>
fro zen</w>
fla g</w>
ex ha
ex cl
es is</w>
en th
ec tor</w>
ec k</w>
cor respon
contro lling</w>
con tra
co m</w>
adv ance</w>
S ar
Res ear
Re ally</w>
O ce
N ever</w>
Musli ms</w>
H i</w>
. C.</w>
vis ited</w>
ur ation</w>
un g
su per</w>
strate gies</w>
squ e
sli des</w>
sh ut</w>
se m
pro per</w>
my th</w>
meas uring</w>
liber al</w>
li ft</w>
lap top</w>
invol ves</w>
inst inc
imag ing</w>
ill usion</w>
i P
habit at</w>
g in</w>
fac ial</w>
f oun
el sewhere</w>
dri ll</w>
direc tions</w>
diabe tes</w>
dedi cated</w>
cruc ial</w>
choos ing</w>
carto on</w>
back wards</w>
at tribu
aff ects</w>
adverti sing</w>
ad ing</w>
P u
P ole</w>
Micros oft</w>
Con go</w>
vol can
univer sities</w>
under lying</w>
ul ating</w>
terror ist</w>
teles cope</w>
sy ste
stic ks</w>
smo king</w>
sk ull</w>
si sters</w>
sh ops</w>
respon ses</w>
refl ect</w>
re ments</w>
predic table</w>
poli o</w>
out put</w>
off icial</w>
o v
o logist</w>
life style</w>
life -
lay ers</w>
i le</w>
h at
guar an
f it
extin ct</w>
embed ded</w>
el ed</w>
earth qua
destro y</w>
d ress</w>
d ges</w>
conv ic
co operation</w>
bra ve</w>
al d</w>
P r
Bu dd
An y</w>
Afric an-
zer o-
vir al</w>
un believ
tu be</w>
stran ger</w>
ster e
si de
sco res</w>
satellit es</w>
s or</w>
rand om
provi des</w>
power ed</w>
p uni
on al</w>
need le</w>
n ings</w>
mon y</w>
lo vely</w>
li s
le tting</w>
le l</w>
isol ated</w>
inve sting</w>
in ations</w>
for gotten</w>
fe deral</w>
ex pos
der ly</w>
d ding</w>
comp rom
ca ts</w>
S im
P or
P R</w>
Je wish</w>
Ale x
wh ale</w>
we ak</w>
victi m</w>
ush ed</w>
ul f</w>
thir ds</w>
ter ing</w>
tele phone</w>
smar ter</w>
sk y
resc ue</w>
r yp
prot ecting</w>
predic ted</w>
posi tions</w>
p hi
ow ned</w>
li kes</w>
inev itable</w>
indi ca
inclu des</w>
im men
identi fied</w>
i ons</w>
h ill</w>
gu ide</w>
gon na</w>
foc using</w>
eth ical</w>
eng agement</w>
elec ted</w>
e es</w>
di an</w>
d am
cos mo
contr act</w>
consequ ence</w>
capit a</w>
blo g</w>
auton om
appar ently</w>
agend a</w>
Vo ice</w>
T ri
R IS
N ature</w>
N ations</w>
Li b
D el
Atlan tic</w>
20 ,000</w>
2 50</w>
year- olds</w>
trage dy</w>
ten sion</w>
syn thetic</w>
sub tle</w>
struggl ing</w>
spirit ual</w>
spectac ular</w>
sp ots</w>
sil ent</w>
s ke
resi stant</w>
re in
r ent</w>
origin ally</w>
ne ural</w>
mem or
ma ker</w>
inve sted</w>
imp acts</w>
grand children</w>
govern ance</w>
flexi ble</w>
estim ated</w>
en abled</w>
disco veries</w>
di ver
d augh
daugh ters</w>
construc ted</w>
cap ability</w>
bri ef</w>
bar re
b ucks</w>
aw k
ar med</w>
ag encies</w>
Wh e
Th ings</w>
Rw anda</w>
J en
H on
F ran
vari ation</w>
tri ck
transpar ent</w>
tr ends</w>
thre w</w>
sump tions</w>
stra igh
stor m</w>
sho oting</w>
s ket
reve al</w>
pi lot</w>
pi le</w>
offic er</w>
ob servation</w>
mini ster</w>
loo p</w>
la be
l uck</w>
is ing</w>
impro vement</w>
h anging</w>
gran ted</w>
ge ous</w>
flo ws</w>
fab ric</w>
f ought</w>
es the
ell er</w>
e ded</w>
doc ument</w>
do x</w>
dis ap
dir ty</w>
de vast
con sume</w>
co h
circu it</w>
cir cles</w>
c ous
b ill</w>
ap o
Wiki pedia</w>
Tex as</w>
R om
M os
M ary</w>
In deed</w>
H om
F u
D on
D H</w>
3 .
20 12</w>
weap on</w>
we al
ridicul ous</w>
revol u
repor ts</w>
regi me</w>
re form</w>
pres sed</w>
pi g</w>
phys ic
per pe
p lot</w>
kill er</w>
in ch</w>
i ans</w>
gr ateful</w>
ge ons</w>
g y
g ut</w>
fri ghten
doz ens</w>
datab ase</w>
ce iling</w>
ca sh</w>
bri e
be gun</w>
b oss</w>
b alls</w>
ali en</w>
ag ue</w>
Rob ert</w>
MR I</w>
H el
Ghan a</w>
D an</w>
B I</w>
B C</w>
Antarc tica</w>
199 0s</w>
wil d
ver tical</w>
ve ter
under ground</w>
trans fer</w>
ti p</w>
the ories</w>
tech n
spo ken</w>
se l</w>
ra ti
prototyp e</w>
phil anthro
paral lel</w>
par tly</w>
p ace</w>
obe sity</w>
nutri tion</w>
mos quit
mil len
meas ures</w>
lim b</w>
li ve
li an</w>
li a</w>
inten se</w>
head ed</w>
gl asses</w>
foot ball</w>
f ear
ex pedi
engine ered</w>
embarr as
e ball</w>
dri vers</w>
dolph ins</w>
dimen sion</w>
di c</w>
d ated</w>
cr ash
consist ent</w>
con tain</w>
character istics</w>
c tic</w>
c c
br a</w>
boun dar
anima tion</w>
addi tional</w>
ab s</w>
S or
S al
Mar tin</w>
Is land</w>
H en
F lor
CE O</w>
C u
B ang</w>
Arab ic</w>
A R
wh is
w inning</w>
thro wing</w>
t led</w>
spea kers</w>
sou thern</w>
re con
re act</w>
r ul
prob ability</w>
pre h
per si
per mission</w>
oper ations</w>
open- source</w>
mus cles</w>
monit or</w>
ligh ting</w>
lic op
innov ations</w>
ful ness</w>
frequ ency</w>
fr ac
fin ds</w>
fab ulous</w>
ex tend</w>
deser ve</w>
de x</w>
de fe
cor n</w>
con cent
com mod
co ok</w>
c lic
c in</w>
brea ks</w>
boundar ies</w>
bo ards</w>
be long</w>
b att
as sumptions</w>
arr ang
ace u
a ks</w>
Pri ze</w>
Ph il
Pe ter</w>
P hi
G ol
G ive</w>
Ethi opia</w>
y ours</w>
y al</w>
wh o
wel come</w>
un t</w>
un clear</w>
trans late</w>
ter rit
t ears</w>
symme try</w>
suff ered</w>
st ops</w>
rou te</w>
repu tation</w>
reco very</w>
ra ys</w>
ra ft</w>
or ous</w>
nutri ents</w>
neuros cience</w>
me al</w>
lo cated</w>
l o</w>
l ecture</w>
it ations</w>
instruc tions</w>
insp iring</w>
ic ked</w>
go ver
gar bage</w>
fil ter</w>
fail ing</w>
er adi
emer ged</w>
ed ges</w>
d anc
cr y</w>
bu b
bol a</w>
bla me</w>
bicy cle</w>
T en</w>
P l
J a
Isra el
I .</w>
Gre en</w>
E M</w>
200 4</w>
- and-
z ar
v oting</w>
transl ated</w>
th ick</w>
terr orists</w>
tack le</w>
super -
sp ort</w>
secre ts</w>
se ats</w>
ri cher</w>
re turned</w>
r on</w>
particip ation</w>
p ink</w>
ni ght
na ked</w>
line ar</w>
li zed</w>
legis l
lea p</w>
ingredi ents</w>
her o
har m
han ded</w>
gen oci
ge ome
g ated</w>
fig uring</w>
fav or</w>
f an</w>
dialo gue</w>
d ency</w>
conf used</w>
con fron
bro ad</w>
blu e
ber t</w>
bar s</w>
ast oni
arch y</w>
analy ze</w>
agri cultural</w>
Ti me</w>
Oce an</w>
Mar k</w>
M om</w>
L E
Hu man</w>
De partment</w>
A ir
writ ers</w>
w and
usi ons</w>
un able</w>
u d</w>
tra jec
to ber</w>
teenag ers</w>
tal ent</w>
suff ici
sle eping</w>
ske p
sil ly</w>
sh ri
sculp ture</w>
ro lling</w>
religi ons</w>
refuge e</w>
re st
rap id</w>
radic ally</w>
qu est</w>
psy chi
pres sion</w>
pre pare</w>
po et</w>
par as
ow ner</w>
os en</w>
orig in</w>
organiz ing</w>
oran ge</w>
op ens</w>
nur ses</w>
nor thern</w>
nit ure</w>
n es
mechan ics</w>
mar ry</w>
ma gn
lin ks</w>
k ni
it ate</w>
immedi ate</w>
hu m</w>
help ful</w>
har vest</w>
go od
g am
expon ential</w>
en for
embr ac
ele g
ecosy stems</w>
dis appeared</w>
dinos aur</w>
dark ness</w>
competi tive</w>
comm is
ca ta
bl ack
b y-
at a</w>
as sign
after wards</w>
Ri ver</w>
Oc tober</w>
Ma ke</w>
Ital y</w>
Gree k</w>
C ap
3 0s</w>
y o</w>
ver sions</w>
top s</w>
ti zed</w>
t ar</w>
she et</w>
sh ore</w>
sh ell</w>
sc ales</w>
sa fer</w>
res on
reli able</w>
re tin
pri mi
pi one
physic ist</w>
off ici
ob serv
nar row</w>
mo de</w>
lo an</w>
j i
initi al</w>
in tr
he licop
ha m
gra ms</w>
gene tically</w>
fri ger
fif th</w>
fac tories</w>
ex trac
ex ception</w>
enter pri
demonstr ate</w>
d eri
curr ency</w>
cry st
cros s-
contra dic
co in</w>
cho colate</w>
cha irs</w>
cata stro
camp us</w>
calcul ate</w>
c us
bio logists</w>
b ound</w>
b acks</w>
as sa
arg uments</w>
appro aches</w>
air craft</w>
Span ish</w>
So vi
Palest ini
M y
Fri day</w>
F ort
D uring</w>
1 0-
yp e</w>
wi red</w>
vi ously</w>
tum ors</w>
thre ats</w>
tex t
tar gets</w>
surpri singly</w>
st ages</w>
simpli city</w>
s its</w>
s er</w>
ro ws</w>
res ses</w>
re friger
ram id</w>
r at</w>
prom ote</w>
pro pos
pl ed</w>
particip ants</w>
ner ve</w>
mi xed</w>
ma d</w>
k es
j am
ir on</w>
i ous</w>
i e</w>
ha bit</w>
exten ded</w>
ev alu
establi shed</w>
el ite</w>
e ye
e go</w>
e ast</w>
discus s</w>
diag ram</w>
d ented</w>
corpor ations</w>
cli ents</w>
chimpanz ees</w>
chan ces</w>
car ing</w>
bio diversity</w>
be ars</w>
arti cles</w>
archit ec
agre ement</w>
ad ol
acci dents</w>
M e</w>
E bola</w>
Ac t</w>
A -
2 9</w>
. A.</w>
ur a</w>
threat ened</w>
ter ror</w>
stron gly</w>
sto red</w>
sta irs</w>
sac red</w>
primar ily</w>
predic tion</w>
prece dented</w>
pre fer
partic le</w>
ob serve</w>
my steri
micro -
interest ingly</w>
human itarian</w>
gra des</w>
fur niture</w>
foot print</w>
fli p</w>
fa thers</w>
fa st
expan sion</w>
exc it
encoun ter</w>
emer ge</w>
dd le-
d ating</w>
contro ls</w>
compe te</w>
comb at</w>
ch osen</w>
brie fly</w>
bas eball</w>
al ga
al a</w>
ad minist
V en
U g
Ri o</w>
Qu e
Ha iti</w>
H y
Gener al</w>
200 6</w>
volunte ers</w>
tri cks</w>
trans plant</w>
t our</w>
st ones</w>
sh ots</w>
sh opping</w>
separ ated</w>
ro wing</w>
reco ver</w>
qu it</w>
pre mi
poin ting</w>
physici an</w>
photograp hy</w>
photograp her</w>
p ound</w>
or a</w>
ma gical</w>
lu x
li ed</w>
inclu ded</w>
id a</w>
histor ic</w>
ferti liz
fac ility</w>
exter nal</w>
exc ell
emplo yment</w>
down load</w>
dis rup
depres sed</w>
dep th</w>
deli very</w>
deli ber
de ly</w>
cra f
con temporary</w>
comm un
bu ried</w>
au ti
at titude</w>
assem bly</w>
arri ve</w>
a king</w>
Whe ther</w>
W at
Vi et
Si x</w>
S qu
Ob viously</w>
M or
La b</w>
L ar
z e
un precedented</w>
um a</w>
success fully</w>
st or</w>
spi der</w>
sla very</w>
sh ine</w>
sen ior</w>
sacri f
ri vers</w>
reason able</w>
re al-
py ramid</w>
profession als</w>
prin ter</w>
primi tive</w>
preci se</w>
photograph ed</w>
pharm aceu
pe er</w>
pass words</w>
p ap
li um</w>
lan ded</w>
l es
ju mped</w>
in gu
il er</w>
hypo the
hi cal</w>
heal thier</w>
h il
gi le</w>
gar d
frustr ated</w>
far ming</w>
exp anding</w>
el derly</w>
dom s</w>
dec l
d al</w>
con tains</w>
clos est</w>
cir cul
char ity</w>
cap abilities</w>
bi al</w>
be er</w>
b en
arre sted</w>
ans wered</w>
ag gre
a to</w>
Wi thin</w>
Wi th
Sou thern</w>
S k
R ome</w>
Ox ford</w>
M and
Islam ic</w>
H ello</w>
D an
Bo b</w>
B ush</w>
8 00</w>
200 3</w>
1 20</w>
z z</w>
wit ness</w>
was h</w>
war ning</w>
un likely</w>
to cin</w>
suppor ted</w>
sugge sting</w>
sion ally</w>
shar ks</w>
scenari o</w>
resili ence</w>
real m</w>
prosper ity</w>
prof its</w>
ot a</w>
op y</w>
nur se</w>
n -
min im
medi cation</w>
law yer</w>
knowle d
inj ury</w>
impro ving</w>
im migr
hi p
h ey</w>
got ta</w>
fore station</w>
fi ber</w>
expla ining</w>
dis abled</w>
dic tionary</w>
cr it
conser vative</w>
con sul
chi ps</w>
chap ter</w>
chan nels</w>
ch r
categ ory</w>
blo ck
asse ts</w>
as pi
al ty</w>
achiev ement</w>
a is
Z e
With out</w>
S ur
Lit tle</w>
1 3
1 2
0 .
wi dely</w>
v ember</w>
up set</w>
ul tra
tran sc
ti er</w>
sym b
symb ols</w>
survi ved</w>
sugge sted</w>
skele ton</w>
simul ation</w>
sent ences</w>
reduc ed</w>
r ush</w>
pret end</w>
o red</w>
min ing</w>
mat ri
mar ks</w>
list ened</w>
less ly</w>
le an
it er</w>
inter viewed</w>
hack ers</w>
gol den</w>
ev in</w>
enth usi
enter ing</w>
eleph ants</w>
di g</w>
conclu de</w>
chi ef</w>
ch ron
categ ories</w>
Ug anda</w>
S ing
M ag
Fr ank</w>
E astern</w>
Ar ctic</w>
200 1</w>
wit n
vie wing</w>
ut ter
tra u
titu des</w>
ten ds</w>
tal s</w>
scho ol
s .</w>
res sing</w>
prot o
predic tions</w>
pa irs</w>
p ump</w>
oun dly</w>
o th
me ga
lo red</w>
l it</w>
impro ved</w>
im mer
hop es</w>
gather ing</w>
f illing</w>
eri an</w>
en ables</w>
edu cate</w>
disp os
cros sing</w>
crimin als</w>
conta min
connec tivity</w>
com preh
cer ti
ca tal
c s</w>
autom o
auth or
attr act</w>
arti stic</w>
alga e</w>
al tru
activi sts</w>
T y
T es
Si licon</w>
Sh ould</w>
Se a</w>
S om
Resear ch</w>
Phi li
M in
L ist
Jes us</w>
In du
G ar
G ab
B run
B F</w>
wheel chair</w>
wa i
unbeliev able</w>
trans mission</w>
tra ins</w>
tr ucks</w>
ti se</w>
terri fying</w>
t ate</w>
t ab
sta tic</w>
shif ting</w>
sal es</w>
pul ling</w>
preci ous</w>
pos ter</w>
pit ch</w>
ph os
per ceived</w>
optim ism</w>
ograp hic</w>
od ds</w>
mer ely</w>
me ta
ma il</w>
m ut
m ou
laugh ing</w>
inve stors</w>
interven tion</w>
initi ally</w>
i j
hom eless</w>
hi red</w>
h itting</w>
gr as
gol f</w>
go ds</w>
fr action</w>
fast est</w>
explo red</w>
experim ental</w>
earthqua ke</w>
disc rimin
deta iled</w>
d entally</w>
cro p</w>
co vering</w>
civi c</w>
b in</w>
arr ay</w>
ar do</w>
al t</w>
air port</w>
adop ted</w>
Un til</w>
S am
P rot
Or gan
Mi ke</w>
Mar ch</w>
J im</w>
Is n</w>
Gir l</w>
G ulf</w>
C re
y fish</w>
wi d
wea k
v ors</w>
v acu
tra gic</w>
the ore
t ancy</w>
suppor ting</w>
shel ter</w>
sha dow</w>
sh u
sens ory</w>
s mil
rob ust</w>
repres entation</w>
repli cate</w>
re placed</w>
re cep
qu alities</w>
perform ed</w>
oxy tocin</w>
ni ghts</w>
mus icians</w>
mir acle</w>
min d-
min al</w>
meth ane</w>
mag nific
le verage</w>
imag ery</w>
home work</w>
hear t
he al</w>
gradu ally</w>
genoci de</w>
g ases</w>
g aps</w>
fin ger
fac ilities</w>
excit ement</w>
et ro
er o
en de
en a</w>
domin ant</w>
d ressed</w>
colon ies</w>
clim bing</w>
char ged</w>
ca s
bur den</w>
bla h</w>
b un
b adly</w>
autonom ous</w>
auth orities</w>
and er
accep table</w>
ac ies</w>
ab and
W o
W as</w>
Sor ry</w>
N SA</w>
G ates</w>
Christi an</w>
B lack</w>
A m</w>
3 3</w>
20 s</w>
, 500</w>
wi der</w>
w age</w>
v y</w>
ur ban
tradi tions</w>
ti les</w>
t ap
st ability</w>
she ets</w>
see king</w>
ri cul
renew able</w>
re view</w>
re fer</w>
r ings</w>
prof oundly</w>
pro file</w>
ph or
p ort
mo bility</w>
lo ans</w>
la ke</w>
k able</w>
j ection</w>
intu ition</w>
industri es</w>
hea ven</w>
happ ier</w>
grand parents</w>
gl ad</w>
fra gile</w>
foot age</w>
fin ed</w>
fi res</w>
femin ist</w>
extin ction</w>
exper tise</w>
estim ates</w>
ed ly</w>
dra wings</w>
dis gu
d i</w>
conduc ted</w>
compas sionate</w>
comm ents</w>
coll ectively</w>
col or
clos ing</w>
cha ins</w>
bi c</w>
bath room</w>
b os
at ar</w>
as sumption</w>
an ni
T ru
Scot t</w>
M other</w>
L ong</w>
I ran
H al
Dec ember</w>
B ack</w>
7 00</w>
00 0-
y an</w>
u ti
u bi
tri bes</w>
th al</w>
tar ge
ta ined</w>
t ank</w>
sur faces</w>
sum mar
su gg
stro ke</w>
shri mp</w>
she ep</w>
sch iz
s ne
reven ue</w>
remember ed</w>
re minds</w>
re build</w>
qu ali
pur poses</w>
prot est</w>
pi gs</w>
par ks</w>
mysteri ous</w>
may or</w>
magn itude</w>
l ou
jus ti
is lands</w>
ig no
high way</w>
g os
fall en</w>
f es
explos ion</w>
er able</w>
descrip tion</w>
deman ds</w>
cu ts</w>
conver t</w>
collabor ative</w>
cer em
catastro p
bu rea
blo wing</w>
b or</w>
attrac tive</w>
as ing</w>
arr ator</w>
architec tural</w>
ag er</w>
adv enture</w>
N arrator</w>
M is
Fi f
Car ol
A cade
20 50</w>
198 0s</w>
- making</w>
vie wer</w>
v ice</w>
tun e</w>
tra its</w>
to wer</w>
syn the
str eng
shel f</w>
rhyth m</w>
restri c
regre t</w>
reduc ing</w>
publi sh</w>
preser ve</w>
per ceive</w>
peace ful</w>
or b
nec k</w>
near by</w>
motiv ated</w>
micro bial</w>
marke t
m on</w>
li ament</w>
k o</w>
j ell
inst antly</w>
ins ul
in car
ho li
head ing</w>
ha i</w>
gar age</w>
ep is
enc ryp
di ve</w>
di le
cor als</w>
cop y
chec k
bur ned</w>
bru ary</w>
believ es</w>
au dio</w>
ad vo
accoun ts</w>
T er
T echnology</w>
Sovi et</w>
S E
Nor way</w>
N one</w>
Mo on</w>
Mini ster</w>
I .
Ha wai
Go vern
Flor ida</w>
Fe bruary</w>
F ree
F BI</w>
E ric</w>
Coun cil</w>
Cam bridge</w>
B el
&apos; clock</w>
v able</w>
un certainty</w>
to ys</w>
tissu es</w>
ti ps</w>
su its</w>
ste al</w>
simul taneously</w>
sex y</w>
se t
roman tic</w>
ri l</w>
reci pe</w>
real istic</w>
re tro
pos ted</w>
pengu ins</w>
p ing</w>
our ing</w>
on a</w>
off ices</w>
oc curr
o dy</w>
newsp apers</w>
n om
mo od</w>
liter acy</w>
li hood</w>
ki ly</w>
key board</w>
ins ect</w>
gather ed</w>
es thetic</w>
enfor cement</w>
ed a</w>
don es
difficul ty</w>
di ving</w>
custom er</w>
cur ricul
cre w</w>
cr ack</w>
can e</w>
bra in
believ ing</w>
bed room</w>
at tle</w>
ari ties</w>
appl ying</w>
appe ar
ambi tious</w>
ad vis
T .</w>
S pe
S pain</w>
Nor thern</w>
N ic
M er
M ad
K evin</w>
Indu stri
In dones
Col um
C ra
C our
Be ij
6 ,000</w>
3 0,000</w>
2 6</w>
wash ing</w>
ver s
ur ge</w>
trajec tory</w>
tra uma</w>
tion ality</w>
tim acy</w>
tic ket</w>
sub way</w>
sub si
struc tural</w>
stay ing</w>
sh it</w>
ser ver</w>
realiz ing</w>
qui to</w>
prepar ing</w>
po le</w>
pan els</w>
ore sc
ne ys</w>
na tives</w>
motiv ation</w>
mi ddle-
lo ving</w>
la bel</w>
kin son</w>
ki e</w>
k ick</w>
in k
ic on</w>
honest ly</w>
grav it
gr ounds</w>
fun ds</w>
fl ash
exp ecting</w>
ex er
err ors</w>
entreprene ur</w>
ec raft</w>
e ter
dro ps</w>
di ble</w>
di a</w>
demon stration</w>
cy cles</w>
correc tly</w>
consi der
com ment</w>
ci ous</w>
burea uc
beauti fully</w>
astoni shing</w>
astero id</w>
angl ad
ama z
air s</w>
ag ents</w>
ad m
ad ays</w>
ab s
Yor ker</w>
Th ird</w>
Squ are</w>
R ed</w>
P ut</w>
Lo ve</w>
La w</w>
F ord</w>
Demo cr
D A</w>
Can adi
B oth</w>
B anglad
Al though</w>
2 8</w>
197 0s</w>
. com</w>
wor e</w>
wat ers</w>
tun a</w>
tr ash</w>
tic ism</w>
ti ze</w>
ta ining</w>
susp ect</w>
stri ke</w>
star ing</w>
st ly</w>
sci ences</w>
scen es</w>
ro gen</w>
re d
previ ously</w>
pi x
person alized</w>
para dox</w>
pan el</w>
p it</w>
oph ren
off ers</w>
navi gate</w>
mos quito</w>
mm er</w>
magnific ent</w>
m m</w>
m -
ly n</w>
ligh t
law yers</w>
l ot
it er
inno cent</w>
hum ili
horiz on</w>
fant as
esc ence</w>
er o</w>
equ ity</w>
ent y-
distri ct</w>
disco vering</w>
d ose</w>
concer ns</w>
compu tation</w>
comp elling</w>
circu its</w>
by e</w>
bub bles</w>
bu g</w>
bran ch</w>
bo red</w>
bl ank</w>
bi zar
b ats</w>
au g
astero ids</w>
ar cha
anat omy</w>
air planes</w>
ag ent</w>
adap ted</w>
activ ate</w>
ab y
a tic</w>
a de
a .m.</w>
V ic
T re
St ar</w>
St ar
Satur n</w>
Sahar an</w>
S W</w>
Ju ly</w>
Hi gh</w>
F er
D a
Bu il
Bo y</w>
Bl ue</w>
Bi ble</w>
Be ing</w>
Acade my</w>
8 5</w>
20 15</w>
z ones</w>
wild life</w>
what so
whatso ever</w>
w ill
v ille</w>
sque e
sp in</w>
smo oth</w>
signific antly</w>
shi pping</w>
sens or</w>
seem ingly</w>
schiz ophren
run k</w>
remember ing</w>
reg ard
regard less</w>
re actions</w>
pros thetic</w>
pro jec
ou ter</w>
ot echnology</w>
open ness</w>
ob served</w>
o ked</w>
min es</w>
ment or</w>
m apping</w>
lun gs</w>
lim itations</w>
it ors</w>
intri gu
insi ghts</w>
hun ting</w>
house hold</w>
hi er
guil ty</w>
great -
gradu ated</w>
f ancy</w>
expec tancy</w>
ema ils</w>
domin ated</w>
dom ain</w>
distinc t</w>
di um</w>
descri bing</w>
dec re
de forestation</w>
dam n</w>
continu ous</w>
constra ints</w>
consci ously</w>
compar ison</w>
clo thing</w>
claim s</w>
cl ay</w>
cell ular</w>
ca ves</w>
be sides</w>
b at</w>
anthro po
aggres sive</w>
ade qu
Wh at
U S
Secon dly</w>
Rus sian</w>
M ach
L .A.</w>
K ar
Ital ian</w>
E s
Chil d</w>
work force</w>
wor ms</w>
wo ke</w>
win ds</w>
wand ering</w>
vi bra
va cation</w>
v ag
u ed</w>
tri gg
tri be</w>
trac ks</w>
tr ace</w>
tr a</w>
to w
the ast</w>
teles copes</w>
ta tional</w>
ta il
t sun
t one</w>
surr ounding</w>
sil ver</w>
ro of
reduc tion</w>
re ads</w>
r ats</w>
psycho logist</w>
prop ag
pri sons</w>
plan etary</w>
peri ods</w>
pe op
passen ger</w>
orig ami</w>
n ou
monit oring</w>
mis sions</w>
manag er</w>
m ort
lon g
li ce</w>
l ec
jud gment</w>
in justice</w>
in duc
i est</w>
head lines</w>
gener ating</w>
gen ous</w>
flu oresc
f ts</w>
f ound
f is
exten sion</w>
est ate</w>
encoura ged</w>
en i
empo wered</w>
el ly</w>
dia c</w>
controver si
con front</w>
cha m
carto ons</w>
ca p</w>
bran ches</w>
bizar re</w>
bio logist</w>
bin ary</w>
bil li
bene ath</w>
be ating</w>
b end</w>
assi stance</w>
ap or
analo gy</w>
a ster</w>
a ca
W in
Syri a</w>
R B</w>
Olymp ics</w>
J on
G ore</w>
Fran k
E du
Des ign</w>
D evel
African- American</w>
A M</w>
195 0s</w>
ubi quit
tri gger</w>
terri fied</w>
ten dency</w>
temper atures</w>
teenag er</w>
t less</w>
t ance</w>
story telling</w>
soldi er</w>
short -
sho cked</w>
se a
reg ul
refl ection</w>
re mot
re actor</w>
rati o</w>
r us</w>
physici sts</w>
p ants</w>
ordin arily</w>
om ics</w>
o tion</w>
ne at</w>
n ic</w>
mat ure</w>
m ously</w>
kill s</w>
k i</w>
inv enting</w>
influ enced</w>
inf ections</w>
in ity</w>
ho p</w>
hard est</w>
gene tics</w>
for got</w>
ec tors</w>
dy s
desper ately</w>
demo graphic</w>
dama ged</w>
coun ting</w>
contin ents</w>
clu b</w>
ci g
challeng ed</w>
can opy</w>
at ers</w>
al istic</w>
activ ist</w>
ac knowledge</w>
a c</w>
Su per
Sm ith</w>
S top</w>
S ir</w>
Ph .D.</w>
M A</w>
L ord</w>
Industri al</w>
Devel op
D ou
D ad</w>
Bro ok
5 0s</w>
19 0
, 000-
vacu um</w>
v enture</w>
ubiquit ous</w>
stri king</w>
straigh t
sti cal</w>
st ays</w>
speci alized</w>
spea ks</w>
soci ally</w>
smart phone</w>
sh y</w>
sel ected</w>
scr atch</w>
sand w
safe ly</w>
sacrif ice</w>
s enti
ro les</w>
rit u
ris h</w>
reti rement</w>
rema ining</w>
ra tions</w>
ra il
pro pose</w>
prison ers</w>
portra it</w>
plu g</w>
pi e</w>
pa ths</w>
or ph
oper a</w>
mosquit os</w>
mos pher
man ner</w>
lux ury</w>
lon ely</w>
lo g</w>
ll a</w>
lar ge-
lan ding</w>
la p</w>
jell yfish</w>
iz za</w>
inst ant</w>
in ches</w>
ic e
glam orous</w>
g ating</w>
flo wing</w>
fi bers</w>
f ate</w>
expla ins</w>
ent ro
en try</w>
el son</w>
dynam ics</w>
dolph in</w>
discipl ine</w>
dis abilities</w>
de ar</w>
d or
comm and</w>
cli ent</w>
cl arity</w>
ca ke</w>
bul b</w>
bot tles</w>
boo k
barri er</w>
anony mous</w>
an ten
an ity</w>
ama zed</w>
adv ances</w>
ac tively</w>
abs ence</w>
Willi am</w>
Th rough</w>
Ste ph
S ure</w>
Ra ther</w>
R oc
O ff
Le on
Is lands</w>
F o
Au gust</w>
Ar gent
Alex ander</w>
A sian</w>
y ourselves</w>
wat ts</w>
vi al</w>
ver -
transl ation</w>
ti me-
teen age</w>
te en</w>
t ary</w>
stopp ing</w>
ste pped</w>
spac ecraft</w>
scre ening</w>
s ink</w>
rema ined</w>
recei ving</w>
re ha
qu ad
prom ised</w>
pro ved</w>
pro posed</w>
pre scrip
pla in</w>
pan ic</w>
pal m</w>
pa use</w>
p al</w>
me l</w>
matri x</w>
ma ster
lo ws</w>
lic it</w>
le ment</w>
lab s</w>
l aughter</w>
kni fe</w>
k in</w>
institu tional</w>
in ery</w>
impres sive</w>
horiz on
ha bits</w>
h ated</w>
gu id
gr ab
gi e</w>
gener ous</w>
fol ding</w>
fa i
em a</w>
e aten</w>
di al</w>
dd enly</w>
d op
d ential</w>
d ele
curricul um</w>
cu st
cos mic</w>
continu ing</w>
concent ration</w>
coh ol</w>
camp s</w>
bur gh</w>
b ound
att acked</w>
athle tes</w>
as m</w>
Ze al
Some body</w>
N elson</w>
M ol
La dies</w>
L T</w>
Indones ia</w>
Hen ry</w>
E mp
E m
E con
Dis ney</w>
Beij ing</w>
2 4
wi res</w>
we dding</w>
un cle</w>
to es</w>
th or
ta xes</w>
t esti
sus pic
succe eded</w>
stri p</w>
strate gic</w>
st ine</w>
sou p</w>
some day</w>
small est</w>
shar p</w>
sal t</w>
ri sky</w>
research er</w>
re store</w>
rap ed</w>
r i</w>
r ating</w>
pursu e</w>
pri de</w>
pres sing</w>
por tion</w>
pas sive</w>
pack age</w>
p on
p ir
p ig
on ia</w>
off ering</w>
obst acles</w>
o ven</w>
o li
o ks</w>
mo ld</w>
men tation</w>
measu rements</w>
mach inery</w>
lo ves</w>
l ls</w>
it or</w>
inter ior</w>
inte gration</w>
inf ec
in dependence</w>
immen se</w>
ignor ance</w>
i gh</w>
hon y</w>
heal ing</w>
hall uc
gro cer
fu r</w>
fre sh
fil mma
far ms</w>
fail ures</w>
fab ri
expedi tion</w>
exer c
ere k</w>
entro py</w>
em en</w>
econom ist</w>
don or</w>
differ enti
deep est</w>
cy lin
copy right</w>
conn ects</w>
com et</w>
co operate</w>
che ese</w>
campa ig
buil ds</w>
break through</w>
br is</w>
bi e</w>
bi an</w>
be aten</w>
barri ers</w>
awk ward</w>
are t
al cohol</w>
ac hu
ab ili
What ever</w>
Tur ns</w>
Sun day</w>
Su ddenly</w>
R NA</w>
O k
Medi a</w>
John son</w>
G and
E .
D erek</w>
Col le
Ber lin</w>
B M</w>
z i
win d
weal thy</w>
un -
trans mit</w>
tr apped</w>
terri bly</w>
t i</w>
susta in</w>
stor age</w>
sh or
sec tions</w>
scre ens</w>
s wal
rub ber</w>
rou t
ro lled</w>
r o</w>
propor tion</w>
proce d
proced ure</w>
preci sion</w>
pot ent</w>
pleas ant</w>
plan ting</w>
p ene
p acked</w>
overwhel ming</w>
ous y</w>
or an</w>
neu tral</w>
me tric</w>
main stream</w>
lis m</w>
ligh ten
lif ted</w>
kid ney</w>
kee pers</w>
journ alism</w>
interpre tation</w>
inju red</w>
incl usive</w>
incar cer
in cen
imag ining</w>
igno red</w>
hypo thesis</w>
human -
he avi
go d</w>
fortun e</w>
fo ods</w>
fi es</w>
fe males</w>
exha u
ex ag
er ce</w>
end ang
en vel
ec ological</w>
ear ning</w>
e pi
dr one</w>
down town</w>
div or
di stor
di am
devast ating</w>
deci sion
de fault</w>
crit eria</w>
comple ted</w>
colum n</w>
collap sed</w>
co vers</w>
co lored</w>
cienti sts</w>
c us</w>
br ush</w>
be half</w>
ar i</w>
appe aring</w>
accoun tability</w>
aband oned</w>
Zeal and</w>
Wh it
To gether</w>
T ali
S he
S en
R ed
Pro f
Mo z
Mo ore</w>
M as
L a</w>
I ts</w>
Cour t</w>
Chi le</w>
Ch an
Brun o</w>
B il
Al most</w>
Ab solu
zero- sum</w>
wor rying</w>
wo ods</w>
whe at</w>
val ley</w>
ush ing</w>
un conscious</w>
u red</w>
tsun ami</w>
trans forming</w>
th umb</w>
territ ory</w>
sub stance</w>
sub st
stra tions</w>
scan ning</w>
scan ner</w>
san itation</w>
respon ded</w>
requ i
que en</w>
pu p
psycho logists</w>
pro ven</w>
prin ts</w>
phos phor
peop les</w>
par achu
p izza</w>
ot ted</w>
occur s</w>
occa sionally</w>
nu ts</w>
mor ality</w>
mom en
minim um</w>
mathema ticians</w>
mam mo
m ics</w>
li sts</w>
labe led</w>
l friend</w>
l ad
install ed</w>
im per
ide ology</w>
ick ens</w>
hor mon
hi ding</w>
helicop ter</w>
h acking</w>
gentle man</w>
fra mes</w>
expos ure</w>
evol ving</w>
enz y
dr ones</w>
dist ingu
det ection</w>
dest iny</w>
defin ing</w>
decre ase</w>
cri mes</w>
cour ses</w>
coun ter</w>
conveni ent</w>
cont ex
co at</w>
cer e
c and
bom bs</w>
bom b
blo wn</w>
blin dness</w>
b ite</w>
at titudes</w>
alter natives</w>
al titude</w>
ac knowled
X- ray</w>
U p</w>
Th ir
Sp eci
Soci al</w>
S wis
S till</w>
S il
Prof essor</w>
Palestini an</w>
L uc
L A</w>
J ane</w>
D ut
D ra
Colle ge</w>
C ur
Bri an</w>
Ar my</w>
3 6</w>
volunte er</w>
v ary</w>
up side</w>
tou ching</w>
ton gue</w>
ther mal</w>
te l</w>
t ag
supp lies</w>
subst anti
straight forward</w>
sl ums</w>
si zes</w>
si der</w>
reli ef</w>
pe ts</w>
pe ers</w>
pass word</w>
pas ses</w>
p ill
on er</w>
offici als</w>
o oh</w>
ner ves</w>
n am</w>
momen tum</w>
me g
ma tion</w>
landsc apes</w>
l en</w>
k ingdom</w>
invest ments</w>
introduc tion</w>
integr ate</w>
indi genous</w>
im provi
ic king</w>
hy bri
har ve
gli mp
fun g
follo ws</w>
ff s</w>
f ing</w>
extra ordinarily</w>
ex ce
end less</w>
en e</w>
dro w
docum entary</w>
descri bes</w>
democr acies</w>
dec or
d os
cri tici
conv ey</w>
con tain
con fir
cig aret
chromos ome</w>
bur st</w>
bo ld</w>
bel t</w>
at omic</w>
at mospher
assign ment</w>
assem ble</w>
appear ance</w>
al arm</w>
ac he</w>
Viet nam</w>
Ti m</w>
T ony</w>
T anz
Sh ang
S wit
S imp
S aud
Pe ace</w>
O l
NG Os</w>
N I
Mand ela</w>
M el
List en</w>
Hom o</w>
H igh
H C</w>
Ex cept</w>
Del hi</w>
Com pu
Canadi an</w>
C ath
Banglad esh</w>
B en</w>
A L
2 5
w ound</w>
vi sions</w>
vege tables</w>
u mp
ti ble</w>
t ant</w>
syn dr
suffici ent</w>
sub ur
ster n</w>
st ack</w>
sp ra
so ap</w>
simpl er</w>
sen sing</w>
s anc
ro ll
reve aled</w>
ree fs</w>
ree f</w>
read ers</w>
re alities</w>
rain forest</w>
pul se</w>
prot ests</w>
profes sion</w>
por ts</w>
pol lin
pol ar
po t</w>
po ckets</w>
philosop her</w>
phenomen a</w>
pharmaceu tical</w>
p el
ow nership</w>
ow ners</w>
orig ins</w>
on going</w>
ograp hy</w>
no des</w>
micro phone</w>
mel t</w>
medic ines</w>
mar ch</w>
mani fe
m and
lo ads</w>
le an</w>
large- scale</w>
iz es</w>
inten sive</w>
inten sity</w>
infec tious</w>
in i</w>
hop ed</w>
home town</w>
histor ically</w>
gu ard</w>
gi vers</w>
ge ar</w>
fron tal</w>
fre ely</w>
es cal
equ ations</w>
ent -
endang ered</w>
encoura ging</w>
emplo yed</w>
dis agree</w>
d or</w>
cul tiv
cot ton</w>
consum ed</w>
concer t</w>
con sen
compe ting</w>
ca sting</w>
c a</w>
bot tom
bo om</w>
bo ats</w>
ban king</w>
b i</w>
b ands</w>
au to
appro ved</w>
ann ual</w>
am p</w>
ali an</w>
accompli shed</w>
ab ling</w>
Wa it</w>
Swis s</w>
S pr
Par kinson</w>
P A</w>
L ou
J up
H all</w>
Gre ece</w>
D s</w>
C os
Brook lyn</w>
Bro wn</w>
B re
B ol
B at
Absolu tely</w>
6 0,000</w>
200 2</w>
199 8</w>
19 60</w>
- of-
yi eld</w>
y n
ver i
v ant
utter ly</w>
ter rain</w>
suc k</w>
sub jective</w>
st um
sp an</w>
separ ation</w>
sca ff
s che
ritu als</w>
resi dents</w>
requ est</w>
rela tives</w>
ref used</w>
qui e
pur suit</w>
pro -
pri or</w>
po int
p ill</w>
op ini
mot or
min ority</w>
manipul ate</w>
manag ers</w>
m one</w>
low est</w>
legisl ation</w>
legi timate</w>
k el
j un
it age</w>
inter section</w>
int on</w>
illustr ate</w>
hor mone</w>
hand ful</w>
guaran tee</w>
ge l</w>
frighten ing</w>
for -
fol ded</w>
fl ou
el ds</w>
discus sions</w>
dile mma</w>
di vision</w>
cou ples</w>
cor ners</w>
controversi al</w>
comprom ise</w>
comm it</w>
co inci
clean ing</w>
class rooms</w>
ca su
bre eding</w>
bel ly</w>
ban g</w>
auti stic</w>
audi ences</w>
appro xim
appro aching</w>
appe al</w>
app y</w>
an i</w>
ambi gu
am ine</w>
am ate
adop t</w>
administ ration</w>
accur acy</w>
Sing ap
Sec urity</w>
Ri ghts</w>
R ay</w>
Mic hel
M ur
K a
J ack</w>
Israel i</w>
Gr and</w>
F re
D oc
D E
Cath o
Carol ina</w>
C ho
B ron
4 8</w>
20 0,000</w>
wor m</w>
whe els</w>
war e
wa ited</w>
ves sel</w>
va tives</w>
v oted</w>
ur able</w>
underst ands</w>
u ality</w>
tri cal</w>
ti fication</w>
th- century</w>
th west</w>
te dly</w>
survi vors</w>
stret ch</w>
sti g
sp inning</w>
sig nature</w>
sh r
s ni
s es
ro w
resi st</w>
res ur
recycl ing</w>
re think</w>
rais es</w>
pros titu
pros tate</w>
pr osp
poli tically</w>
plat forms</w>
pl um
paraly zed</w>
p ecu
ou ts</w>
ong side</w>
non profit</w>
narra tives</w>
n esses</w>
mo bili
m uni
lea f</w>
it ably</w>
inter n
initi ative</w>
in ser
imple ment</w>
il a</w>
i di
h at</w>
func tioning</w>
fra ud</w>
form at</w>
expres sions</w>
empo wer</w>
eleg ant</w>
electro des</w>
ec ology</w>
dou bled</w>
di arr
dea f</w>
de stri
cur ves</w>
contro ll
compu tational</w>
comp ounds</w>
communi cating</w>
cal ories</w>
bul let</w>
belon gs</w>
b all
angl es</w>
amp li
amaz ingly</w>
al ongside</w>
Wh ereas</w>
Steph en</w>
Se attle</w>
Saud i</w>
N et
I sa
E ven
D re
D etro
C D</w>
4 0,000</w>
zer land</w>
vari ations</w>
u ps</w>
tun nel</w>
tou gh
thri ve</w>
super market</w>
stor ms</w>
stom ach</w>
st on</w>
sel fish</w>
s per
s lower</w>
rit ual</w>
resol ve</w>
remark ably</w>
reg ulation</w>
recogn izing</w>
re produce</w>
r ape</w>
privile ged</w>
pri ority</w>
pres su
phosphor us</w>
p a</w>
over night</w>
orchestr a</w>
or -
observ ations</w>
ob jec
mu tations</w>
mis erable</w>
mas ses</w>
market place</w>
lo cations</w>
like lihood</w>
li fel
leg ally</w>
ing er</w>
inf ant</w>
in timate</w>
identi ties</w>
he a</w>
har mony</w>
hand -
grocer y</w>
gl ue</w>
gh ted</w>
geome try</w>
g as
fra g
fir st-
f way</w>
expres sed</w>
expan ded</w>
excell ent</w>
eth nic</w>
er als</w>
enterpri se</w>
en em
dist ances</w>
dia meter</w>
deplo yed</w>
demo cra
def end</w>
dec lar
da wn</w>
cruc i
cros sed</w>
cop ic</w>
consum ing</w>
chr onic</w>
che mo
ch ur
bus es</w>
bon ds</w>
be an</w>
bacter ial</w>
b and
automo bile</w>
authenti c</w>
appro ached</w>
ant a</w>
an no
ad el
acceler ate</w>
a the
a er
Y oun
Tali ban</w>
T om
Swit zerland</w>
Some one</w>
Sa me</w>
S D</w>
Que en</w>
P rin
No vember</w>
Ne ander
M K</w>
K u
Ch urch</w>
Ap ril</w>
A ge</w>
4 7</w>
20 14</w>
196 0s</w>
z ation</w>
wi ves</w>
web sites</w>
we t
we stern</w>
we ed</w>
war ri
w rist</w>
vi vi
vi sion
v enti
us cri
therap ies</w>
teach es</w>
te ar</w>
t z</w>
syndr ome</w>
sp ati
six -
she er</w>
sel ect</w>
sc al
s in
revol utionary</w>
res ul
refl ected</w>
rec k
re sem
re n</w>
psych op
pregn ancy</w>
pre me</w>
pre ad</w>
po ems</w>
pic k
pes tici
pe destri
p ouring</w>
over -
om ing</w>
o do
neu tr
n ity</w>
my th
min us</w>
mi x
mess y</w>
me ets</w>
mathema tician</w>
man uscri
ma xi
loc ally</w>
lif esp
le ep</w>
kin dness</w>
ju ven
jo int</w>
j et</w>
ir ts</w>
interpre t</w>
inter views</w>
inter net</w>
inher ently</w>
incen tive</w>
imp ul
hop eful</w>
high- tech</w>
harm ful</w>
gir lfriend</w>
ga ined</w>
g an</w>
fundam ent
frequ ently</w>
fl ash</w>
fi red</w>
fe ver</w>
fac il
explo it</w>
ess ly</w>
enem ies</w>
em bo
docum ented</w>
destro ying</w>
decision -making</w>
dec k</w>
de pos
contribu ted</w>
contr ary</w>
comp lish</w>
come dy</w>
co des</w>
clu ster</w>
cl ue</w>
care ers</w>
bri dges</w>
bo ther</w>
bloo d
ble w</w>
as i</w>
ad ul
ac complish</w>
Wat son</w>
St .</w>
Singap ore</w>
Shang hai</w>
S el
Organ ization</w>
K oran</w>
Jup iter</w>
Jer sey</w>
J our
Even tually</w>
B ell</w>
Ari st
Any body</w>
A ir</w>
1. 5</w>
wid th</w>
wel fare</w>
w rap</w>
un happy</w>
tiv eness</w>
thri lled</w>
thre sho
thresho ld</w>
t ori
t all
sur geons</w>
str ings</w>
stere otyp
st es</w>
retin a</w>
ref use</w>
re vel
r ose</w>
portra its</w>
po x</w>
plas tics</w>
phi a</w>
par enting</w>
out break</w>
ou gh
mus ician</w>
mu d</w>
mo tions</w>
mm ed</w>
mem es</w>
mel ting</w>
l y-
it ems</w>
it an</w>
install ation</w>
ine -
ho ly</w>
ha med</w>
ha ir
gu ards</w>
gravit ational</w>
glaci er</w>
gen omes</w>
ge st
fin dings</w>
f on
ev apor
enjo yed</w>
ell a</w>
elimin ate</w>
el em
earli est</w>
ear ned</w>
dro pping</w>
dra g</w>
discrimin ation</w>
den ial</w>
de struc
de fic
d ung</w>
consen sus</w>
conduc t</w>
concentr ated</w>
co ach</w>
chimpanz ee</w>
chec ked</w>
candi date</w>
can v
cal m</w>
ca tes</w>
broad er</w>
bound ary</w>
b uc
aud it
at ro
at oes</w>
assum ed</w>
ari ans</w>
anticip ate</w>
an ic</w>
aff ecting</w>
adel phia</w>
add ressing</w>
ad just</w>
abund ance</w>
a esthetic</w>
a be
Tur key</w>
Q a
Phil adelphia</w>
P ret
P it
L augh
Je ff</w>
J ac
Ge ographic</w>
Gab by</w>
Dut ch</w>
Coun ty</w>
Cl inton</w>
Catho lic</w>
Braz ili
Be at
B us
Arist ot
An drew</w>
Ac cording</w>
A T</w>
4 2</w>
20 20</w>
w rest
visu alize</w>
vis ually</w>
ver ts</w>
ven ue</w>
vas cular</w>
us eless</w>
ur us</w>
tun ed</w>
tu bes</w>
tri vial</w>
tri ps</w>
trans fer
th and</w>
th a</w>
syn ap
st res
st le</w>
so oner</w>
sk i</w>
si ans</w>
shif ts</w>
sen sation</w>
sen ds</w>
sec tors</w>
s ors</w>
s ale</w>
restaur ants</w>
repor ting</w>
reg ularly</w>
reg ard</w>
programm ed</w>
pro position</w>
pro be</w>
philanthro py</w>
or dered</w>
opini ons</w>
off spring</w>
off -
occurr ing</w>
occu p
na tion
mi xing</w>
mat ched</w>
mark er</w>
manag ing</w>
lo com
lan es</w>
l ined</w>
kne es</w>
kes pe
k n
it em</w>
isol ation</w>
indi cate</w>
in formal</w>
im plant</w>
i ghts</w>
gr ass
gi a</w>
g han</w>
g ering</w>
form ula</w>
fl esh</w>
fil es</w>
far ther</w>
f est</w>
exag ger
estab lish</w>
er ra</w>
du ty</w>
dre aming</w>
dec ent</w>
de pic
d ary</w>
d am</w>
contribu tion</w>
com mon
clin ics</w>
ce -
car ed</w>
ca s</w>
but ter
break fast</w>
bor row</w>
bo y
ba i</w>
avo i
au ts</w>
ar ded</w>
ag e-
aff airs</w>
advo cate</w>
adequ ate</w>
activ ated</w>
T ha
St age</w>
Si erra</w>
Sha kespe
S tr
Qa eda</w>
Pret ty</w>
Por tu
P T
Me an
M en</w>
M W</w>
Leon ardo</w>
Indi ans</w>
H osp
H ong</w>
C ri
Any one</w>
A T
3 0-
20 13</w>
20 -
1 1
