#version: 0.2
q u
o s</w>
n t
a s</w>
e s
d e</w>
c o
e r
qu e</w>
a r
d o</w>
ã o</w>
e nt
o r
e s</w>
o t
a n
e n
i s
i n
a r</w>
a m
e m</w>
qu ot
quot ;</w>
& quot;</w>
es t
a l
c i
p o
r e
e m
d a</w>
e r</w>
p ar
r i
d i
e l
m a</w>
r a
t i
i s</w>
t o</w>
p r
s e</w>
co m
m a
u m</w>
s o
u ma</w>
ent e</w>
u n
par a</w>
a d
e i
i c
s s
s t
v i
a m</w>
s e
n o
a nt
o n
co n
g u
ç ão</w>
i d
e c
a t
n ão</w>
em os</w>
c a
r a</w>
p er
am os</w>
m u
o u</w>
i a</w>
o l
p a
v e
i t
s o</w>
f a
pr o
u t
d os</w>
r o</w>
a de</w>
a l</w>
i m
co m</w>
d e
n o</w>
h a</w>
e x
is t
p l
o r</w>
c u
a b
e u</w>
com o</w>
a do</w>
i l
t o
n a</w>
d es
ma is</w>
co nt
f or
a v
m os</w>
s u
p or
an do</w>
po r</w>
m o
v er
i g
c h
d as</w>
õ es</w>
m e</w>
u s
p es
p en
n os</w>
i to</w>
c a</w>
m as</w>
po d
p e
a ção</w>
ent o</w>
p re
es s
a g
d u
t u
b r
m o</w>
t ra
pes so
m ente</w>
am ente</w>
fa z
a c
i nt
ci a</w>
e t
c o</w>
r o
f i
is so</w>
id ade</w>
s ão</w>
l o
a da</w>
r an
p o</w>
a qu
an os</w>
no ss
h o</w>
m in
ti v
r es
ad os</w>
t er
f ic
f o
mu ito</w>
a is</w>
i r</w>
l h
E st
pesso as</w>
M as</w>
d ade</w>
c ri
est e</w>
a o</w>
o ut
is to</w>
s er</w>
v o
u l
é m</w>
est a</w>
v er</w>
e g
e n</w>
p ri
m es
or es</w>
or a</w>
f er
r u
i z
ç a</w>
ê n
- se</w>
al g
r os</w>
se gu
t e</w>
ó s</w>
un do</w>
co is
d o
ant e</w>
el a</w>
r as</w>
faz er</w>
ç ões</w>
cu l
am b
t a</w>
s i
al mente</w>
m e
v ol
est á</w>
s er
co r
m i
ant o</w>
er a</w>
c ar
por que</w>
Q u
br e</w>
l u
ci on
b l
ve l</w>
d is
av a</w>
t em
a s
c e
qu ando</w>
c er
ent es</w>
so bre</w>
u s</w>
el e</w>
fo i</w>
m ei
e i</w>
b al
ri a</w>
h o
ó n</w>
ve z</w>
ên cia</w>
m undo</w>
s a</w>
por t
m an
el es</w>
ic a</w>
en d
o b
l i
ê s</w>
m ento</w>
f al
s ab
t er</w>
est ão</w>
- me</w>
h á</w>
to dos</w>
l e
u n</w>
qu er
n ós</w>
a ss
m en
el h
tra bal
un ha</w>
co l
N ão</w>
n i
pen s
a n</w>
v os</w>
pr es
di a</w>
m eu</w>
j u
amb ém</w>
po is</w>
int er
t emos</w>
di z
min ha</w>
C o
- l
vi da</w>
b a
ant es</w>
E nt
b ri
r á
m á
ad as</w>
mes mo</w>
E u</w>
for ma</w>
em a</w>
c is
d ar</w>
i r
f un
s to</w>
m il
pa ss
c l
R is
t e
com e
t in
b o
g o</w>
el o</w>
cois as</w>
t ambém</w>
P or
a i</w>
Ent ão</w>
ic o</w>
c os</w>
ad es</w>
i x
r e</w>
t em</w>
s ti
r ar</w>
on de</w>
i ma
v a</w>
mu it
tem po</w>
ar am</w>
i m</w>
an o</w>
no n</w>
á ri
aqu i</w>
pri mei
t os</w>
s a
ê m</w>
s em
p i
E l
po de</w>
pod emos</w>
se u</w>
di fer
h u
est as</w>
fa c
í vel</w>
s ent
f í
ci ón</w>
m ent
pen as</w>
ma i
v e</w>
g ia</w>
t or
Ris os</w>
pre cis
er o</w>
g ra
po ss
t en
un s</w>
f ei
c re
n as</w>
qu er</w>
o u
g ran
S e</w>
ç o</w>
c am
a ções</w>
ch am
á mos</w>
pl a
0 0</w>
ar es</w>
con segu
a cont
a penas</w>
est es</w>
h ist
ç as</w>
P o
m elh
ca da</w>
s ó</w>
su a</w>
h ar</w>
c é
in a</w>
z es</w>
am ento</w>
b i
us os</w>
m or
o s
nt e</w>
p al
í a</w>
t êm</w>
z a</w>
par ti
m ar
cois a</w>
re l
- nos</w>
pro bl
A pla
po l
po u
pod em</w>
ag ora</w>
to do</w>
noss a</w>
vo c
P or</w>
f in
es se</w>
n e
ei ra</w>
O s</w>
Apla usos</w>
n um</w>
v is
ei ro</w>
de pois</w>
ei x
alg o</w>
at é</w>
el as</w>
t ar</w>
acont ec
t r
so ci
come ç
ei a</w>
v o</w>
qu en
at u
al gu
g ar</w>
g o
mil h
tu do</w>
e ci
d es</w>
est ava</w>
ca b
ti ca</w>
pod er
b er
ist a</w>
im port
t ran
n uma</w>
gu nt
res po
f il
pe quen
pr ó
s ist
g en
con h
par te</w>
hist ó
ci dade</w>
en s
ó n
p u
a os</w>
c ent
tin ha</w>
I sto</w>
noss o</w>
en cont
an ça</w>
par ec
ag em</w>
b em</w>
r am
diz er</w>
in da</w>
con st
for ma
t anto</w>
v amos</w>
a tiv
ve is</w>
v en
er am</w>
est amos</w>
â n
c as</w>
im pl
ar i
in h
ent ar</w>
s ig
o n</w>
tu ra</w>
m et
. .</w>
qu anto</w>
ad or</w>
ti po</w>
g i
ess a</w>
ad ores</w>
m é
a u
tran s
b ro</w>
. ..</w>
me di
s em</w>
í n
t ec
es p
ent re</w>
t ão</w>
al idade</w>
Qu ando</w>
voc ês</w>
é s</w>
ra nte</w>
nt o</w>
pa í
gran de</w>
ci as</w>
ut u
d em
j a</w>
ra z
a pr
ce b
ra m</w>
P ar
j e</w>
má is</w>
j á</w>
des en
c al
to das</w>
in c
est u
av am</w>
d er
A s</w>
ss o</w>
u r
ass im</w>
em pl
fal ar</w>
ent os</w>
se us</w>
a po
a inda</w>
ar em</w>
fí ci
ex empl
p elo</w>
es per
a vi
per gunt
pou co</w>
D e
st a</w>
g an
í amos</w>
i do</w>
out ros</w>
in v
c an
ver dade</w>
im os</w>
p ela</w>
s al
l ti
le v
a p
A g
ci d
fic a</w>
qu al
pr e</w>
un ca</w>
end er</w>
re almente</w>
mu lh
const ru
hu man
out ra</w>
dis se</w>
com pl
ch eg
Co mo</w>
ve zes</w>
t al
di re
tec no
ar mos</w>
f l
mo st
probl ema</w>
trabal ho</w>
d eix
v emos</w>
tor n
m er
Ag ora</w>
v ai</w>
a ut
á vel</w>
qual quer</w>
pens ar</w>
ist as</w>
est ar</w>
at ra
melh or</w>
com un
ri o</w>
cu r
C h
id ades</w>
H á</w>
a ju
sig ni
f am
á -l
p a</w>
o c
men os</w>
fun cion
ú n
sem pre</w>
em ente</w>
s impl
com p
l on
ima g
ex per
mai or</w>
des co
con s
ol h
Por que</w>
so n</w>
l in
est i
ver s
tecno lo
ic os</w>
ar ia</w>
exempl o</w>
to da</w>
v em</w>
noss os</w>
se i</w>
- vos</w>
Est a</w>
se g
milh ões</w>
l á</w>
ho je</w>
import ante</w>
histó ria</w>
sist ema</w>
es col
n or
do is</w>
fi ci
du rante</w>
l l
an ças</w>
g er
í ti
out ro</w>
p os</w>
id eia</w>
un i
out ras</w>
v al
em as</w>
n unca</w>
b u
fei to</w>
ca pa
N o</w>
mu d
or ia</w>
A l
ón s</w>
l ado</w>
ú lti
ári o</w>
g ado</w>
t as</w>
ex ist
T o
er ra</w>
c ar</w>
& #
&# 9
in forma
pro du
Est e</w>
er es</w>
c in
Por tanto</w>
à s</w>
es pa
ent ão</w>
i am</w>
el e
en ci
l ig
s es</w>
a ch
mi m</w>
di fíci
muit as</w>
- lh
2 0
v el
it e</w>
alg uns</w>
h am</w>
us ar</w>
so u</w>
in g
es so</w>
Po d
E m</w>
p ul
a se</w>
al iz
pro v
primei ra</w>
j o
tr ês</w>
es pe
desen vol
ci o</w>
b ar
t ar
ex pl
re g
e qu
pal av
f r
me us</w>
su b
gu a</w>
et a</w>
s ica</w>
b re
ca sa</w>
it os</w>
f u
cl ar
a ción</w>
n eg
ba ix
n ú
a cion
ab or
muit os</w>
po si
amb i
mo mento</w>
o so</w>
v í
an a</w>
n ec
difer entes</w>
atra v
v ou</w>
so l
in f
pró pri
f ot
pro f
n ada</w>
t am
fac to</w>
exper i
primei ro</w>
qu em</w>
vol u
ra l</w>
m ar</w>
f ri
est ou</w>
r is
per ceb
noss as</w>
pr ot
M u
tiv o</w>
t ri
s os</w>
in u
s é
li v
du as</w>
d ados</w>
m ã
su as</w>
a x
e l</w>
h as</w>
d ent
i da</w>
cri ar</w>
ó l
est á
in o</w>
t é
id os</w>
em pres
en do</w>
ss a</w>
ten ho</w>
respo n
n este</w>
il o</w>
ig o</w>
g a</w>
ic as</w>
a -se</w>
N a</w>
inter ess
El e</w>
se ja</w>
cé re
cor re
co n</w>
ên cias</w>
j e
mulh eres</w>
h or
F o
v ão</w>
pesso a</w>
en er
tal vez</w>
b il
O bri
B em</w>
e b
A qu
a cab
s se</w>
it a</w>
re di
inv est
co lo
ñ a</w>
fi z
en ça</w>
ti l
espe ci
pr ess
nt os</w>
h os</w>
cri anças</w>
in ho</w>
quer o</w>
lu gar</w>
i o</w>
des a
t entar</w>
pod er</w>
so n
ri as</w>
pro g
i as</w>
s as</w>
es co
c res
U m</w>
e d
cul o</w>
an d
us a</w>
0 00</w>
vol ta</w>
1 0</w>
tiv a</w>
o p
n ot
v as</w>
is mo</w>
Par a</w>
ári os</w>
su r
cont inu
algu mas</w>
cer ca</w>
ou vi
g ru
x o</w>
no vo</w>
l ul
ê -l
d ist
tecnolo gia</w>
pro c
paí s</w>
fic ar</w>
di as</w>
t es</w>
conh eci
t re
mes ma</w>
f utu
e j
conh ec
lo ca
algu ém</w>
n en
í veis</w>
en quanto</w>
atrav és</w>
é n</w>
in ar</w>
cé lul
D e</w>
re alidade</w>
n atu
rá s</w>
C on
e dade</w>
T emos</w>
ti co</w>
pl an
cére bro</w>
r ol
qu is
U ma</w>
fa z</w>
a st
ç os</w>
pres ent
n em</w>
difer ente</w>
ci ent
es c
o g
m ero</w>
ac redi
sti tu
f e
signi fica</w>
l o</w>
á gua</w>
mé di
Fo i</w>
informa ção</w>
in di
el os</w>
b at
res ul
1 9
desco bri
qu al</w>
s ;</w>
apo s;</w>
& apos;</w>
est r
a z
ra ção</w>
ra do</w>
ma nt
ân cia</w>
f á
N ós</w>
ú bl
t amente</w>
dent ro</w>
til iz
comp ut
l im
c ando</w>
am -se</w>
su per
ment os</w>
in st
P ero</w>
futu ro</w>
ter i
in gu
El es</w>
ti r</w>
f ra
difíci l</w>
á ria</w>
fam í
I sso</w>
d or</w>
t al</w>
poss ível</w>
m b
ci ência</w>
ba st
trabal har</w>
m ol
ess as</w>
ei ros</w>
du z
aqu ele</w>
e co
b on
qu ase</w>
l e</w>
for am</w>
aqu ela</w>
paí ses</w>
o sa</w>
m anos</w>
for a</w>
h ai</w>
d ec
5 0</w>
precis amos</w>
con fi
ma l</w>
go st
r ar
probl emas</w>
p úbl
d esta</w>
com pre
d isso</w>
d este</w>
ca do</w>
s p
c ad
so mos</w>
s ú
per o</w>
o cu
inh eiro</w>
at ro</w>
si do</w>
espa ço</w>
en s</w>
alg uma</w>
a í</w>
l ia</w>
al tura</w>
vi mento</w>
ic amente</w>
d ól
sab emos</w>
nú mero</w>
mi l</w>
mo d
it u
ut os</w>
respo sta</w>
nec ess
c r
a -
em br
go ver
des de</w>
d inheiro</w>
ú de</w>
s i</w>
es e</w>
R e
-lh e</w>
ei to</w>
I n
clar o</w>
ca so</w>
ú sica</w>
u ro
t ent
mo i</w>
lo b
an i
or gan
id er
al i
in do</w>
x ente</w>
u tiliz
simpl es</w>
mu dar</w>
pró x
prog ram
acontec e</w>
ener gia</w>
a ti
no m
pl ic
pen so</w>
an ç
resul t
mo do</w>
m ot
m em</w>
é ci
parec e</w>
no va</w>
ab il
fun d
in as</w>
começ ar</w>
d í
a f
á veis</w>
equ i
avi a</w>
aut o
aqu ilo</w>
ser v
pe di
os os</w>
n esta</w>
lu z</w>
ser ia</w>
d ú
av el
encont rar</w>
E s
d in
bast ante</w>
l ar
o st
escol a</w>
cont rol
ig os</w>
di g
man eira</w>
d er</w>
g ente</w>
en cia</w>
ei ras</w>
ca p
est avam</w>
es cre
2 0</w>
á tica</w>
b an
sa úde</w>
at ó
h amos</w>
baix o</w>
n ível</w>
esp éci
dól ares</w>
c ó
vi ol
p ó
hu manos</w>
ei t
cor po</w>
ra da</w>
S ab
fac er</w>
e du
at a</w>
cont ra</w>
E n
á re
s en
qu e
m el
acontec er</w>
r en
e f
d eles</w>
di o</w>
I nt
pol í
f re
cer to</w>
De pois</w>
i ção</w>
c e</w>
ó g
in ha</w>
i gu
estu d
ei as</w>
ci óns</w>
gran des</w>
sab er</w>
mei o</w>
fic o</w>
al ter
A s
tin ham</w>
s in
ne t</w>
qu estão</w>
fi m</w>
po nto</w>
m ic
is o</w>
er em</w>
avel mente</w>
g ada</w>
lon go</w>
li ber
parti lh
it al</w>
in i
célul as</w>
U n
vi dade</w>
r est
or ar</w>
o v
experi ência</w>
t í
m al
iz ação</w>
pro cu
es cri
en or
apr end
r es</w>
ol har</w>
N on</w>
1 ;</w>
&#9 1;</w>
vi das</w>
raz ão</w>
pa is</w>
ma g
g lob
ab a</w>
Pod emos</w>
Obri gado</w>
f el
vis ão</w>
se x
pass ado</w>
estr utu
constru ir</w>
mes es</w>
g os</w>
Aqu i</w>
human o</w>
di z</w>
ver d
an h
so bre
vi ver</w>
t ot
S ão</w>
qu ant
ju nt
h i
faz em</w>
ec to</w>
ss emos</w>
i u</w>
de o</w>
á sti
m on
l a</w>
it as</w>
Int er
á r
i or</w>
g e</w>
pequen a</w>
gru po</w>
ar te</w>
3 ;</w>
&#9 3;</w>
x e</w>
ter min
t ro
bo m</w>
ad or
per so
pequen o</w>
palav ras</w>
v i</w>
o port
d en
d est
V amos</w>
vo ssa</w>
ser á</w>
p an
e di
an as</w>
verd ad
ingu ém</w>
im o</w>
je to</w>
po pul
oport un
o gra
mã e</w>
h avia</w>
d ar
apr ender</w>
hor as</w>
em o
ún ica</w>
u b
seg undo</w>
ent emente</w>
di cion
A ss
imag em</w>
To dos</w>
r amos</w>
em pre
sab em</w>
tra t
p id
g ar
famí lia</w>
ess es</w>
ec ei</w>
d é
cin co</w>
al i</w>
vi a</w>
de pen
3 0</w>
re al</w>
ex tra
res ol
for mas</w>
b ol
V ou</w>
au ment
am igos</w>
am er
As í</w>
tiv os</w>
in ci
ho mem</w>
est ado</w>
cul tura</w>
ach o</w>
parti r</w>
nen h
mai oria</w>
ho men
a par
u -se</w>
ma teri
de ci
ar -se</w>
ê-l o</w>
bo a</w>
am ent
qu atro</w>
int el
m ão</w>
comun idade</w>
a to</w>
é n
us as</w>
ob ri
s an
pre ocu
eco nom
E x
E U
te ñ
no vas</w>
fri ca</w>
fin al</w>
soci al</w>
homen s</w>
ci ma</w>
amer ic
E ra</w>
á s</w>
sal a</w>
ass u
al im
re i</w>
pa ix
H o
ver so</w>
trabal h
soci edade</w>
so lu
ni o</w>
cham ado</w>
ca usa</w>
v a
ti cos</w>
compl ex
per m
pe d
p at
me do</w>
interess ante</w>
exist e</w>
N o
ó r
ó m
h ab
ativ a</w>
m un
invest ig
ci al</w>
seg un
quer emos</w>
e vi
EU A</w>
par ar</w>
ob serv
m es</w>
T erra</w>
El a</w>
r em</w>
á l
p ra
edu ca
Á frica</w>
p ar</w>
id e
esco lh
es qu
el em
comun ic
a si
P re
proc esso</w>
pass ar</w>
os as</w>
ol o
ne ur
cid ades</w>
Qu e</w>
t ó
segu int
c er</w>
ag ens</w>
vo sso</w>
perceb er</w>
p ot
n u
mo s
en ças</w>
Ass im</w>
per ce
ac er
ári as</w>
o -
20 0
sú a</w>
mu l
es a</w>
empres as</w>
sent ido</w>
l it
funcion a</w>
at rás</w>
s or
ma tem
cul ar</w>
am entos</w>
O u</w>
í sti
t en</w>
press ão</w>
po st
no ite</w>
histó rias</w>
en as</w>
d estas</w>
com port
t or</w>
en vi
Qu ero</w>
Inter net</w>
ti cas</w>
re za</w>
pol íti
mulh er</w>
a plic
signi fic
po n
lo go</w>
constru í
aqu eles</w>
ri bu
compl et
1 00</w>
se c
pa i</w>
desa fi
cheg ar</w>
acontec eu</w>
nt es</w>
is ti
ec e</w>
capa cidade</w>
vi do</w>
men s
loca l</w>
P ro
vers idade</w>
r ível</w>
p ad
gen s</w>
fr ente</w>
re i
ra is</w>
pro x
pa c
l í
ll e</w>
fo sse</w>
f ia</w>
c ro</w>
pr inci
il i
faz emos</w>
cons ider
su fici
s itu
po dia</w>
de fin
ci l</w>
v ista</w>
con ver
Pod em</w>
re c
aju dar</w>
acion al</w>
A n
cul as</w>
ar t
p elos</w>
má qu
fer ram
precis o</w>
p á
fá cil</w>
ferram ent
cab e
ti pos</w>
fe z</w>
ec er</w>
con óm
S u
pro j
en so</w>
Mu ito</w>
milh ares</w>
er ia</w>
enor me</w>
á-l o</w>
poss o</w>
im ento</w>
es mente</w>
quer ia</w>
pe l</w>
met ros</w>
fil hos</w>
b eb
S o
í cio</w>
l er</w>
er mos</w>
cont ra
Est amos</w>
soci ais</w>
n inguém</w>
ec t
consegu imos</w>
c amente</w>
ter mos</w>
tar de</w>
ran ça</w>
e conóm
cam inho</w>
at amente</w>
as se</w>
P er
plan eta</w>
gu erra</w>
f ant
est ran
pergunt a</w>
mud ança</w>
glob al</w>
ca s
ani mais</w>
ser vi
pu bl
m em
es cal
car ro</w>
d estes</w>
co u</w>
ci mento</w>
ba se</w>
espéci e</w>
uni verso</w>
inc lu
imag in
com pr
no me</w>
m úsica</w>
com ecei</w>
at en
é r
x en
re present
par e
pa s
ab ri
or n
e gu
comput ador</w>
D es
us i
mo nt
de n</w>
co usas</w>
ca ix
ambi ente</w>
con su
alg um</w>
S ó</w>
1 5</w>
ín hamos</w>
cu id
T E
últi mos</w>
simpl esmente</w>
prov avelmente</w>
human a</w>
e volu
des ig
de u</w>
cul os</w>
com ida</w>
u do</w>
r ão</w>
ar ti
-lh es</w>
j am</w>
ima gens</w>
di ci
con ju
V oc
tiv e</w>
n er
muit a</w>
b as
T ambém</w>
so f
quer em</w>
pi o</w>
mi ña</w>
en vol
deci di
complet amente</w>
cham ada</w>
qu ê</w>
gi as</w>
fot ogra
cer ta</w>
vo ss
v ari
ti do</w>
por ta</w>
id eias</w>
re ceb
mic ro
ant i
T al
t ele
si on
it ar</w>
fl or
di al</w>
b ra
No va</w>
produ z
polí tica</w>
o per
melh ores</w>
m is
cont a</w>
acer ca</w>
es es</w>
ri ca</w>
most rar</w>
i on
i fic
apr en
G o
tam én</w>
segu ir</w>
lin gu
l ut
ab er
qu ais</w>
fu i</w>
expl ic
d ela</w>
liv ro</w>
id as</w>
can cro</w>
b lo
S im</w>
u al</w>
pa pel</w>
ei o</w>
des se</w>
vol t
seguint e</w>
min has</w>
h ora</w>
empres a</w>
co st
Est as</w>
pro jeto</w>
po sto</w>
pes ar</w>
h av
di go</w>
c ant
u d
organ iz
ví deo</w>
E uro
un d
si m</w>
mod elo</w>
g al
Est á</w>
oportun idade</w>
n as
l abor
id ent
gu l
est ra
corre r</w>
con c
v ar</w>
ti ver
te ve</w>
m ec
in s
ig a</w>
car ros</w>
s int
qu ei</w>
medi da</w>
f ro
co lh
b ac
ven s</w>
sé culo</w>
re de</w>
er á</w>
Ris as</w>
J á</w>
in ício</w>
cri ança</w>
ci os</w>
ar qu
or i
mel l
intel ig
exist em</w>
conheci mento</w>
ad ora</w>
a cor
mor te</w>
está n</w>
d elas</w>
at os</w>
t ant
i z</w>
gu e</w>
an ha</w>
al ém</w>
sist emas</w>
se n</w>
le o</w>
fa v
cur so</w>
col eg
U ni
M o
x a</w>
rel ação</w>
lh e</w>
j o</w>
dem oc
d ele</w>
P ri
se is</w>
re cu
per mi
f on
T en
r ó
públ ico</w>
parec er</w>
gover no</w>
do ença</w>
atu ra</w>
Tal vez</w>
A o</w>
olh os</w>
A D
desenvol vimento</w>
cur sos</w>
in stitu
et os</w>
des ej
co ma</w>
Est ou</w>
ún ico</w>
ató rio</w>
ar á</w>
AD N</w>
é tica</w>
t ores</w>
s -
cient í
a ul
Pre cis
u so</w>
trans for
ri os</w>
pen sei</w>
cer e
cam po</w>
an ho</w>
á-l a</w>
poder ia</w>
loca is</w>
fre qu
fei tos</w>
fant ásti
e difíci
d isto</w>
con di
começ ou</w>
cer te
abil idade</w>
se qu
g as</w>
econom ia</w>
dec is
car a</w>
bil idade</w>
á vamos</w>
posi ção</w>
dem asi
c ento</w>
vi d
segun da</w>
re p
fund ament
consegu em</w>
Est ados</w>
neg ó
min utos</w>
fi z</w>
et as</w>
cont ar</w>
b en</w>
b en
an ima
segu rança</w>
g rá
conju nto</w>
B o
z as</w>
t ínhamos</w>
ll es</w>
enci al</w>
descobri r</w>
ci do</w>
Obri gada</w>
mor re
ho u
av e</w>
am -me</w>
L e
A t
í m
fiz emos</w>
A r
áre a</w>
su c
im pac
ex tre
estrutu ra</w>
em -se</w>
d ão</w>
ci r
Est es</w>
val or</w>
sem anas</w>
in ov
di fic
deix ar</w>
d ores</w>
pes quis
min u
ativ o</w>
De us</w>
ser em</w>
certe za</w>
P ens
tot almente</w>
tam anho</w>
própri o</w>
Ten ho</w>
so r</w>
sem ana</w>
mes mos</w>
ig i
ar -vos</w>
al un
aju da</w>
torn ar</w>
sab ia</w>
r ou</w>
prof ess
mai ores</w>
l embr
du n</w>
c ados</w>
D u
vo z</w>
pequen os</w>
ouvi r</w>
not í
e des</w>
br an
acredi t
Un idos</w>
M ais</w>
ro b
ra di
difer ença</w>
con ven
ch o</w>
M ar
-l o</w>
ter r
ra dos</w>
jo vens</w>
import antes</w>
confi ança</w>
ci cl
tu al</w>
escal a</w>
c at
aqu í</w>
Voc ês</w>
P enso</w>
ser es</w>
rá pi
obri gado</w>
no vos</w>
i ón</w>
fí s
c en
TE D</w>
Pri mei
sur pre
st ria</w>
pa ci
natu reza</w>
mi ú
ess em</w>
Co m</w>
ñ o</w>
teñ en</w>
popul ação</w>
pens amos</w>
p raz
h on
em b
em -me</w>
6 0</w>
viol ência</w>
us ti
r amente</w>
palav ra</w>
pal est
mol é
h er
com igo</w>
c el
t rás</w>
pro d
perso as</w>
mar avi
ig as</w>
fin an
ferrament as</w>
ens in
cor r
consegu ir</w>
C A</w>
ã os</w>
t end
lh es</w>
i ma</w>
g a
aju d
Euro pa</w>
s ens
ra pid
r í
par tes</w>
in dú
faz ê-lo</w>
estu do</w>
T i
pro b
i n</w>
ho sp
c li
c ambi
O ut
p ô
mo ito</w>
lim it
l os</w>
estud antes</w>
I mag
8 0</w>
últi mo</w>
v ul
us ão</w>
poss i
or ig
ob j
fi x
ent a</w>
á-l os</w>
ra par
r ess
l id
br es</w>
su st
situ ação</w>
rel acion
p int
olo gia</w>
dis se
ter c
prot e
pol o</w>
per to</w>
aten ção</w>
ó leo</w>
vol tar</w>
u mas</w>
u -me</w>
ris co</w>
result ado</w>
pe ti
p elas</w>
d or
as í</w>
an al
voc ê</w>
nor mal</w>
iz ar</w>
e fici
dis ser
democ ra
co a</w>
4 0</w>
t an</w>
s íti
mer cado</w>
fro nt
f en
J o
tu r
rel igi
r ões</w>
qu ím
qu ar
natu ral</w>
mo der
inh os</w>
est rel
de v
cent enas</w>
c n
ativ as</w>
us ando</w>
ri t
l es</w>
es cu
ed ades</w>
cabe ça</w>
bl e</w>
V i
pl ant
pequen as</w>
o x
lev ar</w>
impac to</w>
educa ção</w>
d ro
cres cimento</w>
ar re
últi ma</w>
uni vers
ter ia</w>
suc esso</w>
própri a</w>
ni os</w>
mer os</w>
lit er
in g</w>
g ares</w>
f lu
duz ir</w>
demasi ado</w>
de termin
O k</w>
u ra</w>
tor no
so m</w>
r on
or din
no sa</w>
mã os</w>
equi pa</w>
comp anh
ba se
a present
T ra
sab e</w>
s co</w>
nt a</w>
i ria</w>
depen d
come ça</w>
c le
mot i
imag inar</w>
h a
f ar
Primei ro</w>
áre as</w>
ve u</w>
v amente</w>
té cn
sé ri
res p
rapid amente</w>
prot eg
pro fun
pe tr
n un</w>
ir á</w>
inc rível</w>
gru pos</w>
es quer
ent anto</w>
ec tos</w>
comport amento</w>
at a
Imag in
ç ar</w>
ve n</w>
ter ra</w>
ra b
tiv as</w>
se te</w>
partilh ar</w>
pa z</w>
iz mente</w>
f or</w>
ex to</w>
em ento</w>
am o
resol ver</w>
port anto</w>
m ist
liv ros</w>
l ín
experi ências</w>
dire c
am igo</w>
x u
result ados</w>
mil l
matem ática</w>
lon ge</w>
escre ver</w>
do enças</w>
dici r</w>
d ía</w>
cion al</w>
cere bro</w>
prof es
parti ci
medi cam
ma n</w>
g l
diz em</w>
con sig
co ra
c ina</w>
Ho je</w>
- o</w>
u st
l eg
ar ran
Ch ina</w>
ó ria</w>
z on
sent ir</w>
sa í
rest o</w>
r ot
po bres</w>
l anç
cul a</w>
compre ender</w>
a prox
á n
sufici ente</w>
profess ores</w>
mo vimento</w>
maravi lh
for ça</w>
extra ordin
en fer
eci do</w>
di ag
de ver
com par
s il
qu il
pr é
j orn
ing l
di ver
desco ber
coleg as</w>
c adas</w>
ú s
tra z
st as</w>
re des</w>
re cursos</w>
qu ad
or que</w>
médi co</w>
máqu ina</w>
control o</w>
com um</w>
car bon
T udo</w>
ru r
precis am</w>
precis a</w>
come z
vi r
ri g
pass a</w>
ob ter</w>
neur ó
lu gares</w>
fin almente</w>
e a
des sas</w>
Precis amos</w>
N os</w>
N e
1 1</w>
ç am</w>
séri e</w>
petr óleo</w>
médi cos</w>
lin ha</w>
e fic
di to</w>
cu st
capa z</w>
Imagin em</w>
ti camente</w>
re volu
prod utos</w>
pre gunt
nenh um</w>
m ó
ini ci
está vamos</w>
ar ra
al ta</w>
Al g
ín da</w>
t ax
sem elh
ob je
nú meros</w>
nu cle
n acional</w>
ari am</w>
O ra</w>
N or
C lar
7 0</w>
1 2</w>
voss os</w>
indú stria</w>
h e</w>
cont rá
am or</w>
I orque</w>
Co nt
x ía</w>
vi r</w>
vi agem</w>
vel mente</w>
ul tra
publ ic
pro pri
pergunt as</w>
paix ão</w>
fí sica</w>
di am</w>
dest ru
ci rur
cent ro</w>
ativ os</w>
aqu elas</w>
aliz ar</w>
a cións</w>
T em</w>
M úsica</w>
á n</w>
ti rar</w>
tecnolo gias</w>
s í
p ia</w>
no so</w>
m ir</w>
inh as</w>
f ec
escol as</w>
en gen
el ec
ce p
am a</w>
Co m
óg ica</w>
n isso</w>
most rar
materi al</w>
em -
ej am</w>
cul tu
cient istas</w>
b us
arqu it
a di
D eix
A mé
9 0</w>
v isto</w>
v elh
procu ra</w>
ci t
al can
a j
a fa
â m
á tico</w>
tiv emos</w>
qu est
pre par
per son
ent rar</w>
ent ender</w>
eci mento</w>
de ve</w>
conhec er</w>
ti l</w>
sa ir</w>
program a</w>
primei ros</w>
po ntos</w>
o -me</w>
n isto</w>
fei ta</w>
est aba</w>
ei ramente</w>
d unha</w>
c eg
bas icamente</w>
ap ós</w>
ac esso</w>
C ada</w>
ú n</w>
qu i
po den</w>
o ce
ju ntos</w>
ens ino</w>
do cu
des sa</w>
começ ámos</w>
colo car</w>
Ex ist
C ar
san gue</w>
mu lti
g ri
f undo</w>
ex atamente</w>
esti v
est e
est ab
en fr
el ho</w>
ei -me</w>
di do</w>
carbon o</w>
c í
á s
v árias</w>
v am</w>
to n</w>
pr is
met ade</w>
mant er</w>
i ções</w>
com b
co ñ
capa zes</w>
b o</w>
ax e</w>
Go og
Ch am
Í n
sobre vi
quant idade</w>
par tí
pa l</w>
funcion ar</w>
fam ili
el et
e v
desig n</w>
cid ad
bi os</w>
az u
Amé rica</w>
ár v
inst ru
h ar
ent re
emb ora</w>
comput adores</w>
c ru
bo as</w>
alun os</w>
v ós</w>
tar ef
s im
pi ra
no ut
is tir</w>
g em</w>
au di
apren diz
Goog le</w>
A cho</w>
w ar
re fer
pre fer
nenh uma</w>
mun dial</w>
e bo
de f
ati vidade</w>
ass em</w>
D o
á ticas</w>
vi du
t elem
in os</w>
i re
fil ho</w>
esper ança</w>
el é
do us</w>
d ut
d i</w>
caix a</w>
br os</w>
t a
jo vem</w>
indi vidu
fot os</w>
am -
al to</w>
ag ri
Du rante</w>
vi amente</w>
telem ó
poss am</w>
p eix
notí cias</w>
n e</w>
lev ant
in cri
i cidade</w>
ent al</w>
democra cia</w>
cons ci
a parec
prof is
perm it
pass o</w>
lo u
labor atório</w>
d on
S ou</w>
M é
tra dicion
ter em</w>
m almente</w>
especi almente</w>
continu ar</w>
con for
b or
av anç
C ol
2 5</w>
x er
to mar</w>
solu ção</w>
se jam</w>
s pe
própri os</w>
pr inc
pens am</w>
pa g
ol o</w>
mo -nos</w>
materi ais</w>
i b
esp ec
d em</w>
cost u
ag ra
. 000</w>
i ar</w>
g é
cres c
cl im
car ac
a pesar</w>
Clar o</w>
vi mos</w>
p si
o ito</w>
n unha</w>
melh orar</w>
ix o</w>
hav er</w>
fic os</w>
et e</w>
es for
conver sa</w>
c ris
afa st
â mar
Ín dia</w>
ten ha</w>
re par
gu ar
fiz eram</w>
des cre
de vido</w>
comun idades</w>
co r</w>
ve em</w>
sust ent
so z
so b</w>
pesquis a</w>
or ias</w>
o ma</w>
fa s
do entes</w>
d uma</w>
aument ar</w>
am e</w>
a -me</w>
recu per
quest ões</w>
is e</w>
ir mos</w>
ig nor
hi pó
desafi o</w>
compre en
ag ir</w>
ví du
un has</w>
tiv esse</w>
s ito</w>
próx imo</w>
post os</w>
permi ti
indi vídu
esti ver
dis posi
contrá rio</w>
carac ter
americ anos</w>
ad ul
F or
Co me
so l</w>
poss a</w>
mens agem</w>
lin e</w>
hist oria</w>
ca l</w>
I s
H ai</w>
í an</w>
se xo</w>
produ ção</w>
princ í
pres ente</w>
pedi r</w>
ir em</w>
g ast
estu dar</w>
ent usi
engen h
ei tar</w>
e feito</w>
d emos</w>
célul a</w>
ch e</w>
as p
ad ol
a índa</w>
N este</w>
í do</w>
respon sab
pad rões</w>
pa sse</w>
p e</w>
o k</w>
hipó t
fi cou</w>
de i</w>
con fl
ari o</w>
ar ma
ant er
Po de</w>
At é</w>
rel ações</w>
parti cular</w>
o fer
inst al
fot o</w>
especi al</w>
col abor
bu ra
bri lh
adol esc
Est ão</w>
ísti cas</w>
v ot
u ais</w>
res ist
pol a</w>
pesso al</w>
neuró nios</w>
l ar</w>
fa bri
f ó
exper im
e is</w>
disser am</w>
dire itos</w>
dire ito</w>
começ aram</w>
co ração</w>
anima l</w>
am pl
En quanto</w>
segu ro</w>
se quer</w>
ro u
proc ess
ped a
l an
d á</w>
d ado</w>
cu ri
compl ic
bo mb
ar -nos</w>
t i</w>
per í
palest ra</w>
n essa</w>
medi cina</w>
ma pa</w>
inv ent
des pois</w>
ch o
bi ó
an dar</w>
a z</w>
Sab em</w>
vel o
v ado</w>
t ú
t est
rá mos</w>
ru s</w>
pá g
pa gar</w>
mill óns</w>
liber dade</w>
j usti
ger ação</w>
for te</w>
fil me</w>
expl or
do min
consegu e</w>
te oria</w>
s at
qu ão</w>
pen sa</w>
o m
lingu agem</w>
li as</w>
ent end
de vemos</w>
de vem</w>
t an
rápi do</w>
re vel
próx ima</w>
it ais</w>
i ficar</w>
dis cu
di minu
cid ente</w>
ca sos</w>
bi do</w>
at ing
ag ar
a prov
F al
F ac
s ia</w>
qu ei
man h
int ro
hou ve</w>
extre m
ex pan
ex ac
es pal
aprendiz agem</w>
ac o</w>
N unca</w>
F ran
Al gu
A inda</w>
vi l
ut a</w>
super fíci
sol ar</w>
ri to</w>
or iz
met ro</w>
me dia</w>
lid ar</w>
gost aria</w>
fi r
famí lias</w>
entusi as
e ar</w>
ar a</w>
Po der
á-l as</w>
ru a</w>
rei ra</w>
po bre
p as</w>
on line</w>
mostrar -vos</w>
int eg
esquer da</w>
cons ciência</w>
acab ar</w>
ab a
O h</w>
ó x
v ac
ra das</w>
princi pal</w>
nucle ar</w>
hab it
fa ci
dem on
cris e</w>
consig o</w>
c âmar
O b
z o</w>
ten ham</w>
surpre end
pe gar</w>
p il
n aquele</w>
ment al</w>
g e
fotogra fia</w>
forma ção</w>
d el
ari amente</w>
al istas</w>
al ista</w>
té ria</w>
ri s</w>
pod íamos</w>
perí o
id ente</w>
esti on
esp ant
di r</w>
descobri mos</w>
cu sto</w>
cres cer</w>
br as</w>
b ot
ab sol
C or
x o
x eito</w>
velo cidade</w>
trat amento</w>
ri am</w>
respo stas</w>
reg ras</w>
re cor
re ci
po diam</w>
investig ação</w>
igu al
fal ta</w>
dist ribu
am ea
alim ent
Qu em</w>
-l os</w>
vi vem</w>
rep ente</w>
pô r</w>
praz o</w>
l ic
f é</w>
esper o</w>
ens inar</w>
aul a</w>
B en</w>
í n</w>
é po
x e
us am</w>
tra v
pro por
n esse</w>
inter ior</w>
im edi
est at
espéci es</w>
con vers
com er</w>
ar -me</w>
al u
acor do</w>
superfíci e</w>
responsab il
procu rar</w>
pobre za</w>
mud ou</w>
morre r</w>
lig ação</w>
l ei</w>
human idade</w>
exempl os</w>
ent u
e -
aprend i</w>
ador as</w>
abor d
G u
C er
us amos</w>
ti z
síti o</w>
soci edades</w>
perso a</w>
partí culas</w>
paci entes</w>
os amente</w>
molé culas</w>
mod elos</w>
mes mas</w>
inf lu
em pen
económ ico</w>
demon st
ca sas</w>
av ali
ad amente</w>
acredi to</w>
tot al</w>
su ger
ss em</w>
poder á</w>
n ó
miú dos</w>
min ist
mec an
l ha</w>
institu ições</w>
i va</w>
hosp ital</w>
gen er
ex er
diz er
des ses</w>
có digo</w>
cri min
an ál
S erá</w>
el ei
compr ar</w>
com pro
bi ol
Est ava</w>
ê nt
é m
s ic
re gi
profis sion
obje tivo</w>
mé dia</w>
lín gua</w>
in for
in du
fi quei</w>
fer a</w>
er rado</w>
cham amos</w>
ch ave</w>
aba ixo</w>
H ar
t ru
qu alidade</w>
po nt
pergunt ar</w>
nas c
mell or</w>
m embr
l a
faz ia</w>
fav or</w>
desenvol ver</w>
der es</w>
c ha</w>
as pe
an do
ac to</w>
T inha</w>
ó ti
vi am</w>
t on
t eu</w>
sub stitu
sa ud
raz ões</w>
qu es</w>
ne uro
it es</w>
ir ão</w>
int en
i ci
ger al</w>
es as</w>
constru ção</w>
bu st
av an
ad mi
ac eit
To das</w>
C ando</w>
tra ta</w>
tor na</w>
to ma
po ñ
per man
palav ra
manh ã</w>
le va</w>
informa ções</w>
g or
fl ex
dig ital</w>
d á
ba ir
M es
ver mel
t el
sent imento</w>
respon der</w>
por te</w>
pe g
or it
ob er
medicam entos</w>
lí deres</w>
i vos</w>
go sto</w>
fundament al</w>
fantásti co</w>
fa i</w>
explic ar</w>
enci almente</w>
edifíci os</w>
co z
cl ín
ci ar</w>
beb é</w>
at er
a i
a fri
E n</w>
sor te</w>
produz ir</w>
políti cas</w>
pi or</w>
fís ico</w>
fa ço</w>
espec í
di men
d atos</w>
bi o
ac tu
G ost
Con segu
épo ca</w>
trabal lo</w>
ti a</w>
sal var</w>
ri cos</w>
quar to</w>
produ to</w>
poss amos</w>
pl ano</w>
nor malmente</w>
ex isti
di mento</w>
d amente</w>
ativ amente</w>
Sab emos</w>
ísti ca</w>
vi vo</w>
v íti
us ado</w>
ti vidade</w>
perm ite</w>
k e</w>
im press
fel iz</w>
estu dos</w>
dific ul
cion ar</w>
cam i
ar ão</w>
ar am-se</w>
a dicion
T e
Qu er
Ent ón</w>
D is
5 00</w>
1 4</w>
v eio</w>
qu en</w>
próx imos</w>
per spe
ou -me</w>
ist ão</w>
ima x
im entos</w>
i ram</w>
finan c
f is
em bro</w>
disse -me</w>
di da</w>
cont ribu
con cent
c anto</w>
am os
Mes mo</w>
-l a</w>
vis ual</w>
ve jo</w>
sú as</w>
son ho</w>
rapar igas</w>
negó cio</w>
most ra</w>
ma ssa</w>
in har</w>
gover nos</w>
fas cin
f ór
esper a</w>
des cu
cent emente</w>
c es</w>
br inc
El as</w>
vi z
v ários</w>
torno u-se</w>
tiv amente</w>
tele fon
revolu ção</w>
re ti
re centemente</w>
prote í
pi os</w>
perío do</w>
p er</w>
observ ar</w>
o no
o cor
mis são</w>
desej o</w>
conheci do</w>
baix a</w>
assu nto</w>
Qu er</w>
â nt
á x
sin al</w>
ri co</w>
re ce
qu era</w>
preocu p
máqu inas</w>
mu ll
mo itos</w>
l ista</w>
is mos</w>
est rada</w>
esper ar</w>
escol ha</w>
empre go</w>
e to</w>
comb in
ac el
F u
Alg uns</w>
war e</w>
v ant
tem per
res so</w>
r .</w>
perceb i</w>
ou -se</w>
no vamente</w>
m or</w>
jo go</w>
j ar</w>
j an
igu al</w>
gra v
gen es</w>
de z</w>
de via</w>
de cid
d entes</w>
consegu ia</w>
com er
cheg ou</w>
bon s</w>
a cu
U s
Qu al</w>
E ssa</w>
2 00</w>
ún s</w>
verdad eira</w>
ut amente</w>
terr or
pr en
per ig
pal ab
n aquela</w>
mi n</w>
k m</w>
i os</w>
elh os</w>
dist ância</w>
de tal
d ol
d amos</w>
con sequ
azu l</w>
ar on</w>
ad ap
Uni versidade</w>
U n</w>
Fac ebo
vi aj
transfor mar</w>
tra tar</w>
tem pos</w>
se par
s endo</w>
preocu pa
políti cos</w>
pen a</w>
pas sou</w>
negó cios</w>
gi o</w>
fo mos</w>
flor esta</w>
elh as</w>
d ades</w>
conc eito</w>
comunic ação</w>
ce is</w>
au ga</w>
as soci
ar se</w>
anal is
al o</w>
Facebo ok</w>
C i
é ssemos</w>
ví rus</w>
vis ível</w>
t este</w>
su posto</w>
re colh
pr essa</w>
ob viamente</w>
necess ário</w>
ma t
int eiro</w>
im porta</w>
estrutu ras</w>
edifíci o</w>
ec es</w>
di dos</w>
de bat
ci dos</w>
c á</w>
assu st
E ss
ón ia</w>
ó b
é rio</w>
zon a</w>
to po</w>
tax a</w>
p é</w>
n estes</w>
man i
man eiras</w>
m ês</w>
g ir</w>
exac tamente</w>
estrel as</w>
com pri
b ás
an g
am ar
C an
1 3</w>
tu a</w>
to car</w>
servi ços</w>
sens ação</w>
re aliz
públ ica</w>
pou cos</w>
pens amento</w>
nen os</w>
mo ver</w>
gar ant
fic am</w>
f ran
cont exto</w>
com pe
cer eb
am -nos</w>
é tico</w>
v eces</w>
trans port
tr es</w>
ti ña</w>
sec und
pot encial</w>
polí cia</w>
organ ização</w>
mud anças</w>
mes a</w>
in e</w>
grá fico</w>
g ig
dé cada</w>
costu ma
com bust
br i</w>
an da</w>
acredi tar</w>
ú r
á b
ver de</w>
v ê
ru p
ra st
pl ásti
pens em</w>
parec em</w>
op ini
liv re</w>
liter almente</w>
l et
inov ação</w>
ide a</w>
er ro</w>
dire ita</w>
cal quera</w>
aprend emos</w>
ver am</w>
te cido</w>
pr end
p is
n a
igual dade</w>
fal a</w>
dé cadas</w>
começ am</w>
am ost
A p
1 8</w>
re com
per der</w>
m it
m -se</w>
h ado</w>
frequ entemente</w>
er o
em er
dis po
cuid ados</w>
ch in
O n
G e
B an
utiliz ar</w>
ti da</w>
tem a</w>
signific ado</w>
própri as</w>
profes sor</w>
or ía</w>
oce ano</w>
no ve</w>
membr os</w>
mar ca</w>
incri velmente</w>
id ores</w>
i amos</w>
g elo</w>
fo nte</w>
estran ho</w>
el im
du ção</w>
control ar</w>
com ent
ch i
bil i
ass in
anál ise</w>
ad o
L on
Bo m</w>
verdad eiro</w>
v est
ro ub
respon s
pu desse</w>
pal co</w>
mal ária</w>
m ús
le is</w>
i vo</w>
evi t
ch u
alter n
absol utamente</w>
a fir
Pens em</w>
ñ as</w>
árv ores</w>
vi u</w>
v ist
s ões</w>
raz as</w>
ra paz</w>
pre ço</w>
mer cados</w>
lo gos</w>
lig ar</w>
justi ça</w>
for em</w>
expl orar</w>
evolu ção</w>
et ar</w>
e cia</w>
do ente</w>
con dut
cidad ãos</w>
art ista</w>
acel er
á ssemos</w>
á rab
pes o</w>
perspe tiva</w>
fra se</w>
el izmente</w>
egu ei</w>
e ço</w>
di vi
di versidade</w>
de pressa</w>
cul ar
cad eia</w>
c h</w>
bol a</w>
ar emos</w>
am in
abri r</w>
Out ra</w>
M i
Jo h
F az
F a
- a</w>
óg ico</w>
trav és</w>
super ior</w>
sin ais</w>
si mul
semelh ante</w>
seg re
qu estion
por quê</w>
or e</w>
n ia</w>
ma u</w>
j ul
ei tos</w>
ec r
continu a</w>
com paixão</w>
cap ital</w>
al e
abord agem</w>
Par ece</w>
B i
B a
ú til</w>
vi vemos</w>
telemó vel</w>
raz ón</w>
pad rão</w>
p ico</w>
l ider
ins pi
ingl ês</w>
gal áx
g én
f eg
ex cel
câmar a</w>
condi ções</w>
acion ais</w>
D esco
C ent
í as</w>
v êm</w>
sex a</w>
proj ecto</w>
oportun idades</w>
ono u</w>
nec es
mag n
liber t
lev ou</w>
inf ra
in cl
ho xe</w>
gu lh
fu gi
está s</w>
es o</w>
e pid
di xo</w>
decis ão</w>
coñ ec
con cor
ch ão</w>
cer tos</w>
b a</w>
al d
S eg
J u
ân ica</w>
pres entar</w>
n estas</w>
ma téria</w>
lut ar</w>
gan h
for nec
extrem amente</w>
dis ti
des cri
cust os</w>
cor por
cheg a</w>
br ar</w>
b e
ar gu
ac ad
S em
M a
Come ç
19 9
1 6</w>
vi o</w>
tiver am</w>
terc eiro</w>
su ce
re gul
quer er</w>
pó sito</w>
ot o</w>
orig in
or g
or den
mor r
milh ão</w>
l ei
im as</w>
gra n</w>
fil ha</w>
fen ó
expl o
ex ce
em is
elem entos</w>
e b</w>
den de</w>
compre end
bran co</w>
bi ologia</w>
aut or
au mento</w>
atu ras</w>
at e</w>
al ismo</w>
So mos</w>
S ent
O ri
N atu
ê-l a</w>
é is</w>
ân ico</w>
terc eira</w>
ter ren
taref a</w>
st ri
sp ec
re x
pres a</w>
o o
m í
fo ssem</w>
fici al</w>
em ia</w>
decis ões</w>
consu m
complex o</w>
atrav ess
ab le</w>
Qu anto</w>
G razas</w>
vo st
ver ão</w>
val ores</w>
ser ão</w>
pare de</w>
mos qu
lon ga</w>
lo cal
l em
iz es</w>
indivídu os</w>
gover n
g on
funcion am</w>
fav or
escolh er</w>
er ros</w>
descober ta</w>
de baixo</w>
d aqui</w>
cu ra</w>
c ro
b e</w>
and on
al eg
Por quê</w>
F i
C ri
ã o-
vo nt
un a</w>
u min
ten são</w>
t ais</w>
palavra s-
p ele</w>
no sos</w>
no sco</w>
mo mentos</w>
ex ig
enfer m
e za</w>
du ra</w>
des per
cu n</w>
cer tamente</w>
ce do</w>
car dí
apo io</w>
On de</w>
ór g
ó metros</w>
í mos</w>
voss as</w>
vont ade</w>
un ci
palavras- passe</w>
os idade</w>
o mas</w>
necess idade</w>
mon os</w>
ma tar</w>
li xo</w>
l av
im possível</w>
gu as</w>
fá bri
ent ón</w>
encont ramos</w>
emo cion
e feitos</w>
dem ais</w>
car ne</w>
c ál
at op
ab elhas</w>
a t</w>
a cima</w>
V o
V I
C re
volu nt
v ê</w>
v indo</w>
traz er</w>
trans mi
ten do</w>
sof t
s ite</w>
reg ist
r aram</w>
program as</w>
possi bilidade</w>
ot a</w>
neur on
neg ros</w>
inter pre
hipót ese</w>
f at
esp í
en ch
em in
em -nos</w>
des empen
cri ação</w>
con nosco</w>
com bat
co usa</w>
ci to</w>
car reira</w>
cam pan
aul as</w>
aprox ima
alim entar</w>
Un ha</w>
T êm</w>
Fu i</w>
Ch ris</w>
2 4</w>
â ne
us ada</w>
tó rio</w>
te -
tant as</w>
sé rio</w>
sti co</w>
son s</w>
sol o</w>
r ando</w>
que za</w>
olh arem</w>
inclu indo</w>
hab itu
h id
gra f
g ados</w>
for m
en g
ei n</w>
dis s
dire ção</w>
de t
corre c
conhec emos</w>
con fer
ar íamos</w>
al ha</w>
ab andon
T w
S e
O lh
H ig
Deix em-me</w>
A cont
í deo</w>
ã s</w>
ut ri
ul ar</w>
teñ o</w>
t u</w>
se cre
s per
rit mo</w>
re conhecer</w>
ra c
r y</w>
princí pio</w>
pre ci
o ss
mo vi
it ário</w>
is ol
ex teri
evi tar</w>
es pi
envi ar</w>
e a</w>
dro gas</w>
con vo
cientí fica</w>
an cia</w>
a h</w>
P ass
Mu itos</w>
L o
H ou
-l as</w>
tra di
soft ware</w>
regi ão</w>
r é
poder íamos</w>
poder ão</w>
poder oso</w>
per fei
par que</w>
no sas</w>
mi o</w>
medi r</w>
l as</w>
intelig ência</w>
imedi atamente</w>
de -se</w>
cé u</w>
cont e
consu mo</w>
cer tas</w>
ben e
ar mas</w>
am- no</w>
ab an</w>
a -nos</w>
Su l</w>
E sse</w>
B ra
A nt
ón ica</w>
v an</w>
receb er</w>
quer iam</w>
qu int
pro pósito</w>
primei ras</w>
pod es</w>
paix on
ot ec
mic ró
ir ar</w>
inter esse</w>
fun ção</w>
for ç
fi as</w>
fel izmente</w>
ei ta</w>
d eram</w>
cular mente</w>
convo sco</w>
con f
complex idade</w>
algu én</w>
alg orit
V er
V ejam</w>
Mu itas</w>
H a
Exist em</w>
1 7</w>
ver são</w>
trans fer
ti dos</w>
ser mos</w>
ru as</w>
responsabil idade</w>
ra to</w>
quím ica</w>
plan etas</w>
pa is
nt as</w>
n utri
n arra
i di
faci l
fac elo</w>
et es</w>
est ados</w>
es ca
ent en
enor mes</w>
enfr ent
en velh
ele za</w>
ele v
cére bros</w>
ca ção</w>
beb és</w>
ar d</w>
am es</w>
afri c
V ídeo</w>
T er
M un
H u
z ero</w>
ve í
us to</w>
ub e</w>
surpreend ente</w>
ro n</w>
re duz
r íveis</w>
pe ça</w>
p ic
ol ho</w>
og os</w>
mem ória</w>
j as</w>
import ância</w>
espa ços</w>
en car
di fí
di ante</w>
conte ú
con serv
co le
ca se</w>
c á
c ra
b eleza</w>
a paixon
R es
Po sso</w>
M ic
ô s</w>
x ico</w>
sobrevi v
sen ón</w>
re uni
prov ável</w>
proteg er</w>
pres idente</w>
poder iam</w>
peda ço</w>
parti cularmente</w>
olh armos</w>
ob jeto</w>
nor te-
má tica</w>
mu da</w>
m ex
lut a</w>
in s</w>
gost am</w>
gan har</w>
ferrament a</w>
espí rito</w>
el adas</w>
ec tivo</w>
diz ia</w>
difí ceis</w>
di x
d ança</w>
aspe to</w>
asp ecto</w>
amb os</w>
agri cul
3 00</w>
verdad eiramente</w>
uni versidade</w>
trans forma
t rá
solu ções</w>
sint o</w>
segun dos</w>
religi ão</w>
rapar iga</w>
ra tos</w>
ra pa
quis erem</w>
pris ão</w>
po sta</w>
po li
not as</w>
mor al</w>
mens agens</w>
j ar
in fer
for tes</w>
fel izes</w>
exteri or</w>
estra té
est ação</w>
e -se</w>
decidi mos</w>
com peti
c em</w>
as h
ar ía</w>
amo -nos</w>
aliz ação</w>
alg úns</w>
Mun dial</w>
L embr
I S
G ra
ver gon
té rias</w>
te is</w>
t amento</w>
re dor</w>
pág ina</w>
pr ática</w>
per ten
per da</w>
fic as</w>
fal amos</w>
ec em</w>
difer enças</w>
de os</w>
cr íti
confl ito</w>
c un
americ ana</w>
acab ou</w>
a parecer</w>
S a
N em</w>
L i
D i
ê-l os</w>
vul ner
vi ram</w>
trabalh adores</w>
res s</w>
re un
possi bil
nor te</w>
men or</w>
invest imento</w>
inter es
ident idade</w>
fa se</w>
en h
decid i</w>
de pressão</w>
confor t
con stitu
con duz
cham a-se</w>
c am</w>
ant igo</w>
ant emente</w>
am or
aber to</w>
V ai</w>
R o
M arte</w>
A cre
- te</w>
z ar</w>
víti mas</w>
vê em</w>
tu ras</w>
tro u
to m
ris cos</w>
re ais</w>
plant as</w>
ou ro</w>
molé cula</w>
m er</w>
iz o
ir m
inh am</w>
i e</w>
entusias ma
encont rei</w>
e t</w>
dú as</w>
de z
consegu iu</w>
con ec
compreen são</w>
av ó</w>
at mos
aplic ação</w>
adul tos</w>
Ori ente</w>
H ist
A feg
á ticos</w>
x ito</w>
vost edes</w>
técn icas</w>
tu de</w>
tant a</w>
s el
res u
qu ente</w>
po vo</w>
per spec
par es</w>
par eci
organiz ações</w>
n ing
l á
il l</w>
fam il
ex ec
este ja</w>
di ria</w>
di os</w>
descu bri
clar amente</w>
cid ental</w>
ch eguei</w>
bo cado</w>
alter ar</w>
alg ún</w>
ad equ
Seg undo</w>
G P
Des de</w>
ân cias</w>
vi ve</w>
ve g
terren o</w>
t exto</w>
su l
rob ôs</w>
quil ómetros</w>
perce ber
pare cia</w>
mu t
mei os</w>
ma x
l inhas</w>
l at
intelig ente</w>
in sec
gu er
g s</w>
fac tos</w>
f ru
f emin
f e</w>
ex c
estrel a</w>
escri to</w>
equi p
en gan
dever ia</w>
de di
d am</w>
cont in
ci ais</w>
cent ral</w>
car ta</w>
car t
c adores</w>
art istas</w>
apo nt
anti bió
an istão</w>
Natu reza</w>
H avia</w>
Afeg anistão</w>
A ntes</w>
, 5</w>
óg icos</w>
ér cito</w>
vo ar</w>
vis u
ven ção</w>
tú a</w>
tradicion al</w>
tor no</w>
tend ência</w>
t alidade</w>
sti ca</w>
s ac
ram a</w>
pri v
pou cas</w>
por to</w>
on das</w>
médi ca</w>
mo itas</w>
micro s
medi o</w>
ma z
l y</w>
inter ac
indu stri
in cent
i ores</w>
g ober
famili ar</w>
er s</w>
e u
dimen sion
de tec
cu m
cri a</w>
cirur gia</w>
ch ar
campan ha</w>
brinc ar</w>
ben efici
av es</w>
ant iga</w>
adap t
V emos</w>
P en
Nor te</w>
Lon d
GP S</w>
Exist e</w>
í da</w>
á c
v az
torn ar-se</w>
test em
st ress</w>
rest au
re peti
re f
ra ntes</w>
profun da</w>
pro fund
pre to</w>
permi tir</w>
pass ei</w>
par c
l ados</w>
ir e</w>
imagin em</w>
human as</w>
estra das</w>
esti ve</w>
er an</w>
encont ro</w>
efic az</w>
ecr ã</w>
docu mentos</w>
disposi tivo</w>
des sem</w>
conhec em</w>
con duzir</w>
col a</w>
cham a</w>
an har</w>
T al</w>
P olo</w>
C ali
B u
é nio</w>
ven do</w>
ut ar</w>
un idade</w>
ter ias</w>
temper atura</w>
st e</w>
ri queza</w>
resp eito</w>
re lev
p é
men o</w>
ire mos</w>
interess antes</w>
in depend
il umin
g ás</w>
fel icidade</w>
di mentos</w>
desafi os</w>
de trás</w>
d aquele</w>
construí mos</w>
com pon
ceg os</w>
cad eira</w>
bili ões</w>
bene fíci
arti go</w>
al a</w>
adolesc entes</w>
ab b
T he</w>
Lond res</w>
L u
ç ul
vi dos</w>
v ento</w>
v as
ur b
trans par
tr ist
tecnolo xía</w>
sobre viver</w>
servi ço</w>
profission ais</w>
políti co</w>
pl ata
per nas</w>
peix es</w>
ouvi do</w>
op ção</w>
ob x
neg ro</w>
mot or</w>
miú do</w>
minu to</w>
ma d
m am
lembr ar</w>
k er</w>
it ter</w>
fotogra fias</w>
for mar</w>
fenó meno</w>
et c</w>
es ia</w>
d aquela</w>
cient ista</w>
ci onou</w>
cap it
bo ca</w>
al í</w>
a perceb
To da</w>
T am
S on</w>
Re ino</w>
F in
Algu mas</w>
val e</w>
v ag
termin ar</w>
ter rível</w>
tecno l
tant os</w>
sufici entemente</w>
sub ir</w>
sobre tudo</w>
sent imos</w>
rápi da</w>
rob ô</w>
rec ente</w>
profund amente</w>
pro sper
peix e</w>
paci ente</w>
ori ent
natu rais</w>
mé todo</w>
mar ido</w>
intelig entes</w>
h ei
gra zas</w>
gen oma</w>
fac e</w>
estiver em</w>
est ilo</w>
esfor ço</w>
en a</w>
diag no
di ri
deix a</w>
de -
consider ar</w>
car vão</w>
cam pos</w>
ass ist
ari os</w>
aprox im
Is ra
Con s
Al ém</w>
A prend
A penas</w>
ví deos</w>
vis it
tu lo</w>
trans porte</w>
t estes</w>
su s
su l</w>
se -
sat é
ri r</w>
rel ativamente</w>
re fugi
públ icos</w>
proj etos</w>
prof undo</w>
poder emos</w>
ou vi</w>
ol a</w>
o í
n íveis</w>
me d
invest ir</w>
impl ic
hor mon
h es</w>
h e
finan ci
fa cul
evi d
estud ante</w>
estiv esse</w>
em pa
económ ica</w>
diag nó
desco bri</w>
d y</w>
cor pos</w>
cor es</w>
convers as</w>
cont ro
con cl
com uns</w>
cham ar</w>
bura co</w>
auto -
ata que</w>
anti l</w>
ach am</w>
a parece</w>
Uni do</w>
Sem pre</w>
R u
N inguém</w>
E m
Cer to</w>
4 5</w>
20 00</w>
ó p
í fico</w>
ên cio</w>
ç o
árab e</w>
vi l</w>
ver em</w>
v emento</w>
trabal l
torn a-se</w>
te x</w>
t ab
si l</w>
sent em</w>
segu ros</w>
ro -
ra va</w>
prote ção</w>
princi pais</w>
poder osa</w>
per igo</w>
or dem</w>
o h</w>
n ão-
n an
mai oría</w>
is l
ir -se</w>
i ra</w>
g el
for ças</w>
fo me</w>
faz erem</w>
fa n</w>
experim ent
escri ta</w>
elé tri
cultu ras</w>
caracter ísticas</w>
cam a</w>
ca us
bi cicl
b em-
aut ismo</w>
ar eia</w>
ald eia</w>
alcan çar</w>
al mo
al ma</w>
agri cultura</w>
R ec
3 D</w>
ã es</w>
tur b
tam entos</w>
sí mb
sur gi
sen h
re t
re fl
poder mos</w>
plásti co</w>
p us
p el
opini ão</w>
im it
flor estas</w>
fei tas</w>
ex pressão</w>
en de
e tura</w>
discu ss
di r
de ber
dar -vos</w>
cultu ral</w>
cre ar</w>
começ amos</w>
cientí fico</w>
ci vil
cambi o</w>
c unha</w>
bus ca</w>
atmos fera</w>
at o
an za</w>
an si
americ ano</w>
algu res</w>
agra d
ad minist
Tw itter</w>
G ran
Acont ece</w>
óti mo</w>
ve jam</w>
va cidade</w>
v ent
tiv essem</w>
síti os</w>
su j
sent imentos</w>
sa u
ro m
res er
reg ress
perspec tiva</w>
par a
ocor re</w>
ob ser
n er</w>
micró bios</w>
k s</w>
is se</w>
ing ton</w>
inf antil</w>
individu ais</w>
imagin ação</w>
ident ific
gén ero</w>
g ni
fra g
ex press
est ú
espal h
enfr entar</w>
enci ais</w>
e z</w>
dent emente</w>
debat e</w>
cont as</w>
cas amento</w>
cal or</w>
b ia</w>
arquit etura</w>
aqu es</w>
aparec eu</w>
ap ia</w>
anter ior</w>
V ol
S t
O u
M at
Joh n</w>
Hist ória</w>
Es per
A pesar</w>
A cab
ç ado</w>
z os</w>
tri b
ter iam</w>
ter emos</w>
tele visão</w>
ss ist
so fre
sil êncio</w>
sex ual</w>
ri dade</w>
r ma
pu r
pri vacidade</w>
pl e</w>
ni n</w>
n ação</w>
má tico</w>
mu çul
morre u</w>
lingu axe</w>
in ver
im pul
i óns</w>
fl utu
est o</w>
espa cial</w>
en sa
ei tas</w>
ec emos</w>
e da</w>
e -me</w>
dizer -vos</w>
cí r
consequ ências</w>
consegu i</w>
conheci da</w>
con cre
comunic ar</w>
companh ia</w>
co oper
co gni
avi ão</w>
atu almente</w>
ap anh
al l</w>
ador o</w>
ac ess
ab ran
ab ra
D iz
B ar
1 8
0 .000</w>
. º</w>
ón ico</w>
vo zes</w>
vac inas</w>
trabal hos</w>
ton eladas</w>
taref as</w>
sustent ável</w>
re duzir</w>
ol os</w>
n acionais</w>
má x
moti v
micros có
irm ã</w>
informa ción</w>
im ig
ident ificar</w>
i riam</w>
for d</w>
esp ect
es condi
engenh aria</w>
dú vida</w>
disposi tivos</w>
dispo nível</w>
di t
des cul
depen de</w>
cul tiv
cri atividade</w>
consci ente</w>
conc lu
con vi
clar a</w>
can di
c atro</w>
bri o</w>
bl i
bl es</w>
bair ro</w>
bac térias</w>
ari as</w>
al tamente</w>
ag o</w>
af et
ac res
a caso</w>
R ic
Hig gs</w>
E .
D A</w>
Bra sil</w>
ó is</w>
é ramos</w>
vi de
vel ho</w>
torno u</w>
se da</w>
re ac
proteí nas</w>
pro cur
pens ava</w>
pass am</w>
o l</w>
no ção</w>
neg ra</w>
n idade</w>
mor talidade</w>
ir mão</w>
im un
gen ética</w>
g ol
fri mento</w>
fil mes</w>
facil mente</w>
f a</w>
estr es</w>
est ima
escre veu</w>
es con
er on</w>
ent ra</w>
elei ções</w>
do se</w>
desen har</w>
có r
corre u</w>
cont acto</w>
conhec i</w>
con sist
co sta</w>
co ber
cli entes</w>
cab elo</w>
ca fé</w>
c k</w>
brilh ante</w>
bac terias</w>
ató rios</w>
ating ir</w>
ar ma</w>
apo i
antibió ticos</w>
X X
Tra bal
S em</w>
Po is</w>
Mé dio</w>
Es pero</w>
B e
A dor
19 8
í s
tre in
tradicion ais</w>
ti s</w>
ter mo</w>
t á
so m
sil enci
sat is
pro va</w>
par em</w>
par ecido</w>
obj etos</w>
má s</w>
mull er</w>
mei a</w>
maravilh oso</w>
inc ríveis</w>
gul ho</w>
fic aram</w>
escolh as</w>
esc ó
encont rámos</w>
en o</w>
eco ssist
du pl
diver tido</w>
dis pon
des er
defin i
d out
d aí</w>
cre io</w>
cor ri
ch ef
c ão</w>
at or
at ac
aber ta</w>
Pro v
P e
M S</w>
I so</w>
D em
Cham a-se</w>
C R
- se-
vis ões</w>
v ender</w>
u m
ti m
surpre en
sent i</w>
represent a</w>
pri mi
pou p
poss u
po s
palab ras</w>
orig em</w>
on da</w>
ob st
ob ra</w>
ner vo
mor tes</w>
ma s
junt ar</w>
inv entar</w>
im pressão</w>
il ust
gu i
g ot
frequ ência</w>
fi xo</w>
fi gu
fascin ante</w>
fal am</w>
esti mul
equi val
en cora
elet ri
docu ment
do mé
di ab
desa parec
de fici
compe t
cirur gi
ch eia</w>
ca is</w>
bre ve</w>
bar ato</w>
arran jar</w>
arma z
agricul tores</w>
ag e</w>
a u</w>
O N
I rão</w>
Ch ar
ân ia</w>
vir tual</w>
vermel ho</w>
ti fic
ter á</w>
ten hamos</w>
sa ib
ro das</w>
re pe
qu ânt
pu dé
pregunt a</w>
precis ava</w>
pa do</w>
p és</w>
mecan ismo</w>
limit es</w>
li ção</w>
k g</w>
inf ec
in fin
impress ion
h ot
galáx ias</w>
fór nia</w>
escu ro</w>
epid emia</w>
ent amente</w>
elet r
e uro
de dos</w>
cu sta</w>
complex os</w>
co id
c amos</w>
bura cos</w>
ax u
avi d</w>
av ô</w>
am p
acredit am</w>
Qu ant
P a
In gl
F re
F iz
D r.</w>
D avid</w>
Cali fórnia</w>
4 00</w>
u ras</w>
to ma</w>
so mb
seguint es</w>
saud ável</w>
res id
quant os</w>
pudé ssemos</w>
pres er
po bre</w>
par al
p ão</w>
p s</w>
nor mais</w>
mo da</w>
medicam ento</w>
lu zes</w>
in sp
im ens
fábri ca</w>
fru st
empre gos</w>
emo cional</w>
em pur
dispon íveis</w>
desa st
deix em-me</w>
d um</w>
conteú do</w>
con ce
compro m
come ço</w>
coleg a</w>
co u
co s
clim ática</w>
cl ass
ci vil</w>
car as</w>
cab o</w>
ca val
auto mó
aument a</w>
alim entos</w>
acres cent
Y or
VI H</w>
Tra t
S te
Prov avelmente</w>
M or
An g
á to
v ê-lo</w>
ti ñ
son hos</w>
si ón</w>
sal as</w>
ro sto</w>
re alizar</w>
ra n</w>
pu dessem</w>
pra ticamente</w>
per feito</w>
pe ças</w>
o -nos</w>
nom es</w>
médi o</w>
moti vo</w>
ment res</w>
m á</w>
m entes</w>
investig adores</w>
inter nacional</w>
ide as</w>
fic amente</w>
fec h
fal o</w>
ex cit
er rada</w>
el l</w>
e col
dis curso</w>
din âm
dez enas</w>
dev íamos</w>
d anç
d ada</w>
consegu irmos</w>
cereb ral</w>
capa cidades</w>
c ele
blo que
blo cos</w>
ban co</w>
b ens</w>
avanç ar</w>
audi ência</w>
al idades</w>
ad á</w>
acab ei</w>
T or
Quer emos</w>
Isra el</w>
Hou ve</w>
Gost aria</w>
G ol
Desco bri
Com ecei</w>
Can adá</w>
Al em
200 8</w>
1 000</w>
ñ en</w>
ver mos</w>
ul ho</w>
técn ica</w>
tu mor</w>
to ca</w>
ter ão</w>
t estar</w>
so a</w>
ro pia</w>
re vista</w>
rapa zes</w>
qu é</w>
prox ecto</w>
poder ía</w>
po nte</w>
po do</w>
permit em</w>
pens arem</w>
n ela</w>
impl em
il eg
igu ais</w>
id osos</w>
hosp itais</w>
gra us</w>
fac endo</w>
estab el
emo ções</w>
ele f
ei os</w>
di á
desempen ho</w>
d aquilo</w>
cri p
cre o</w>
cor respon
const antemente</w>
con ex
comport amentos</w>
complic ado</w>
compl eto</w>
cli ma</w>
ci r</w>
cham o</w>
base ada</w>
at in
analis ar</w>
alu cin
afir ma
a ç
W ash
S ei</w>
Per gunt
E. U
A u
árv ore</w>
xen o</w>
volu me</w>
vis íveis</w>
v istas</w>
tiver mos</w>
telemó veis</w>
te cidos</w>
soz inho</w>
segre do</w>
sal v
rá dio</w>
respons ável</w>
refugi ados</w>
re gar</w>
r arem</w>
quer íamos</w>
pág inas</w>
pu x
pren sa</w>
precis ão</w>
po nta</w>
pens armos</w>
partici par</w>
p õ
p sic
p ec
olh amos</w>
ol ha</w>
obri gada</w>
n ad
met á
melh or
inclu so</w>
g estão</w>
fís icos</w>
fo ntes</w>
fo go</w>
faz endo</w>
est re
ess encial</w>
enci ar</w>
em pe
dimension al</w>
di vers
cum pri
cuid ado</w>
cri ou</w>
cri ado</w>
cor t
confl itos</w>
compl eta</w>
cicl o</w>
ci pl
chu va</w>
benefíci os</w>
b ra</w>
at as</w>
an has</w>
aju dar
ac tiv
a w
a presentar</w>
W il
Tam én</w>
So l</w>
S al
Ne w</w>
L os</w>
C al
A ust
- os</w>
ób vio</w>
val i
u sou</w>
tre ino</w>
tran si
tiver em</w>
telefon e</w>
t ex
re mot
ra ça</w>
r almente</w>
pu nto</w>
princí pios</w>
pra ti
post as</w>
plata forma</w>
pesso ais</w>
pass aram</w>
pa in
ob el</w>
notí cia</w>
mont anha</w>
mo nte</w>
lín guas</w>
lo g
lig ados</w>
insec tos</w>
inf ância</w>
i -me</w>
ha ja</w>
h ei</w>
ger ir</w>
g ico</w>
famili ares</w>
fal ar-vos</w>
f é
excel ente</w>
ex ército</w>
est ejam</w>
ent ais</w>
educa ción</w>
e ça</w>
distribu ição</w>
dis cipl
dire tamente</w>
di ga</w>
descre ver</w>
deix ou</w>
defin ição</w>
de viam</w>
de par
de des</w>
cór tex</w>
corr ente</w>
continu am</w>
cont ar-vos</w>
consu l
confi ar</w>
ch or
br in
ar ro
ap ão</w>
ani vers
alter ação</w>
al ar
ad vo
acad ém
ac k
ab sor
P res
O lá</w>
N obel</w>
J apão</w>
I ra
I r
I B</w>
Gu erra</w>
Ess as</w>
Ch eg
à qu
vis itar</w>
utiliz adores</w>
ser iam</w>
ro de
ri cas</w>
ren ov
recuper ar</w>
prog resso</w>
prob abilidade</w>
princi p
princip almente</w>
pres entes</w>
praz er</w>
possibil idades</w>
p un
ol og
ob es
no v
neg o
mem bro</w>
ma gia</w>
lig ações</w>
li o</w>
fó ss
f rio</w>
explor ação</w>
ex t
equip amento</w>
en vel
eletri cidade</w>
e y</w>
der mos</w>
dem or
curi osidade</w>
cri ámos</w>
co pi
cir cun
ban ho</w>
av a-se</w>
af ect
acab a</w>
Wash ington</w>
P es
N uma</w>
N as</w>
Est ado</w>
E ram</w>
A R
í dos</w>
én ia</w>
é ticas</w>
xu ntos</w>
w eb
vide ox
vergon ha</w>
ve ja</w>
v in
un o</w>
u se</w>
tu ais</w>
ter íamos</w>
semelh antes</w>
re du
ra dor</w>
r ut
pré -
pro nto</w>
pri ma
poss íveis</w>
neuron as</w>
mun di
most ram</w>
mani pul
m est
lim ite</w>
le vo
l es
iz ados</w>
inst ein</w>
inf elizmente</w>
in visível</w>
in evit
gu ei</w>
gra tu
gra fia</w>
g ência</w>
fundament ais</w>
fra ses</w>
fra ca
fa çam</w>
enferm idades</w>
empa tia</w>
emis sões</w>
ej amos</w>
decidi r</w>
d ou</w>
d ei
cur to</w>
cr é
consum idores</w>
construí do</w>
con ceb
co as</w>
cir cu
ci da</w>
cheg ámos</w>
cat eg
bri t
bomb a</w>
bli otec
bi da</w>
bat alha</w>
ar am-me</w>
a gu
Voc ê</w>
To do</w>
T ur
T V</w>
O r
N um</w>
N at
Mé xico</w>
H ol
B ro
A h</w>
200 9</w>
xen es</w>
vid ro</w>
ver -se</w>
ultra passar</w>
terror ismo</w>
ss ar
so ub
segu ra</w>
que da</w>
pu id
popul ar</w>
pass ados</w>
p icos</w>
ob temos</w>
o -vos</w>
necess idades</w>
mol ec
moder na</w>
mil it
mar abil
lu a</w>
jul g
iz ais</w>
indivídu o</w>
i de</w>
i al</w>
ho me</w>
hipót eses</w>
fal ando</w>
facul dade</w>
esco it
er i
entu almente</w>
em bar
eix o</w>
di das</w>
des c
cri amos</w>
const ante</w>
con du
ci encia</w>
cham adas</w>
ch eio</w>
car reg
cam ada</w>
c k
b á
at ribu
at aques</w>
ass egu
ar ei</w>
ap anhar</w>
ant e
ant ar</w>
amost ras</w>
a pla
a k
a cidente</w>
S h
N i
M in
Lo go</w>
Ira que</w>
In felizmente</w>
For am</w>
E is</w>
E instein</w>
B er
Ap ple</w>
An der
Algu ém</w>
7 5</w>
ó dio</w>
í fer
w eb</w>
volt ei</w>
ur ban
u -nos</w>
torn am</w>
t ol
sab ed
ren dimento</w>
re tra
propor cion
pre ver</w>
perce p
pens ámos</w>
ouvi mos</w>
o ca
mon it
mil itar</w>
inter essa</w>
ima xe</w>
il usão</w>
ger ações</w>
gen e</w>
fá rma
front eira</w>
fiz ermos</w>
fix emos</w>
fantásti ca</w>
ess encialmente</w>
esc ra
dí as</w>
diz emos</w>
dis par
dest ino</w>
des e
d eit
con v
con qu
colo car
col l
car tas</w>
cambi ar</w>
b it
aut or</w>
arti ficial</w>
aproxima damente</w>
ant a</w>
aliz ados</w>
alg unhas</w>
al vo</w>
al as</w>
ac eitar</w>
S A</w>
Is l
F ic
Cont udo</w>
C .</w>
Aqu ilo</w>
A c
ú teis</w>
viz inhos</w>
ut ação</w>
us ados</w>
u ção</w>
ti o</w>
tem por
tel escó
sequ ência</w>
rel ación</w>
re b
pá ssar
program ar</w>
process os</w>
pro ce
pr áticas</w>
pr est
po esia</w>
per feita</w>
pens ado</w>
parti do</w>
pare des</w>
pa da</w>
og rá
ob s
o cé
not a</w>
narra tiva</w>
n avi
mé todos</w>
mã es</w>
mu sic
mosqu itos</w>
mens ões</w>
mad eira</w>
ma ss
it i</w>
it amente</w>
hist orias</w>
gast ar</w>
fun cionou</w>
fran c
extraordin ário</w>
engenh eiros</w>
encont ra</w>
en do
elé c
e amente</w>
difer en
di mensões</w>
descobri u</w>
descobri ram</w>
cost as</w>
colo gia</w>
col ec
c i</w>
bair ros</w>
b os</w>
atu al</w>
atin gi
an se</w>
aliz ado</w>
ac as</w>
V ão</w>
T im
S on
N esta</w>
M ost
I m
D o</w>
D a</w>
C as
A maz
A .</w>
í ram</w>
é ria</w>
v is</w>
v end
testem un
te us</w>
substitu ir</w>
sof isti
sab íamos</w>
s ar</w>
ren dimentos</w>
reg isto</w>
quant as</w>
psic ó
prov ar</w>
propri edade</w>
pr estes</w>
paix ón</w>
ol los</w>
oc ina</w>
o nt
o f
o bras</w>
n ele</w>
ma pe
le y</w>
l ec
garant ir</w>
fó ra</w>
for me</w>
fi xe</w>
fi n</w>
ex ter
escu ra</w>
er -se</w>
equival ente</w>
encont ram</w>
empre ende
ei -lhe</w>
e d</w>
e amento</w>
e -nos</w>
dificul dades</w>
diagno sti
di pl
cri me</w>
costuma va</w>
cor tar</w>
con ect
combust ível</w>
com pa
cl ic
cientí ficos</w>
ca ir</w>
bus car</w>
bra ço</w>
bar co</w>
atravess ar</w>
aplic ações</w>
alter ações</w>
a y</w>
Ti vemos</w>
S er
S egu
P IB</w>
M c
B G</w>
Alem anha</w>
A mer
í dio</w>
ân dia</w>
À s</w>
z e</w>
vid ades</w>
viaj ar</w>
vi g
ver des</w>
vari edade</w>
so frimento</w>
saí da</w>
s ó
rou pa</w>
rep utação</w>
relacion adas</w>
re parar</w>
ram as</w>
quím icos</w>
quer e</w>
pu ra</w>
pr ol
peda ços</w>
partici p
organ ismos</w>
or izar</w>
op ções</w>
n y</w>
mist u
mani f
lí qu
liter atura</w>
k in
int est
in sul
gost ava</w>
gost amos</w>
ger almente</w>
estran hos</w>
es po
en gra
elec tri
efici ente</w>
ec eu</w>
e ti
e p
du ras</w>
diá logo</w>
diagnó stico</w>
de us</w>
cri aturas</w>
cora gem</w>
concl usão</w>
cen ário</w>
car o</w>
cam inh
c lu
aten ción</w>
as -
anivers ário</w>
aliz ada</w>
alg unha</w>
ab und
a is
V en
T ent
S I
Fran cis
En cont
C a
Aqu í</w>
Ander son</w>
Acre dito</w>
2 7</w>
2 1</w>
1 50</w>
- as</w>
órg ãos</w>
ó rias</w>
ê me
vi vos</w>
vi t
ver melh
velh os</w>
transmi tir</w>
tr ân
ti r
sur presa</w>
sab iam</w>
ró no
re flex
quad ro</w>
prov as</w>
pro vo
perig oso</w>
per turb
pat os</w>
pass os</w>
pa ção</w>
min ús
m ig
m ica</w>
lí der</w>
junt amente</w>
jan ela</w>
iz ado</w>
inter net</w>
institu ição</w>
in im
ig ni
hon est
front eiras</w>
for on</w>
faz iam</w>
famil ia</w>
f ême
estab an</w>
ens idade</w>
em- no</w>
elim in
elem ento</w>
dig amos</w>
dev ast
detal hes</w>
desa parecer</w>
def ender</w>
dec lar
d ando</w>
cu lo
comer cial</w>
clín ica</w>
chef e</w>
ch as</w>
can ção</w>
base ado</w>
ator io</w>
atop ar</w>
at erra</w>
amost ra</w>
ambi entes</w>
al tas</w>
af ec
ac tual</w>
abil idades</w>
M il
Lembr o-me</w>
J an
H e
Francis co</w>
B r
Ang eles</w>
20 11</w>
20 10</w>
1 0
últi pl
videox ogos</w>
vi as</w>
trans formação</w>
tiv éssemos</w>
ter ri
ter apia</w>
sé culos</w>
sub st
re cicl
quis ermos</w>
qu is</w>
proc eso</w>
pres os</w>
posi ções</w>
pi as</w>
ori al</w>
or ix
olh em</w>
o posto</w>
nout ros</w>
má ticos</w>
mull eres</w>
moder no</w>
metá fora</w>
ment ais</w>
men sa
marabil lo
m últipl
junt as</w>
iz ada</w>
interpre t
int ent
im prensa</w>
im enso</w>
il í
ignor ância</w>
gober no</w>
fei ra</w>
fa to</w>
extraordin ária</w>
expan são</w>
ex tin
ex istir</w>
espi ri
especi alistas</w>
en da</w>
emo -nos</w>
el l
direc ção</w>
dig itais</w>
d ora</w>
d anos</w>
cál culo</w>
cur va</w>
cr ença</w>
conheci dos</w>
conh eço</w>
coment ários</w>
cl asse</w>
car regar</w>
ca usar</w>
ca st
bo cad
arti gos</w>
ar em-se</w>
apo iar</w>
an ci
altern ativa</w>
al e</w>
ag rí
ad qui
a zes</w>
Trat a-se</w>
T r
Par is</w>
N acional</w>
G er
Fin almente</w>
Fi quei</w>
Cont inu
B ill</w>
2 2</w>
1 ,
zon as</w>
univers al</w>
trân sito</w>
transi ção</w>
t s</w>
t ora</w>
somb ra</w>
so mente</w>
sim il
ser ía</w>
segu ida</w>
secund ário</w>
rá lia</w>
resist ência</w>
rei ras</w>
re j
públ icas</w>
proteí na</w>
pr a</w>
poder em</w>
pergunt ei</w>
perce ção</w>
ped ra</w>
pais agem</w>
origin al</w>
on ia</w>
ocu p
o cul
no ites</w>
necess ária</w>
nasc eu</w>
máx imo</w>
mol o</w>
mo eda</w>
milit ares</w>
mi as</w>
maravilh osa</w>
lig ado</w>
j amos</w>
it ária</w>
interess ados</w>
int eira</w>
infer ior</w>
individu al</w>
h avi
gri pe</w>
fo gu
f as</w>
estat ísticas</w>
espant oso</w>
equ ilí
ent rou</w>
enfer mei
el ha</w>
eg o</w>
dro ga</w>
di m</w>
decidi u</w>
cru z
cor rup
combust íveis</w>
com paixón</w>
ch im
bon ito</w>
bicicl eta</w>
beb er</w>
asp ectos</w>
ar ris
am ar</w>
ab l
S ol
Qu énia</w>
P elo</w>
P al
M edi
Ingl aterra</w>
F l
D ar
Aust rália</w>
Ador o</w>
3 5</w>
. A.</w>
úr bios</w>
vis uais</w>
v ard</w>
tu almente</w>
ti dão</w>
st ru
sobreviv ência</w>
situ ações</w>
relev ante</w>
receb i</w>
pro voc
pre ench
pou ca</w>
plant a</w>
pint ura</w>
pens amentos</w>
ox it
oxit ocina</w>
ouvi ram</w>
or d
on al</w>
no lo
ner s</w>
n essas</w>
mundi ais</w>
mu seu</w>
mor tos</w>
mor to</w>
mo dific
mec ânica</w>
li x
k et
jo gos</w>
inter agir</w>
intel ec
int u
i l</w>
hor izo
h áb
glob ais</w>
fat ores</w>
fac emos</w>
f o</w>
exist ência</w>
ess ão</w>
esquer do</w>
esper anza</w>
ent reg
desenvol vemento</w>
desen ho</w>
d ata</w>
cr í
con vid
com o
cion ais</w>
cheg amos</w>
cer am</w>
caix as</w>
bre m-se</w>
bi o</w>
baix os</w>
b ela</w>
and ava</w>
an der
amea ça</w>
a- feira</w>
Y ou
Out ro</w>
Har vard</w>
G re
Est ávamos</w>
Começ ámos</w>
Bi g</w>
últi mas</w>
óg icas</w>
é ticos</w>
Á sia</w>
vi agens</w>
ver a</w>
ve i</w>
v ais</w>
us adas</w>
su per</w>
sec ção</w>
ro sa</w>
ris os</w>
ri b
re construir</w>
re conhecimento</w>
re ação</w>
ra ções</w>
ra s
pro m
pri vado</w>
pri or
precis ar</w>
pre ju
pl anos</w>
per fu
p ista</w>
ouvi dos</w>
or esc
oce anos</w>
obst á
obes idade</w>
natu ralmente</w>
mun dos</w>
mecan ismos</w>
m eg
jorn alista</w>
incent ivos</w>
i t</w>
hav erá</w>
har d</w>
guer ras</w>
gri tar</w>
gra ças</w>
gra ve</w>
fic amos</w>
fe z
explic ação</w>
experi encia</w>
ex posição</w>
est arem</w>
esper amos</w>
escri tório</w>
es car
er gu
equilí brio</w>
end er
en ri
en cias</w>
eléc tri
electri cidade</w>
económ icos</w>
eci da</w>
don os</w>
diz iam</w>
desenvol vido</w>
desen h
descober tas</w>
cre c
conc eitos</w>
con den
companh ias</w>
civil ização</w>
circun st
cham ou</w>
ch e
cereb rais</w>
cant idade</w>
c ênt
bran cos</w>
bocad inho</w>
bi bliotec
ast e</w>
arre dor</w>
ar í
apar elho</w>
ant igas</w>
an c
aju st
afric anos</w>
ach amos</w>
S eria</w>
Qu eria</w>
J e
F iz</w>
ó tica</w>
ã e</w>
á mo-nos</w>
vot o</w>
vi rem</w>
vi eram</w>
v esse</w>
un as</w>
simpl emente</w>
sent ado</w>
se tem
saud áveis</w>
resul ta</w>
re cep
r armos</w>
quis er</w>
psi qui
pro mo
pres ión</w>
po id
po ema</w>
po bo
palab ra</w>
ofer ecer</w>
n s</w>
mud aram</w>
mi do</w>
mell ores</w>
ma ca
lo ja</w>
lan d</w>
l i</w>
l ac
jo gar</w>
in se
igu almente</w>
id es</w>
i cou</w>
hei mer</w>
hab ía</w>
gra vidade</w>
gl a
g as
fici ais</w>
fam oso</w>
fal h
f usão</w>
experim entar</w>
especí fico</w>
en caix
elec tr
do u
dist ingu
dificul dade</w>
di eta</w>
depen dentemente</w>
de vo</w>
cuid ar</w>
cri am</w>
compri mento</w>
compa ñ
ca usas</w>
bat er</w>
bar ulho</w>
b ur
am iga</w>
alun o</w>
almo ço</w>
algorit mos</w>
al tos</w>
ag ress
acab ado</w>
ac tividade</w>
You T
YouT ube</w>
Yor k</w>
W or
W al
Ti ve</w>
T ínhamos</w>
T ho
S igni
Pen sei</w>
O cidente</w>
N enh
M ãe</w>
K en
H an
Do is</w>
D ig
C E
B as
1 9</w>
ér cio</w>
é gio</w>
z heimer</w>
vel ha</w>
ve ter
vant agem</w>
v es</w>
trabal lar</w>
trabal ham</w>
tra u
tiv er</w>
tend em</w>
t ou</w>
sur ge</w>
suger ir</w>
st er</w>
so as</w>
setem bro</w>
senh or</w>
san gu
s ele
ris o</w>
ri do</w>
respon deu</w>
res pi
recolh er</w>
re for
pres as</w>
pre ços</w>
posi tiva</w>
perce bem</w>
per dido</w>
per demos</w>
per cent
pa sa</w>
or ç
or gulh
océ ano</w>
o sau
ni vel</w>
nen o</w>
ne y</w>
mí nio</w>
movi mentos</w>
mil es</w>
matem áticas</w>
mam ífer
m ín
lig eiramente</w>
lig adas</w>
lider ança</w>
liber tar</w>
l ógica</w>
jar dim</w>
j antar</w>
iz a</w>
interess es</w>
ingu én</w>
ingl és</w>
in fl
i or
hon e</w>
h h
g re
fóss eis</w>
ex cep
ev ento</w>
estraté gia</w>
esqu ec
especi ais</w>
en cant
dor mir</w>
destru ição</w>
des lo
cri aram</w>
coz inha</w>
confi gu
confer ência</w>
comprom isso</w>
com ércio</w>
cir cul
cen a</w>
cal cul
bi u</w>
ast ron
armaz en
aprov eit
apar elhos</w>
ad ot
abl emente</w>
a for
X I
To m</w>
SI DA</w>
Ric hard</w>
P u
N ú
N ada</w>
N A
Ge or
F rança</w>
F elizmente</w>
D ire
D eci
Aqu ele</w>
Apla uso</w>
19 7
ó graf
í nt
í ne
é re
áto mos</w>
ár on
á mo
xe o</w>
veí culo</w>
ver ti
tre men
tin a</w>
tent ativa</w>
ten s</w>
t am</w>
so fr
sin x
sa ções</w>
s ar
róno mos</w>
religi ões</w>
re ver
pris ion
popul ações</w>
pol os</w>
po lu
pi ada</w>
pedi do</w>
pas ar</w>
pan z
ot im
o so
o a</w>
no mias</w>
ma ç
l entamente</w>
jorn al</w>
it ários</w>
instru mentos</w>
inst ant
in sti
hu mil
hid ro
g ito</w>
flu oresc
faz er
f aria</w>
ev entualmente</w>
es got
equ ili
efic azes</w>
ec tura</w>
ebo l</w>
discuss ão</w>
di rig
dever íamos</w>
des esper
democ rá
d aqueles</w>
cír culo</w>
cont ém</w>
cont ac
co rais</w>
co -
clim áticas</w>
cin z
capit alismo</w>
ca -
c ó</w>
brilh antes</w>
bra ços</w>
aqu ecimento</w>
apo si
al o
acont ecido</w>
aceler ar</w>
abri go</w>
a ca</w>
X a</w>
TE D
S ar
S MS</w>
Ho mem</w>
Gran de</w>
D on
Con h
Al zheimer</w>
ê-l as</w>
ê xito</w>
âne o</w>
vol ver</w>
vis ión</w>
vis i
v an
tó rios</w>
transfor m
trabalh ei</w>
tent ando</w>
tax as</w>
sol id
sa patos</w>
ref le
re conhec
quânt ica</w>
qu izais</w>
pró t
prot ó
produ z</w>
produ tividade</w>
preser v
pou par</w>
poder osos</w>
perce bi
per ante</w>
pens ando</w>
parti lha</w>
p í
p us</w>
olh ou</w>
nout ro</w>
n ai</w>
mod el
ment ar</w>
men ina</w>
m ores</w>
li do</w>
intro duz
in esper
in al</w>
ific ação</w>
id ênt
i ro</w>
h i</w>
g lo
fal har</w>
fal ei</w>
f olh
explo são</w>
ex cre
esti ver</w>
est il
est aria</w>
est acion
ent ropia</w>
eco nomias</w>
du la</w>
di v
di n</w>
di aposi
determin ar</w>
desig ners</w>
des igualdade</w>
decidi ram</w>
cré dito</w>
consci encia</w>
cons elho</w>
condut or</w>
compon entes</w>
complex a</w>
compar ação</w>
comez amos</w>
com bo
colo c
co ral</w>
co che</w>
chim panz
char la</w>
ch á
c ros</w>
bl á</w>
b ir</w>
at es</w>
arran j
aprov eitar</w>
ant igos</w>
an unci
am i</w>
am anh
am -lhe</w>
aleg ria</w>
acont eça</w>
ac ei
a us
V ir
V e
Tr ês</w>
T u</w>
P ol
Nú mero</w>
In stitu
Es cre
Descobri mos</w>
C O
At l
A m
200 7</w>
2 3</w>
- B
óx ido</w>
ón icas</w>
ól ica</w>
ó sof
é s
á ss
vis ita</w>
veí culos</w>
un idades</w>
tradi ção</w>
tra z</w>
torn aram-se</w>
ti nta</w>
tent ei</w>
tent amos</w>
t ado</w>
so ma</w>
sen si
sem entes</w>
sangu íne
s ai</w>
ri d
respons áveis</w>
repe tir</w>
ra ci
prosper idade</w>
propri edades</w>
pri vil
posi tivo</w>
posi ble</w>
pos it
port á
pod ía</w>
pobo ación</w>
plic ar</w>
person alidade</w>
perfei tamente</w>
percebi -me</w>
p idos</w>
olh ando</w>
ogra fia</w>
n esses</w>
n amor
muçul manos</w>
mo ita</w>
mist ério</w>
mer gulh
men ores</w>
matem áticos</w>
mar t
ma ch
lig ada</w>
l y
k a</w>
ju nto</w>
j am
it amos</w>
is sem</w>
interes ante</w>
intel ix
ins pira
ini cial</w>
in cid
imax es</w>
im pedir</w>
il s</w>
i P
gé nio</w>
gu lo</w>
grá ficos</w>
gig ante</w>
gar ra
g ab
fil ósof
fa ça</w>
estran ha</w>
estran g
esc ut
envelh ecimento</w>
ent ro</w>
ener xía</w>
elim inar</w>
dól ar</w>
dol or
din osau
diminu ir</w>
deser to</w>
de b
col ap
cion a</w>
ci ências</w>
ch orar</w>
ch es</w>
ch an</w>
car ga</w>
bot ão</w>
ban cos</w>
ba il
azu is</w>
avali ação</w>
auto ma
as ma</w>
ar anha</w>
an ún
an at
alcan ce</w>
al tru
al os</w>
ad eira</w>
a- o</w>
a propri
a final</w>
Signi fica</w>
P r
P R</w>
Mo itas</w>
M et
M e
L í
I I</w>
Hu man
G r
í ss
vi va</w>
ven da</w>
um bido</w>
tra tamentos</w>
ti mo</w>
símb olo</w>
sint omas</w>
sent idos</w>
segu e</w>
se ca</w>
sabed oria</w>
sa iu</w>
ro da</w>
rest ri
represent ação</w>
receb e</w>
radi cal</w>
quer es</w>
qu im
pó s-
publ icidade</w>
próx imas</w>
profun di
pro met
pot ência</w>
poder osas</w>
po dedes</w>
per correr</w>
p ica</w>
p eia</w>
ox ig
ot er
organiz ar</w>
or no</w>
or as</w>
obj ecto</w>
obj ectivo</w>
o par
ne l</w>
na veg
molec ular</w>
ment i
mar ket
mar cha</w>
ma us</w>
li ções</w>
let ra</w>
lembr o-me</w>
labor atorio</w>
kin son</w>
j et
investig ar</w>
ing redi
inf e
industri al</w>
im e</w>
h er</w>
h an</w>
glo bal
ger ar</w>
flu xo</w>
fil a</w>
far ma
f es</w>
ext ra</w>
espo sa</w>
escol ar</w>
es cap
entre vist
disse -lhe</w>
discu tir</w>
dem ost
crí tica</w>
cri ando</w>
coz inhar</w>
contro l</w>
confort ável</w>
con dicion
con cep
comunic ación</w>
complex as</w>
combat er</w>
cheg am</w>
ch oc
cant ar</w>
cam inhar</w>
cabe za</w>
c antes</w>
bá sica</w>
blo co</w>
bar ata</w>
b elo</w>
algorit mo</w>
ajud am</w>
adicion ar</w>
a per
XX I</w>
T on
T a
S tan
S i</w>
Pres idente</w>
N essa</w>
M I
J ames</w>
F il
F O
E mb
E gito</w>
B it
A b
9 9</w>
6 00</w>
í p
í nio</w>
ân icos</w>
z umbido</w>
x es</w>
vul gar</w>
vot ar</w>
ven de
vaz io</w>
univers idades</w>
tro pic
transport es</w>
ti j
sufici entes</w>
sofre r</w>
si vo</w>
ser ve</w>
sent ados</w>
sel v
se cu
s ites</w>
represent am</w>
rece bem</w>
re tirar</w>
re mo
re cr
raz o
r mos</w>
qu eix
prot ex
prom essa</w>
profun das</w>
profission al</w>
pro vis
pro posta</w>
pres ença</w>
pen sou</w>
par ques</w>
pac es</w>
obser vamos</w>
ob c
nu vem</w>
nolo gia</w>
necess ariamente</w>
ne ve</w>
morr eram</w>
met e
medi das</w>
mas cul
mal u
mal a</w>
let ras</w>
le ve</w>
lanç ar</w>
j or
ir íamos</w>
inspi ração</w>
influ ência</w>
implem ent
hor rível</w>
gost ar</w>
g er</w>
fi o</w>
fa cer
f esta</w>
ex o</w>
eu ros</w>
est ades</w>
er ão</w>
en se</w>
el eg
dimen são</w>
dever iam</w>
det et
desenvol vemos</w>
desast re</w>
de gra
cr ist
contin ente</w>
con front
circunst âncias</w>
cer tific
cent ros</w>
ceg o</w>
ca os</w>
c ção</w>
b ab
at ori
ass istir</w>
aspe tos</w>
ar nos</w>
aplic ar</w>
apar tamento</w>
apar entemente</w>
anti -
am- na</w>
al quer</w>
al em
agrad ável</w>
afric ano</w>
abor dar</w>
ab st
a preci
a pa
a colh
Wil li
Vo z</w>
Tim es</w>
S r.</w>
Qu ase</w>
Qu alquer</w>
P M</w>
Ob viamente</w>
O K</w>
Mic ha
M and
Institu to</w>
G al
FO X
F e
Emb ora</w>
E M</w>
CR IS
Bas icamente</w>
B on
An d
Amer ic
- de-
ún icos</w>
óx ica</w>
ín u
í zes</w>
ân gulo</w>
á is</w>
w in</w>
volt ou</w>
vo o</w>
trist e</w>
tent a</w>
t elh
sur gir</w>
su ici
sti cos</w>
soz inhos</w>
si va</w>
sent ia</w>
ro man
rec eitas</w>
radi ação</w>
ra io</w>
quad rado</w>
pri mir</w>
preocu par</w>
pol as</w>
pass ada</w>
ost on</w>
oper ação</w>
obj ectos</w>
obc ec
o corr
norte- americanos</w>
ne u
n eles</w>
n at
mot ores</w>
mont a
microscó pio</w>
ma ñ
lit es</w>
lh as</w>
lem bra
jan elas</w>
in dí
in dependentemente</w>
i vas</w>
i d</w>
gra du
g ato</w>
fundament almente</w>
fun dos</w>
financ eira</w>
fil lo</w>
existi a</w>
este ve</w>
especi e</w>
ent rada</w>
elef ante</w>
ecossist ema</w>
dout or
diss emos</w>
dire tor</w>
dig nidade</w>
desper dí
d adores</w>
cul ares</w>
crimin osos</w>
corri da</w>
com ún</w>
co dific
cl áss
ci das</w>
chin ês</w>
chi p</w>
cent os</w>
candi d
ca n</w>
c leo</w>
bon ita</w>
av a-me</w>
atu r
at ina</w>
assust ador</w>
arquit ectura</w>
ar tí
ar do</w>
ar -se-
aprend em</w>
amanh ã</w>
ad op
acredit amos</w>
acess ível</w>
ac ção</w>
a pre
a companh
W i
Tho mas</w>
Mu lh
M an
Fran k</w>
CRIS PR</w>
Ban g</w>
B oston</w>
AR N</w>
A d
6 5</w>
1 7
ó i</w>
ñ os</w>
ã -B
ã-B ret
ã-Bret anha</w>
á cia</w>
xer ación</w>
x os</w>
w n</w>
víti ma</w>
volunt ários</w>
vig il
ven ce
vant agens</w>
u ber
tra duz
torn aram</w>
ter ço</w>
t ei</w>
su port
saté lites</w>
s h
regress ar</w>
re tro
re curso</w>
ra paces</w>
r i</w>
quint a</w>
quer ía</w>
qu eb
proj et
pri mo</w>
prepar ados</w>
precis amente</w>
percent agem</w>
parti da</w>
parc eiros</w>
op tim
on a</w>
o este</w>
nú cleo</w>
nucle ares</w>
not ável</w>
mín imo</w>
mi os</w>
medi os</w>
market ing</w>
li da</w>
itu de</w>
instru mento</w>
im en
imen sa</w>
ig re
ic e</w>
h é
gu st
gan da</w>
fun ções</w>
fraca sso</w>
fr en
fic ção</w>
fez -me</w>
faz ermos</w>
extra ir</w>
exce to</w>
ex ten
ex cl
ev entos</w>
est armos</w>
ess ência</w>
esqu ele
escre vi</w>
er ía</w>
envol ver</w>
encont rar
ef ec
económ icas</w>
domé stica</w>
do ce</w>
di ce</w>
des e</w>
cu rar</w>
cor das</w>
conven cer</w>
cont ínu
con g
col or
co t
clim ático</w>
cent í
cam adas</w>
bol as</w>
automó vel</w>
ati onal</w>
arra st
anter iores</w>
an d</w>
altern ativas</w>
ai l</w>
adolesc ente</w>
acab aram</w>
acab am</w>
aber tos</w>
U au</w>
T inham</w>
Stan ford</w>
Re parem</w>
Pro f
Pes soas</w>
P ré
Ne w
MI T</w>
Ju nt
J er
Ha iti</w>
H on
Gr ã-Bretanha</w>
Fiz emos</w>
D en
C u
C l
Aprend i</w>
ó logos</w>
í das</w>
é xito</w>
á mos
Á r
xu nto</w>
web site</w>
ver tidos</w>
ver ific
ve -se</w>
v íamos</w>
un al</w>
tu ber
transpar ência</w>
tend ências</w>
soz inha</w>
so no</w>
segre dos</w>
secre t
se parar</w>
sa í</w>
reg ra</w>
re v
ran s
ran i
ra za</w>
ra p
quím ico</w>
po ida</w>
pes ca</w>
per segu
per curso</w>
pe za</w>
pas ado</w>
palest ras</w>
p it
p h
oxig énio</w>
o di
nutri entes</w>
ning ún</w>
ning unha</w>
ne ut
na ve
mar cas</w>
mai l</w>
leg al</w>
jorn alistas</w>
iz adas</w>
is es</w>
incl usi
imig rantes</w>
imax in
her óis</w>
ga ñ
for mos</w>
fo car</w>
fl ores</w>
fi os</w>
f it
excre mento</w>
ex pon
ex ames</w>
esquele to</w>
especi alista</w>
es -
enferm idade</w>
el lo</w>
ed or</w>
do mínio</w>
diz endo</w>
dinâm ica</w>
dig it
det etar</w>
der em</w>
d ani
cá mar
críti co</w>
cru cial</w>
cri ada</w>
cor re</w>
cons elh
con ci
competi ção</w>
cin ema</w>
cal cular</w>
c ut
c almente</w>
bás icos</w>
bás ico</w>
ató ria</w>
at ar</w>
as ti
al er
actu almente</w>
a ero
a cid
W eb</w>
T orn
R ober
Qu ais</w>
Par ec
Mu seu</w>
M al
L em
H er
F un
Dis se</w>
Co ca-
Ci ro</w>
C olo
Al i</w>
A ch
ê u
x én
x usto</w>
vi via</w>
veg et
us cri
tí tulo</w>
tuber culo
tu bar
trat a-se</w>
tra gé
to que</w>
tem as</w>
te atro</w>
su sp
sol ina</w>
sin cer
signific ava</w>
sex uais</w>
servi r</w>
segu ridade</w>
resol ução</w>
regist os</w>
rec entes</w>
re mos</w>
rast re
ra iva</w>
profundi dade</w>
pre g
pr estar</w>
port as</w>
po de-se</w>
pesso almente</w>
perceb emos</w>
ped ras</w>
pass amos</w>
pass agem</w>
p én
ot e</w>
o k
o correu</w>
o cidental</w>
nout ra</w>
nor mas</w>
nervo so</w>
necess ários</w>
nave gar</w>
n inguén</w>
n ações</w>
mud am</w>
most rou</w>
mor tas</w>
mor rem</w>
micro fon
men cion
mem órias</w>
mant ém</w>
man uscri
mamífer os</w>
ma pas</w>
it y</w>
is a</w>
ir rit
ir mãos</w>
insul ina</w>
instal ações</w>
in ser
implic ações</w>
hon ra</w>
h ol
galáx ia</w>
ga solina</w>
g ica</w>
g entes</w>
fil t
ex p
et er</w>
estiv essem</w>
est os</w>
especi ficamente</w>
esfor ços</w>
ent as</w>
ele vado</w>
eg íp
efici ência</w>
dí vida</w>
dut or</w>
du ro</w>
domin ante</w>
do -
dist úrbios</w>
dis postos</w>
di visão</w>
defin ir</w>
d ram
d a
cál culos</w>
cuid ad
corrup ção</w>
contribu ir</w>
compet ências</w>
colabor ação</w>
cirurgi ão</w>
caval o</w>
cart ões</w>
cardí aco</w>
cap í
bri ll
bem- estar</w>
bar reira</w>
au l</w>
at or</w>
argu mento</w>
anat om
an ón
amea ç
afri can
ac k</w>
ac ha</w>
abb y</w>
a- a-
a pe
a d</w>
X X</w>
S en
P aqu
Nor malmente</w>
Mand ela</w>
Ho xe</w>
FOX O</w>
Ess es</w>
E.U .A.</w>
Consegu em</w>
Col a</w>
Coca- Cola</w>
20 12</w>
vi rar</w>
vermel ha</w>
verdad eiros</w>
vari ação</w>
v á</w>
utiliz ação</w>
utiliz ando</w>
té r
trou xe</w>
trabalh ava</w>
tol er
ti das</w>
tem p
telescó pio</w>
t es
super -
suger e</w>
se quen
saté l
satél ite</w>
sal to</w>
sab es</w>
re presentar</w>
re n</w>
re gu
re fei
rab is
ra el
ra -
r oriz
qu art
pén is</w>
pássar os</w>
pu dermos</w>
prog ress
produz em</w>
prob ablemente</w>
privil égio</w>
pri m
preju di
pre visão</w>
pre parar</w>
plásti cos</w>
pint uras</w>
pint ar</w>
permiti u</w>
pergunt ou</w>
per na</w>
pens as</w>
partici pação</w>
paral is
pa st
p istas</w>
oss au
os -
organ ismo</w>
orden ador</w>
o i
n is</w>
n elas</w>
n ari
nari z</w>
most rei</w>
mont ar</w>
mist ura</w>
mil ag
ment ação</w>
liv res</w>
lim pa</w>
lig a</w>
li bro</w>
j usto</w>
is rael
instru ções</w>
in venção</w>
in ação</w>
impl ant
ig ma</w>
i vamente</w>
i rei</w>
i co
hou vesse</w>
ho mo
h t</w>
fis icamente</w>
fic ado</w>
fa ix
evolu ir</w>
estiver am</w>
estabel ecer</w>
est abilidade</w>
escon der</w>
es fera</w>
enfrent amos</w>
encora j
empre gados</w>
em ail</w>
eit ores</w>
ei me</w>
ef ecto</w>
e va
e us</w>
e ticamente</w>
dú z
du lo</w>
direc tamente</w>
destru ir</w>
des vi
des cer</w>
de l</w>
d an
cênt imos</w>
câmar as</w>
cur rí
cri atura</w>
cri ativo</w>
corr entes</w>
contra to</w>
consider ado</w>
consequ ência</w>
cons id
conheci das</w>
complic ada</w>
comez ar</w>
clín icos</w>
cl ase</w>
ci ber
cas ar</w>
cant os</w>
bas es</w>
bar reiras</w>
ban da</w>
b y</w>
b and
avali ar</w>
ar lles</w>
ante passados</w>
ang ari
ambi ental</w>
am o</w>
alcan ç
ag entes</w>
acu mul
acontec em</w>
ac h</w>
a pl
a cia</w>
Wor l
Un idas</w>
Ton y</w>
S y
S teve</w>
P ou
P aul</w>
Olh em</w>
N ig
Micha el</w>
H av
G a
Fo mos</w>
Des pois</w>
Des cul
Cre o</w>
Consegu imos</w>
Cons ider
Char les</w>
Ant ár
Amaz ónia</w>
A os</w>
2 8</w>
2 50</w>
ón icos</w>
í cula</w>
ç amos</w>
z z
w oo
vigil ância</w>
v á
utiliz ador</w>
tuberculo se</w>
trabal ha</w>
sí nt
sustent abilidade</w>
st ro</w>
simpl e</w>
signific ativa</w>
s ente</w>
refer ência</w>
recuper ação</w>
recom pensa</w>
re forma</w>
raci oc
pré sti
preocupa ção</w>
pra ia</w>
poñ er</w>
pot encialmente</w>
por cos</w>
pl at
pedi r
pe de</w>
pass ámos</w>
pass ava</w>
partí cula</w>
par cer
o ma
o gia</w>
nout ras</w>
moder nos</w>
met ano</w>
met al</w>
me dula</w>
mañ á</w>
ma se</w>
lin gua</w>
lev ado</w>
leg isl
l ho</w>
l amento</w>
j os</w>
inter nacionais</w>
inter ação</w>
infra estrutura</w>
influ enci
il a</w>
ic k</w>
h ados</w>
h abilidade</w>
fé rias</w>
funcion ários</w>
fl or</w>
fis i
fil oso
fantásti cas</w>
fal ou</w>
exec ut
et er
estat ística</w>
est ic
esper ava</w>
espe ta
envol vidos</w>
eng ano</w>
empe z
em ática</w>
eg a</w>
e fe
diab etes</w>
dese ñ
des conhecido</w>
conven i
cont amin
construí da</w>
col is
ci nt
cheg aram</w>
cap tu
cad eiras</w>
cabe ças</w>
bu lo
bran ca</w>
ber g</w>
av ós</w>
ati camente</w>
atac ar</w>
ass isti
ar án</w>
ar que
ar mo-nos</w>
ansi edade</w>
an eamente</w>
ament al</w>
aliment ação</w>
a- a</w>
a ére
a a</w>
S í
Rober t</w>
R a
Poder ia</w>
N esse</w>
M eu</w>
Lu a</w>
K an
G l
G i
G ar
G ana</w>
G abby</w>
Faz emos</w>
E i</w>
D ia</w>
Con stru
Cent ral</w>
CO 2</w>
C ab
B ut
A í</w>
A final</w>
1 5
ís mo</w>
ânt ico</w>
â nio</w>
án s</w>
w e
ver emos</w>
val oriz
v ê-la</w>
urb ano</w>
tu los</w>
tro car</w>
tre inar</w>
terr íveis</w>
t h</w>
surgi u</w>
suj eito</w>
ser vem</w>
sent i
sent ada</w>
s á
s ag
ri dão</w>
re quer</w>
r ú
pré mio</w>
prod ut
pens avam</w>
pe gada</w>
p ól
ou se</w>
oss os</w>
or gulho</w>
observ ação</w>
obri g
necess árias</w>
mont anhas</w>
mo no
mo bil
min as</w>
micro bi
manif est
m m</w>
li ña</w>
j ac
interess ado</w>
infor mática</w>
independ ente</w>
in ete</w>
imax inar</w>
im per
ileg al</w>
histó rico</w>
hi per
h am
gi os</w>
g r
g in
fí a</w>
funcion al</w>
fic ava</w>
fi quem</w>
fi l</w>
ex pedi
esqu izo
especí fica</w>
espa zo</w>
equi po</w>
entend emos</w>
efic ácia</w>
eci dos</w>
dol os</w>
dis o</w>
direc tor</w>
di ariamente</w>
descul pa</w>
des as</w>
der ram
deix am</w>
danç ar</w>
d ente</w>
d aquelas</w>
d an</w>
cresc i</w>
cresc eu</w>
crec emento</w>
cor rig
consegu iram</w>
conclu ir</w>
col as</w>
cham am</w>
ch eiro</w>
cere bros</w>
cami ño</w>
cam inhos</w>
bomb as</w>
bibliotec a</w>
bar ri
b ig
ató rias</w>
astron aut
assist ência</w>
and am</w>
ament ais</w>
al á</w>
ajud ou</w>
ais quer</w>
af eta</w>
a ire</w>
XI X</w>
V ejamos</w>
Te ñen</w>
Sab es</w>
Sa úde</w>
Ru anda</w>
Quant os</w>
Po dia</w>
Ne ander
N ações</w>
L a
Geor ge</w>
F und
Co n</w>
Ch ic
8 00</w>
3 2</w>
. C.</w>
órg ão</w>
ísti co</w>
ín dro
é nt
á monos</w>
woo d</w>
vulner áveis</w>
vol tas</w>
vi ax
ub ble</w>
u til
u almente</w>
tragé dia</w>
torn ado</w>
terror istas</w>
ter ras</w>
ter ram
su ic
st rias</w>
st os</w>
so ar</w>
sac ri
restau rante</w>
respon de</w>
recep tor</w>
rar amente</w>
qu aisquer</w>
psi co
profes ores</w>
pri má
press ion
preocup ados</w>
pi ores</w>
person agens</w>
permiti r
pe to</w>
pare ça</w>
parc eiro</w>
p ant
ov embro</w>
ofer ec
o me</w>
nom ia</w>
ner vos</w>
n ac
music al</w>
mete or
met ab
mart p
man d
m -
lu xo</w>
lin d
lim par</w>
lic eu</w>
lei tura</w>
labor atórios</w>
l âm
l ema</w>
invest idores</w>
intest ino</w>
intelec tual</w>
ingredi entes</w>
indú strias</w>
in visíveis</w>
in er
in do
in certeza</w>
im postos</w>
ide al</w>
hormon as</w>
gu ia</w>
grá tis</w>
gra u</w>
global ização</w>
fême a</w>
fon do</w>
fo se</w>
f ariam</w>
expan dir</w>
ex tensão</w>
eti qu
espant osa</w>
escu ridão</w>
esco itar</w>
escar avel
er radas</w>
encont ra
em présti
elev ada</w>
efici entes</w>
dá -nos</w>
dix en</w>
di mos</w>
di go
descober to</w>
des istir</w>
des fr
d ano</w>
d af
crip to
cres ce</w>
corre to</w>
cor te</w>
consci entes</w>
confor me</w>
comez ou</w>
come za</w>
cober tura</w>
cit ação</w>
ci lind
cho que</w>
car di
ca va</w>
big o
b ita</w>
b ar</w>
autor idade</w>
as c
arro z</w>
apont ar</w>
ant ro
an ia</w>
ampl a</w>
amp ;</w>
amb as</w>
am ina</w>
al d</w>
agra dec
ad es
acont eci
ach ar</w>
aber tura</w>
a ço</w>
a percebi-me</w>
a comp
Uni ão</w>
T un
T ex
Sol ly</w>
Sab e</w>
S impl
Qu erem</w>
Por ém</w>
Per ceb
Paqu istão</w>
P úbl
Ob ama</w>
NA SA</w>
N ational</w>
Min ist
M K</w>
J on
I max
E ri
Desco bri</w>
Dar win</w>
Con g
Ch il
B ri
200 5</w>
20 50</w>
20 15</w>
- 2</w>
& amp;</w>
ér on
vi vas</w>
tó ria</w>
tro ca</w>
tra du
torn am-se</w>
ti ra</w>
t s
st ata</w>
ss os</w>
sim pá
sex os</w>
sen ão</w>
segu ido</w>
sal tar</w>
s elec
s ado</w>
ru ído</w>
ru rais</w>
ro s
revel ar</w>
reuni ão</w>
result ou</w>
resist encia</w>
re vi
re ino</w>
re cl
ra ios</w>
ra d
quil os</w>
qu é
prol on
profis são</w>
pres id
plant ar</w>
perman ente</w>
pass ag
pain el</w>
obstá culos</w>
o col
no me
nasc i</w>
n etos</w>
n aquilo</w>
mã s</w>
multi plic
mor ais</w>
mo ntes</w>
min im
mex er</w>
mer gulho</w>
matem ático</w>
mant er
m ões</w>
líqu ido</w>
lin do</w>
limit ado</w>
lei te</w>
ior mente</w>
investig ación</w>
inver no</w>
inst ante</w>
infor máticos</w>
il ha</w>
i v
i -se</w>
hu milh
hot el</w>
h el
g ent
fís icas</w>
fárma cos</w>
fu gir</w>
forma m</w>
for tal
folh as</w>
figu ra</w>
fic ação</w>
fal so</w>
fa bulo
f ol
extre mo</w>
exist entes</w>
exer c
et ão</w>
est er
est arão</w>
est ará</w>
espec ul
er rados</w>
envol vimento</w>
envel lec
em i
el son</w>
el o
ef ectos</w>
edi fici
e- mail</w>
disti ntas</w>
dist ante</w>
dici r
di u</w>
desper di
desen hos</w>
def esa</w>
dec at
deber ía</w>
cultiv ar</w>
cu jo</w>
cresc ente</w>
cr enças</w>
cor rem</w>
convers ar</w>
cont o</w>
construí das</w>
consegu irem</w>
consegu es</w>
condi ção</w>
conci li
con e</w>
compon ente</w>
compe tir</w>
com eta</w>
co di
cis mo</w>
ci tar</w>
cent rais</w>
caracter ística</w>
car tão</w>
car tos</w>
car r
cal har</w>
c ador</w>
bo l</w>
ber t</w>
bat al
bac téria</w>
bac k</w>
b ul
aument ou</w>
arí ame</w>
apresent ação</w>
apla usos</w>
ali en
afirma ção</w>
af ro-
ach ava</w>
a perceber
a co
a .</w>
S int
S cot
R os
Pré mio</w>
Po des</w>
N elson</w>
Le on
Gost ava</w>
Go sto</w>
E sa</w>
Co sta</w>
Chic ago</w>
Bo b</w>
B ran
Ar te</w>
A mb
ó ni
íti mo</w>
í s</w>
âne a</w>
árab es</w>
Ár tico</w>
y n
xo me</w>
viol enta</w>
vi ral</w>
veter anos</w>
vent il
ven das</w>
ven cer</w>
vac ina</w>
v entu
un ho</w>
un e</w>
tó dolos</w>
tu mores</w>
trans missão</w>
to mar
terram oto</w>
tent am</w>
te to</w>
tam a
tal ento</w>
t ut
t ras</w>
t ada</w>
símb olos</w>
sol ares</w>
so pa</w>
si vos</w>
sen sa
sen hora</w>
segu ras</w>
s martp
s inc
rid ge</w>
ri dí
reun ir</w>
rei ro</w>
recr ut
rec eita</w>
re al
ram -se</w>
ra gem</w>
question ar</w>
prot ec
pro pia</w>
pro ntos</w>
pro je
priv ada</w>
pre ce
pol ar
plan ear</w>
pi on
partilh amos</w>
partilh ada</w>
palavra -
o vos</w>
o ficial</w>
neuró nio</w>
navi os</w>
microfon e</w>
mi ñas</w>
mi rar</w>
me dos</w>
ma go
ma ci
m ite</w>
lon gas</w>
ll o</w>
lev am</w>
le vamos</w>
l ago</w>
is são</w>
insp ir
inf el
inevit ável</w>
incri ble</w>
in corpor
imens as</w>
ignor ar</w>
gul ha</w>
guar da</w>
gu es</w>
gu eira</w>
gra var</w>
ge o
g li
fábri cas</w>
funcion e</w>
funcion amento</w>
fra u
financi amento</w>
financ eiros</w>
fin s</w>
fi bras</w>
fer tiliz
fal ámos</w>
fac tores</w>
excit ante</w>
esti ma</w>
espe t
esc utar</w>
es mag
entre vista</w>
ensa io</w>
encont raram</w>
ed ores</w>
dí n</w>
dor as</w>
divers as</w>
disti ntos</w>
dist or
diferen za</w>
daf -2</w>
d ra
cri ados</w>
cresc em</w>
costuma vam</w>
correc to</w>
corpor al</w>
contra ste</w>
confort áveis</w>
conec toma</w>
comunic ações</w>
combin ação</w>
combat e</w>
colap so</w>
co có</w>
cient emente</w>
cardí aca</w>
car os</w>
can ções</w>
c ães</w>
brin que
bol ha</w>
b í
b el</w>
av ent
ar -lhe</w>
aparec em</w>
anter iormente</w>
amb ul
amar elo</w>
alucin acións</w>
alim ento</w>
agar rar</w>
ag reg
adi v
acredi ta</w>
acontec eria</w>
académ ico</w>
ac ed
ac ción</w>
abil it
ab re</w>
ab les</w>
a su
Worl d</w>
T en</w>
Sí ria</w>
S tre
S erra</w>
S an</w>
O cidental</w>
M T</w>
G ates</w>
F í
E d
C amb
B ol
Al go</w>
A tualmente</w>
A ir
19 6
19 4
é l
á tri
x ogos</w>
x og
vist os</w>
vi ñ
vermelh os</w>
ven ções</w>
ve x
us an</w>
u lh
u dio</w>
tu des</w>
tru que</w>
tri dimensional</w>
tiñ amos</w>
ti ven</w>
ten de</w>
tele f
tama ño</w>
t he</w>
ss ia</w>
sol t
so ur
saí r</w>
s k
roub ar</w>
rei -me</w>
reg res
re torno</w>
ra dores</w>
quant idades</w>
pu demos</w>
protó tipo</w>
profess ora</w>
pres o</w>
precis ávamos</w>
pr ác
pr on
poup anças</w>
portá til</w>
por co</w>
pont u
poder iamos</w>
person agem</w>
per deu</w>
par ado
parado xo</w>
olo xía</w>
olh ámos</w>
obje tivos</w>
o correr</w>
nego ci
neg ras</w>
mu lo</w>
mu la</w>
mor cegos</w>
minist ro</w>
men ino</w>
mant êm</w>
man s</w>
mal as</w>
mach os</w>
ma tri
lu cro</w>
levant ar</w>
lanç amento</w>
l ú
int im
indu stria</w>
in justiça</w>
im provis
i ri
havi do</w>
h í
guar dar</w>
go sta</w>
glob almente</w>
gen ético</w>
gen as</w>
ganh ou</w>
gan ho</w>
gan ha</w>
fot ógraf
financ eiro</w>
fi ro</w>
fi bra</w>
famili ar
famil ias</w>
fal sos</w>
fal has</w>
faci lit
fabri co</w>
express ões</w>
excel entes</w>
est amin
empre g
em it
el abor
econom istas</w>
e as</w>
e ado</w>
doutor amento</w>
dis crimin
di óxido</w>
di c
def end
de fen
de bu
d ava</w>
cur ta</w>
consist e</w>
compro met
compr as</w>
começ armos</w>
com emos</w>
colo ca</w>
colabor adores</w>
col ónia</w>
col ler</w>
co er
co bri
cham ados</w>
ch a
cap ita</w>
ca u
biol ógica</w>
b raz
b er</w>
ax ud
auto carro</w>
aut ó
atop amos</w>
ati vidades</w>
assu ntos</w>
amos -lhe</w>
americ anas</w>
amea ças</w>
ajudar -nos</w>
ag ências</w>
ag it
af ro
adi ante</w>
ad er
aconteci mentos</w>
ach ei</w>
ab ast
a gulha</w>
W K</w>
Tex as</w>
T it
S ur
Re cor
Quant as</w>
P edi
Or gan
M undo</w>
M en
M ag
J os
Imax in
G en
Es pa
E sp
E l</w>
C in
2 ,
ú ssia</w>
ñ eiro</w>
ân icas</w>
y l
xén ese</w>
x ías</w>
vi tal</w>
ver ificar</w>
ventu de</w>
vas os</w>
v or
ut ebol</w>
ul ares</w>
u su
toma da</w>
tiñ an</w>
ti ó
tex tos</w>
ter o</w>
tecnol ógica</w>
su x
ss ex
son har</w>
simil ares</w>
sens ores</w>
sen sor</w>
segu rar</w>
sec tor</w>
rig or
resp irar</w>
relacion ado</w>
rece ber
reb el
re cé
racioc ínio</w>
quei ma
põ e</w>
prior idade</w>
preocu pa</w>
precis avam</w>
pol ar</w>
pens aram</w>
pedi mos</w>
particip antes</w>
pain éis</w>
pa so</w>
p ir
oper ações</w>
ont em</w>
olh am</w>
ol ógico</w>
o sso</w>
o fen
nu vens</w>
moti vos</w>
mor ta</w>
mo u-se</w>
mist eri
min a</w>
menti ras</w>
ment ir</w>
me i</w>
man ual</w>
ma go</w>
m ico</w>
lou co</w>
lo jas</w>
limit ações</w>
lic enci
levo u-me</w>
lav ar</w>
jorn ais</w>
inter ro
inse tos</w>
inici ar</w>
iP hone</w>
hu mor</w>
h ack
gu iar</w>
gig antes</w>
gab inete</w>
g ama</w>
fund ação</w>
fu rac
fri gor
franc ês</w>
for za</w>
fer mo
extre ma</w>
extin ção</w>
exerc ício</w>
estú dio</w>
estacion amento</w>
encont rou</w>
encont rado</w>
en colh
em bal
eg oí
du rar</w>
din ossau
di a-a-
dia-a- dia</w>
determin ado</w>
determin ada</w>
desperdí cio</w>
desig ner</w>
desenvol veu</w>
desej os</w>
desafi ar</w>
defici ência</w>
de do</w>
cumpri r</w>
cultu rais</w>
cri adores</w>
cou ro</w>
correc ta</w>
corre io</w>
conqu ist
conheci mentos</w>
conh ecia</w>
condut ores</w>
compreend emos</w>
combo io</w>
comb inar</w>
class ific
ci oso</w>
ci almente</w>
chimpanz és</w>
cap tar</w>
can al</w>
cami ñ
c alidade</w>
bás icas</w>
bol so</w>
bol sa</w>
b ei
avi ões</w>
au st
at l
ast rónomos</w>
assu mir</w>
aqu el</w>
aprend eram</w>
ani el</w>
anh at
anc est
anatom ia</w>
an o
am inar</w>
al vos</w>
al ia</w>
adqui ri
adequ ado</w>
acredit ava</w>
acredi tem</w>
acab ámos</w>
ac c
abb age</w>
ab amos</w>
a pu
Stre et</w>
S ub
S pe
S ing
Rec entemente</w>
R ússia</w>
Pod íamos</w>
Pens amos</w>
Pal est
ON U</w>
N aquela</w>
N an
M elh
M anhat
L A</w>
J en
Isl ão</w>
E D
Cong resso</w>
C am
Br uno</w>
B abbage</w>
200 1</w>
0 ,
ún icas</w>
óti ma</w>
í na</w>
é cia</w>
é c
ç o-
á guas</w>
xo go</w>
vo u
viz inho</w>
visu aliz
vi ven</w>
ver b
usi ón</w>
us ões</w>
us á-lo</w>
tó pico</w>
técn ico</w>
té nis</w>
trou x
trib unal</w>
trat amos</w>
trans pl
trabal hamos</w>
tió pia</w>
tiz ar</w>
ti mos</w>
tent ou</w>
t elé
t ase</w>
suic ídio</w>
stitu ição</w>
st ro
sol dados</w>
sof t</w>
so ube</w>
signific ativo</w>
se co</w>
sab endo</w>
sab en</w>
sab edes</w>
rá pidos</w>
ru ral</w>
rou pas</w>
rob ótica</w>
ro cha</w>
res istir</w>
re don
quot idi
qu eira</w>
qu ed
pu de</w>
prision eiros</w>
pri mos</w>
preocupa ções</w>
pr ender</w>
por cento</w>
pol in
po vos</w>
po u</w>
pid as</w>
per fil</w>
pat ri
par ou</w>
par as
pa sou</w>
p eito</w>
ou -nos</w>
on o</w>
o f</w>
nor ma</w>
no grafia</w>
mús icos</w>
mé tri
motiv ação</w>
mor re</w>
mex ic
met ais</w>
ment alidade</w>
men inas</w>
mape ar</w>
lou cos</w>
lou ca</w>
local ização</w>
lider ar</w>
lem brem-se</w>
lar g
l é
l ento</w>
l entes</w>
l emb
jam ais</w>
it árias</w>
it ali
ir mãs</w>
inv és</w>
inv asi
inten ção</w>
int ensidade</w>
inov ações</w>
inim igo</w>
inici almente</w>
infra estruturas</w>
inf ant
in veja</w>
in oc
in como
imig ração</w>
im p
igre ja</w>
i bi
hon es</w>
hi po
hav eria</w>
har mon
gé me
gi ro</w>
gan ham</w>
fornec er</w>
for mar
fiz esse</w>
fic arem</w>
fe ed
fam osa</w>
fa g
exp ect
ex amin
et n
estamin ais</w>
est í
est abil
espiri tual</w>
espeta cular</w>
espa ciais</w>
escolh emos</w>
ener gias</w>
en z
em por
elei tor
ecossist emas</w>
ecol ógica</w>
ec u
e pis
divers os</w>
disser am-me</w>
discuss ões</w>
discipl ina</w>
diag rama</w>
di ca</w>
deix ei</w>
de u-me</w>
currí culo</w>
cu esti
cri ei</w>
cri ativa</w>
cre mos</w>
corrig ir</w>
contra t
cont igo</w>
cons cientemente</w>
conf usão</w>
con so
co razón</w>
circu itos</w>
ci ú
chin eses</w>
ch á</w>
car am</w>
capí tulo</w>
cad eias</w>
ca iu</w>
br ut
bor do</w>
bió logos</w>
bil h
bar be
ba sta</w>
axu da</w>
avent ura</w>
aut ênt
ass ass
argu ment
ar me</w>
apar ência</w>
apaixon ada</w>
ant es
am- nas</w>
am í
al avan
al ar</w>
agrí cola</w>
ag o
afast ar</w>
advo gados</w>
adul to</w>
admi tir</w>
acont ecimento</w>
acab amos</w>
ac os</w>
abund ância</w>
abran dar</w>
V is
V el
Us ando</w>
Tur ing</w>
T ec
S tor
Po den</w>
Pass ei</w>
Out ros</w>
O x
Nenh uma</w>
Mar y</w>
Mar k</w>
Manhat tan</w>
M as
M ad
Lembr am-se</w>
G ust
F ix
Est avam</w>
E tiópia</w>
D á
D entro</w>
Cre io</w>
Cons elho</w>
Ci ência</w>
Cer ca</w>
B rit
Aqu ela</w>
A índa</w>
3 6</w>
óx ico</w>
ór bita</w>
índro me</w>
í xeno</w>
y s</w>
xo gar</w>
visu alizar</w>
verti cal</w>
ver án</w>
velh as</w>
vari os</w>
v inha</w>
us aram</w>
un id
un da</w>
trá fico</w>
tru ques</w>
tradi ções</w>
tra dução</w>
tor i
ti rada</w>
terr estres</w>
te des</w>
sub mar
su ra</w>
sofr em</w>
sion almente</w>
sint o-me</w>
sinc ron
senh ores</w>
selv agem</w>
saib am</w>
sa em</w>
s aco</w>
rá -lo</w>
ri tos</w>
ri ba</w>
respi ração</w>
resp eit
resist entes</w>
renov áveis</w>
rel ato</w>
regi ões</w>
refl ec
recu s
recom end
receb emos</w>
re agir</w>
rar -se</w>
ra ízes</w>
ra vam</w>
pó r
public ar</w>
psi col
pró stata</w>
propor cionar</w>
profes or</w>
prob as</w>
pro mover</w>
pon ho</w>
pil oto</w>
per der
partilh ado</w>
para í
palavra- passe</w>
pag am</w>
pa ga</w>
p em</w>
orç amento</w>
orient ação</w>
or icamente</w>
oper ar</w>
op at
olog ista</w>
ol ógicos</w>
obx ectivo</w>
nat al</w>
nan o
n ese</w>
má gico</w>
muçul man
movi ment
mo v
mi da</w>
ment ira</w>
mensa xes</w>
mell orar</w>
melh oria</w>
mb o</w>
maca cos</w>
ma ta</w>
ma cho</w>
lingu as</w>
jor nada</w>
jo g
invent ou</w>
inter na</w>
inter face</w>
int r
instal ação</w>
insp irar</w>
indi car</w>
indi cadores</w>
in e
in ch
i ña</w>
hou ver</w>
hack ers</w>
h amb
g ro
fo co</w>
flor estação</w>
flex ível</w>
fil los</w>
feed back</w>
farma c
farmac êu
fabri cantes</w>
f utebol</w>
f ur
extraordin árias</w>
evid ências</w>
estraté gias</w>
esti vemos</w>
est en
est ariam</w>
est ado
estado unid
escri tórios</w>
escri tor</w>
escap ar</w>
er ias</w>
equ ação</w>
entusiasma do</w>
entusias mo</w>
ent ram</w>
enri qu
empreende dores</w>
eletr ónica</w>
ej o</w>
ec as</w>
e de</w>
dupl a</w>
do bro</w>
diz -nos</w>
dist in
di ñeiro</w>
di ficar</w>
desco br
desc end
der re
dem e</w>
deix aram</w>
curi osa</w>
cul pa</w>
cos mos</w>
cont r
cont ent
conserv ação</w>
confor to</w>
conex ões</w>
con xunto</w>
con gel
con fun
comput ação</w>
comer ciais</w>
com posto</w>
co sa</w>
co re
clic ar</w>
ci osos</w>
ca i</w>
c m</w>
c ante</w>
bo s
bigo de</w>
ban qu
bal ão</w>
avan ço</w>
av am-se</w>
ativ ista</w>
ati tude</w>
as cen
ari ana</w>
ari al</w>
ar tes</w>
apren de</w>
apo st
ap a</w>
an i</w>
am iz
acess íveis</w>
acei te</w>
abri u</w>
a -lhe</w>
Willi am</w>
Us amos</w>
To m
Te ño</w>
T es
T em
Su écia</w>
Scot t</w>
S ha
S et
S and
R i
P l
P ela</w>
P eg
O c
N ec
Mu ita</w>
M on
M is
M er
K ar
Jo el</w>
J usti
J ul
J ef
G lob
F az</w>
Est ás</w>
Du as</w>
D esta</w>
Cri ámos</w>
Cent ro</w>
Camb ridge</w>
Ban co</w>
Ap ós</w>
200 4</w>
2 6</w>
1 .
ú e</w>
ó metro</w>
í ssemos</w>
ç ada</w>
xen ial</w>
x ig
vi vir</w>
verdad eiras</w>
vas to</w>
v én</w>
u sei</w>
u l</w>
transpar ente</w>
transfor má
trabalh ado</w>
tra s
ti tude</w>
tel esco
t ento</w>
t ela</w>
t ando</w>
sust entar</w>
su bl
sobreviv entes</w>
so uber
so ber
sin ap
sex t
sent ir-se</w>
sem ell
se tor</w>
saí do</w>
s ot
repar ação</w>
rel atório</w>
rej eit
regu lar
reg ime</w>
re vis
re tina</w>
re dução</w>
rar a</w>
quar tos</w>
publ i
pu zz
pu ntos</w>
proj ectos</w>
program ação</w>
prog redi
procur amos</w>
process amento</w>
princi pio</w>
preocu par
pregunt as</w>
pot ável</w>
possu em</w>
possi velmente</w>
posi ción</w>
polu ição</w>
plan eamento</w>
perten ce</w>
pergunt ei-lhe</w>
perceber am</w>
per sist
per i
pel ícula</w>
pareci am</w>
parec eu</w>
para dig
pa go</w>
pa ciência</w>
p ut
out u
om bro</w>
nas cimento</w>
nad ar</w>
n aqueles</w>
mu ro</w>
mosqu it
mo bilidade</w>
mi de</w>
man dar</w>
lu cros</w>
lou cura</w>
lim po</w>
lig am</w>
leg i
lar ga</w>
l este</w>
k i
julg amento</w>
ju deus</w>
invest imentos</w>
intro duzir</w>
inter venção</w>
inici ativa</w>
ing res
indi ca</w>
in qué
in cre
impression ante</w>
id osas</w>
i fica</w>
h abilidades</w>
gra ça</w>
gra vit
gra tidão</w>
gi do</w>
g ram
g h</w>
g est
fá ceis</w>
fun er
fu g
fran camente</w>
forma to</w>
forma do</w>
for ne
fon o</w>
fiz er</w>
fin ais</w>
fic ámos</w>
fal sa</w>
fal ava</w>
fac es</w>
fa ses</w>
f ú
f ará</w>
excep to</w>
ex tro
euro pe
esqu ecer</w>
esper am</w>
espe tá
esp an
escondi das</w>
es pre
es pes
er radi
entend em</w>
ent rei</w>
engra çado</w>
em bl
el ândia</w>
el eitores</w>
dúz ia</w>
domin ar</w>
digo -vos</w>
di ária</w>
di vul
di ta</w>
di riam</w>
detal he</w>
desenvol veram</w>
des porto</w>
depend endo</w>
demonst ração</w>
dem ora</w>
degra d
de vol
cír culos</w>
cámar a</w>
críti cos</w>
corre mos</w>
conven cional</w>
continu amos</w>
cont ido</w>
consegu iam</w>
com é
com parar</w>
col on
co incid
cli ente</w>
clar eza</w>
ciú me</w>
cirurgi ões</w>
circu ito</w>
cilind ro</w>
cid entais</w>
cho col
ch ei
cel ular</w>
ce gueira</w>
cad ra</w>
cab os</w>
ca ver
ca pa</w>
c ú
brinc adeira</w>
bal eias</w>
baix ar</w>
b is
b eira</w>
aç ú
auto mática</w>
auto carros</w>
ar ru
ar ra</w>
ar anhas</w>
apo n
ant eci
am igas</w>
ale atori
ag ar</w>
adul ta</w>
acont ecia</w>
ac tivo</w>
aber tas</w>
ab on
ab elha</w>
a soci
a conselh
S ch
S E
Par k</w>
P ete</w>
Nor u
N eg
Mo nt
Li ber
Leon ardo</w>
F er
Es tive</w>
Ent re</w>
Em ma</w>
E co
De vem</w>
De b
B us
B ur
A ju
7 00</w>
20 14</w>
2 9</w>
â metro</w>
x orn
volu ção</w>
vi deo</w>
ven i
va por</w>
v ê-los</w>
ur so</w>
univers os</w>
uni forme</w>
tú nel</w>
tí pica</w>
técn icos</w>
tropic ais</w>
trans forma</w>
tra jet
tij olos</w>
ti t
ter es</w>
tent ámos</w>
t we
t atu
surpreend entemente</w>
surgi ram</w>
su porte</w>
som bras</w>
so br
ser i
ser emos</w>
sequ ências</w>
separ ação</w>
sent ir
segu em</w>
secund ária</w>
sal ário</w>
s áb
roman ce</w>
res ili
repar em</w>
religi osas</w>
reg resso</w>
recé m-
receb eu</w>
re plic
re matar</w>
re m
re inventar</w>
re fri
rar o</w>
ra de</w>
ra ción</w>
quer ido</w>
que brar</w>
qu entes</w>
public ado</w>
prót eses</w>
proj etar</w>
process ar</w>
proce dimento</w>
pro pio</w>
pro pa
poid an</w>
pla ca</w>
percep ción</w>
perceb eu</w>
per su
per d
pequen o-
pequeno- almoço</w>
pen et
pe i</w>
pat ro
pat entes</w>
par ei</w>
p ing
p es</w>
outu bro</w>
otec nologia</w>
os íxeno</w>
origin ais</w>
or de</w>
olh ei</w>
oca si
oc ra
observ ações</w>
not i
neuro xénese</w>
nas cer</w>
mús culos</w>
múltipl as</w>
mó veis</w>
multi dão</w>
mor tal</w>
mor rido</w>
mo ver-se</w>
mo vemento</w>
mo dos</w>
met a</w>
me l</w>
maravilh osas</w>
maravi lha</w>
manipul ar</w>
man dar
m uni
m ito</w>
m icos</w>
m icas</w>
m i</w>
m estres</w>
lá gri
lon xe</w>
lo w</w>
invest imos</w>
in acredit
impul so</w>
il ar</w>
i rani
hormon a</w>
horizo nte</w>
hi pot
her o
h emis
h ada</w>
gig antes
gen éticas</w>
gas es</w>
g icos</w>
g h
g atos</w>
fárma co</w>
fu mar</w>
fra ca</w>
fo sso</w>
fix eron</w>
fix en</w>
fec hado</w>
fantásti cos</w>
fal ha</w>
f olha</w>
f ar</w>
expl ica</w>
exist en</w>
exer cí
exercí cios</w>
exc esso</w>
est ru
est im
esqu ina</w>
espect ro</w>
espal har</w>
escri tores</w>
esca v
es que
entre vistas</w>
ensa ios</w>
ener gé
ener g
encont ros</w>
en ção</w>
en quad
emocion ante</w>
emocion almente</w>
emocion ais</w>
em pol
em entos</w>
elétri cos</w>
dú vidas</w>
docu mento</w>
diz em-nos</w>
diver tida</w>
distingu ir</w>
dist antes</w>
dispo ni
dinosau ros</w>
di arre
dest ro
dest in
desesper adamente</w>
descri ção</w>
des espero</w>
des es</w>
dem orar</w>
del ic
defin ido</w>
d s</w>
d ensidade</w>
d ens
d alas</w>
có pia</w>
cri ativos</w>
coñ ecer</w>
cor tes</w>
contra di
continu ou</w>
continu ava</w>
continu armos</w>
conju ntos</w>
confi r
condi cións</w>
concor d
con secu
comé dia</w>
comer ci
com partir</w>
colo cou</w>
cir cular</w>
ceg a</w>
categ oria</w>
cat á
candi datos</w>
cami ões</w>
ca tiv
ca ción</w>
c en</w>
c eiro</w>
brit ânico</w>
bl emente</w>
bio diversidade</w>
b um</w>
açú car</w>
avanç ada</w>
av iso</w>
autó no
automó veis</w>
aument am</w>
ati on</w>
at ts</w>
ass assin
arti n</w>
ar co</w>
ar an</w>
ar -
apren dido</w>
ap el
ambi entais</w>
am -lhes</w>
ali b
al turas</w>
ag ente</w>
acu s
actu ais</w>
ac ep
abandon ar</w>
a- os</w>
a são</w>
W h
Vi vemos</w>
V ou
U .</w>
T rans
Set embro</w>
S en</w>
S atur
S P
R eg
R M</w>
Par kinson</w>
P ac
Noru ega</w>
Ni ke</w>
M ent
M el
M artin</w>
Le v
L á</w>
L atina</w>
K e
I ni
I N
H ubble</w>
G G</w>
Ex pl
Es qu
De par
Cent er</w>
C res
C r
Bro ok
Ba sta</w>
9 5</w>
4 0
úr gu
óni as</w>
ó tico</w>
ó culos</w>
í rem</w>
ã o
x i
x en</w>
x ar
volt aram</w>
vo s-
vi n</w>
vi a
ver mes</w>
vende dor</w>
ve xo</w>
vali oso</w>
v ente</w>
un ciar</w>
tí pico</w>
tur ma</w>
tri vi
transport ar</w>
transfer ência</w>
tran sações</w>
ti rei</w>
ti g
terror ista</w>
ter ía</w>
t ese</w>
son ância</w>
solu ción</w>
sex an</w>
se t
se pul
san ita</w>
san eamento</w>
sab a</w>
rá n</w>
ro stos</w>
reuni ões</w>
res pira
remot o</w>
refle tir</w>
refei ção</w>
radi cais</w>
quím icas</w>
puzz le</w>
pul so</w>
psiqui átri
psiqui at
pris ões</w>
pri mor
pre ven
pre conceitos</w>
pr ud
poup ança</w>
pontu ação</w>
poder es</w>
po eta</w>
pil h
permit e-nos</w>
per dida</w>
per di</w>
per das</w>
peg amos</w>
pedi u</w>
pat ente</w>
pa to</w>
p adas</w>
ouvi u</w>
orig ens</w>
org ânica</w>
opat ch</w>
obx ectos</w>
o min
navi o</w>
má s
moder nas</w>
medi cação</w>
mb ia</w>
marabillo so</w>
ma teria</w>
lon xe
lob os</w>
lo n</w>
lin g</w>
lim iar</w>
lar gu
lanç ou</w>
l embro</w>
l eit
l adas</w>
jar din
j ec
intu ição</w>
inter rup
ingl esa</w>
influ enciar</w>
inclu ir</w>
in ária</w>
in d
impl ica</w>
im o-nos</w>
ho mes</w>
her ói</w>
hamb úrgu
gen omas</w>
garra fa</w>
g rit
fo car
fiz erem</w>
fil mar</w>
figu ras</w>
fi que</w>
fer as</w>
fec har</w>
faz em-no</w>
favor ito</w>
f ô
f rá
extraordin ários</w>
exter na</w>
exist ente</w>
excl usi
escri tos</w>
es sor</w>
es s</w>
epid em
epidem ias</w>
envellec emento</w>
engenh eiro</w>
energ ética</w>
en rol
emer gentes</w>
elétri ca</w>
elei ção</w>
efe tivamente</w>
eci das</w>
ec o</w>
e z
dupl o</w>
don o</w>
dolor oso</w>
do u-me</w>
dipl oma
dig am</w>
diferen zas</w>
di âmetro</w>
di co</w>
dev agar</w>
desa parece</w>
del ici
d adas</w>
curi oso</w>
cu ali
cri ativas</w>
coz inh
cora j
cooper ação</w>
conven cido</w>
conteú dos</w>
cont empor
conserv adores</w>
conhec e</w>
compri mido</w>
com et
colabor ar</w>
cidad ão</w>
ci vis</w>
ci ta</w>
ceg as</w>
car to
can cer
cambi os</w>
ca ç
bili ão</w>
bicicl etas</w>
bac teri
av os</w>
av entu
at ores</w>
at er</w>
as s</w>
as pira
anún cio</w>
anál ises</w>
altru í
ai ro</w>
agrí colas</w>
afec ta</w>
ador ava</w>
aceit ável</w>
aced er</w>
ac ções</w>
a que</w>
a pelo</w>
a a
X VI
V ida</w>
Son s</w>
S mit
P i
Nig éria</w>
Nat al</w>
Nan opatch</w>
Mic ro
J es
I S</w>
Glob al</w>
Fí sica</w>
Fl or
Eri c</w>
En vi
ED I</w>
Dire itos</w>
D é
B la
Antár tida</w>
Acab ei</w>
A v
A le
A l</w>
200 6</w>
2 5
1 20</w>
ó ss
í r</w>
í lio</w>
ê ssemos</w>
á mol
àqu ela</w>
É bola</w>
z o
y a</w>
vo sa</w>
vi viam</w>
vers ões</w>
vermelh as</w>
ver sa</w>
ver me</w>
ver ia</w>
vari áveis</w>
va ca</w>
v ál
v ic
v atura</w>
us armos</w>
u me</w>
u -o</w>
tu bo</w>
tri go</w>
trans cri
tran quil
tra uma</w>
teñ an</w>
terr or</w>
telh ado</w>
te orias</w>
t ação</w>
t amos</w>
super ar</w>
sor prend
solu to</w>
sof re</w>
signi ficar</w>
sext a-feira</w>
ser ie</w>
sanguíne os</w>
sab ermos</w>
rex ión</w>
retra tos</w>
responsabil idades</w>
resist ente</w>
re utiliz
re quis
re pór
re mover</w>
re col
ra -se</w>
quer idos</w>
quer en</w>
quart ei
quad rados</w>
pól en</w>
psi cologia</w>
produt ores</w>
proc rast
press ões</w>
preocup ante</w>
prefer ida</w>
precis as</w>
pre visões</w>
posi tivas</w>
pl acas</w>
pi da</w>
perman ecer</w>
perig osos</w>
perig osa</w>
perfei ço
pen ici
penici l
penicil ina</w>
peg armos</w>
pe t
partilh am</w>
paraí so</w>
par am</w>
par ada</w>
pant al
pa usa</w>
pa p
p ânico</w>
p in
ol ógica</w>
obcec ado</w>
o ficiais</w>
not ici
no vidade</w>
no s-
neg ativo</w>
n ar
mó vel</w>
mu tu
mu s
mu r
monta ña</w>
mo ve</w>
mo -lo</w>
mis s
mis er
min i
milag re</w>
mi ra</w>
mar car</w>
man uais</w>
m ama</w>
lí m
lágri mas</w>
liter acia</w>
libert ação</w>
